<unk>	0
<s>	0
</s>	0
s	-3.18943
▁the	-3.29547
,	-3.45311
.	-3.63329
▁a	-3.91945
▁to	-4.01924
▁of	-4.06535
’	-4.12312
▁in	-4.21939
▁and	-4.28351
▁	-4.51785
▁on	-4.90286
▁that	-4.95413
."	-4.96546
▁for	-5.00385
ing	-5.05631
ed	-5.12829
t	-5.18513
▁is	-5.22098
,"	-5.30449
▁“	-5.37577
▁was	-5.44424
▁with	-5.44664
▁it	-5.48856
d	-5.51497
▁at	-5.61774
▁he	-5.6198
▁his	-5.63974
▁trump	-5.66632
:	-5.67612
—	-5.73148
▁from	-5.73969
▁as	-5.74309
▁by	-5.76654
▁an	-5.81342
▁”	-5.8193
▁has	-5.83696
▁said	-5.90051
▁be	-5.92302
▁’	-5.93501
”	-5.9873
er	-6.00549
ly	-6.04628
a	-6.07377
▁have	-6.07535
▁are	-6.09094
y	-6.09286
▁but	-6.15365
▁who	-6.15722
,”	-6.19955
▁(	-6.20913
n	-6.21883
▁not	-6.21951
▁this	-6.22408
▁i	-6.24372
▁new	-6.24953
e	-6.26193
i	-6.29004
▁about	-6.30292
▁after	-6.3226
▁her	-6.35632
▁president	-6.35846
re	-6.37109
▁s	-6.37238
)	-6.40037
▁will	-6.43024
▁they	-6.4535
▁their	-6.45808
m	-6.4751
▁one	-6.48284
▁"	-6.48693
▁had	-6.54349
▁donald	-6.5449
▁been	-6.54842
▁you	-6.55057
in	-6.56213
the	-6.57996
▁she	-6.59485
▁out	-6.59599
▁were	-6.60145
","	-6.61175
al	-6.6196
▁more	-6.62261
▁over	-6.62337
▁or	-6.64451
es	-6.65405
▁Trump	-6.67489
▁up	-6.67913
▁we	-6.70462
▁its	-6.70749
▁people	-6.71551
▁when	-6.75804
▁which	-6.76598
r	-6.76656
▁would	-6.80916
▁u	-6.81021
▁than	-6.85087
▁first	-6.85218
o	-6.85401
▁into	-6.87128
it	-6.87493
▁clinton	-6.875
-	-6.87709
▁all	-6.89878
▁state	-6.90687
▁what	-6.90961
▁so	-6.91022
▁two	-6.94662
p	-6.98543
▁just	-7.01131
▁last	-7.01707
▁no	-7.02693
▁[	-7.03015
▁can	-7.04101
le	-7.05086
on	-7.07004
▁news	-7.07855
▁year	-7.08228
▁A	-7.08619
▁time	-7.0988
▁house	-7.10828
th	-7.10954
▁years	-7.1115
ve	-7.11346
▁some	-7.11515
c	-7.1357
or	-7.13611
▁there	-7.13612
▁week	-7.13865
▁like	-7.13973
▁campaign	-7.14628
▁The	-7.16445
an	-7.17863
▁re	-7.18029
▁do	-7.19703
▁police	-7.20408
▁presidential	-7.20559
▁him	-7.20958
▁now	-7.21226
▁us	-7.21676
▁if	-7.21848
ers	-7.21914
?	-7.2192
▁republican	-7.22189
▁most	-7.23702
▁according	-7.24155
▁could	-7.25667
▁other	-7.27096
▁de	-7.27577
▁told	-7.28249
g	-7.30201
▁un	-7.33241
▁before	-7.33842
en	-7.34185
▁obama	-7.34276
▁against	-7.34329
▁world	-7.35264
f	-7.36948
▁national	-7.37331
▁during	-7.37408
▁friday	-7.37627
▁‘	-7.37677
▁tuesday	-7.37693
▁white	-7.37948
▁day	-7.38084
▁how	-7.39282
▁back	-7.39786
b	-7.40303
ic	-7.40902
▁former	-7.41197
▁thursday	-7.41752
ion	-7.41864
▁also	-7.41941
▁S	-7.42181
cnn	-7.42311
▁man	-7.44044
S	-7.44912
▁election	-7.45141
▁may	-7.45688
▁hillary	-7.46983
▁monday	-7.47207
▁city	-7.48083
▁states	-7.48787
l	-7.48856
ll	-7.49214
▁american	-7.49265
▁down	-7.49617
▁them	-7.49927
▁says	-7.49966
ar	-7.5058
▁while	-7.50817
▁our	-7.50829
▁wednesday	-7.51247
▁my	-7.53507
▁court	-7.53524
▁government	-7.54438
▁united	-7.54508
▁country	-7.5453
▁many	-7.55243
el	-7.55441
▁york	-7.55534
▁even	-7.56282
▁me	-7.56491
u	-7.56702
▁made	-7.57261
man	-7.57484
ist	-7.57682
▁where	-7.58
▁night	-7.58707
▁percent	-7.59652
▁get	-7.60649
h	-7.60724
w	-7.61257
▁show	-7.61346
il	-7.61352
▁m	-7.61439
▁million	-7.62556
▁off	-7.62974
▁F	-7.63238
▁since	-7.64862
la	-7.64893
▁because	-7.6494
▁c	-7.65835
▁To	-7.65918
ro	-7.66709
▁under	-7.66768
ive	-7.6689
▁In	-7.6801
▁p	-7.68143
▁say	-7.68394
▁being	-7.68652
▁media	-7.69191
▁party	-7.69566
ation	-7.6969
we	-7.69938
▁only	-7.7003
ur	-7.70376
ch	-7.71446
est	-7.71451
ment	-7.71522
▁sunday	-7.71855
▁three	-7.72393
▁make	-7.72442
▁federal	-7.72635
k	-7.73191
▁here	-7.73629
▁way	-7.74415
▁company	-7.7465
▁your	-7.74834
ul	-7.75091
ent	-7.75503
▁group	-7.75827
▁home	-7.75829
id	-7.76841
▁women	-7.7746
▁bill	-7.77683
ity	-7.78565
▁political	-7.78906
et	-7.79387
ri	-7.7945
▁post	-7.79453
ta	-7.79619
▁administration	-7.79924
as	-7.80015
▁between	-7.81264
▁saturday	-7.82079
de	-7.82209
is	-7.82292
▁st	-7.82569
▁those	-7.82796
ck	-7.82818
ry	-7.83297
▁democratic	-7.83369
at	-7.83812
▁through	-7.83859
ter	-7.83938
▁don	-7.84046
▁public	-7.84076
▁officials	-7.8419
▁found	-7.84337
▁war	-7.8482
ce	-7.85616
▁law	-7.85802
▁washington	-7.86295
ma	-7.86748
▁around	-7.87007
▁should	-7.87098
▁go	-7.87098
▁know	-7.87708
li	-7.87959
▁want	-7.88124
able	-7.88135
▁k	-7.88193
▁take	-7.88275
▁did	-7.8849
▁office	-7.8861
te	-7.88634
▁much	-7.88859
▁called	-7.88926
A	-7.88952
▁any	-7.89064
▁security	-7.8943
ate	-7.8965
▁attack	-7.89801
▁department	-7.9018
ke	-7.90346
▁000	-7.90436
▁think	-7.90618
ra	-7.91397
ne	-7.91669
▁part	-7.92032
me	-7.92655
▁going	-7.9285
▁america	-7.92925
▁report	-7.93477
▁f	-7.93852
ir	-7.94303
se	-7.94426
x	-7.94497
▁nominee	-7.94525
▁days	-7.94917
▁2016	-7.95324
un	-7.95632
▁Re	-7.96379
▁health	-7.96987
▁still	-7.97
▁la	-7.97227
▁deal	-7.9732
’,"	-7.98338
no	-7.98611
ol	-7.98656
▁end	-7.98681
▁team	-7.98683
▁right	-7.99385
ant	-7.99453
▁work	-7.99546
▁reported	-7.99882
▁d	-8.00571
co	-8.00986
▁)	-8.01215
▁black	-8.0123
▁con	-8.01266
▁school	-8.01302
na	-8.01604
▁press	-8.01621
▁next	-8.0175
am	-8.01888
▁car	-8.0217
▁month	-8.02505
▁life	-8.02812
ia	-8.0317
▁including	-8.03274
ian	-8.03301
▁both	-8.03922
to	-8.03922
he	-8.05135
▁another	-8.05361
▁long	-8.05765
age	-8.05783
▁good	-8.06034
lo	-8.06709
▁north	-8.06905
son	-8.06943
▁T	-8.07067
▁U	-8.0746
▁vote	-8.0752
z	-8.07545
▁g	-8.07572
ton	-8.0808
▁own	-8.08276
▁candidate	-8.08276
0	-8.08483
▁support	-8.09599
▁killed	-8.09644
▁well	-8.09693
▁left	-8.09725
.”	-8.10014
▁see	-8.10431
▁very	-8.10475
▁C	-8.11236
C	-8.1127
▁Clinton	-8.11621
ting	-8.11837
▁Is	-8.11863
▁dis	-8.12138
▁need	-8.12696
▁family	-8.12717
▁big	-8.12857
▁morning	-8.13024
ge	-8.13109
▁interview	-8.13673
▁P	-8.1378
ling	-8.13989
▁statement	-8.14187
▁took	-8.14369
▁death	-8.14483
▁top	-8.14694
▁announced	-8.1513
im	-8.152
▁debate	-8.15501
▁executive	-8.15648
▁set	-8.15683
▁secretary	-8.15806
▁ago	-8.15924
▁great	-8.16154
▁times	-8.16446
▁university	-8.17043
▁video	-8.17147
▁policy	-8.17306
▁men	-8.17312
▁past	-8.17319
▁w	-8.17528
▁asked	-8.17599
▁least	-8.17702
v	-8.17721
▁four	-8.17808
▁woman	-8.18065
▁10	-8.18367
▁use	-8.18463
▁twitter	-8.18491
▁these	-8.18557
1	-8.18906
▁then	-8.19335
ty	-8.19478
▁won	-8.19518
▁Be	-8.1986
▁few	-8.19862
ated	-8.1995
▁far	-8.20991
ous	-8.21
▁released	-8.21239
▁business	-8.21299
ie	-8.21498
▁senate	-8.21912
▁help	-8.22108
ci	-8.22467
▁second	-8.2259
▁recent	-8.22915
5	-8.23013
▁chief	-8.23128
▁e	-8.23146
▁billion	-8.23478
mo	-8.23617
▁months	-8.23739
▁case	-8.23907
us	-8.23986
be	-8.24212
▁o	-8.24251
▁director	-8.24349
▁came	-8.24425
▁come	-8.24556
ted	-8.25675
▁G	-8.25806
▁care	-8.25862
▁19	-8.26578
ies	-8.26928
▁south	-8.26954
▁such	-8.26957
▁might	-8.26999
um	-8.27172
▁high	-8.27784
▁general	-8.27787
ism	-8.2781
▁every	-8.28178
2	-8.28406
▁order	-8.2854
▁major	-8.28736
▁john	-8.2876
do	-8.28812
▁never	-8.2884
▁committee	-8.28841
▁plan	-8.29105
▁whether	-8.29222
ad	-8.29369
I	-8.30191
▁8	-8.30196
▁place	-8.30285
▁E	-8.30384
▁across	-8.30384
po	-8.30493
▁win	-8.30511
▁ro	-8.30919
▁investigation	-8.3149
▁early	-8.31639
▁le	-8.31663
▁put	-8.3176
▁russian	-8.31894
ish	-8.32213
ance	-8.3226
▁I	-8.32397
▁7	-8.32496
▁co	-8.32538
▁5	-8.32707
ine	-8.33065
▁run	-8.33143
M	-8.33383
ti	-8.33416
▁got	-8.33542
▁reports	-8.33882
▁per	-8.34013
▁among	-8.34086
▁best	-8.34113
▁used	-8.34349
▁become	-8.34376
▁M	-8.34631
▁decision	-8.34635
▁change	-8.34831
▁why	-8.35172
▁De	-8.35176
▁host	-8.35196
▁voters	-8.35475
▁republicans	-8.35601
▁air	-8.35812
▁power	-8.35987
▁star	-8.36025
▁cnn	-8.3605
▁center	-8.36257
7	-8.36389
ha	-8.36399
▁justice	-8.36428
▁judge	-8.366
▁speech	-8.36711
▁race	-8.36813
▁mr	-8.36858
▁history	-8.36918
▁story	-8.37064
▁sanders	-8.37163
P	-8.37305
▁sen	-8.37327
▁several	-8.37352
▁russia	-8.37516
ary	-8.37626
per	-8.38138
mp	-8.38198
up	-8.38241
▁act	-8.38253
▁known	-8.38408
▁j	-8.38452
▁five	-8.38776
▁military	-8.38902
▁D	-8.38946
▁20	-8.39023
▁shot	-8.39505
▁6	-8.39509
▁cruz	-8.39553
▁look	-8.39609
3	-8.39831
▁Donald	-8.39933
▁3	-8.39946
▁ma	-8.39961
▁bar	-8.39998
▁Of	-8.40183
▁di	-8.40234
▁same	-8.40481
▁leader	-8.40838
▁9	-8.40848
▁lot	-8.40928
▁call	-8.41
if	-8.41016
!	-8.41182
▁gop	-8.41228
▁today	-8.41234
B	-8.41398
▁nearly	-8.41496
▁americans	-8.41579
▁head	-8.41709
▁away	-8.41865
8	-8.42029
▁social	-8.42069
▁saying	-8.42174
▁system	-8.42413
ver	-8.42417
▁meeting	-8.42476
▁children	-8.42661
▁move	-8.4269
▁members	-8.42812
mi	-8.42904
one	-8.43316
and	-8.43401
▁real	-8.43443
▁question	-8.4346
▁latest	-8.43699
▁little	-8.43775
▁breitbart	-8.44076
▁wall	-8.44253
▁foreign	-8.44266
▁nation	-8.44402
▁market	-8.44553
go	-8.44711
ness	-8.44844
▁com	-8.44894
▁too	-8.45215
▁didn	-8.45325
▁live	-8.45464
▁hit	-8.45566
out	-8.45636
▁number	-8.46051
▁ex	-8.46099
tion	-8.46153
▁fire	-8.46181
▁without	-8.46213
pe	-8.46294
ating	-8.46483
▁season	-8.46573
6	-8.46743
less	-8.4678
▁young	-8.47209
▁street	-8.47234
▁march	-8.47254
▁yet	-8.47426
sh	-8.4746
ca	-8.47699
tic	-8.48001
vi	-8.48005
▁ever	-8.48218
▁official	-8.48259
▁lead	-8.48309
▁fox	-8.48487
▁again	-8.48645
▁democrats	-8.49092
di	-8.49153
▁Obama	-8.49395
ard	-8.49463
ap	-8.49716
▁For	-8.49842
▁died	-8.4986
T	-8.49932
ho	-8.50026
▁really	-8.50093
▁b	-8.50243
▁New	-8.50279
ful	-8.50324
rs	-8.50447
ba	-8.50451
▁late	-8.50726
▁open	-8.5073
▁trade	-8.50879
▁name	-8.51084
▁2	-8.51147
?,"	-8.51252
▁immigration	-8.51296
mon	-8.51362
▁already	-8.51613
▁email	-8.51965
▁game	-8.51983
▁J	-8.52013
▁minister	-8.52091
ak	-8.52169
▁congress	-8.52253
▁gun	-8.52355
▁fbi	-8.5238
▁international	-8.52518
▁making	-8.52802
▁face	-8.52963
▁things	-8.53003
▁v	-8.53036
▁start	-8.53078
▁something	-8.53216
▁series	-8.53221
▁shooting	-8.53445
▁behind	-8.53456
▁near	-8.53725
▁n	-8.53753
4	-8.53778
▁film	-8.5397
▁point	-8.54061
▁clear	-8.54141
▁later	-8.54151
▁please	-8.54267
our	-8.54278
ut	-8.54433
▁pro	-8.54568
lu	-8.54668
▁V	-8.55102
led	-8.55122
▁california	-8.55207
,"’	-8.55237
▁went	-8.55253
▁po	-8.5545
land	-8.55668
▁water	-8.55744
▁final	-8.5611
▁hours	-8.56384
▁attorney	-8.56439
▁intelligence	-8.56746
ster	-8.56918
▁border	-8.57028
ct	-8.57049
▁texas	-8.57053
▁hard	-8.572
ill	-8.57276
▁pay	-8.57323
▁K	-8.57334
▁1	-8.57393
▁money	-8.57405
▁stop	-8.57543
▁control	-8.57621
▁conservative	-8.5781
▁4	-8.57864
▁ban	-8.5817
▁officer	-8.58442
▁less	-8.58447
▁san	-8.58778
▁local	-8.59174
▁tax	-8.5924
▁facebook	-8.59329
▁conference	-8.59343
▁barack	-8.59359
ence	-8.59525
ny	-8.59566
ner	-8.60076
ell	-8.60232
hi	-8.60303
▁agency	-8.60465
min	-8.6052
▁global	-8.60551
▁likely	-8.60708
▁dead	-8.60714
op	-8.60814
▁following	-8.60848
▁bank	-8.60954
this	-8.60965
washington	-8.6103
▁free	-8.61055
▁seen	-8.61238
▁town	-8.61325
▁keep	-8.61495
▁service	-8.61757
▁human	-8.61957
▁union	-8.62099
▁It	-8.62489
▁earlier	-8.62618
▁play	-8.62661
nd	-8.62708
▁close	-8.62804
▁china	-8.62903
▁mar	-8.63146
ig	-8.63153
▁job	-8.63195
▁six	-8.63558
lin	-8.63799
▁islamic	-8.63804
▁On	-8.64061
▁pre	-8.64172
▁information	-8.64579
▁How	-8.64881
ow	-8.64937
▁ho	-8.65027
▁does	-8.65111
▁love	-8.65225
ot	-8.65672
▁began	-8.65741
▁once	-8.65791
▁west	-8.66001
▁private	-8.66086
▁event	-8.66118
▁li	-8.66258
▁outside	-8.6653
dy	-8.6671
▁book	-8.66721
▁matter	-8.66768
▁college	-8.67039
▁supreme	-8.67039
▁james	-8.67187
▁each	-8.67212
▁himself	-8.67293
▁authorities	-8.67356
▁legal	-8.67369
red	-8.67484
▁economic	-8.67627
▁taking	-8.67897
▁Hillary	-8.67959
E	-8.68124
▁ads	-8.68166
▁convention	-8.68251
▁ba	-8.68497
▁line	-8.68511
▁politics	-8.68694
▁rights	-8.68912
▁thing	-8.68915
ga	-8.69053
▁continue	-8.69061
▁W	-8.69129
ac	-8.69132
▁leaders	-8.69369
▁program	-8.69424
▁trying	-8.69631
▁weekend	-8.69891
▁leave	-8.69986
▁expected	-8.70019
ley	-8.701
▁officers	-8.7012
▁florida	-8.70752
▁na	-8.70777
▁hand	-8.70844
▁attacks	-8.70845
▁list	-8.71057
▁fight	-8.71083
▁11	-8.71301
ally	-8.71358
▁daily	-8.71366
▁weeks	-8.71471
▁comes	-8.71517
▁special	-8.71671
▁students	-8.71822
▁record	-8.71826
con	-8.7192
▁doesn	-8.71927
▁ca	-8.71929
▁county	-8.71961
ph	-8.72112
▁companies	-8.72205
▁primary	-8.72205
▁murder	-8.72694
▁almost	-8.72731
▁R	-8.72818
▁better	-8.72837
▁met	-8.72857
▁bad	-8.72879
▁fact	-8.72939
▁thought	-8.73344
▁ha	-8.73433
ex	-8.73468
▁wrote	-8.73514
ning	-8.73788
ber	-8.73906
▁though	-8.74314
▁park	-8.74473
▁working	-8.74717
▁mark	-8.74727
▁find	-8.74918
▁small	-8.75066
▁european	-8.75158
▁t	-8.75205
▁fall	-8.75254
▁until	-8.75614
▁shows	-8.75629
▁countries	-8.75649
▁poll	-8.75749
ft	-8.75769
▁future	-8.75884
j	-8.75947
ep	-8.75981
▁key	-8.76328
▁building	-8.76701
▁Ma	-8.77167
▁network	-8.77379
▁sex	-8.77834
▁St	-8.77926
▁old	-8.78062
▁paul	-8.78098
les	-8.78138
▁test	-8.78238
F	-8.78806
ni	-8.7887
▁different	-8.7907
▁stories	-8.79071
da	-8.79095
▁running	-8.79098
▁getting	-8.79181
▁receive	-8.79193
▁mother	-8.79228
▁ra	-8.79282
▁side	-8.79288
va	-8.79294
D	-8.79405
▁let	-8.79412
▁issue	-8.79453
▁taken	-8.79483
ized	-8.80019
▁arrested	-8.80047
der	-8.80063
▁person	-8.80224
▁food	-8.80232
ah	-8.80352
▁syria	-8.80452
▁data	-8.80481
▁role	-8.80491
▁B	-8.80631
▁son	-8.80754
▁having	-8.80808
▁capital	-8.81041
▁along	-8.81067
▁sources	-8.81194
▁victory	-8.81361
▁seven	-8.81761
▁plans	-8.81783
way	-8.81881
▁H	-8.81942
▁east	-8.82044
▁protest	-8.82219
▁financial	-8.8222
▁bo	-8.82261
▁talk	-8.82296
▁believe	-8.82346
▁en	-8.82498
▁carolina	-8.82725
▁mo	-8.82898
▁whose	-8.8298
O	-8.83083
bo	-8.83179
▁biggest	-8.83195
▁held	-8.83403
ial	-8.83439
▁And	-8.83512
▁supporters	-8.83557
▁follow	-8.83604
ving	-8.83705
▁am	-8.83716
▁senior	-8.83851
▁enough	-8.83861
▁force	-8.83975
om	-8.84067
▁district	-8.8407
▁room	-8.84393
▁prime	-8.84439
▁assault	-8.84621
▁front	-8.84646
▁nomination	-8.84695
▁lu	-8.84855
ious	-8.84898
den	-8.84998
▁We	-8.85109
▁recently	-8.85357
▁[“	-8.85374
▁bring	-8.85389
line	-8.8544
▁12	-8.85536
▁cl	-8.85689
▁read	-8.85723
▁accused	-8.8581
▁thousands	-8.85836
ite	-8.8587
▁using	-8.8605
▁led	-8.86192
▁pe	-8.86351
9	-8.86357
▁questions	-8.8659
▁drug	-8.86599
iv	-8.86632
▁ryan	-8.86858
▁often	-8.86878
▁battle	-8.86968
▁governor	-8.87029
vo	-8.87088
▁give	-8.87227
▁With	-8.87244
▁al	-8.87254
▁defense	-8.87309
ru	-8.87353
▁father	-8.87545
▁app	-8.87628
▁crowd	-8.87688
▁published	-8.87726
▁ga	-8.87793
em	-8.8792
▁N	-8.87962
▁lives	-8.8803
▁sign	-8.88037
ical	-8.88095
▁senator	-8.88119
ey	-8.88344
▁sha	-8.88424
▁prison	-8.88482
▁travel	-8.8881
▁online	-8.88837
ize	-8.88877
▁despite	-8.89225
▁view	-8.89249
▁lost	-8.89318
▁15	-8.89457
ick	-8.89527
▁full	-8.89594
▁bra	-8.89783
▁process	-8.89798
▁release	-8.90214
▁started	-8.90314
▁sc	-8.90328
▁half	-8.90388
R	-8.90391
▁pick	-8.90457
▁super	-8.90512
G	-8.90529
▁100	-8.90757
▁always	-8.90852
▁wife	-8.91015
▁hold	-8.91317
▁coming	-8.91466
▁staff	-8.9149
▁tv	-8.91594
ever	-8.91893
▁review	-8.91944
ka	-8.92057
▁adviser	-8.92066
▁30	-8.92076
ack	-8.92078
▁threat	-8.92154
▁hospital	-8.92217
▁partners	-8.92262
▁michael	-8.92424
▁firm	-8.92431
gu	-8.92472
▁comey	-8.92697
▁letter	-8.92703
▁address	-8.92719
▁kind	-8.92918
▁va	-8.9292
▁actually	-8.93077
▁phone	-8.93111
▁rally	-8.93411
end	-8.93458
▁ted	-8.9346
▁red	-8.93471
ee	-8.93489
▁boy	-8.9354
▁below	-8.9357
▁sent	-8.93701
▁killing	-8.93786
▁rep	-8.93845
ship	-8.93917
▁student	-8.94028
▁bernie	-8.94118
ron	-8.9415
▁What	-8.94384
▁se	-8.94418
▁short	-8.94533
▁study	-8.9489
▁forces	-8.94952
▁sh	-8.94998
my	-8.95076
▁im	-8.9511
▁turn	-8.95148
L	-8.95216
und	-8.95277
▁important	-8.95305
▁moment	-8.95311
bi	-8.9538
▁dr	-8.95392
▁others	-8.95408
▁response	-8.95422
▁toward	-8.95549
▁course	-8.95627
▁looking	-8.9563
▁problem	-8.9566
▁land	-8.9579
▁turned	-8.95895
▁board	-8.95915
▁vi	-8.95978
▁instead	-8.96065
▁possible	-8.9608
▁popular	-8.96083
▁korea	-8.96136
▁sexual	-8.96308
▁action	-8.9636
▁Le	-8.96372
▁Why	-8.96461
▁secret	-8.96554
▁answer	-8.96578
for	-8.96661
side	-8.96749
▁Ro	-8.96759
ities	-8.96771
▁An	-8.96776
▁community	-8.96914
▁economy	-8.96951
▁feel	-8.97117
ped	-8.97289
▁cut	-8.97428
▁jobs	-8.97534
ub	-8.97573
tra	-8.97625
▁must	-8.97808
ger	-8.97822
▁mexico	-8.9783
tter	-8.97941
▁heart	-8.97954
▁Bo	-8.97983
▁charges	-8.97998
▁project	-8.98209
▁central	-8.98253
▁charged	-8.98402
▁18	-8.98403
▁green	-8.98512
io	-8.98556
com	-8.9857
mb	-8.98628
bb	-8.98701
▁lo	-8.98718
ec	-8.98843
▁writing	-8.98883
▁h	-8.98927
▁claims	-8.98996
▁became	-8.99056
▁isn	-8.99308
pi	-8.99368
▁ka	-8.99635
▁industry	-8.99654
▁age	-8.99686
cy	-8.99749
▁decades	-8.99752
ice	-8.99762
▁david	-8.99871
▁oil	-8.99903
▁space	-8.99908
▁wa	-9.00021
ions	-9.00056
▁$1	-9.00094
▁research	-9.00127
fe	-9.00173
▁ahead	-9.00199
▁january	-9.00212
▁largest	-9.00621
▁los	-9.00656
▁chairman	-9.00716
▁third	-9.00818
▁mu	-9.00835
ham	-9.00936
W	-9.01014
▁syrian	-9.01233
pa	-9.01275
▁ground	-9.01418
▁afternoon	-9.01424
▁updates	-9.01452
▁middle	-9.01686
▁strong	-9.01708
▁obamacare	-9.01927
ging	-9.02142
▁du	-9.02174
▁inside	-9.02479
port	-9.02831
▁O	-9.02931
▁message	-9.03094
▁member	-9.03271
▁personal	-9.03382
old	-9.03441
▁soon	-9.03467
▁reporters	-9.03621
▁climate	-9.03671
▁confirmed	-9.03729
N	-9.0375
▁evidence	-9.0376
▁art	-9.03785
▁field	-9.03885
▁workers	-9.03891
?”	-9.03926
▁incident	-9.04028
ping	-9.04116
▁Are	-9.04273
there	-9.04283
▁november	-9.04296
▁summer	-9.04346
you	-9.0437
▁House	-9.0448
▁civil	-9.0449
ud	-9.04565
?"	-9.04653
▁calling	-9.04655
▁criminal	-9.04656
ward	-9.04664
▁violence	-9.05016
▁el	-9.05135
▁light	-9.05205
ide	-9.053
▁presidency	-9.05378
tor	-9.05387
fa	-9.05394
The	-9.05428
new	-9.0543
▁doing	-9.05458
▁break	-9.05491
▁gov	-9.05573
▁child	-9.05597
os	-9.05613
au	-9.05698
▁enforcement	-9.05747
▁account	-9.05748
▁british	-9.05969
▁body	-9.05992
▁display	-9.06023
▁bl	-9.06117
Trump	-9.06294
▁50	-9.06301
ay	-9.06346
lan	-9.06385
▁april	-9.06473
▁area	-9.06496
▁suspect	-9.06619
▁Ex	-9.06641
▁rival	-9.06662
▁tell	-9.06726
▁given	-9.06759
▁sea	-9.06824
ten	-9.06927
▁issues	-9.06932
king	-9.07199
▁music	-9.07314
▁island	-9.07345
ler	-9.07473
▁large	-9.07528
ez	-9.0757
▁eight	-9.07695
▁La	-9.07744
▁select	-9.07866
pro	-9.07871
▁risk	-9.07952
▁candidates	-9.08044
▁State	-9.0807
▁june	-9.08074
▁daughter	-9.08089
▁friend	-9.08093
▁lawsuit	-9.08137
▁pass	-9.0816
▁comments	-9.08201
ach	-9.08446
▁together	-9.08556
ff	-9.08854
▁GOP	-9.08883
▁US	-9.08998
▁apple	-9.09189
▁buy	-9.0927
gan	-9.09343
▁sp	-9.09358
▁rubio	-9.09404
ists	-9.09721
gg	-9.09758
▁fe	-9.09838
▁evening	-9.1003
▁added	-9.10105
▁price	-9.10117
▁class	-9.10196
ney	-9.10204
rt	-9.10223
▁wants	-9.10308
▁He	-9.10402
men	-9.10434
▁london	-9.10464
▁fa	-9.10499
pl	-9.10567
▁appeared	-9.10669
▁angeles	-9.10923
▁wanted	-9.10972
▁rock	-9.10988
▁Pro	-9.11011
▁Not	-9.11114
▁protect	-9.11327
▁stay	-9.11354
▁crisis	-9.11355
ab	-9.11537
▁effort	-9.11702
▁steps	-9.11787
▁pa	-9.119
▁ta	-9.11952
▁Lo	-9.12025
▁hearing	-9.12233
▁words	-9.12322
▁sponsors	-9.12359
▁access	-9.12419
mar	-9.12554
▁nuclear	-9.12564
▁illegal	-9.12571
when	-9.12595
▁Go	-9.12596
▁flight	-9.12599
▁visit	-9.12647
▁Will	-9.12811
▁muslim	-9.12922
▁posted	-9.12999
▁education	-9.13004
▁however	-9.13033
pp	-9.13033
ain	-9.13034
tu	-9.13036
ier	-9.1306
▁received	-9.13175
▁friends	-9.13194
▁Do	-9.13261
▁stage	-9.13473
ring	-9.13533
▁page	-9.13616
▁done	-9.13678
▁gave	-9.1368
▁Co	-9.13706
▁leading	-9.13726
▁mis	-9.13827
▁No	-9.13874
ors	-9.13927
▁Mo	-9.13936
▁idea	-9.13972
▁within	-9.1398
▁interest	-9.14153
▁happened	-9.14187
▁speaker	-9.14261
▁organization	-9.14311
wa	-9.1445
ag	-9.14539
▁movie	-9.14621
▁result	-9.14666
▁sa	-9.14667
▁wrong	-9.1468
ven	-9.14698
▁potential	-9.14892
ren	-9.15076
ise	-9.15101
▁em	-9.15127
▁ceo	-9.15212
▁hu	-9.15288
all	-9.15454
▁attempt	-9.15468
▁station	-9.15529
▁terrorist	-9.1554
▁Man	-9.15703
▁13	-9.15783
time	-9.15841
by	-9.15987
▁nothing	-9.15993
ki	-9.16064
▁isis	-9.16175
▁saw	-9.16199
▁showed	-9.16372
▁congressional	-9.16494
▁vice	-9.16553
▁iran	-9.16625
▁rise	-9.16661
nk	-9.16713
▁movement	-9.16784
▁sal	-9.16835
▁provide	-9.16854
▁watch	-9.16935
▁wasn	-9.16984
▁spent	-9.17043
"	-9.17084
▁george	-9.17097
▁inc	-9.17305
▁tried	-9.17334
▁r	-9.17652
▁girl	-9.17807
▁bush	-9.17823
▁Ra	-9.17961
▁majority	-9.17966
▁july	-9.17987
▁reason	-9.17993
▁Ba	-9.18068
▁sales	-9.18129
▁step	-9.18143
▁allow	-9.18218
nt	-9.18231
▁sound	-9.18255
ust	-9.18298
gen	-9.18459
▁reportedly	-9.18487
▁based	-9.18598
▁airport	-9.18666
▁chance	-9.18767
▁...	-9.18815
▁current	-9.18815
br	-9.18902
▁launch	-9.19036
▁14	-9.19254
▁church	-9.19469
▁scene	-9.19528
▁europe	-9.19556
▁This	-9.19621
▁groups	-9.19665
▁manager	-9.1972
▁couple	-9.19746
▁25	-9.1976
▁filed	-9.19847
▁fund	-9.19871
▁medical	-9.20048
U	-9.20085
▁failed	-9.20209
▁named	-9.20321
▁crime	-9.20339
▁heard	-9.20391
ough	-9.20407
ng	-9.20571
▁site	-9.20607
▁mike	-9.20783
▁$2	-9.20873
▁stock	-9.20875
her	-9.2093
▁sure	-9.20941
▁repeal	-9.21153
▁annual	-9.21154
ric	-9.21292
▁ad	-9.21321
ug	-9.21476
du	-9.21501
▁share	-9.21585
▁gu	-9.21625
▁editor	-9.2165
ip	-9.2173
▁author	-9.2176
ator	-9.21785
oo	-9.2184
▁budget	-9.21952
▁After	-9.21979
▁finally	-9.21985
▁internet	-9.22115
H	-9.22151
▁mc	-9.22166
▁Ca	-9.22246
▁trip	-9.22394
▁source	-9.22451
ue	-9.22525
▁mayor	-9.22541
▁cause	-9.22583
▁choice	-9.22604
han	-9.22729
▁parents	-9.22808
▁television	-9.22812
▁makes	-9.22816
▁living	-9.22892
▁Un	-9.229
▁single	-9.22913
▁bi	-9.23036
▁cha	-9.23104
▁fired	-9.23204
▁So	-9.23233
▁ju	-9.23399
▁road	-9.2342
▁claim	-9.23466
▁cost	-9.23513
▁brought	-9.23518
▁someone	-9.23537
▁position	-9.23586
▁hall	-9.23622
▁website	-9.23624
▁rules	-9.23632
kin	-9.23791
▁mass	-9.23879
ens	-9.23912
▁radio	-9.23976
▁services	-9.23983
▁comment	-9.24018
▁request	-9.24025
▁Pa	-9.24111
▁career	-9.24118
▁2017	-9.24153
▁Can	-9.24164
▁$3	-9.24191
▁article	-9.24498
▁White	-9.24522
▁Bill	-9.24569
▁growing	-9.24605
▁bomb	-9.24641
fi	-9.24653
▁track	-9.24667
▁claimed	-9.24712
▁America	-9.2475
par	-9.24784
▁meet	-9.24862
▁agreement	-9.2502
▁technology	-9.25103
▁gra	-9.25152
▁minutes	-9.25241
▁fear	-9.25402
nder	-9.25508
▁check	-9.25602
▁seems	-9.25713
▁L	-9.25721
▁calls	-9.25927
▁Over	-9.26132
▁At	-9.26191
▁main	-9.26218
▁understand	-9.26348
q	-9.26372
▁results	-9.26398
lt	-9.26405
▁17	-9.26418
▁britain	-9.26437
▁Ha	-9.26498
▁cast	-9.26682
▁planned	-9.26689
▁amid	-9.26761
president	-9.26806
ified	-9.26906
▁iraq	-9.26979
▁revealed	-9.26997
tar	-9.27027
▁everyone	-9.27058
▁bid	-9.27263
▁challenge	-9.27438
▁french	-9.27506
uff	-9.27507
day	-9.27601
▁driver	-9.27633
ang	-9.27693
▁form	-9.27717
▁hundreds	-9.27897
▁spokesman	-9.28075
▁described	-9.28163
wi	-9.2817
▁mon	-9.28204
▁themselves	-9.28358
▁points	-9.28358
’","	-9.28411
over	-9.28635
qu	-9.28688
▁husband	-9.287
▁due	-9.28747
▁focus	-9.28917
▁bit	-9.29059
▁Sa	-9.29083
▁note	-9.29101
▁hope	-9.29166
▁reporter	-9.29251
▁policies	-9.29274
▁rest	-9.29345
▁employees	-9.29527
har	-9.29637
▁ask	-9.29638
▁alleged	-9.29751
ef	-9.29854
▁anything	-9.2997
▁cu	-9.30079
▁2012	-9.30083
▁tech	-9.30247
▁mind	-9.30254
▁Po	-9.30257
▁return	-9.30332
▁rate	-9.30444
▁cover	-9.30447
ile	-9.30533
ible	-9.30595
▁miles	-9.30722
cu	-9.30727
▁16	-9.30825
▁efforts	-9.30886
▁talking	-9.30936
▁speaking	-9.30937
▁terror	-9.30956
▁female	-9.31075
▁ran	-9.31186
▁tweet	-9.31223
▁expect	-9.31237
▁decided	-9.31252
▁growth	-9.31288
▁piece	-9.31378
▁2015	-9.31517
ther	-9.31519
▁train	-9.31584
▁liberal	-9.31603
▁means	-9.31607
well	-9.31615
▁Con	-9.31645
za	-9.31672
▁da	-9.31681
▁brand	-9.31703
cent	-9.31706
▁ohio	-9.31721
▁Out	-9.31808
ure	-9.31826
In	-9.32026
▁character	-9.32095
▁jo	-9.32098
▁everything	-9.32136
▁deep	-9.32168
▁l	-9.3226
▁immigrants	-9.3227
▁emails	-9.32307
▁missile	-9.32318
▁club	-9.32333
oc	-9.32483
▁protesters	-9.32511
▁broadcast	-9.32553
▁allegedly	-9.32556
que	-9.32637
▁low	-9.3264
▁ne	-9.3265
▁victims	-9.32656
▁robert	-9.32686
▁40	-9.3288
▁seat	-9.32894
▁quarter	-9.32901
ned	-9.32927
▁song	-9.33112
▁passed	-9.3313
▁polls	-9.33242
▁signed	-9.33349
▁chicago	-9.33353
off	-9.3338
▁channel	-9.33388
▁paris	-9.33573
▁blocking	-9.33596
▁Me	-9.3367
ably	-9.33678
▁able	-9.33731
▁stand	-9.33793
▁coast	-9.3381
low	-9.33835
ade	-9.33862
▁tu	-9.33951
donald	-9.33974
▁hill	-9.34112
tro	-9.34199
▁target	-9.34226
mer	-9.34299
light	-9.34308
▁scandal	-9.34351
ett	-9.34382
od	-9.34385
ris	-9.34456
▁War	-9.34507
▁spending	-9.34571
▁common	-9.34582
▁From	-9.34654
▁block	-9.34675
so	-9.34943
▁1,	-9.34951
▁energy	-9.35019
tel	-9.35033
▁lawmakers	-9.35053
▁probably	-9.35141
▁rose	-9.35145
▁Di	-9.35167
▁model	-9.35212
lic	-9.35227
ong	-9.35244
▁spoke	-9.35318
cing	-9.35334
izing	-9.35363
▁millions	-9.35435
▁cr	-9.35488
▁iowa	-9.35514
▁jeff	-9.35521
▁mean	-9.35596
▁actor	-9.35693
▁’’	-9.35733
▁labor	-9.3574
qui	-9.35791
▁conversation	-9.35814
ign	-9.35884
▁attention	-9.35999
▁plane	-9.36018
▁rather	-9.36019
act	-9.36023
▁voted	-9.36044
▁worth	-9.3605
▁voice	-9.36071
▁france	-9.36132
▁longer	-9.36164
▁massive	-9.36175
▁ri	-9.36302
▁israel	-9.36318
▁experience	-9.36338
▁leaving	-9.36369
!”	-9.36464
▁trial	-9.36539
▁further	-9.36557
▁ti	-9.36623
▁reform	-9.36628
▁southern	-9.3668
▁increase	-9.36711
ina	-9.36748
▁guy	-9.36821
▁relationship	-9.36927
▁voting	-9.37005
ja	-9.3709
▁term	-9.37102
ran	-9.37136
▁base	-9.37238
▁serious	-9.37251
▁cities	-9.37436
rn	-9.37466
▁itself	-9.37507
▁council	-9.3755
▁reach	-9.37802
▁Russia	-9.37911
mate	-9.38078
▁About	-9.38114
▁science	-9.38114
pping	-9.38158
▁christian	-9.38438
▁bri	-9.38451
▁extension	-9.38492
▁offer	-9.38562
▁king	-9.38572
▁sun	-9.3867
▁fans	-9.38719
▁grand	-9.38724
iff	-9.38795
▁foundation	-9.38825
▁exchange	-9.38871
▁round	-9.38897
▁issued	-9.39028
▁2014	-9.39042
▁february	-9.39062
▁hotel	-9.39062
▁true	-9.39076
▁search	-9.39127
ture	-9.39229
▁consider	-9.39234
rr	-9.39347
▁events	-9.39379
▁army	-9.3943
▁concerns	-9.39441
cur	-9.39474
vin	-9.39562
▁Car	-9.39668
▁2013	-9.39698
▁You	-9.39784
val	-9.3983
▁virginia	-9.39857
▁Dis	-9.39864
▁reality	-9.39937
▁level	-9.39963
▁blood	-9.40083
▁camp	-9.40098
▁paper	-9.40372
don	-9.40465
ative	-9.40551
▁democrat	-9.40579
▁coverage	-9.40632
▁try	-9.40647
▁His	-9.40658
▁contest	-9.40662
▁injured	-9.40663
▁bu	-9.40827
▁trans	-9.40853
len	-9.41192
▁raised	-9.41296
ight	-9.41379
▁kill	-9.41576
▁magazine	-9.41633
▁investors	-9.41747
▁ru	-9.41805
▁especially	-9.41829
ute	-9.41864
▁President	-9.41886
▁pence	-9.42052
ations	-9.42352
▁launched	-9.4244
▁That	-9.42451
▁seek	-9.42471
▁gay	-9.42532
▁december	-9.42549
ple	-9.42583
▁details	-9.42624
▁21	-9.42702
▁paid	-9.42877
▁documents	-9.42888
▁brother	-9.4295
▁declared	-9.42972
K	-9.43005
▁24	-9.43062
▁reuters	-9.43158
▁birth	-9.43288
cr	-9.4329
▁word	-9.43293
▁unit	-9.43302
▁billionaire	-9.43353
▁nations	-9.43363
▁total	-9.43386
▁sports	-9.43404
▁dog	-9.43429
▁Who	-9.43458
▁arrest	-9.43482
▁pi	-9.43484
▁Ad	-9.43489
▁door	-9.43505
zi	-9.43523
▁pat	-9.43735
▁effect	-9.43759
▁photo	-9.43767
ries	-9.43869
▁safe	-9.44031
▁push	-9.44043
some	-9.44064
ek	-9.44071
▁fell	-9.44237
ash	-9.44395
▁dec	-9.44398
▁anyone	-9.44448
ization	-9.44448
▁remain	-9.44665
▁include	-9.44682
bs	-9.44739
▁cash	-9.44784
▁attend	-9.44803
▁forward	-9.44809
▁controversial	-9.44809
▁che	-9.44886
▁helped	-9.44939
▁shares	-9.44943
▁region	-9.44979
hu	-9.44982
▁abortion	-9.45012
▁protection	-9.4505
▁sell	-9.45105
▁quickly	-9.45124
ability	-9.4514
▁manhattan	-9.45146
▁Al	-9.45284
▁immediately	-9.45305
che	-9.45364
▁et	-9.45368
▁warning	-9.45369
uring	-9.45412
▁har	-9.45479
▁hollywood	-9.45484
▁sessions	-9.45486
▁campus	-9.45486
▁appear	-9.45541
▁similar	-9.45619
▁chris	-9.45655
▁winning	-9.45675
▁conflict	-9.45823
cc	-9.4589
▁chinese	-9.45959
right	-9.45969
▁disease	-9.45975
▁restaurant	-9.46027
▁worked	-9.46055
▁store	-9.46159
▁perhaps	-9.46163
▁cross	-9.46221
▁van	-9.46248
▁refugees	-9.46325
▁episode	-9.46368
▁flag	-9.46389
▁giant	-9.46391
▁brown	-9.46438
▁Up	-9.46494
▁gold	-9.46552
▁german	-9.46556
▁huge	-9.46556
▁performance	-9.4659
▁freedom	-9.46785
▁22	-9.46796
▁defeat	-9.46848
pped	-9.46853
▁games	-9.46854
▁hate	-9.46864
▁seem	-9.46944
▁nor	-9.47046
not	-9.471
cra	-9.47102
▁gr	-9.47143
▁avoid	-9.47192
▁votes	-9.47287
cl	-9.47329
▁qu	-9.47371
house	-9.47431
ea	-9.47497
▁goes	-9.4755
▁jersey	-9.47673
▁fair	-9.47676
▁league	-9.47812
▁residents	-9.47838
let	-9.48014
▁build	-9.48079
▁ni	-9.48099
▁elected	-9.48163
▁speak	-9.48251
▁storm	-9.48365
rk	-9.48372
ze	-9.48393
▁talks	-9.48416
▁proposal	-9.48507
▁Says	-9.48546
▁hands	-9.48646
can	-9.48884
▁associated	-9.48904
▁putin	-9.48904
nc	-9.4896
▁brief	-9.48976
▁investment	-9.49014
▁kids	-9.49107
▁opposition	-9.49138
▁500	-9.49184
▁worst	-9.49207
▁slow	-9.49251
down	-9.49253
▁raise	-9.49321
▁Report	-9.49404
▁created	-9.49428
▁families	-9.49488
▁pen	-9.49579
▁fla	-9.49608
▁appears	-9.49663
▁date	-9.49806
▁practice	-9.49841
board	-9.49924
nce	-9.49974
▁rule	-9.49988
▁remember	-9.50004
zz	-9.50024
▁lower	-9.50036
ana	-9.50236
▁fighting	-9.50392
▁takes	-9.50506
▁nbc	-9.50508
erson	-9.50602
av	-9.50672
▁tells	-9.50701
▁hear	-9.50748
▁ended	-9.50765
▁born	-9.50768
▁Li	-9.5077
what	-9.50807
▁played	-9.5083
▁turkey	-9.50836
▁fo	-9.50892
▁september	-9.50907
▁culture	-9.50981
▁suit	-9.50991
▁google	-9.51143
▁pressure	-9.51189
▁min	-9.51325
▁insurance	-9.51337
▁famous	-9.51337
▁North	-9.5141
▁charge	-9.51443
▁beach	-9.51484
▁opened	-9.51512
▁fellow	-9.51572
▁approach	-9.51682
▁defend	-9.51702
gue	-9.51815
▁familiar	-9.51841
▁owner	-9.51862
▁holding	-9.51997
▁professor	-9.51998
▁send	-9.5202
▁involved	-9.52033
▁facing	-9.52289
▁audience	-9.52347
sc	-9.52397
▁identified	-9.52443
▁23	-9.52575
ville	-9.52585
▁safety	-9.52596
▁learned	-9.5262
▁ben	-9.52645
▁legislation	-9.5271
▁figure	-9.52768
▁wi	-9.52794
▁ten	-9.52822
dge	-9.52876
▁prevent	-9.52958
back	-9.53046
▁continued	-9.53053
▁favor	-9.53059
▁looks	-9.531
▁nine	-9.53211
▁chair	-9.53438
str	-9.53475
▁opening	-9.53525
▁cases	-9.5356
▁estate	-9.53761
▁join	-9.53813
▁sense	-9.53822
mm	-9.53856
▁mexican	-9.54028
▁jail	-9.54083
▁$4	-9.54115
▁serve	-9.54119
▁z	-9.54131
▁terrorism	-9.54134
▁asking	-9.54257
pri	-9.54264
▁written	-9.54345
▁multiple	-9.544
▁joe	-9.54519
▁decade	-9.54571
▁commission	-9.54685
▁giving	-9.54775
▁guard	-9.54802
▁lose	-9.54827
▁eastern	-9.54843
▁2016,	-9.54903
ual	-9.54913
rate	-9.5492
▁demand	-9.55035
▁forced	-9.5509
▁ci	-9.55108
▁powerful	-9.55165
▁football	-9.55292
▁spread	-9.55298
▁certain	-9.55319
▁hot	-9.55371
▁whole	-9.55385
▁peace	-9.55399
lor	-9.55402
row	-9.55415
▁Sp	-9.55424
▁blue	-9.55533
▁offered	-9.55559
▁mer	-9.55651
▁1.	-9.55658
▁tra	-9.55693
she	-9.55879
▁abuse	-9.55914
▁fast	-9.55919
▁ski	-9.55936
▁seemed	-9.55937
▁honor	-9.5604
▁previous	-9.56103
▁replace	-9.56105
uck	-9.56189
yn	-9.56283
rick	-9.56422
▁su	-9.565
▁transition	-9.56567
▁else	-9.56637
▁contain	-9.56794
▁spring	-9.56813
30	-9.56817
▁crash	-9.5682
▁august	-9.5687
▁je	-9.56945
▁criticism	-9.56955
▁weapons	-9.57015
▁entire	-9.57089
▁germany	-9.57118
▁users	-9.57155
▁jan	-9.57158
but	-9.57214
▁Cruz	-9.57249
▁begin	-9.57256
▁beat	-9.57299
▁remains	-9.5732
▁development	-9.57415
▁announcement	-9.57427
▁discuss	-9.57474
▁either	-9.57478
▁tweeted	-9.57558
▁subject	-9.57632
▁y	-9.57664
▁stephen	-9.57707
▁currently	-9.57751
▁apparently	-9.57831
▁poor	-9.57854
▁experts	-9.57866
▁western	-9.57871
bor	-9.57889
▁scientists	-9.57902
▁survey	-9.57937
▁francisco	-9.57952
rc	-9.58015
▁via	-9.58049
▁agreed	-9.58193
▁johnson	-9.58217
▁roll	-9.58221
▁coach	-9.58288
▁goal	-9.58302
▁bannon	-9.58322
▁citizens	-9.58398
▁cancer	-9.58479
▁inauguration	-9.58552
▁nu	-9.58591
▁fan	-9.58594
▁protests	-9.58607
▁screen	-9.58707
▁gone	-9.58722
▁october	-9.58784
gi	-9.58805
▁fi	-9.58843
rac	-9.58887
▁strike	-9.58953
sen	-9.58993
▁allegations	-9.59142
▁title	-9.59159
▁sch	-9.59225
▁average	-9.59251
▁included	-9.59479
▁version	-9.59491
war	-9.59497
▁journal	-9.59522
eg	-9.59558
▁saudi	-9.59564
▁fashion	-9.59638
▁floor	-9.59638
▁prices	-9.59646
▁appearance	-9.59744
▁eu	-9.59752
▁create	-9.59784
▁joined	-9.59797
late	-9.59805
▁surprise	-9.59861
▁northern	-9.59874
air	-9.5989
▁ties	-9.60054
▁images	-9.60157
gged	-9.6021
▁Day	-9.60227
▁scott	-9.60375
▁tough	-9.60438
▁probe	-9.60518
▁warned	-9.6056
▁independent	-9.60578
▁drop	-9.60587
▁newspaper	-9.60657
▁ruling	-9.60694
▁listen	-9.60752
▁Was	-9.60796
▁players	-9.60889
▁pic	-9.60919
50	-9.61035
▁Attack	-9.61051
▁playing	-9.61083
▁problems	-9.61166
▁cat	-9.61174
ix	-9.61233
▁armed	-9.61382
▁remarks	-9.61398
▁showing	-9.6143
ev	-9.6165
los	-9.61663
▁flynn	-9.61766
▁pop	-9.61774
▁artist	-9.6192
▁Time	-9.62088
ane	-9.62242
▁difficult	-9.62245
▁marco	-9.62262
ked	-9.62332
▁Have	-9.62334
▁critical	-9.62383
▁broke	-9.62423
▁founder	-9.6245
ld	-9.62453
use	-9.62453
▁Ho	-9.62525
▁needed	-9.62557
▁pretty	-9.62566
▁baby	-9.62674
▁knew	-9.62713
lie	-9.62788
▁square	-9.62807
▁affordable	-9.62817
▁damage	-9.62825
they	-9.62857
▁changed	-9.62879
▁ambassador	-9.62887
▁century	-9.62887
that	-9.62912
▁exactly	-9.62942
▁Sanders	-9.6297
▁numbers	-9.62975
▁thr	-9.63093
▁period	-9.63129
▁previously	-9.63141
▁npr	-9.63221
hy	-9.63266
lock	-9.63326
▁higher	-9.63348
▁present	-9.63355
▁mor	-9.63358
gn	-9.63373
▁spot	-9.63411
cle	-9.63458
▁0	-9.63587
▁truck	-9.63635
▁lack	-9.63728
▁lawyer	-9.63749
▁sat	-9.63886
ps	-9.64035
▁credit	-9.64043
▁reached	-9.64059
mal	-9.6419
trump	-9.64237
burg	-9.64295
▁success	-9.64304
▁explained	-9.64319
ration	-9.64328
▁ready	-9.64351
ou	-9.64368
▁gas	-9.64408
▁News	-9.64497
▁example	-9.64511
▁Court	-9.64512
mble	-9.64554
▁American	-9.64595
▁river	-9.64638
▁dan	-9.6474
car	-9.64772
▁dream	-9.6484
▁wave	-9.64861
▁box	-9.64988
presumptive	-9.65003
▁discussion	-9.65004
▁teacher	-9.65042
▁felt	-9.65366
▁burn	-9.65487
▁writer	-9.65547
▁ob	-9.6556
▁caught	-9.65593
▁religious	-9.65664
▁”[	-9.65671
▁picture	-9.65725
▁pennsylvania	-9.65747
▁leadership	-9.65875
rd	-9.659
▁tre	-9.65912
▁Th	-9.65953
▁proposed	-9.65977
▁arm	-9.6603
ral	-9.66082
▁China	-9.66087
▁Korea	-9.66163
▁loss	-9.66212
jo	-9.66247
▁All	-9.66305
▁Bu	-9.66312
▁suggested	-9.664
vent	-9.66451
top	-9.66455
▁Police	-9.66495
az	-9.6651
▁happen	-9.66529
▁Su	-9.66549
▁ko	-9.66619
state	-9.66662
▁ya	-9.66825
▁emergency	-9.6683
▁hour	-9.6683
▁above	-9.66834
▁shift	-9.66846
▁Jo	-9.6686
▁shut	-9.66968
▁significant	-9.67033
▁caused	-9.67036
▁match	-9.67041
▁deliver	-9.67113
▁fl	-9.67186
▁kelly	-9.6725
ware	-9.67258
▁rape	-9.67278
▁dark	-9.673
▁sentence	-9.67309
▁score	-9.67323
▁apartment	-9.67355
▁feet	-9.67409
▁En	-9.67446
▁allowed	-9.67543
istic	-9.67558
berg	-9.67592
▁dozens	-9.67786
▁wild	-9.67801
▁suicide	-9.6784
▁para	-9.68003
▁whom	-9.6801
▁tim	-9.6817
▁platform	-9.6818
▁sheriff	-9.6818
▁rich	-9.68218
▁standing	-9.68232
▁ship	-9.68342
▁del	-9.68388
▁More	-9.68582
▁seeking	-9.68715
▁conservatives	-9.68786
▁col	-9.68817
▁parties	-9.68849
▁As	-9.68859
▁simple	-9.68867
▁dropped	-9.68876
▁missing	-9.68905
▁winner	-9.68941
▁rev	-9.68965
▁particularly	-9.69034
▁hi	-9.69081
▁range	-9.69137
▁victim	-9.69138
▁neighborhood	-9.69208
▁dangerous	-9.6922
▁recall	-9.69226
tch	-9.69309
pic	-9.69325
▁looked	-9.6939
▁27	-9.69477
▁wake	-9.69535
▁uber	-9.6959
gel	-9.69688
▁computer	-9.6972
▁bur	-9.69725
▁arrived	-9.69771
J	-9.69857
▁inter	-9.69877
▁situation	-9.69893
▁card	-9.69898
▁May	-9.69905
▁tower	-9.70002
▁needs	-9.70032
▁York	-9.70066
▁band	-9.70164
▁measure	-9.7022
▁considered	-9.70263
▁moving	-9.70275
▁te	-9.70287
ker	-9.70291
▁gets	-9.70293
▁discovered	-9.70317
▁guilty	-9.70412
▁cop	-9.7042
▁rates	-9.70489
▁60	-9.70505
▁trend	-9.70521
▁Here	-9.70541
ify	-9.70548
▁Get	-9.70626
▁quite	-9.70703
▁earth	-9.70718
▁camera	-9.70754
▁impact	-9.70761
▁followed	-9.70949
▁pu	-9.71122
▁explain	-9.71126
ich	-9.71135
▁activists	-9.71183
▁transgender	-9.71197
▁briefing	-9.71202
▁steve	-9.71249
▁2015,	-9.71289
▁sub	-9.71294
▁tour	-9.71311
▁photos	-9.71331
lia	-9.71333
▁throughout	-9.71337
ko	-9.71397
▁respect	-9.71447
▁Cha	-9.7154
▁bus	-9.71552
▁beginning	-9.71568
▁sometimes	-9.71642
▁virus	-9.71646
▁funding	-9.7165
▁cho	-9.71668
▁Mar	-9.71801
▁beyond	-9.71812
▁served	-9.7185
▁sit	-9.71945
▁anti	-9.72051
▁drive	-9.72147
fer	-9.72165
▁worse	-9.72168
of	-9.72283
▁sur	-9.72392
▁boost	-9.72533
▁favorite	-9.72537
bl	-9.72554
▁responded	-9.7257
▁prosecutors	-9.72584
▁violent	-9.72607
ov	-9.72666
▁girls	-9.72682
▁era	-9.72689
▁supposed	-9.72696
▁kim	-9.72774
▁delegates	-9.7281
▁dollars	-9.72905
▁ver	-9.73015
▁wonder	-9.73023
▁cars	-9.73078
▁faces	-9.73087
rie	-9.73116
▁spicer	-9.73142
▁count	-9.73143
▁establishment	-9.73154
▁agenda	-9.73239
▁moved	-9.73282
▁Ga	-9.73304
▁researchers	-9.73316
▁easy	-9.73321
▁fresh	-9.73589
press	-9.73605
▁wood	-9.73624
▁argument	-9.73768
▁michigan	-9.73768
▁cleveland	-9.73768
▁orlando	-9.73769
▁image	-9.73785
▁korean	-9.73828
ery	-9.73831
▁telling	-9.73932
▁par	-9.73956
▁appeal	-9.73995
▁agencies	-9.74038
after	-9.74053
gra	-9.74058
▁sale	-9.74096
▁pulled	-9.74138
▁starting	-9.74228
▁trail	-9.74234
die	-9.74306
pen	-9.74335
▁holiday	-9.74399
▁martin	-9.74404
▁traditional	-9.7442
▁wearing	-9.74435
▁alone	-9.74467
▁amount	-9.7458
▁ge	-9.74583
▁cor	-9.74624
des	-9.7468
▁modern	-9.74761
▁relations	-9.74765
▁critics	-9.7479
work	-9.74869
nes	-9.74879
bel	-9.74971
amp	-9.75024
▁snow	-9.75026
▁agents	-9.75077
▁Br	-9.75199
gl	-9.75216
▁Has	-9.75376
lit	-9.75414
▁2008	-9.75509
▁hampshire	-9.75581
lar	-9.75602
more	-9.75632
▁rid	-9.75679
ik	-9.75691
spect	-9.75696
▁zika	-9.75771
head	-9.75775
▁Ch	-9.75797
▁album	-9.75947
▁color	-9.76011
▁although	-9.76039
▁contract	-9.76203
▁indiana	-9.76208
▁finding	-9.76221
▁ball	-9.76298
▁abc	-9.76426
▁peter	-9.76572
▁ways	-9.76622
▁israeli	-9.7667
▁Republicans	-9.76673
field	-9.76704
▁deputy	-9.76777
▁delivered	-9.76779
▁path	-9.76858
▁maybe	-9.76864
▁wait	-9.76921
tz	-9.7699
▁bre	-9.77083
▁marine	-9.77146
▁simply	-9.77148
▁migrants	-9.77217
▁player	-9.77223
▁believed	-9.77252
▁save	-9.77399
▁concern	-9.77399
▁perfect	-9.77427
▁direct	-9.77436
▁26	-9.77496
fo	-9.77516
▁influence	-9.7752
rg	-9.77564
▁table	-9.77616
att	-9.77622
▁panel	-9.77662
ky	-9.77668
bu	-9.77692
▁profit	-9.77707
▁agree	-9.77818
list	-9.77888
▁institute	-9.77893
▁changes	-9.77914
20	-9.77919
▁allies	-9.77924
fu	-9.78
▁perform	-9.78044
▁jones	-9.78078
▁population	-9.78084
▁trust	-9.78176
▁streets	-9.78372
▁condition	-9.78408
▁Har	-9.78433
▁association	-9.78456
▁increasingly	-9.7847
▁uk	-9.78473
▁deadly	-9.78473
ily	-9.78497
▁hunt	-9.78502
▁gen	-9.78524
▁brain	-9.78538
▁Democrats	-9.78623
▁wounded	-9.78661
uc	-9.78701
▁joint	-9.78708
▁customers	-9.7881
▁traffic	-9.78822
▁largely	-9.78844
form	-9.78862
▁truth	-9.78883
ient	-9.78904
▁auto	-9.7892
▁prince	-9.78928
▁sanctions	-9.79023
▁cap	-9.7914
▁fourth	-9.79148
▁brooklyn	-9.79212
▁rebel	-9.79239
▁teen	-9.79261
▁provided	-9.79297
▁opinion	-9.79307
just	-9.79326
▁walk	-9.79346
place	-9.79418
▁accept	-9.79453
▁Win	-9.79463
▁false	-9.79498
▁shared	-9.79501
▁plant	-9.7952
▁vehicle	-9.79691
▁prop	-9.79709
▁struck	-9.79783
▁mostly	-9.79794
▁frank	-9.79853
▁buzzfeed	-9.79878
lk	-9.7988
▁cal	-9.79902
▁schools	-9.7992
▁japan	-9.79973
▁richard	-9.79997
▁nfl	-9.8007
V	-9.80189
like	-9.80212
▁watching	-9.80212
▁signs	-9.80299
▁convicted	-9.80357
▁signal	-9.80423
▁exist	-9.8043
▁doubt	-9.80454
ria	-9.80512
▁People	-9.80645
ically	-9.8067
▁scheduled	-9.8073
mic	-9.80788
▁fix	-9.80831
▁mission	-9.80831
dent	-9.80929
▁records	-9.80931
▁hurt	-9.80967
▁stra	-9.80997
▁ja	-9.81005
▁Back	-9.81071
▁sean	-9.81095
▁communications	-9.81143
▁smith	-9.81236
iz	-9.81278
▁rio	-9.8128
▁broad	-9.81284
table	-9.81293
▁sold	-9.81337
▁spend	-9.81394
bul	-9.81431
ches	-9.81494
▁mid	-9.81554
▁male	-9.81603
▁document	-9.81672
▁reveal	-9.81748
▁african	-9.81852
ose	-9.81853
▁related	-9.81889
▁Syria	-9.81906
nu	-9.81922
▁terms	-9.81974
▁Black	-9.82001
▁Ta	-9.82099
▁singer	-9.82197
▁relative	-9.8221
▁lady	-9.82216
▁milo	-9.82222
▁mal	-9.82355
▁Your	-9.8239
▁treatment	-9.82434
▁28	-9.82522
with	-9.82536
ook	-9.82538
bra	-9.82557
▁Don	-9.82629
▁touch	-9.82682
▁marriage	-9.82686
▁joke	-9.82721
▁built	-9.82784
▁racial	-9.82786
▁rob	-9.8279
ctor	-9.82861
▁original	-9.82992
hood	-9.83078
▁historic	-9.83154
▁iphone	-9.83178
▁shi	-9.8319
▁$5	-9.83246
▁Pre	-9.83349
▁politicians	-9.83477
▁jr	-9.83482
▁blow	-9.83524
▁regard	-9.83552
▁environmental	-9.83573
▁losing	-9.83614
▁draft	-9.83673
▁iraqi	-9.83806
▁couldn	-9.8393
sure	-9.83943
mor	-9.8398
▁bay	-9.84058
▁radical	-9.84072
read	-9.8432
▁closed	-9.84324
▁..	-9.84335
▁wisconsin	-9.84469
▁fake	-9.84524
rant	-9.84531
▁Plan	-9.84535
▁plea	-9.84543
▁revenue	-9.84669
▁opportunity	-9.84769
▁strategy	-9.84769
▁award	-9.84892
coming	-9.84965
▁laws	-9.84983
▁90	-9.85009
▁producer	-9.85131
▁classified	-9.85191
▁gar	-9.85194
wo	-9.85205
cher	-9.85268
▁flood	-9.85272
▁actions	-9.85327
art	-9.85367
▁server	-9.85417
▁value	-9.85431
dis	-9.85461
▁debt	-9.85479
▁suspected	-9.85561
▁hy	-9.85561
▁ordered	-9.85579
▁operation	-9.85735
▁becoming	-9.85747
▁bureau	-9.85776
▁mom	-9.85869
▁attacked	-9.85878
▁failure	-9.85883
▁surge	-9.85901
▁expand	-9.85958
▁dallas	-9.8598
▁leg	-9.8605
▁production	-9.86066
▁200	-9.86083
▁bowl	-9.861
▁bridge	-9.86108
▁bull	-9.8611
▁cannot	-9.86113
▁carry	-9.86205
▁design	-9.86295
tan	-9.86387
▁eyes	-9.86415
mber	-9.86568
▁2011	-9.86602
▁leak	-9.8661
▁cook	-9.86652
▁adding	-9.86652
▁language	-9.86692
▁normal	-9.86707
▁markets	-9.86757
▁add	-9.86798
bil	-9.86827
▁port	-9.8687
ford	-9.86885
▁text	-9.86902
del	-9.86905
▁god	-9.86924
▁pr	-9.86967
▁reserve	-9.87
▁product	-9.87032
ied	-9.87033
▁One	-9.87077
▁msnbc	-9.87103
load	-9.87233
▁investigators	-9.87238
look	-9.87335
ai	-9.87338
▁herself	-9.87364
ika	-9.87392
▁limit	-9.87439
nie	-9.8745
▁First	-9.87513
lay	-9.8752
▁alex	-9.87525
ban	-9.87537
▁Her	-9.87601
▁promised	-9.87707
▁olympic	-9.87758
▁boo	-9.87772
▁taxes	-9.87802
▁hair	-9.87864
▁fuel	-9.87877
▁promise	-9.8788
▁fine	-9.87906
eb	-9.87925
win	-9.87937
▁wide	-9.87943
▁fed	-9.87958
▁sort	-9.87981
rio	-9.8801
▁publicly	-9.88089
here	-9.88149
ense	-9.88175
▁Show	-9.88189
▁29	-9.88272
▁bear	-9.88404
▁Anti	-9.88417
▁cops	-9.88428
▁available	-9.88445
▁treat	-9.88456
ory	-9.88463
▁sister	-9.8848
▁thanks	-9.88484
▁extra	-9.88508
▁ice	-9.88547
▁businesses	-9.8855
▁dozen	-9.88562
▁operations	-9.88597
mark	-9.8864
▁argued	-9.88692
▁feature	-9.8875
▁denied	-9.88759
▁aren	-9.88774
▁Cr	-9.88781
▁planning	-9.88844
▁names	-9.88875
▁prove	-9.88894
▁putting	-9.88921
▁pair	-9.89006
ced	-9.89046
▁capitol	-9.89071
▁contact	-9.89071
▁natural	-9.89119
▁Tra	-9.89196
▁gender	-9.89206
▁bombing	-9.89234
▁repeatedly	-9.89382
qua	-9.89459
▁controversy	-9.89491
▁separate	-9.89491
▁amazon	-9.89524
▁offering	-9.89525
af	-9.89543
▁drugs	-9.89576
▁reflect	-9.89596
▁valley	-9.89596
▁2010	-9.8961
▁bat	-9.89621
rated	-9.89697
▁confirmation	-9.89747
maker	-9.89766
▁tri	-9.89799
▁sleep	-9.89808
▁activist	-9.89823
▁Republican	-9.8984
▁pitch	-9.89855
chi	-9.89876
cor	-9.89878
▁reporting	-9.89885
▁driving	-9.89912
▁lee	-9.89962
▁scar	-9.89981
view	-9.90007
▁John	-9.90019
▁complaint	-9.90096
▁journalists	-9.90145
▁respond	-9.90168
▁tens	-9.90192
▁link	-9.90219
ium	-9.90225
▁canada	-9.90277
▁domestic	-9.90335
▁ticket	-9.90335
▁highest	-9.90459
▁management	-9.9046
▁settlement	-9.90571
sha	-9.90705
▁refused	-9.90758
▁South	-9.90763
▁generation	-9.9082
▁delay	-9.90848
bar	-9.90923
▁bro	-9.90943
▁rare	-9.9097
▁society	-9.9108
▁straight	-9.91088
▁Obamacare	-9.91097
▁flow	-9.91109
▁stopped	-9.91131
▁eye	-9.91197
▁highlight	-9.91231
▁institution	-9.91272
ib	-9.91385
▁bathroom	-9.914
▁wind	-9.91404
▁FBI	-9.91508
rew	-9.91519
▁improve	-9.91722
▁england	-9.91722
▁object	-9.91727
ency	-9.91815
▁champion	-9.91817
▁village	-9.9183
▁mac	-9.91934
▁christmas	-9.91938
▁double	-9.9194
▁bag	-9.91977
▁-	-9.91978
bert	-9.92016
▁rescue	-9.9205
▁yes	-9.92097
▁shortly	-9.92133
▁Women	-9.92153
▁World	-9.92153
▁voter	-9.92238
▁unusual	-9.92369
▁enter	-9.9241
▁Gun	-9.92535
▁rising	-9.92538
▁refugee	-9.92586
▁dar	-9.92592
tom	-9.92651
▁eat	-9.92688
▁Gra	-9.92701
▁investigate	-9.92803
▁gain	-9.92842
▁veteran	-9.92952
je	-9.92992
▁wins	-9.93014
▁includes	-9.93122
▁fraud	-9.93129
▁patriot	-9.9313
▁45	-9.9313
▁cold	-9.93153
▁mention	-9.93157
▁Campaign	-9.93238
▁planet	-9.93247
▁books	-9.93295
▁35	-9.93362
▁window	-9.93366
▁agent	-9.93473
ino	-9.93517
▁investigating	-9.93566
▁racist	-9.93568
▁arabia	-9.93589
▁aim	-9.93597
▁citing	-9.93625
▁kasich	-9.93676
▁areas	-9.93719
▁connection	-9.93732
aw	-9.93742
last	-9.93747
▁individual	-9.93749
▁troops	-9.93896
▁aid	-9.93956
▁welcome	-9.93963
▁represent	-9.93964
▁gathered	-9.94083
▁hum	-9.94097
▁ISIS	-9.94115
gar	-9.94314
▁guest	-9.94321
aries	-9.94444
▁afghanistan	-9.94446
▁photograph	-9.94507
▁dinner	-9.94557
▁stood	-9.94557
▁islam	-9.94587
▁parliament	-9.94633
▁31	-9.9477
▁cbs	-9.94773
▁vladimir	-9.9478
▁ongoing	-9.94799
▁$6	-9.94904
▁spa	-9.94904
▁wage	-9.94909
▁carried	-9.9495
▁type	-9.94961
▁Russian	-9.95008
gate	-9.95133
hel	-9.9516
▁combat	-9.95231
▁mistake	-9.95233
how	-9.95241
▁sad	-9.95302
▁confirm	-9.95362
▁fill	-9.95482
▁throw	-9.95502
▁Election	-9.95557
▁require	-9.95557
▁faced	-9.95615
▁material	-9.95668
▁professional	-9.95669
▁turns	-9.95691
any	-9.95716
ung	-9.95756
▁accounts	-9.95763
▁feeling	-9.95796
▁describe	-9.95827
▁works	-9.95827
▁Pe	-9.9587
▁Wall	-9.95891
▁stake	-9.95898
▁navy	-9.95904
▁sitting	-9.95936
▁amendment	-9.96004
▁rain	-9.96047
▁georgia	-9.96116
▁electoral	-9.96116
▁actress	-9.96119
▁thinking	-9.96128
▁Gu	-9.96208
▁Senate	-9.9625
▁roughly	-9.96424
▁gang	-9.96441
▁exit	-9.96487
char	-9.96538
▁non	-9.96593
▁Bi	-9.96616
▁drama	-9.96671
▁baseball	-9.96687
ught	-9.96697
▁mad	-9.96776
▁ce	-9.96779
▁neighbor	-9.96787
▁occurred	-9.968
▁insider	-9.96803
▁continues	-9.96849
▁chemical	-9.96905
▁kept	-9.96907
▁meant	-9.96931
cus	-9.96945
ched	-9.96949
▁Live	-9.96968
▁lines	-9.97004
▁wouldn	-9.97127
▁status	-9.97132
▁criticized	-9.97137
▁row	-9.97154
take	-9.97185
▁philadelphia	-9.97201
▁dollar	-9.97207
▁hol	-9.97293
stand	-9.97357
▁pur	-9.97359
▁clean	-9.97371
ese	-9.97434
▁turkish	-9.97473
▁counsel	-9.97473
▁fit	-9.97546
▁products	-9.97579
▁aimed	-9.97599
▁views	-9.97629
▁reasons	-9.97642
▁brazil	-9.97669
▁content	-9.97692
▁frontrunner	-9.97701
van	-9.97706
rain	-9.97778
▁parts	-9.97916
rap	-9.97986
▁claiming	-9.98011
▁hopes	-9.98065
▁banks	-9.98123
ail	-9.98164
▁advance	-9.98216
▁caucus	-9.9825
▁digital	-9.98273
▁Se	-9.98378
iver	-9.98402
▁awards	-9.9841
▁jackson	-9.9842
▁sought	-9.98492
▁queen	-9.98508
▁Te	-9.98548
now	-9.98584
▁conduct	-9.98603
▁cabinet	-9.98618
▁heavy	-9.9862
▁compared	-9.98628
▁outrage	-9.9865
▁blame	-9.98794
▁golf	-9.9885
▁Hu	-9.98857
▁ballot	-9.98872
▁Law	-9.98887
▁Texas	-9.98964
▁foot	-9.98964
▁pull	-9.98972
▁$7	-9.98979
▁wire	-9.99008
Re	-9.99036
▁threats	-9.99062
▁complex	-9.99079
▁Work	-9.99081
▁cuts	-9.99148
▁lay	-9.99158
▁militants	-9.99238
▁$1.	-9.99257
tern	-9.99328
▁highly	-9.99352
▁doctors	-9.99393
▁chain	-9.99411
▁machine	-9.99428
volving	-9.99438
raw	-9.99526
wood	-9.99534
▁pan	-9.99541
▁funds	-9.99588
▁mil	-9.99691
▁stone	-9.99701
▁Vote	-9.99708
fully	-9.99756
▁declined	-9.99785
▁Against	-9.99786
▁healthcare	-9.99809
▁novel	-9.99811
▁potentially	-9.99863
▁various	-9.99893
roll	-9.9992
▁muslims	-9.99969
▁income	-10.0008
▁designed	-10.001
▁surprising	-10.0013
▁hor	-10.0013
▁trading	-10.0013
▁Congress	-10.0013
▁happy	-10.0014
▁paint	-10.0021
▁alien	-10.0031
ica	-10.0034
fin	-10.0041
▁cell	-10.0041
▁writes	-10.0043
▁appeals	-10.0053
▁boss	-10.0059
▁particular	-10.0059
▁Facebook	-10.006
▁gla	-10.0065
▁elite	-10.0066
▁escape	-10.0071
zo	-10.0089
▁Sc	-10.0102
▁enjoy	-10.0107
▁doctor	-10.0119
▁secure	-10.0122
▁edge	-10.0122
▁Iran	-10.0123
▁tweets	-10.0123
hillary	-10.0128
▁purchase	-10.013
▁Muslim	-10.0143
▁prospect	-10.0145
▁weigh	-10.0146
▁My	-10.0155
chan	-10.0158
▁lawyers	-10.017
▁pal	-10.0173
▁style	-10.0179
▁command	-10.018
▁transcript	-10.0189
▁lift	-10.0197
▁label	-10.0199
▁coalition	-10.0213
▁dispute	-10.0214
room	-10.022
▁williams	-10.022
▁fer	-10.0225
▁linked	-10.0232
▁responsible	-10.0237
▁admitted	-10.024
,000	-10.0249
▁stated	-10.0254
▁plot	-10.0262
▁heat	-10.0264
▁upcoming	-10.0264
▁But	-10.0278
▁Mis	-10.0278
pre	-10.0279
oh	-10.028
▁fun	-10.0283
▁prominent	-10.0285
▁property	-10.0285
▁carrying	-10.0288
▁attempted	-10.0294
▁finance	-10.0298
ular	-10.0299
▁believes	-10.0302
▁obtained	-10.0303
▁2,	-10.0306
▁retired	-10.0309
pho	-10.0309
▁returned	-10.0311
▁rap	-10.0318
point	-10.0318
▁minority	-10.0324
▁dress	-10.0324
▁reaction	-10.0329
▁emerged	-10.033
▁setting	-10.0332
▁progressive	-10.035
$	-10.0355
ugh	-10.0356
▁festival	-10.0357
▁boston	-10.0358
▁Star	-10.036
▁upon	-10.036
▁ke	-10.0364
get	-10.0375
▁complete	-10.0375
▁approved	-10.0377
▁ability	-10.0384
▁chi	-10.0384
▁collapse	-10.0394
▁Dr	-10.0402
▁Sha	-10.0405
▁brexit	-10.0406
▁partner	-10.0412
ace	-10.0417
▁debut	-10.0417
oke	-10.042
▁training	-10.0428
arian	-10.043
▁reading	-10.0432
▁core	-10.0436
▁rein	-10.0442
▁Now	-10.046
town	-10.0463
▁homeland	-10.0474
▁jury	-10.0476
▁gorsuch	-10.0479
▁regime	-10.0481
▁ku	-10.0485
▁chan	-10.0492
▁focused	-10.0495
▁Comm	-10.05
▁correct	-10.0511
ball	-10.0513
▁arizona	-10.0516
▁jewish	-10.0516
▁considering	-10.0528
stone	-10.0531
▁moscow	-10.0541
▁rhetoric	-10.0541
▁guns	-10.055
▁collect	-10.0552
▁avenue	-10.0553
▁corner	-10.0556
▁die	-10.0557
▁ceremony	-10.0565
hold	-10.0577
▁conducted	-10.0579
pet	-10.0585
▁hack	-10.059
▁captured	-10.0591
▁electric	-10.0591
▁jack	-10.0595
▁thank	-10.0598
▁scalia	-10.0602
▁Ryan	-10.0602
▁learn	-10.0604
▁certainly	-10.0605
▁difference	-10.0615
ease	-10.0618
▁2014,	-10.0619
▁pushed	-10.0625
most	-10.0627
▁severe	-10.0633
▁turning	-10.0648
▁Off	-10.0653
uk	-10.0655
▁catch	-10.0656
aff	-10.0657
▁engineer	-10.0657
▁trouble	-10.0662
ju	-10.0662
care	-10.0663
ken	-10.0664
▁sector	-10.0667
▁onto	-10.0674
▁threatened	-10.0677
hal	-10.0683
rus	-10.0684
▁pet	-10.0685
▁matt	-10.0686
real	-10.0689
▁helping	-10.0692
▁prosecutor	-10.0693
former	-10.0695
▁cri	-10.0697
gy	-10.0698
▁Want	-10.0703
nna	-10.0704
▁ii	-10.0707
▁authority	-10.0712
ology	-10.0728
▁approval	-10.074
very	-10.0745
▁consumer	-10.0749
▁moments	-10.0749
▁remind	-10.0754
▁soldiers	-10.0759
▁Supreme	-10.0765
▁mental	-10.0765
▁raising	-10.0765
▁Take	-10.0776
mes	-10.0779
▁Air	-10.0788
▁Should	-10.079
▁hang	-10.08
▁vehicles	-10.0802
▁Health	-10.0803
▁master	-10.0814
▁anthony	-10.0815
▁widely	-10.0819
▁size	-10.0819
▁op	-10.082
log	-10.0822
▁suffered	-10.0828
▁museum	-10.0828
even	-10.0832
▁successful	-10.0833
nic	-10.0835
▁By	-10.0836
▁progress	-10.0838
▁senators	-10.0842
▁returns	-10.0844
▁attract	-10.0845
▁bond	-10.085
ification	-10.0852
▁Big	-10.0852
No	-10.0858
under	-10.0859
▁elections	-10.0877
▁Could	-10.0879
▁Per	-10.088
▁mountain	-10.088
▁constitution	-10.0888
▁gunman	-10.0891
▁crew	-10.0898
▁ideas	-10.0902
▁journalist	-10.0904
▁patrol	-10.0907
▁selling	-10.0911
▁laugh	-10.0911
▁miss	-10.0915
▁canadian	-10.0917
eo	-10.0919
▁walked	-10.092
▁regulations	-10.0922
▁tear	-10.0923
book	-10.0927
▁National	-10.0927
▁blog	-10.0928
▁struggle	-10.0928
▁waiting	-10.0929
▁memo	-10.0935
cap	-10.0941
▁thomas	-10.0943
▁Media	-10.0943
▁49	-10.0944
▁division	-10.0945
▁sum	-10.095
▁struggling	-10.0956
ble	-10.0963
▁80	-10.0966
▁follows	-10.0968
▁odd	-10.0972
ama	-10.0976
▁brutal	-10.0982
▁andrew	-10.0984
▁blast	-10.099
▁internal	-10.0993
▁2.	-10.0999
▁employ	-10.1001
▁grow	-10.1007
▁disaster	-10.1007
▁christie	-10.1009
vid	-10.1012
▁70	-10.1017
▁behavior	-10.102
▁identity	-10.102
▁Mu	-10.1021
mat	-10.1027
▁levels	-10.1031
▁speed	-10.1034
▁dad	-10.1044
▁commercial	-10.1046
▁nov	-10.1049
▁Im	-10.1054
from	-10.1068
▁competition	-10.1072
▁dies	-10.1081
▁winter	-10.1084
▁ruled	-10.1085
▁ocean	-10.1085
▁location	-10.1086
▁usually	-10.1087
▁rent	-10.1095
▁democracy	-10.1111
▁weather	-10.1111
▁decline	-10.1113
▁aide	-10.1115
▁tom	-10.1115
▁faith	-10.1124
▁lived	-10.1126
▁motor	-10.1129
▁stars	-10.1133
▁additional	-10.1148
pan	-10.115
▁comedy	-10.115
▁corporate	-10.115
▁fifth	-10.115
▁cyber	-10.115
▁closer	-10.1162
▁committed	-10.1165
gle	-10.1168
▁referendum	-10.1177
▁concerned	-10.1181
▁directly	-10.1184
▁ram	-10.1187
▁greatest	-10.1196
▁longtime	-10.1198
▁tro	-10.1199
▁expressed	-10.1203
cker	-10.1206
▁Right	-10.1206
▁tonight	-10.1216
▁session	-10.1229
▁Ban	-10.1229
ray	-10.1231
▁figures	-10.1232
▁shop	-10.1234
turn	-10.1235
rank	-10.1238
▁analysis	-10.1242
▁pain	-10.1247
▁Comp	-10.1254
atory	-10.1258
▁footage	-10.1259
▁halt	-10.1261
▁housing	-10.1269
matic	-10.1274
▁imagine	-10.1275
▁discussed	-10.1279
▁decide	-10.1285
▁crimes	-10.1292
cha	-10.1295
▁increased	-10.1302
▁cable	-10.131
▁2009	-10.1311
own	-10.1312
▁removed	-10.1318
▁exclusive	-10.1323
▁maker	-10.1325
▁draw	-10.1325
ette	-10.1326
▁sport	-10.1336
▁tiny	-10.134
stein	-10.1343
▁farm	-10.1345
hr	-10.1349
▁colorado	-10.1349
▁japanese	-10.1349
▁breaking	-10.136
▁pipeline	-10.1362
ok	-10.1368
▁firing	-10.1378
▁costs	-10.138
▁promises	-10.1383
▁California	-10.1384
▁newly	-10.1386
▁conway	-10.1401
▁bru	-10.1402
▁Student	-10.1402
▁Comey	-10.1403
▁web	-10.1403
▁cia	-10.1405
▁palm	-10.1405
▁counter	-10.141
▁cooper	-10.1411
rid	-10.1413
▁fatal	-10.1416
▁anchor	-10.1416
▁kid	-10.1422
▁vo	-10.1426
▁quarterback	-10.1431
▁background	-10.1432
▁hero	-10.1435
▁stuff	-10.1439
▁studio	-10.1443
We	-10.1444
uit	-10.1446
▁affect	-10.1451
lton	-10.1453
iest	-10.1458
▁stocks	-10.146
▁analysts	-10.1462
▁Say	-10.1466
▁topic	-10.1469
▁matthew	-10.147
▁survive	-10.147
▁sky	-10.1472
xi	-10.1472
▁suspended	-10.1474
▁golden	-10.148
▁harm	-10.1486
▁facts	-10.1489
▁snap	-10.1494
ologist	-10.1495
▁officially	-10.15
▁nearby	-10.1502
▁william	-10.1503
according	-10.151
▁reagan	-10.151
▁communities	-10.1511
▁El	-10.1511
▁Down	-10.1514
▁physical	-10.1524
pon	-10.1526
fra	-10.1531
▁fu	-10.1536
▁representatives	-10.1536
▁mount	-10.1537
▁.)	-10.1539
▁Islamic	-10.154
▁kick	-10.1547
▁adam	-10.1549
▁mosul	-10.1552
ement	-10.1558
▁Col	-10.1564
mu	-10.1567
ura	-10.157
▁offensive	-10.1578
▁temp	-10.1581
▁walking	-10.1588
▁Make	-10.1589
▁cheer	-10.1604
▁Poll	-10.1606
▁representative	-10.1609
▁filing	-10.1612
▁pushing	-10.1613
▁announce	-10.1616
▁tree	-10.1624
▁aides	-10.1632
▁theater	-10.1635
▁finish	-10.1645
▁withdraw	-10.1647
▁jump	-10.1649
▁shoot	-10.1651
▁mate	-10.1653
▁endorsement	-10.1664
▁task	-10.1665
▁grew	-10.1665
▁sharp	-10.1666
pass	-10.167
▁handle	-10.1673
during	-10.1673
▁completely	-10.1674
▁testimony	-10.1675
▁wikileaks	-10.1675
▁si	-10.1675
▁corruption	-10.1677
▁arab	-10.1679
▁margin	-10.1688
▁jet	-10.1691
▁constitutional	-10.1694
▁iranian	-10.1697
▁aircraft	-10.1702
▁injuries	-10.1702
▁ken	-10.1703
▁teenager	-10.1704
▁file	-10.1705
ob	-10.1705
▁promot	-10.171
ks	-10.1716
▁witness	-10.1716
▁smart	-10.1718
▁wish	-10.1721
▁mess	-10.1721
▁broken	-10.1722
▁x	-10.1726
▁sand	-10.1726
▁passengers	-10.1729
▁occasion	-10.173
▁stretch	-10.173
▁aleppo	-10.1744
▁academy	-10.1744
▁raid	-10.1748
▁india	-10.1753
▁revolution	-10.1756
▁twice	-10.1758
▁watched	-10.1766
▁hat	-10.1768
▁urged	-10.177
▁cuba	-10.1771
▁bob	-10.1776
▁suggests	-10.1783
▁Twitter	-10.1786
▁software	-10.1786
ening	-10.1791
▁africa	-10.1793
▁fame	-10.1793
▁corp	-10.1809
▁robot	-10.1818
▁ring	-10.182
▁wh	-10.1821
▁eric	-10.1824
▁Act	-10.1824
▁resolution	-10.1828
▁miami	-10.1828
▁hasn	-10.1838
▁siriusxm	-10.1842
▁Like	-10.1842
▁ham	-10.1845
▁measures	-10.1845
▁ride	-10.1848
▁recover	-10.1853
▁pope	-10.186
▁sending	-10.1862
▁sec	-10.1867
▁haven	-10.1869
▁angry	-10.187
▁supporting	-10.189
▁celebrate	-10.19
▁happens	-10.1911
▁quick	-10.1914
▁Israel	-10.1914
▁homes	-10.1915
▁pot	-10.1921
▁assistant	-10.1928
▁shape	-10.1932
app	-10.1933
▁https	-10.1934
▁wound	-10.1938
De	-10.1941
▁Wi	-10.1945
▁narrow	-10.1955
cal	-10.1965
▁opponent	-10.1972
▁lock	-10.1972
▁standard	-10.1976
▁swing	-10.1978
▁Paul	-10.198
▁lake	-10.1982
▁aggressive	-10.1983
▁individuals	-10.1988
▁nice	-10.1997
▁TV	-10.2002
▁drone	-10.2006
rag	-10.2008
▁Y	-10.2008
▁brussels	-10.2012
eu	-10.2014
▁Americans	-10.2015
▁initial	-10.2017
▁hung	-10.2024
▁atlantic	-10.2024
▁construction	-10.2026
▁adopt	-10.2027
▁ali	-10.2035
▁targeted	-10.2036
▁ministry	-10.204
▁positive	-10.204
▁Help	-10.2041
▁admit	-10.2042
▁pledge	-10.2043
▁louisiana	-10.2054
▁stick	-10.2057
illa	-10.2061
▁arms	-10.207
▁code	-10.2072
▁conditions	-10.2076
▁trigger	-10.2084
▁Op	-10.2084
long	-10.2085
▁native	-10.2088
▁entered	-10.209
wing	-10.2094
fox	-10.2095
▁classic	-10.2097
▁pentagon	-10.2098
▁possibility	-10.2098
▁serving	-10.2098
▁capt	-10.2099
▁crack	-10.21
mou	-10.2101
▁bell	-10.2106
▁hacking	-10.2114
ridge	-10.2118
▁employee	-10.2122
▁pointed	-10.2123
▁romney	-10.2126
▁stores	-10.2127
▁patients	-10.2139
▁concert	-10.2141
poli	-10.2141
▁prize	-10.2147
▁deaths	-10.2148
▁chuck	-10.2155
▁bought	-10.2157
cast	-10.2165
aire	-10.2177
ending	-10.218
▁warren	-10.2182
▁nightclub	-10.2184
▁oregon	-10.2184
▁killer	-10.2185
lies	-10.2185
▁carson	-10.2186
▁vast	-10.2196
▁benefit	-10.2196
▁destroy	-10.2198
▁yesterday	-10.2199
▁lobby	-10.22
▁Na	-10.2203
▁unexpected	-10.2213
▁Em	-10.2218
▁gro	-10.2219
▁meaning	-10.2219
▁clash	-10.2221
every	-10.2226
▁animal	-10.2227
▁english	-10.2228
▁Mon	-10.2229
▁jim	-10.2233
▁smartphone	-10.2243
▁oscar	-10.2243
▁pool	-10.2246
▁predict	-10.225
pul	-10.2252
▁mock	-10.2252
pot	-10.2254
▁affairs	-10.2257
▁palestinian	-10.2257
▁responsibility	-10.2257
▁choose	-10.2258
▁express	-10.226
▁prefer	-10.226
▁programs	-10.2268
▁Street	-10.2272
▁maintain	-10.2272
▁acting	-10.2273
born	-10.2275
▁weapon	-10.2288
▁stands	-10.2293
▁apparent	-10.2307
▁elect	-10.2307
▁Sea	-10.2307
▁indian	-10.2308
▁strip	-10.2308
▁suddenly	-10.2313
▁medal	-10.2322
▁Cu	-10.2329
▁headquarters	-10.2331
▁paying	-10.234
▁drink	-10.2343
▁boat	-10.2354
ene	-10.2366
▁prepared	-10.2368
▁dc	-10.237
▁tillerson	-10.2375
▁advice	-10.2376
▁benefits	-10.2377
▁estimated	-10.2381
▁sentenced	-10.2386
▁remove	-10.2394
▁sick	-10.2395
▁australia	-10.24
▁keeping	-10.24
▁fears	-10.2401
▁Under	-10.2403
put	-10.2404
▁possibly	-10.2405
▁memorial	-10.2405
▁legacy	-10.2405
,"“	-10.2405
are	-10.2407
graph	-10.2408
▁write	-10.2413
▁seriously	-10.2416
▁cultural	-10.242
▁complain	-10.2423
▁weight	-10.2425
▁wear	-10.2426
▁happening	-10.2428
▁dig	-10.243
▁specific	-10.2433
▁tourist	-10.2434
▁$8	-10.2436
▁expectations	-10.2437
▁features	-10.2438
vic	-10.2439
(	-10.2444
▁Bernie	-10.2449
▁readers	-10.245
▁summit	-10.245
▁messages	-10.2452
mmer	-10.2454
▁prior	-10.2459
▁louis	-10.2465
▁payment	-10.2473
▁charles	-10.2476
▁worried	-10.2479
▁symbol	-10.2479
▁nature	-10.2483
▁feed	-10.2484
oy	-10.2492
▁pregnant	-10.2494
▁unlikely	-10.2495
▁grant	-10.2496
▁degree	-10.25
empt	-10.2503
▁Meet	-10.2506
▁venezuela	-10.2509
▁harassment	-10.2509
▁surface	-10.2509
▁anger	-10.2513
▁associate	-10.2514
force	-10.2518
yes	-10.2519
gger	-10.2524
▁deploy	-10.2524
plan	-10.2526
▁civilians	-10.2527
▁fighters	-10.2529
ara	-10.2536
▁marijuana	-10.2539
▁chart	-10.2541
▁Real	-10.2552
▁entering	-10.2552
▁pilot	-10.2554
▁danger	-10.2558
▁accident	-10.256
kh	-10.2561
▁places	-10.2564
▁kar	-10.2567
▁Che	-10.2579
▁eventually	-10.2584
▁fish	-10.2585
boy	-10.2587
▁quote	-10.2587
▁ty	-10.2591
▁airlines	-10.2597
▁shock	-10.2598
▁Ka	-10.26
▁reject	-10.2601
▁dakota	-10.2615
▁rod	-10.2623
▁Am	-10.2629
▁diplomatic	-10.2641
▁castro	-10.2643
▁Woman	-10.2645
▁parent	-10.2656
▁married	-10.266
year	-10.2663
▁Their	-10.2664
▁terrorists	-10.2671
dr	-10.2672
▁tend	-10.2672
▁Sur	-10.2673
▁disrupt	-10.2675
▁polling	-10.2688
▁phil	-10.269
▁activity	-10.2691
▁suggest	-10.2693
ception	-10.2715
▁tesla	-10.2722
cott	-10.2723
▁za	-10.2726
▁Or	-10.2728
▁ill	-10.2737
▁dramatic	-10.2738
▁viewers	-10.2739
▁investor	-10.2748
while	-10.275
▁Week	-10.2755
▁vision	-10.276
▁alabama	-10.2767
▁instagram	-10.2767
▁index	-10.2771
▁roof	-10.2772
▁upset	-10.2776
▁School	-10.2783
▁ref	-10.2791
▁collection	-10.2793
rib	-10.2797
▁massachusetts	-10.2798
▁closing	-10.2798
▁movies	-10.2801
▁breath	-10.2803
ani	-10.2809
▁Sta	-10.281
▁Fight	-10.281
▁houston	-10.2814
▁pac	-10.2819
▁cuban	-10.2821
▁photographer	-10.2821
▁begins	-10.2825
▁thu	-10.2835
▁surveillance	-10.2845
▁politico	-10.2845
▁Apple	-10.2852
▁hell	-10.2856
▁regular	-10.2868
riv	-10.2869
ji	-10.287
▁basic	-10.2875
▁sides	-10.2876
▁surrounding	-10.2876
▁documentary	-10.2879
▁larger	-10.2883
cade	-10.2884
away	-10.2887
▁300	-10.2888
▁unprecedented	-10.2888
▁visa	-10.2893
▁introduced	-10.2895
▁allowing	-10.2897
▁monitor	-10.2907
▁treated	-10.2907
▁edition	-10.2911
ional	-10.2913
▁$10	-10.2915
ram	-10.2915
▁bor	-10.2919
igh	-10.2919
▁Europe	-10.2923
▁creating	-10.2923
print	-10.2924
▁veterans	-10.2932
▁Kill	-10.2937
▁explosion	-10.2938
▁solution	-10.2938
▁mobile	-10.2941
▁Just	-10.2945
▁replacement	-10.2948
▁catholic	-10.2954
▁advisor	-10.2954
▁Bar	-10.2955
▁knows	-10.2957
▁reduce	-10.2961
▁map	-10.2964
▁factor	-10.2967
▁Rubio	-10.297
▁ethics	-10.297
▁mainstream	-10.297
lum	-10.2975
▁Some	-10.298
oli	-10.2982
▁nationwide	-10.2985
▁nevada	-10.2985
▁threatening	-10.2987
nda	-10.2994
▁When	-10.2998
▁cro	-10.2998
▁dam	-10.2999
▁citizen	-10.3
▁worry	-10.3001
▁Debate	-10.3001
▁alarm	-10.3003
▁filled	-10.3006
ised	-10.3009
▁fri	-10.3011
▁bigger	-10.3013
▁older	-10.3019
▁wing	-10.3025
▁rejected	-10.3031
▁Border	-10.3033
▁Even	-10.3034
republican	-10.3034
▁covered	-10.3036
▁challenges	-10.3036
▁prepare	-10.304
▁$20	-10.3042
▁Than	-10.3047
water	-10.3049
▁ending	-10.3053
▁headed	-10.306
▁territory	-10.3064
▁picked	-10.3067
▁nba	-10.3078
▁heads	-10.3085
▁qua	-10.3086
▁organizations	-10.3087
zen	-10.3088
▁CEO	-10.3096
▁conspiracy	-10.3096
▁gives	-10.31
▁36	-10.3114
""	-10.3117
▁alongside	-10.3118
zy	-10.3121
▁moderate	-10.3128
▁specifically	-10.313
▁mag	-10.3131
▁colleagues	-10.3134
▁pla	-10.3142
▁bodies	-10.3144
▁changing	-10.3146
▁notice	-10.3149
▁banned	-10.315
▁She	-10.3152
fr	-10.3155
▁parenthood	-10.316
▁Party	-10.3161
▁Fire	-10.3164
▁hoping	-10.3167
▁olympics	-10.317
▁explosive	-10.3176
▁signature	-10.3176
10	-10.318
▁owners	-10.3182
▁intended	-10.3191
▁pakistan	-10.3192
▁kingdom	-10.3193
▁michelle	-10.3196
▁rocket	-10.3196
▁values	-10.3201
▁clearly	-10.3204
▁2018	-10.3208
▁disappear	-10.3209
greg	-10.3214
▁thi	-10.322
vol	-10.3232
▁dance	-10.3233
▁businessman	-10.3235
▁Ne	-10.3237
▁startup	-10.3238
▁blasio	-10.324
▁Ju	-10.3243
dor	-10.3247
▁rick	-10.3251
▁hedge	-10.3259
▁drew	-10.3262
rine	-10.3263
▁miller	-10.3265
▁knock	-10.3273
▁forecast	-10.3273
▁cool	-10.3281
cies	-10.3281
▁glass	-10.3282
▁hike	-10.3284
▁immigrant	-10.3284
▁equal	-10.3285
▁device	-10.3288
▁facility	-10.3289
▁Watch	-10.3289
▁Home	-10.3291
white	-10.3294
tress	-10.3299
▁italy	-10.33
▁direction	-10.3309
▁crude	-10.3313
▁They	-10.3319
script	-10.3322
▁talent	-10.3323
▁positions	-10.3327
sky	-10.3327
elle	-10.3328
rri	-10.3332
▁euro	-10.3336
▁eve	-10.3337
▁Would	-10.3338
▁globe	-10.3338
▁deeply	-10.3338
▁2017,	-10.3343
▁Million	-10.3354
▁leaked	-10.3367
anger	-10.3368
▁kennedy	-10.337
▁negative	-10.337
tail	-10.3389
▁partial	-10.3391
▁commander	-10.34
▁belong	-10.3401
▁custody	-10.3403
▁minnesota	-10.3403
▁Death	-10.3403
▁discussing	-10.3408
vy	-10.341
▁anniversary	-10.3419
lly	-10.3423
mus	-10.3426
▁beautiful	-10.3436
▁encourage	-10.3436
▁infrastructure	-10.3436
▁routine	-10.3436
▁suggesting	-10.3438
▁emotional	-10.3441
anne	-10.3446
▁encounter	-10.3452
▁spokeswoman	-10.3452
▁entirely	-10.3454
▁stream	-10.3457
▁devices	-10.3457
▁rat	-10.3459
ological	-10.3461
▁log	-10.3463
▁height	-10.3464
▁tradition	-10.3465
▁loan	-10.3467
▁musical	-10.3471
▁seeing	-10.3474
▁initially	-10.348
▁moon	-10.3482
▁francis	-10.3482
▁sim	-10.3483
gr	-10.3485
▁pin	-10.3485
▁espn	-10.3485
▁marked	-10.3502
▁studies	-10.3502
▁stunning	-10.3502
play	-10.3502
▁deport	-10.3502
▁gift	-10.3504
▁stress	-10.3507
▁offers	-10.351
▁Far	-10.3519
▁referring	-10.3519
▁championship	-10.3521
ush	-10.3521
▁failing	-10.3525
▁bed	-10.3527
▁Won	-10.353
▁illegally	-10.3533
▁daniel	-10.3535
rin	-10.3536
▁vowed	-10.354
▁outlets	-10.3541
where	-10.3541
gree	-10.3545
▁Did	-10.3549
▁basketball	-10.3552
▁resort	-10.3552
▁bright	-10.3557
▁der	-10.3564
▁theory	-10.357
▁High	-10.357
▁Dead	-10.3571
▁guardian	-10.3576
▁orders	-10.3576
lip	-10.3583
▁Washington	-10.3585
▁strategist	-10.3585
▁yo	-10.3586
▁fully	-10.3591
hur	-10.3595
▁sexually	-10.3597
▁rush	-10.3605
cut	-10.3611
▁italian	-10.3619
▁estimate	-10.3629
▁roger	-10.363
▁ear	-10.363
▁province	-10.3635
▁religion	-10.3635
▁$100	-10.3639
▁2005	-10.364
▁exercise	-10.3652
▁tape	-10.3656
▁han	-10.3656
▁videos	-10.366
▁republic	-10.3665
!"	-10.3665
▁route	-10.3668
▁33	-10.3668
▁guide	-10.3676
▁City	-10.3677
▁required	-10.3679
▁confront	-10.3681
▁Ted	-10.3689
▁regulator	-10.3697
vision	-10.3698
▁coal	-10.3709
▁argue	-10.3714
▁32	-10.3715
▁placed	-10.3716
▁advantage	-10.372
▁celebrity	-10.372
▁San	-10.3731
▁Carolina	-10.3737
▁kushner	-10.3737
▁publisher	-10.3737
▁sam	-10.3744
▁cited	-10.3745
▁tall	-10.3746
▁attacker	-10.3746
▁outcome	-10.3749
▁recruit	-10.3754
▁cycle	-10.3754
▁tank	-10.3757
▁expert	-10.377
▁Dem	-10.3776
lash	-10.3776
▁weak	-10.3776
▁supporter	-10.3777
▁bow	-10.3787
▁yiannopoulos	-10.3788
▁entertainment	-10.379
▁client	-10.379
▁End	-10.3794
met	-10.3798
▁elizabeth	-10.3805
▁yankees	-10.3805
▁violation	-10.3805
▁preparing	-10.3805
▁net	-10.3806
▁Protest	-10.3814
▁Into	-10.382
▁necessary	-10.3822
▁disclose	-10.3822
▁australian	-10.3827
▁remaining	-10.3829
▁backed	-10.3832
▁abu	-10.3839
▁plenty	-10.3839
▁Fox	-10.3839
▁finds	-10.384
bus	-10.384
▁passenger	-10.3841
▁mall	-10.3843
wan	-10.3843
▁govern	-10.3844
updated	-10.3844
▁tight	-10.3845
▁deportation	-10.3848
▁There	-10.3849
▁overall	-10.3852
gress	-10.3853
▁primaries	-10.3856
▁youtube	-10.3856
▁todd	-10.3862
▁talked	-10.3863
▁mcc	-10.3865
▁privacy	-10.3873
▁libya	-10.3874
▁shooter	-10.3875
▁split	-10.3876
▁solar	-10.3878
▁gene	-10.3881
ander	-10.389
▁airline	-10.3892
▁bal	-10.3902
▁tur	-10.3903
▁environment	-10.3908
▁biden	-10.3916
▁Support	-10.3917
kill	-10.3931
▁jason	-10.3931
▁column	-10.3936
▁statements	-10.3944
▁diplomat	-10.3947
▁chaos	-10.3948
▁jon	-10.395
▁tele	-10.3954
▁remained	-10.3956
▁Case	-10.3966
claim	-10.3972
▁cup	-10.3974
▁Claim	-10.3977
▁impose	-10.3977
▁retailer	-10.399
▁transform	-10.3992
▁gap	-10.3994
▁maryland	-10.3996
▁none	-10.3997
▁worker	-10.3999
▁gi	-10.4004
▁tea	-10.4009
▁kansas	-10.4012
hl	-10.4021
▁zone	-10.4021
▁recognize	-10.4029
▁electronic	-10.4029
▁shareholder	-10.4029
▁punch	-10.403
▁initiative	-10.403
▁pack	-10.4032
▁recorded	-10.4032
▁Mc	-10.4035
▁immediate	-10.4041
▁string	-10.4047
▁knowledge	-10.4047
▁nato	-10.4048
▁mccain	-10.4048
▁titled	-10.405
▁Two	-10.4052
▁originally	-10.4055
▁cancel	-10.406
▁fatally	-10.4062
bol	-10.4064
▁climb	-10.4065
▁depend	-10.4066
▁moral	-10.407
▁buying	-10.4073
net	-10.4074
▁ivanka	-10.4082
▁stadium	-10.4082
▁adults	-10.4083
▁correspondent	-10.4083
▁skin	-10.4085
▁Former	-10.4088
▁mill	-10.4089
▁75	-10.4091
▁managed	-10.4093
▁Brexit	-10.4094
fil	-10.4097
▁vegas	-10.4099
▁massacre	-10.4099
▁graduate	-10.4099
▁beck	-10.4103
▁App	-10.4103
▁sites	-10.4104
▁warm	-10.4117
▁install	-10.4117
▁neil	-10.4133
▁shopping	-10.4136
▁des	-10.4139
▁tan	-10.4139
▁downtown	-10.4143
▁bust	-10.4147
▁tam	-10.4151
▁tactic	-10.4153
▁beijing	-10.4157
▁indeed	-10.4164
▁detail	-10.4169
▁circuit	-10.417
▁mogul	-10.417
aging	-10.4171
▁jets	-10.4172
▁recommend	-10.4174
▁jerusalem	-10.4176
lee	-10.4185
cation	-10.4186
loom	-10.4186
▁garden	-10.4191
▁Know	-10.4191
▁addition	-10.4192
▁abd	-10.4196
▁400	-10.4197
▁falling	-10.4205
▁adult	-10.4205
▁candidacy	-10.4206
▁partnership	-10.4207
▁luck	-10.421
▁comic	-10.4213
teen	-10.4215
▁identify	-10.4223
▁Care	-10.423
▁condemn	-10.4236
▁luxury	-10.4241
▁greater	-10.4244
▁Change	-10.4247
▁sight	-10.4247
▁active	-10.4248
▁interests	-10.425
▁blocked	-10.4254
▁strikes	-10.4256
pat	-10.4257
▁Leader	-10.4259
▁Iraq	-10.4259
▁detained	-10.4259
▁owned	-10.4265
▁advocates	-10.4271
▁gathering	-10.4274
▁terrible	-10.4277
▁animals	-10.4278
▁earnings	-10.4279
▁strange	-10.4287
two	-10.4291
▁opposed	-10.4292
▁silicon	-10.4295
▁lgbt	-10.4295
▁transfer	-10.4297
▁tar	-10.4297
▁sarah	-10.4297
▁section	-10.4298
▁hole	-10.4301
▁limited	-10.4308
▁bloomberg	-10.4313
▁instruct	-10.4313
▁supply	-10.4313
▁atlanta	-10.4313
▁comedian	-10.4313
▁flee	-10.4315
▁harris	-10.4317
▁intention	-10.4325
▁purpose	-10.4331
▁schumer	-10.4331
▁examine	-10.4331
▁migrant	-10.4335
▁laid	-10.4345
▁urban	-10.4349
▁steal	-10.435
▁defended	-10.4352
▁weekly	-10.4355
▁dump	-10.4359
▁crucial	-10.4367
▁firearm	-10.4369
▁viral	-10.437
▁stein	-10.4371
▁Play	-10.4372
▁calif	-10.4372
▁vow	-10.4373
▁If	-10.4376
▁soft	-10.4377
ean	-10.4377
▁Need	-10.438
▁retail	-10.438
▁opponents	-10.4381
▁Policy	-10.4385
▁alternative	-10.4385
▁oklahoma	-10.4385
▁commissioner	-10.4389
cover	-10.4392
▁whatever	-10.4395
ulation	-10.4396
▁lit	-10.44
▁presence	-10.4403
night	-10.4409
bby	-10.441
▁loud	-10.441
▁cent	-10.4411
▁introduc	-10.4412
▁root	-10.442
▁Migrant	-10.4421
▁manchester	-10.4421
▁pictures	-10.4428
▁bomber	-10.4429
▁48	-10.4438
▁discrimination	-10.444
body	-10.4444
▁effective	-10.4448
▁promote	-10.4449
▁attended	-10.4453
▁buck	-10.4456
▁congressman	-10.4456
Donald	-10.4458
▁begun	-10.4458
▁assets	-10.4459
bin	-10.446
pec	-10.4461
▁apart	-10.4473
▁giants	-10.4474
▁affiliate	-10.4476
▁riot	-10.4477
elect	-10.4479
▁analyst	-10.4487
▁pledged	-10.449
▁racism	-10.4494
▁yemen	-10.4495
▁designer	-10.4498
▁Year	-10.4507
asse	-10.4509
▁gains	-10.451
▁determined	-10.4514
▁insult	-10.4514
east	-10.4522
▁cow	-10.4527
▁athletes	-10.453
▁baltimore	-10.4531
▁options	-10.4531
who	-10.4538
▁tip	-10.4539
▁Call	-10.4539
▁reference	-10.454
chin	-10.4552
▁mail	-10.4556
▁invest	-10.4561
▁tied	-10.4561
▁passing	-10.4561
▁wealth	-10.4564
▁penn	-10.4564
▁questioned	-10.4566
▁advertising	-10.4568
▁implement	-10.4568
rb	-10.4568
rest	-10.4572
▁affected	-10.4575
fall	-10.4582
▁supported	-10.4583
▁featured	-10.4583
▁quiet	-10.4585
▁Syrian	-10.4586
▁legislative	-10.4586
▁worldwide	-10.4586
▁wedding	-10.4597
▁islamist	-10.4601
▁counts	-10.4604
▁Immigration	-10.4605
▁celebration	-10.4605
▁mel	-10.4605
▁shake	-10.4611
▁operate	-10.4612
▁headlines	-10.4615
▁teach	-10.4618
pr	-10.4623
▁soccer	-10.4623
▁cheap	-10.4631
▁sue	-10.4631
▁divided	-10.4636
▁asia	-10.4638
▁dictator	-10.4642
▁industrial	-10.4642
▁loyal	-10.4642
▁fat	-10.4644
▁ensure	-10.4645
▁shown	-10.4659
▁politician	-10.466
▁jordan	-10.466
▁negotiations	-10.466
▁joy	-10.4661
▁operating	-10.4661
▁steven	-10.467
▁inspired	-10.4671
▁iconic	-10.4674
40	-10.4678
consistent	-10.4679
▁silver	-10.4679
▁alliance	-10.4679
▁jeb	-10.468
For	-10.4688
▁ultimately	-10.4691
▁lie	-10.4694
▁standards	-10.4694
▁option	-10.4697
▁embrace	-10.4697
▁Turn	-10.4698
uch	-10.4699
vil	-10.4702
▁targeting	-10.4705
▁flying	-10.4707
▁alert	-10.4714
▁Mexico	-10.4716
▁hurricane	-10.4716
▁tensions	-10.4719
rich	-10.4719
▁clip	-10.4724
avi	-10.4729
▁highway	-10.4729
era	-10.4732
lb	-10.4737
▁myself	-10.4738
people	-10.4738
will	-10.4744
▁fly	-10.4745
▁hired	-10.4751
▁arguing	-10.4754
▁spirit	-10.4754
▁Du	-10.4754
law	-10.4757
▁jam	-10.4764
▁netflix	-10.4772
▁ratings	-10.4773
▁porn	-10.478
▁lies	-10.4781
▁khan	-10.4788
▁endorsed	-10.4789
▁disagree	-10.4791
▁donors	-10.4793
▁commitment	-10.4795
▁sweeping	-10.48
▁prompted	-10.48
▁spin	-10.4801
▁44	-10.4808
▁Breitbart	-10.4809
▁confidence	-10.481
▁bottom	-10.481
▁causing	-10.481
▁kerry	-10.481
▁Super	-10.4816
▁deny	-10.482
▁permit	-10.482
▁resign	-10.4821
▁seal	-10.4834
▁fail	-10.4839
▁37	-10.484
▁airstrike	-10.4848
▁birthday	-10.4851
▁nasa	-10.4852
▁2015.	-10.4856
▁clinic	-10.487
pac	-10.4871
▁headline	-10.4872
▁finger	-10.4875
▁Florida	-10.4886
▁mcconnell	-10.4886
▁located	-10.4886
▁rallies	-10.4886
▁heavily	-10.4886
▁dun	-10.489
▁define	-10.4894
▁Stop	-10.4901
▁rail	-10.4901
▁flat	-10.4902
▁produced	-10.4904
▁succeed	-10.4905
sunday	-10.4911
‘	-10.4914
▁trick	-10.4918
▁sept	-10.4927
.)"	-10.493
▁cartel	-10.4935
▁mix	-10.4935
▁consumers	-10.4936
▁compete	-10.4936
▁carrier	-10.4941
▁Deal	-10.4942
▁impossible	-10.4943
▁Speech	-10.4943
▁ronald	-10.4943
▁vermont	-10.4943
▁compar	-10.4945
▁unique	-10.4949
ella	-10.4952
▁earn	-10.4952
▁Post	-10.4956
▁Race	-10.496
▁accuse	-10.4961
▁Top	-10.4962
▁behalf	-10.4962
▁Putin	-10.497
▁populist	-10.4982
▁habit	-10.4982
▁davis	-10.4982
▁reveals	-10.4994
ancy	-10.4994
front	-10.4995
▁celebrated	-10.4998
▁reverse	-10.4998
▁permanent	-10.5001
▁explains	-10.5004
▁shocking	-10.5005
worn	-10.5007
▁coordinat	-10.502
▁detroit	-10.502
▁mosque	-10.502
▁loved	-10.5022
▁$9	-10.5023
▁twin	-10.5025
▁determine	-10.5038
▁accusing	-10.5039
▁temporary	-10.5039
▁tennessee	-10.5039
▁Judge	-10.504
▁destroyed	-10.5041
▁accusations	-10.5041
▁usa	-10.5041
nny	-10.505
▁brian	-10.5053
▁egypt	-10.5055
▁revelation	-10.5059
▁moore	-10.506
var	-10.5067
▁hackers	-10.5072
▁settle	-10.5076
▁yahoo	-10.5078
▁barely	-10.5079
▁steel	-10.5081
▁bin	-10.5082
▁Left	-10.5086
▁coffee	-10.5097
▁resignation	-10.5104
▁43	-10.5106
▁regional	-10.5107
▁heading	-10.5109
▁bou	-10.5109
▁generat	-10.5111
▁42	-10.5112
?","	-10.5113
wait	-10.5124
▁Years	-10.5126
▁explore	-10.5136
▁India	-10.514
▁plus	-10.5141
▁Fact	-10.5142
▁strength	-10.5149
rian	-10.515
▁unveiled	-10.5151
▁license	-10.5156
got	-10.5168
▁coup	-10.5171
▁praised	-10.5172
▁principle	-10.5176
▁desperate	-10.5176
▁pursue	-10.5176
▁antonin	-10.5176
▁alter	-10.5177
▁capture	-10.5178
▁everybody	-10.5178
▁scale	-10.5189
▁Bro	-10.5191
▁fate	-10.5192
▁horror	-10.5195
▁utah	-10.5196
▁cru	-10.5204
▁gotten	-10.5206
▁jumped	-10.5221
▁seized	-10.5222
▁packed	-10.5224
▁feb	-10.5225
▁striking	-10.5234
▁overhaul	-10.5235
▁profile	-10.5235
▁pacific	-10.5237
▁alive	-10.5238
▁recount	-10.5239
▁neither	-10.5254
▁chamber	-10.5256
emi	-10.5259
▁sav	-10.5262
col	-10.5264
▁bail	-10.5269
▁economist	-10.5274
▁bashar	-10.5277
▁hosted	-10.5279
▁pm	-10.5281
ifying	-10.5284
▁prayer	-10.5288
itz	-10.529
▁Exclusive	-10.5293
▁Open	-10.5299
udi	-10.5302
▁proud	-10.5303
After	-10.5304
▁carter	-10.5304
▁Life	-10.5307
▁minor	-10.5307
▁criticiz	-10.5307
▁Him	-10.531
▁expensive	-10.5314
▁Our	-10.5314
reilly	-10.5315
▁chat	-10.5319
▁click	-10.5321
▁politically	-10.5323
▁diet	-10.5332
▁extremist	-10.5333
▁royal	-10.5334
▁update	-10.5336
▁These	-10.5339
▁deadline	-10.5343
11	-10.5353
▁Olympic	-10.5353
▁kentucky	-10.5353
▁convince	-10.5353
dom	-10.5363
▁corps	-10.5364
▁stolen	-10.5364
▁arch	-10.5372
▁widespread	-10.5373
▁staffers	-10.5376
▁quit	-10.5378
▁Democratic	-10.5378
▁kaine	-10.5385
▁bon	-10.5386
▁goldman	-10.5388
▁spy	-10.539
▁slideshow	-10.5393
▁missouri	-10.5393
▁beauty	-10.5393
▁cry	-10.5395
▁wheel	-10.5396
ility	-10.5396
▁surprised	-10.5396
▁actual	-10.5396
▁commit	-10.5399
▁roman	-10.5409
Le	-10.541
▁charlotte	-10.5413
▁conviction	-10.5413
▁treasury	-10.5413
▁bias	-10.5414
▁rural	-10.5416
▁balance	-10.5416
omb	-10.5419
▁gate	-10.5421
▁blamed	-10.5423
▁Politics	-10.5433
▁gray	-10.5442
hor	-10.5446
▁consequences	-10.5448
Old	-10.545
▁demonstration	-10.5454
▁Video	-10.5454
▁Calls	-10.5461
▁suburb	-10.5466
▁tale	-10.5474
▁independence	-10.5474
▁legend	-10.5474
▁developed	-10.5478
▁critic	-10.548
▁circle	-10.5494
▁silence	-10.5494
▁refuse	-10.5495
▁rolling	-10.5501
▁spotted	-10.5501
▁formally	-10.5502
▁surgery	-10.5502
▁updated	-10.5502
Mo	-10.5505
come	-10.5509
▁$15	-10.5512
▁speeches	-10.5514
▁Justice	-10.5516
▁dismiss	-10.5516
▁recording	-10.5525
▁multi	-10.5526
▁shouldn	-10.5532
▁alcohol	-10.5535
▁judiciary	-10.5535
▁variety	-10.5535
▁belief	-10.5535
▁visited	-10.5537
▁1980	-10.5537
▁earned	-10.5537
▁CNN	-10.5548
▁hacked	-10.555
▁usual	-10.5553
nar	-10.5555
▁extend	-10.5558
other	-10.5563
▁fewer	-10.5568
▁ny	-10.557
ison	-10.557
▁illinois	-10.5575
▁medicine	-10.5575
▁deserve	-10.5575
▁cloud	-10.5575
▁eating	-10.5575
cho	-10.5592
▁restrict	-10.5594
▁manufacturing	-10.5596
▁overwhelming	-10.5596
▁Terror	-10.5601
aunt	-10.5604
▁interesting	-10.5612
▁crazy	-10.5616
▁seemingly	-10.5617
▁Men	-10.5619
▁produce	-10.5625
▁flu	-10.5628
▁disney	-10.5629
▁34	-10.5634
▁drove	-10.5637
▁backlash	-10.5644
▁publication	-10.5646
arm	-10.5647
▁healthy	-10.5649
▁sparked	-10.5654
ada	-10.5657
▁anthem	-10.566
▁transportation	-10.5661
▁customs	-10.5664
▁gary	-10.5671
▁boom	-10.5674
▁obvious	-10.5675
▁execution	-10.5678
▁numerous	-10.5678
▁liberty	-10.5678
▁departure	-10.5678
▁wildlife	-10.5678
▁parade	-10.568
▁Mark	-10.5681
▁breach	-10.5682
▁distribut	-10.5687
breitbart	-10.5692
▁unless	-10.5692
▁crashed	-10.5694
▁38	-10.5694
wn	-10.5694
▁dismissed	-10.5697
▁granted	-10.5697
▁engaged	-10.5697
▁franchise	-10.5698
▁penalty	-10.5698
providing	-10.57
▁intense	-10.57
▁resigned	-10.5701
▁caucuses	-10.5702
▁hbo	-10.5706
▁invited	-10.5714
▁closely	-10.5719
▁nominated	-10.5724
▁Sen	-10.5727
▁demanding	-10.573
▁Tax	-10.5732
▁horse	-10.5736
▁interested	-10.5738
▁harvard	-10.574
▁temporarily	-10.574
▁sustain	-10.574
▁truly	-10.5741
▁kris	-10.5744
▁hopeful	-10.5749
ppy	-10.5752
▁increasing	-10.5757
▁regret	-10.576
▁columnist	-10.5769
▁jihadist	-10.5774
▁structure	-10.5781
▁urging	-10.5782
▁greg	-10.5782
▁lunch	-10.5782
▁1990	-10.5783
▁vol	-10.5785
▁2007	-10.5786
▁spark	-10.5787
▁items	-10.5791
▁rex	-10.5791
▁except	-10.5795
▁Ru	-10.5796
▁conclusion	-10.5802
▁phrase	-10.5802
▁priebus	-10.5802
▁temperature	-10.5802
▁volunteer	-10.5802
▁honest	-10.5802
▁interference	-10.5802
▁Charge	-10.5803
▁lesson	-10.5805
▁oversee	-10.5808
▁losses	-10.5819
▁represents	-10.582
▁Arrest	-10.5823
▁West	-10.5826
espite	-10.5843
▁swift	-10.5844
▁testing	-10.5849
▁homeless	-10.586
▁Daily	-10.5865
▁rifle	-10.5865
▁suffering	-10.5868
▁diego	-10.5869
▁Pence	-10.587
bro	-10.5878
▁relief	-10.5886
▁aviv	-10.5887
▁iron	-10.5899
▁afghan	-10.5907
▁chelsea	-10.5907
▁experiment	-10.5907
▁receiving	-10.5907
▁predicted	-10.5908
▁beating	-10.5909
▁orange	-10.591
▁crush	-10.5912
▁pace	-10.5915
▁bullet	-10.5916
▁charity	-10.5928
▁girlfriend	-10.5929
▁effectively	-10.5934
▁memory	-10.5935
gh	-10.5939
▁resident	-10.594
▁literally	-10.5949
▁method	-10.5949
▁boycott	-10.5951
▁package	-10.5953
▁Look	-10.5953
▁shoe	-10.5956
run	-10.5959
▁jay	-10.5968
▁dealing	-10.597
▁fiction	-10.597
▁fisher	-10.5971
▁wil	-10.5984
▁youth	-10.599
▁colombia	-10.5992
▁print	-10.5992
▁Cor	-10.6002
▁pounds	-10.6005
▁ally	-10.6012
▁otherwise	-10.6013
▁interior	-10.6013
▁endorse	-10.6013
▁bird	-10.6016
▁accepted	-10.6017
▁finished	-10.6019
▁ye	-10.6025
ille	-10.603
▁College	-10.6034
▁announcing	-10.6034
▁easily	-10.6034
▁narrative	-10.6034
▁fur	-10.6036
▁schedule	-10.6037
▁subway	-10.6038
good	-10.6041
▁bound	-10.6045
▁journey	-10.6055
▁diversity	-10.6056
bound	-10.6062
▁41	-10.6066
▁attempting	-10.6067
fec	-10.6072
▁scientific	-10.6077
▁scrutiny	-10.6077
▁mary	-10.6086
▁busy	-10.6092
▁covering	-10.6097
▁featuring	-10.6098
▁slightly	-10.6099
▁solid	-10.6099
▁lying	-10.6101
▁landed	-10.6109
dding	-10.6114
▁Bra	-10.6116
▁expansion	-10.612
▁Sessions	-10.612
▁error	-10.612
▁pose	-10.6131
make	-10.6132
▁desk	-10.6133
definitely	-10.6141
▁Conservative	-10.6141
ennial	-10.6142
▁oppose	-10.6144
hand	-10.6146
want	-10.6148
mission	-10.6152
▁mine	-10.6153
▁divorce	-10.6163
▁gained	-10.6173
▁Face	-10.6177
national	-10.6184
▁missed	-10.6187
ini	-10.619
▁lt	-10.6193
▁icon	-10.6195
▁urge	-10.6198
▁Hit	-10.62
▁extended	-10.6204
▁twist	-10.6206
▁resources	-10.6207
▁joseph	-10.6208
▁kevin	-10.6208
rah	-10.6209
▁39	-10.6215
▁warrant	-10.6215
▁chose	-10.622
▁returning	-10.6226
fire	-10.6227
▁unclear	-10.6228
▁lynch	-10.6228
▁fierce	-10.6228
▁Arm	-10.6242
▁percentage	-10.625
▁acquire	-10.625
▁insisted	-10.6251
duction	-10.6256
▁absolutely	-10.6266
▁cuomo	-10.6272
▁merkel	-10.6272
▁slammed	-10.6272
▁complicated	-10.6272
▁qui	-10.6273
uous	-10.6276
▁Rio	-10.6281
▁switch	-10.6283
▁noticed	-10.6287
▁neck	-10.6288
▁Uber	-10.6293
▁knicks	-10.6294
▁Good	-10.6298
▁outbreak	-10.6303
lex	-10.6308
▁rub	-10.6311
lou	-10.6314
▁columbia	-10.6315
▁babies	-10.6316
▁threw	-10.6316
▁defect	-10.6317
▁branch	-10.6317
Y	-10.632
ius	-10.6324
▁nobody	-10.6326
▁grown	-10.6328
▁handful	-10.6329
▁latino	-10.6332
▁fallen	-10.6336
▁ancient	-10.6338
▁vacation	-10.6339
▁appointment	-10.6342
▁baker	-10.6343
▁tru	-10.6348
eng	-10.6356
▁gall	-10.6357
▁feminist	-10.636
▁asylum	-10.636
▁seattle	-10.636
▁praise	-10.6363
▁Hear	-10.6364
▁bio	-10.6369
▁defending	-10.6377
▁punish	-10.6377
▁currency	-10.6382
▁fundamental	-10.6382
▁skeptic	-10.6382
▁Find	-10.6383
▁sugar	-10.6385
▁flash	-10.6385
▁editorial	-10.6388
▁younger	-10.6389
▁traveling	-10.6391
▁josh	-10.6391
storm	-10.6393
▁pill	-10.6393
liberate	-10.6394
quest	-10.6394
▁drawing	-10.6399
lves	-10.64
▁sweet	-10.6404
▁gut	-10.6406
▁Shooting	-10.6413
▁Come	-10.6415
▁minute	-10.6418
mann	-10.6422
▁Turkey	-10.6426
▁medicaid	-10.6426
▁zuckerberg	-10.6426
▁concluded	-10.6446
▁melania	-10.6448
▁corporation	-10.6448
hamilton	-10.6448
▁chase	-10.6453
▁Run	-10.6454
▁stance	-10.6468
▁acknowledged	-10.6469
▁rice	-10.647
▁bizarre	-10.647
▁amazing	-10.647
▁eva	-10.648
▁Still	-10.6483
▁cutting	-10.6489
▁rand	-10.6489
far	-10.6492
▁embassy	-10.6493
▁minimum	-10.6493
▁survivor	-10.6493
▁poverty	-10.6493
▁bbc	-10.6493
▁boast	-10.6494
▁smoke	-10.6494
▁gross	-10.6499
▁directed	-10.6501
hol	-10.6504
▁drag	-10.6505
bble	-10.6509
▁dressed	-10.6513
life	-10.6514
▁strategic	-10.6515
▁scream	-10.6515
▁yourself	-10.6518
▁commentator	-10.6519
▁wealthy	-10.652
▁hitting	-10.6523
He	-10.6525
nger	-10.6532
▁addressed	-10.6532
▁empire	-10.6537
▁trillion	-10.6537
▁injury	-10.6538
▁Rep	-10.6538
worth	-10.6544
▁registered	-10.6544
▁tap	-10.6553
▁berlin	-10.656
▁Test	-10.6561
▁basis	-10.6561
▁referred	-10.6562
▁grave	-10.6562
uestion	-10.6565
▁detailed	-10.6567
▁accomplish	-10.6582
▁janeiro	-10.6582
▁shadow	-10.6583
▁graham	-10.6587
▁export	-10.6593
▁Refugee	-10.6605
▁erupt	-10.6605
▁entry	-10.6606
▁curb	-10.6608
▁unlike	-10.662
▁streaming	-10.6625
▁remarkable	-10.6631
▁Game	-10.6632
box	-10.6632
▁fled	-10.6637
▁motion	-10.6642
▁Stand	-10.6646
▁lewis	-10.6651
▁sir	-10.6658
▁gil	-10.6664
▁unable	-10.6666
Elect	-10.6667
▁promising	-10.6673
▁landmark	-10.6676
▁followers	-10.668
▁factory	-10.6687
ique	-10.6687
wear	-10.6691
▁Move	-10.6696
▁participate	-10.6696
▁podesta	-10.6696
▁gulf	-10.6696
▁mouth	-10.6696
▁emerge	-10.6702
▁fin	-10.6705
▁experienced	-10.6707
sanctuary	-10.6719
▁Michael	-10.6719
▁kellyanne	-10.672
▁rumor	-10.6721
▁macron	-10.6722
nel	-10.6725
▁musician	-10.6735
▁witnesses	-10.6741
▁prohibit	-10.6742
part	-10.6743
▁learning	-10.6744
▁extreme	-10.6747
▁drinking	-10.6749
▁Lead	-10.6756
▁sar	-10.6758
▁undocumented	-10.6764
▁fought	-10.6766
▁santa	-10.6767
▁dating	-10.6767
▁Order	-10.6767
▁musk	-10.6771
▁visitors	-10.6771
▁kicked	-10.6772
▁slip	-10.6776
▁reader	-10.6777
▁stem	-10.6782
▁Official	-10.6787
▁Political	-10.6787
▁netanyahu	-10.6787
▁tournament	-10.6787
▁visiting	-10.6788
▁extremely	-10.6788
zar	-10.6792
▁hundred	-10.6792
▁archive	-10.6792
▁2001	-10.6794
▁2000	-10.6794
▁formal	-10.6805
▁achieve	-10.6806
▁Google	-10.6811
▁activities	-10.6811
▁portray	-10.6811
▁quietly	-10.6817
▁Way	-10.682
▁Use	-10.6826
▁corn	-10.6833
▁element	-10.6833
▁equity	-10.6834
▁unknown	-10.6834
▁French	-10.6834
▁zoo	-10.6836
▁echo	-10.6837
▁refuge	-10.6848
▁Bomb	-10.6855
▁militia	-10.6857
▁reputation	-10.6857
▁meanwhile	-10.6858
▁philip	-10.6859
▁See	-10.6863
▁partisan	-10.6864
▁Part	-10.6869
▁ok	-10.6872
trust	-10.6872
▁forget	-10.6878
▁spur	-10.6879
▁arrival	-10.688
▁import	-10.6881
▁devos	-10.6882
rog	-10.6883
▁developer	-10.6888
▁rating	-10.6896
▁eli	-10.6898
▁46	-10.6925
▁Sex	-10.6929
▁everywhere	-10.693
gro	-10.6934
▁saving	-10.6939
▁Art	-10.6939
▁sued	-10.694
▁careful	-10.6942
lon	-10.695
▁chosen	-10.695
▁overseas	-10.695
▁merger	-10.6954
▁parking	-10.6955
▁Every	-10.6955
▁Voters	-10.6955
▁span	-10.6957
ova	-10.696
position	-10.6963
▁audio	-10.6973
▁bottle	-10.6973
▁sharing	-10.6981
▁generally	-10.6981
▁oval	-10.6984
▁stuck	-10.6987
▁typically	-10.6993
▁continuing	-10.6997
▁Federal	-10.6997
▁chancellor	-10.6997
▁Own	-10.6999
▁developing	-10.7006
▁joining	-10.7012
▁erdogan	-10.702
▁ukraine	-10.702
▁nypd	-10.702
lov	-10.7026
▁ray	-10.7031
▁exception	-10.7032
▁assume	-10.7032
chel	-10.7034
▁militant	-10.7035
lp	-10.7036
america	-10.704
▁harder	-10.7043
▁47	-10.7043
▁explanation	-10.7044
▁podcast	-10.7044
▁folks	-10.7044
▁Kelly	-10.7044
▁scheme	-10.7044
▁desert	-10.7046
▁speculation	-10.7047
▁remark	-10.7049
▁brazilian	-10.7051
▁Cop	-10.7058
▁extraordinary	-10.7068
▁constant	-10.7068
▁remote	-10.7068
▁bipartisan	-10.7068
▁desire	-10.7069
▁ballistic	-10.7069
▁gear	-10.707
▁shirt	-10.7071
▁Va	-10.7074
▁soul	-10.7074
▁presented	-10.7075
▁hint	-10.7076
▁divide	-10.7076
▁meat	-10.7078
▁upper	-10.708
lux	-10.7085
▁responding	-10.7091
▁pleaded	-10.7092
reach	-10.7094
▁nick	-10.7097
▁slam	-10.71
found	-10.7104
▁species	-10.7115
▁Brazil	-10.7115
▁barrel	-10.7116
▁Job	-10.7118
▁socialist	-10.7122
▁mitt	-10.7125
▁Most	-10.7126
▁consult	-10.7135
▁celebrities	-10.7139
▁funeral	-10.7139
▁aftermath	-10.7139
▁chip	-10.714
▁christ	-10.7144
▁restore	-10.7153
▁warming	-10.7155
▁yu	-10.7156
▁handling	-10.7161
▁Government	-10.7163
▁contribute	-10.7163
▁exhibit	-10.7163
▁istanbul	-10.7163
▁ze	-10.7164
dale	-10.7169
▁marlow	-10.717
▁EU	-10.7174
▁shell	-10.7186
▁Power	-10.7187
▁Saudi	-10.7188
▁plum	-10.7197
▁sixth	-10.7204
▁jared	-10.7209
▁exposed	-10.721
▁mourn	-10.7212
▁slash	-10.7218
▁hostage	-10.7221
▁broker	-10.7229
▁bitter	-10.7234
80	-10.7235
▁max	-10.7238
▁kiss	-10.7239
▁sachs	-10.724
▁Tell	-10.7248
▁undermine	-10.7249
▁Pay	-10.7251
▁Illegal	-10.7259
▁anonymous	-10.7259
▁spotlight	-10.7261
▁illness	-10.7262
▁resist	-10.7265
▁Cuba	-10.7267
▁nazi	-10.727
▁offense	-10.727
▁replied	-10.7283
big	-10.7283
▁elevat	-10.7283
▁Email	-10.7286
▁involve	-10.7287
▁canceled	-10.7292
▁mateen	-10.7298
▁Set	-10.7304
▁abroad	-10.7307
▁craft	-10.7308
▁tie	-10.7308
70	-10.7309
▁xi	-10.731
▁interact	-10.7316
▁appoint	-10.7317
▁procedure	-10.7331
▁easier	-10.7331
▁alaska	-10.7331
▁creator	-10.7331
▁shelter	-10.7332
▁involvement	-10.7336
▁patient	-10.7337
gie	-10.7339
▁meal	-10.734
▁grab	-10.7351
▁Pen	-10.7352
▁Security	-10.7356
▁restrictions	-10.7357
▁egg	-10.736
▁peak	-10.7369
▁Long	-10.737
itch	-10.737
▁recovery	-10.737
▁fran	-10.7374
▁totally	-10.7378
▁knife	-10.738
ibility	-10.7381
▁apply	-10.7388
▁52	-10.7389
▁brady	-10.7392
▁established	-10.7401
▁hawaii	-10.7405
face	-10.7405
▁broadway	-10.7408
did	-10.7413
▁accord	-10.7415
▁mol	-10.7418
▁51	-10.7423
▁deter	-10.7428
▁devastating	-10.7429
▁France	-10.7429
▁mitch	-10.7433
▁vox	-10.7436
“	-10.7437
think	-10.7445
▁taste	-10.7453
▁Girl	-10.7454
▁Keep	-10.7454
▁Great	-10.7454
▁magic	-10.7461
▁advocate	-10.7462
▁65	-10.7465
▁essentially	-10.7467
fight	-10.7471
▁manage	-10.7477
fund	-10.7479
▁repeated	-10.748
london	-10.7494
hop	-10.7497
▁Department	-10.7503
▁microsoft	-10.7503
▁premium	-10.7503
▁mystery	-10.7503
ography	-10.7504
▁austin	-10.7504
anna	-10.7509
▁hire	-10.7514
▁organized	-10.7524
▁inmates	-10.7528
▁earthquake	-10.7528
nbc	-10.7528
▁driven	-10.7532
▁susan	-10.7532
▁colon	-10.7534
ouch	-10.7534
▁playoff	-10.7535
▁hoped	-10.7539
olog	-10.7539
▁calm	-10.7542
▁soldier	-10.7543
mbo	-10.7546
▁Whi	-10.7549
▁plunge	-10.7553
▁segment	-10.7553
ryl	-10.7556
▁edward	-10.7556
▁nationalist	-10.7558
▁approve	-10.7562
range	-10.7566
▁lab	-10.7577
▁notorious	-10.7577
▁hiring	-10.7581
▁panic	-10.7595
▁chicken	-10.7602
▁puerto	-10.7602
▁Japan	-10.7602
▁venture	-10.7602
▁United	-10.7603
▁Team	-10.7609
▁searching	-10.7627
▁monument	-10.7627
▁universe	-10.7627
▁beloved	-10.7627
▁collins	-10.7628
utter	-10.7631
▁2004	-10.7632
45	-10.7651
▁mosquito	-10.7652
▁auction	-10.7652
▁subscribers	-10.7653
▁lind	-10.7656
▁arena	-10.766
▁discovery	-10.767
▁architect	-10.7677
▁philippines	-10.7677
▁150	-10.7678
▁oversight	-10.768
mitt	-10.7684
▁combined	-10.7703
▁bankruptcy	-10.7703
▁Talk	-10.7705
▁53	-10.7723
▁East	-10.7728
▁University	-10.7728
▁legislature	-10.7728
▁taxpayer	-10.7728
▁quality	-10.7728
▁Matter	-10.7737
▁arrive	-10.7739
▁Paris	-10.7749
▁Head	-10.775
▁Orlando	-10.7753
▁challenging	-10.7753
▁connecticut	-10.7753
▁surrounded	-10.7753
▁London	-10.7753
▁struggled	-10.7757
▁bold	-10.7773
▁marc	-10.7775
▁Mexican	-10.7779
▁retirement	-10.7781
give	-10.7783
▁self	-10.7783
▁latin	-10.7789
▁anymore	-10.779
shot	-10.7791
member	-10.7794
▁Hack	-10.7798
▁hispanic	-10.7804
▁float	-10.7807
▁performed	-10.781
blo	-10.7814
▁Free	-10.7816
▁Rule	-10.7817
▁household	-10.7821
word	-10.7825
▁guarantee	-10.783
▁1970	-10.7832
▁smile	-10.7833
▁frequently	-10.7846
▁suspend	-10.7847
▁observer	-10.7855
construct	-10.7855
▁refer	-10.7857
▁crown	-10.7857
▁weird	-10.7858
▁evan	-10.786
▁Force	-10.7863
▁smaller	-10.7863
19	-10.7863
▁knee	-10.7863
▁harry	-10.7871
woman	-10.7871
▁Pop	-10.7873
black	-10.7878
▁resistance	-10.7883
▁frame	-10.7884
▁Cont	-10.7898
▁register	-10.7899
▁spokesperson	-10.7907
▁pundit	-10.7907
▁transport	-10.7907
▁inquiry	-10.7907
▁technical	-10.7907
▁boyfriend	-10.7907
▁selection	-10.791
▁tribe	-10.7913
▁violated	-10.7914
today	-10.7916
have	-10.7917
hab	-10.7926
▁kong	-10.7926
reuters	-10.7927
tepped	-10.7932
▁explode	-10.7932
▁mississippi	-10.7932
▁predecessor	-10.7932
▁dubbed	-10.7932
▁fiscal	-10.7932
▁NYC	-10.7935
▁spanish	-10.7935
rating	-10.794
▁grim	-10.7947
▁dust	-10.7949
▁Teen	-10.7956
iness	-10.7957
▁opioid	-10.7958
▁taiwan	-10.7958
▁duterte	-10.7958
▁infection	-10.7958
▁James	-10.7958
▁celebrating	-10.7958
▁Inside	-10.7963
▁mandate	-10.797
▁contender	-10.7983
▁Group	-10.7984
▁benjamin	-10.7984
▁demonstrate	-10.7984
stitution	-10.7986
▁origin	-10.7995
▁apologize	-10.7996
▁exec	-10.8002
▁kaepernick	-10.801
▁refusing	-10.801
▁virtual	-10.8012
▁carrie	-10.8014
▁advanced	-10.8023
▁demanded	-10.8034
evolution	-10.8035
▁describing	-10.8036
▁Christian	-10.8036
▁sweden	-10.8036
▁approached	-10.8041
▁Night	-10.8042
▁greet	-10.8043
▁collective	-10.8046
▁fighter	-10.8051
▁carl	-10.8058
▁privilege	-10.8062
▁flint	-10.8063
▁midnight	-10.8063
▁terry	-10.8063
▁55	-10.8064
▁drawn	-10.8074
▁pulling	-10.8075
▁harsh	-10.8077
▁unemployment	-10.8088
▁Think	-10.8088
▁jews	-10.8089
▁rapper	-10.8094
▁completed	-10.8098
▁veto	-10.8098
▁copy	-10.8104
▁epidemic	-10.8115
▁tribute	-10.8115
▁funny	-10.8119
▁locked	-10.8121
▁portion	-10.8129
▁Par	-10.8132
▁oct	-10.8138
▁shocked	-10.8138
▁acquisition	-10.8141
▁kurdish	-10.8141
▁triumph	-10.8141
▁academic	-10.8141
▁History	-10.8141
qualified	-10.8141
▁belt	-10.8143
▁provision	-10.8144
▁standoff	-10.8145
▁concept	-10.8147
▁dnc	-10.8155
▁operative	-10.8167
▁rip	-10.8172
▁warner	-10.8178
▁Fail	-10.8179
american	-10.8179
▁ease	-10.8184
▁develop	-10.8189
▁contrast	-10.8194
▁rarely	-10.82
▁strongly	-10.8204
▁Ask	-10.8212
▁appropriate	-10.8213
To	-10.8216
step	-10.8219
▁application	-10.822
▁manning	-10.822
▁regulation	-10.8236
▁peaceful	-10.8238
▁assembly	-10.8247
▁universities	-10.8247
▁clothes	-10.8247
▁tighten	-10.8247
▁illustrat	-10.8247
▁instance	-10.8247
▁spoken	-10.8251
▁lane	-10.8268
▁arkansas	-10.8274
▁settled	-10.8276
▁guess	-10.8277
▁zero	-10.8279
Be	-10.8295
▁cab	-10.83
▁yellow	-10.83
rum	-10.8303
▁patrick	-10.8303
these	-10.8303
▁regulatory	-10.8309
▁delegate	-10.832
▁Killed	-10.8321
▁personally	-10.8322
▁detect	-10.8323
▁heroin	-10.8325
▁unfold	-10.8327
▁emissions	-10.8327
▁tennis	-10.8327
▁Suspect	-10.8329
▁childhood	-10.833
▁pride	-10.8332
western	-10.8333
▁UK	-10.834
▁Bur	-10.8346
▁interrupt	-10.8354
▁equipment	-10.8354
▁Before	-10.8354
▁Trans	-10.8356
[	-10.8357
▁buzz	-10.8357
weight	-10.8371
▁influential	-10.8381
▁emerging	-10.8381
▁jerry	-10.8381
▁infant	-10.8383
▁impeachment	-10.8384
▁ruin	-10.8388
why	-10.8396
▁opposite	-10.8408
▁newsletter	-10.8408
▁Mike	-10.8408
▁testify	-10.8408
▁mcdonald	-10.8412
flat	-10.8415
▁metal	-10.8419
▁omar	-10.8425
▁stranger	-10.8425
▁representing	-10.8426
▁plain	-10.8432
▁Again	-10.8433
▁millennials	-10.8435
▁enemy	-10.8435
▁pattern	-10.8437
▁dow	-10.844
▁cruise	-10.8446
90	-10.8447
▁appointed	-10.8447
▁somebody	-10.8447
▁kitchen	-10.8462
▁rage	-10.8463
▁operator	-10.8463
60	-10.8463
▁slid	-10.8469
▁tries	-10.848
▁confident	-10.8488
▁antonio	-10.849
▁warriors	-10.849
▁admission	-10.8492
▁loose	-10.8495
▁pink	-10.8499
▁requirement	-10.85
▁Fund	-10.851
▁Shi	-10.8517
▁clothing	-10.8517
▁uncertainty	-10.8517
▁snapchat	-10.8517
▁rouge	-10.8517
▁nightmare	-10.8517
▁pad	-10.8517
▁disturbing	-10.852
▁unfair	-10.8521
▁grip	-10.8522
▁advise	-10.8522
▁myth	-10.8524
▁dash	-10.8529
▁palin	-10.8532
▁indicted	-10.8544
▁bronx	-10.8544
▁99	-10.8546
jur	-10.8548
▁travelers	-10.8549
▁teenage	-10.855
▁solve	-10.8563
▁Climate	-10.8572
▁function	-10.8572
▁nigeria	-10.8572
wore	-10.8574
formation	-10.8575
▁flip	-10.8592
▁reacted	-10.8595
post	-10.8598
▁helicopter	-10.8599
▁Repeal	-10.8599
▁Jeff	-10.8601
▁epic	-10.8614
▁donations	-10.862
▁dick	-10.8621
▁uniform	-10.8627
▁eager	-10.8627
▁angela	-10.8627
▁assessment	-10.863
rink	-10.8647
▁connect	-10.865
▁assad	-10.865
▁NFL	-10.8655
▁facilities	-10.8655
▁vietnam	-10.8655
▁innocent	-10.8655
▁commute	-10.8655
▁nancy	-10.8658
▁Love	-10.8658
action	-10.867
▁indicate	-10.867
▁blasted	-10.8671
▁sharply	-10.8674
▁baton	-10.8678
▁samsung	-10.8682
▁lone	-10.8687
▁jihad	-10.8692
▁premiere	-10.8696
▁March	-10.871
▁inaugural	-10.871
▁administrator	-10.871
▁taylor	-10.871
▁statue	-10.871
mine	-10.8711
▁tenure	-10.8715
▁2020	-10.8717
▁pok	-10.8719
▁eliminate	-10.8723
▁Press	-10.8735
▁denounce	-10.8738
▁Family	-10.8738
▁jimmy	-10.8741
▁Presidential	-10.8744
▁rapidly	-10.8759
▁revive	-10.8759
▁opt	-10.876
You	-10.8762
▁disorder	-10.8766
▁Control	-10.8768
▁wolf	-10.8769
clinton	-10.877
path	-10.8771
▁customer	-10.8791
▁disclosure	-10.8794
▁inflation	-10.8794
▁empty	-10.8795
▁contentious	-10.8798
▁shame	-10.8812
▁thrown	-10.8816
▁closest	-10.8816
▁breakfast	-10.8822
▁fundraising	-10.8822
▁declaring	-10.8822
chen	-10.8826
▁clark	-10.8826
▁2006	-10.8828
elli	-10.8832
card	-10.8849
▁stabbed	-10.8851
▁Murder	-10.8851
▁unanimous	-10.8851
▁tackle	-10.8851
breaking	-10.8852
▁personnel	-10.8853
▁realize	-10.8855
▁premier	-10.8865
▁historical	-10.8865
▁mattis	-10.8866
▁personality	-10.8877
▁Chicago	-10.8879
▁British	-10.8879
▁detention	-10.8879
▁distinct	-10.8879
▁Chris	-10.8883
▁expanding	-10.8885
▁replaced	-10.8888
▁declare	-10.8896
▁Steve	-10.8902
▁mysterious	-10.8907
▁renewed	-10.8908
▁fargo	-10.891
▁Give	-10.8911
first	-10.8912
▁condemned	-10.8916
▁colin	-10.8925
▁takeover	-10.8927
▁posed	-10.8929
ku	-10.8934
▁dominated	-10.8935
▁Accuse	-10.8936
▁Does	-10.8939
▁typical	-10.8941
▁57	-10.8949
▁hawk	-10.8953
Con	-10.8962
▁commerce	-10.8964
▁entrepreneur	-10.8964
▁suspension	-10.8964
▁cosby	-10.8965
▁wine	-10.8967
▁connected	-10.8968
verse	-10.8981
▁jose	-10.8984
▁ambitious	-10.8993
▁enormous	-10.8993
▁realized	-10.8994
▁organizers	-10.8995
▁stall	-10.8996
▁orbit	-10.8996
▁communist	-10.8998
▁fleeing	-10.9009
▁outlet	-10.9017
▁slave	-10.9019
▁Global	-10.9022
▁libertarian	-10.9022
▁David	-10.9022
▁malaysia	-10.9022
▁petition	-10.9022
▁adapt	-10.9022
▁repeat	-10.9023
▁sponsor	-10.9028
▁dying	-10.9031
▁saved	-10.9032
▁manufacturer	-10.9039
▁occur	-10.9049
▁meddling	-10.9054
▁basically	-10.9054
owski	-10.9056
free	-10.9057
▁hide	-10.9058
▁rushed	-10.9066
▁apologized	-10.9066
ground	-10.9076
▁extensive	-10.908
▁tragedy	-10.908
▁scholar	-10.908
▁hidden	-10.908
▁1960	-10.9082
▁importance	-10.9083
▁recession	-10.9083
▁feud	-10.9087
▁trailer	-10.9094
▁propaganda	-10.9109
▁gig	-10.9121
▁banner	-10.9129
▁artificial	-10.9138
▁kremlin	-10.9138
▁Critic	-10.9138
▁legendary	-10.9141
▁detective	-10.9143
▁troubled	-10.9144
▁jean	-10.9147
▁Bush	-10.9149
▁dur	-10.9149
▁bun	-10.9153
▁ignore	-10.9156
▁assert	-10.9161
▁prevention	-10.9162
▁proved	-10.9162
quin	-10.9163
▁successfully	-10.9165
▁Flynn	-10.9167
▁berkeley	-10.9167
▁tehran	-10.9167
▁chapter	-10.9167
▁unleash	-10.9167
▁captain	-10.9169
▁poison	-10.917
▁obviously	-10.9171
▁$50	-10.9173
▁significantly	-10.9191
▁Hollywood	-10.9196
▁slogan	-10.9196
▁fortune	-10.9196
▁briefly	-10.9207
▁Candidate	-10.9225
▁judicial	-10.9225
▁migration	-10.9225
▁Victim	-10.9225
▁Iowa	-10.9226
▁affair	-10.9227
▁mixed	-10.9228
▁audit	-10.9228
▁Fast	-10.923
▁revolutionary	-10.923
appropriate	-10.9234
writer	-10.9234
▁walker	-10.9235
▁prompting	-10.9243
Ho	-10.9247
▁recommendation	-10.9249
▁Sign	-10.9254
▁bernardino	-10.9255
▁agricultur	-10.9255
▁essay	-10.9255
▁sentiment	-10.9255
▁fruit	-10.9255
▁furious	-10.9257
▁anyway	-10.9257
▁nunes	-10.9258
▁shore	-10.9259
▁sudden	-10.9261
▁hook	-10.9264
feld	-10.9268
▁clock	-10.9273
▁lowest	-10.9277
▁principal	-10.9284
▁flew	-10.9284
▁maine	-10.9285
▁Read	-10.9291
▁strengthen	-10.9294
▁clue	-10.9295
▁ignored	-10.9295
25	-10.9301
▁banning	-10.9303
▁“[	-10.9306
▁infamous	-10.9314
▁tomorrow	-10.9314
▁plastic	-10.9314
▁micro	-10.9315
▁felony	-10.9327
police	-10.9333
▁afford	-10.934
▁suffer	-10.9341
▁contradict	-10.9343
▁douglas	-10.9343
▁perspective	-10.9343
▁wreck	-10.9344
▁steady	-10.9344
▁distance	-10.9344
▁battleground	-10.9345
▁pile	-10.9346
▁dropping	-10.9348
▁evil	-10.9348
mail	-10.9358
▁engine	-10.9361
▁dylan	-10.9364
▁overnight	-10.9366
▁Last	-10.9366
▁Found	-10.937
▁Britain	-10.9373
▁residence	-10.9373
▁sensitive	-10.9373
▁statistics	-10.9373
▁prisoners	-10.9379
▁jake	-10.9385
▁momentum	-10.9391
▁passage	-10.9394
politic	-10.9395
▁diagnosed	-10.9403
▁beyonc	-10.9403
▁strict	-10.9404
▁torture	-10.9404
▁edit	-10.9405
▁Islam	-10.941
▁oldest	-10.9413
▁managing	-10.9414
▁fence	-10.9417
▁Hand	-10.9432
▁landscape	-10.9433
▁venue	-10.9433
▁distract	-10.9433
▁blind	-10.9434
source	-10.9452
▁duty	-10.9453
▁Mor	-10.9453
▁cameron	-10.9453
▁howard	-10.9456
▁lincoln	-10.9463
▁Dur	-10.9492
▁interpret	-10.9493
▁conceal	-10.9493
▁condo	-10.9494
▁mood	-10.9503
certain	-10.9506
▁spill	-10.9506
▁metro	-10.9513
▁somehow	-10.9515
▁lawmaker	-10.9517
▁exploit	-10.9523
▁satellite	-10.9523
▁Foreign	-10.9523
▁silent	-10.9524
▁heritage	-10.9524
▁spike	-10.9526
▁organis	-10.9526
▁resolve	-10.9544
bury	-10.955
▁abandoned	-10.955
▁rico	-10.955
▁homicide	-10.9554
▁Invest	-10.9554
▁madison	-10.9554
▁fault	-10.9555
▁Another	-10.9556
▁endanger	-10.956
▁contractor	-10.956
▁ramp	-10.9565
▁broader	-10.957
▁Public	-10.9584
▁excited	-10.9584
▁Social	-10.9584
▁Release	-10.9584
▁battery	-10.9584
▁shield	-10.9584
▁breast	-10.9584
▁smash	-10.9584
▁Where	-10.9589
▁bunch	-10.96
spiring	-10.9605
▁allege	-10.9605
▁entertain	-10.961
brook	-10.9611
relevant	-10.9615
▁creative	-10.9615
erie	-10.9615
▁graphic	-10.9616
▁suggestion	-10.9617
▁garland	-10.9621
Clinton	-10.9628
▁colleague	-10.9633
▁recep	-10.9637
wall	-10.9641
VIDEO	-10.9645
▁moderator	-10.9645
▁Battle	-10.9645
▁Africa	-10.9645
▁Fear	-10.9646
▁barrier	-10.9646
▁mask	-10.9646
▁informed	-10.9648
▁intend	-10.9649
▁somewhat	-10.965
▁punishment	-10.9651
▁southwest	-10.9653
izer	-10.9654
▁maria	-10.9658
eff	-10.9663
▁Fall	-10.9665
▁centre	-10.9667
bill	-10.9673
▁context	-10.9676
▁deficit	-10.9676
▁nonprofit	-10.9676
▁swedish	-10.9676
▁confess	-10.9676
▁evacuate	-10.9676
▁indication	-10.9676
▁Oscar	-10.9676
▁counterpart	-10.9676
▁Mosul	-10.9677
▁automaker	-10.9677
▁sweat	-10.9678
▁coat	-10.9688
▁jewel	-10.9691
▁lifetime	-10.9696
▁violate	-10.9697
▁grace	-10.9704
▁proceed	-10.9704
▁awkward	-10.9707
▁jonathan	-10.9707
▁preliminary	-10.9707
▁afraid	-10.9707
▁creation	-10.9707
▁alleging	-10.9707
▁apology	-10.9707
▁publishing	-10.9707
▁resume	-10.9708
rock	-10.9718
▁lord	-10.9718
▁bump	-10.972
▁59	-10.9736
legitimate	-10.9737
▁demonstrators	-10.9737
▁incredible	-10.9737
▁pulse	-10.9738
▁drill	-10.9752
▁regularly	-10.9754
ternal	-10.9756
▁Pick	-10.9762
▁evangelical	-10.9768
▁nixon	-10.9768
▁jacob	-10.9769
▁modest	-10.9769
▁sorry	-10.9769
▁ugly	-10.9771
▁flaw	-10.9773
▁reince	-10.9779
▁tune	-10.9782
▁discover	-10.9785
▁Convention	-10.9799
▁opportunities	-10.9799
▁stanford	-10.9799
▁Defend	-10.98
▁stump	-10.98
▁comparison	-10.98
guard	-10.98
▁elementary	-10.9803
▁911	-10.9803
beat	-10.9805
▁simon	-10.9809
▁indicated	-10.9813
▁sink	-10.9814
▁civilian	-10.9816
▁reduced	-10.9817
▁lean	-10.9825
▁George	-10.9831
▁abrupt	-10.9831
▁charlie	-10.9831
▁drunk	-10.9831
▁permission	-10.9834
▁employment	-10.9841
world	-10.9847
▁chef	-10.9854
▁perry	-10.9857
▁jong	-10.9861
▁Officer	-10.9862
▁Chief	-10.9862
▁Leave	-10.9862
▁elsewhere	-10.9863
▁bike	-10.9871
▁stark	-10.9885
▁iPhone	-10.9893
▁indictment	-10.9893
▁denver	-10.9894
▁abandon	-10.9897
▁anybody	-10.99
▁milk	-10.9909
Obama	-10.991
▁chill	-10.9911
▁scrap	-10.9912
▁Amazon	-10.9925
▁Bannon	-10.9925
▁trauma	-10.9926
▁Bank	-10.9927
▁shark	-10.9931
▁Final	-10.9936
mag	-10.9952
▁ethnic	-10.9956
▁squad	-10.9957
▁fidel	-10.9959
▁dutch	-10.9961
▁diverse	-10.9963
early	-10.9963
▁delivery	-10.9977
bach	-10.9985
▁accurate	-10.9988
▁terminal	-10.9989
▁achievement	-10.9994
▁Drug	-10.9997
poised	-11.0003
stead	-11.0012
▁output	-11.0018
▁descend	-11.002
self	-11.0034
power	-11.0039
▁Pass	-11.0049
▁verdict	-11.0051
▁Record	-11.0052
▁2003	-11.0059
▁grill	-11.0067
call	-11.0069
▁rough	-11.0074
▁helm	-11.0077
▁Count	-11.0081
▁explicit	-11.0083
▁establish	-11.0084
▁proof	-11.0091
▁priority	-11.0092
▁react	-11.0093
▁spell	-11.0097
▁$25	-11.0106
taking	-11.0106
▁anxiety	-11.0115
▁pivot	-11.0116
kov	-11.0123
▁ranks	-11.013
▁mile	-11.0134
▁rapid	-11.0135
▁nominate	-11.014
▁bone	-11.014
▁christopher	-11.0148
▁Briefing	-11.0148
▁universal	-11.0148
▁dispatch	-11.0148
▁harbor	-11.0151
▁tapper	-11.0151
▁Push	-11.0154
▁Book	-11.0156
▁$12	-11.0163
▁hitler	-11.0163
space	-11.0164
▁troll	-11.017
American	-11.0176
▁virtually	-11.0177
realdonaldtrump	-11.018
▁ordinary	-11.018
▁taliban	-11.018
▁cartoon	-11.018
▁”[“	-11.0181
▁54	-11.0197
▁contribution	-11.0214
▁stronghold	-11.0215
▁southeast	-11.0217
▁Other	-11.0219
▁roundup	-11.0224
▁thousand	-11.0224
▁confrontation	-11.0226
▁NY	-11.0244
▁tayyi	-11.0245
▁jill	-11.0245
▁charleston	-11.0252
▁Return	-11.0253
jan	-11.0259
▁relat	-11.0266
▁66	-11.0267
▁vet	-11.0268
fake	-11.0276
▁glenn	-11.0277
▁Class	-11.0277
▁Block	-11.0284
▁membership	-11.0287
▁burst	-11.0293
▁lion	-11.0294
political	-11.0309
▁Chinese	-11.031
▁fundraiser	-11.031
▁thanksgiving	-11.031
▁Problem	-11.0314
▁grade	-11.0338
owitz	-11.0339
▁orleans	-11.0343
▁firefighter	-11.0343
▁phase	-11.0343
▁instant	-11.0344
▁tha	-11.0346
▁haley	-11.036
▁scientist	-11.0361
▁Lu	-11.0367
▁Investigation	-11.0376
▁compromise	-11.0376
▁Aleppo	-11.0376
▁Because	-11.0376
▁retreat	-11.0376
▁gingrich	-11.0376
▁keith	-11.0376
▁assistance	-11.0378
▁intent	-11.0379
▁morgan	-11.038
since	-11.0382
▁successor	-11.0383
▁suburban	-11.0388
▁Human	-11.0391
democratic	-11.0399
▁thin	-11.0408
▁lewandowski	-11.0409
▁yield	-11.0409
▁Water	-11.0409
issa	-11.0414
▁polar	-11.0417
▁tired	-11.0419
umbling	-11.0421
▁wrap	-11.0425
This	-11.0433
▁tunnel	-11.0442
▁pelosi	-11.0442
▁vital	-11.0446
vice	-11.0449
▁tiger	-11.0449
▁ranking	-11.045
▁125	-11.0454
▁enact	-11.0459
▁Francis	-11.0475
▁cellphone	-11.0475
▁judgment	-11.0475
▁library	-11.0475
▁nervous	-11.0475
▁substance	-11.0475
▁inject	-11.0475
▁Office	-11.0479
▁gru	-11.0481
▁ripped	-11.0481
▁600	-11.0487
▁controlled	-11.0499
▁comfort	-11.0505
▁Secret	-11.0506
▁vulnerable	-11.0508
▁comeback	-11.052
break	-11.0523
▁chronicle	-11.0529
▁epa	-11.0533
▁competitor	-11.0542
▁pyongyang	-11.0542
▁hashtag	-11.0542
▁sterling	-11.0542
▁pier	-11.0544
▁labour	-11.0544
▁northeast	-11.0547
▁cult	-11.0547
▁beast	-11.055
▁56	-11.0559
editor	-11.0563
▁ideal	-11.0573
WATCH	-11.0575
▁pittsburgh	-11.0575
▁DNC	-11.0575
▁alexander	-11.0576
▁toxic	-11.0578
▁700	-11.0583
▁unveil	-11.0584
tech	-11.0601
▁dedicated	-11.0609
▁manafort	-11.0609
▁humanitarian	-11.0609
▁larry	-11.0609
▁blaze	-11.0611
▁dramatically	-11.0613
▁pig	-11.0634
With	-11.0635
▁insight	-11.064
embarrass	-11.0642
▁marshall	-11.0643
▁phoenix	-11.0643
▁suspicion	-11.0643
▁Behind	-11.0643
▁Story	-11.0648
▁weaken	-11.0654
▁maher	-11.0658
▁correction	-11.0666
▁"‘	-11.067
▁brilliant	-11.0677
▁destruction	-11.0677
▁vessel	-11.0677
▁executed	-11.0677
▁murray	-11.0677
▁Spicer	-11.0677
▁abedin	-11.0677
▁cream	-11.0677
▁ranch	-11.0686
▁jar	-11.069
▁bench	-11.0692
▁hip	-11.0692
▁thompson	-11.0711
▁Next	-11.0711
▁Food	-11.0711
▁Photo	-11.0712
▁prediction	-11.0727
▁flor	-11.0731
▁assist	-11.0731
Year	-11.0738
▁juan	-11.0739
▁poet	-11.074
▁category	-11.0745
▁intervention	-11.0745
▁caution	-11.0745
▁excuse	-11.0746
▁boeing	-11.0746
▁restrain	-11.0748
▁heels	-11.0761
berry	-11.0766
▁whip	-11.0767
▁Park	-11.0771
▁Child	-11.0778
▁fantasy	-11.0779
▁intellectual	-11.0779
▁substantial	-11.0779
▁unnamed	-11.0779
▁unarmed	-11.0779
▁Travel	-11.0779
▁historically	-11.0779
▁consideration	-11.078
▁portland	-11.0786
burn	-11.0807
piece	-11.0808
▁marathon	-11.0813
▁laptop	-11.0813
▁pocket	-11.0813
▁bedroom	-11.0815
▁minorities	-11.0816
ruct	-11.0816
▁repair	-11.082
bank	-11.082
▁underway	-11.0824
▁bash	-11.0827
▁mansion	-11.0828
▁mob	-11.0842
▁Administration	-11.0848
▁phenomenon	-11.0848
▁nominating	-11.0848
▁priorities	-11.0851
▁humanity	-11.0863
▁Tech	-11.0863
▁genetic	-11.0865
▁gather	-11.0872
▁mobil	-11.0875
▁approximately	-11.0882
▁expense	-11.0883
▁jennifer	-11.0883
▁cooperation	-11.0894
media	-11.0897
▁Protesters	-11.09
afp	-11.0907
▁(“	-11.0911
▁exact	-11.0917
▁expression	-11.0917
▁prescription	-11.0917
▁prosecution	-11.0917
▁applied	-11.0917
▁rig	-11.0921
▁naked	-11.0925
▁gunmen	-11.0932
▁Never	-11.0934
▁UN	-11.0942
making	-11.0944
▁ailes	-11.0945
child	-11.0951
▁Atlantic	-11.0952
▁competitive	-11.0952
▁misconduct	-11.0952
▁Bowl	-11.0953
▁dawn	-11.0954
▁Country	-11.0956
▁egyptian	-11.0958
▁reign	-11.0962
▁trash	-11.0968
▁ruth	-11.0979
stream	-11.0982
▁scenario	-11.0987
▁securities	-11.0987
▁Ohio	-11.0987
▁gym	-11.0988
▁Nation	-11.0988
▁addiction	-11.0992
about	-11.1
▁chest	-11.1002
▁stamp	-11.1005
▁lengthy	-11.1009
▁worries	-11.1022
▁merely	-11.1024
▁random	-11.1026
▁plate	-11.1033
count	-11.1047
▁Gorsuch	-11.1057
▁enemies	-11.1057
▁impressive	-11.1057
▁stabbing	-11.1057
▁depression	-11.1057
▁eagle	-11.1057
▁sudan	-11.1058
▁henry	-11.1059
▁bloc	-11.106
▁fool	-11.1075
▁rack	-11.1084
▁Egypt	-11.1093
▁victories	-11.1093
▁watchdog	-11.1093
▁lecture	-11.1093
▁diver	-11.1102
▁pump	-11.1103
▁anticipated	-11.1128
▁consensus	-11.1128
▁megyn	-11.1128
▁Civil	-11.1128
▁pension	-11.1131
▁tapped	-11.1136
▁2002	-11.1137
▁selfie	-11.1138
▁foster	-11.1139
▁haiti	-11.114
▁compound	-11.1164
▁creature	-11.1164
▁enterprise	-11.1164
▁muhammad	-11.1164
▁precise	-11.1164
▁wallace	-11.117
▁Rock	-11.1179
present	-11.119
clusive	-11.1196
▁frustration	-11.1199
▁fulfill	-11.1199
▁competing	-11.1199
▁inspector	-11.12
▁tragic	-11.1201
▁weiner	-11.1203
▁Land	-11.1206
▁dave	-11.1216
▁62	-11.1219
▁singing	-11.1223
▁Terrorist	-11.1226
thursday	-11.1234
▁filibuster	-11.1235
▁qatar	-11.1235
▁palace	-11.1237
▁shutdown	-11.1238
▁73	-11.124
▁Rape	-11.1245
▁corrupt	-11.1265
▁beaten	-11.1268
▁pregnancy	-11.1271
▁pizza	-11.1271
▁Break	-11.1271
▁cohen	-11.1271
▁jeffrey	-11.1271
LGBT	-11.1273
sexual	-11.1282
▁workplace	-11.1284
▁stole	-11.1289
▁declaration	-11.1307
▁investigative	-11.1307
▁mirror	-11.1307
▁swept	-11.1307
▁valuable	-11.1307
▁Prison	-11.1307
▁anywhere	-11.1315
▁stepping	-11.1316
▁emotion	-11.1333
▁pray	-11.1336
▁Mean	-11.1338
▁Assault	-11.1344
▁benghazi	-11.1344
▁combination	-11.1344
▁concrete	-11.1344
▁holocaust	-11.1344
▁visual	-11.1344
▁jesus	-11.1344
▁enroll	-11.1348
▁duke	-11.1351
crypt	-11.1354
▁Grow	-11.1357
▁length	-11.1358
▁Hold	-11.1359
▁Supporters	-11.1361
▁Germany	-11.1364
unfortunately	-11.1367
▁Target	-11.138
▁superhero	-11.138
▁shouted	-11.138
▁overdose	-11.1381
▁priest	-11.1382
▁assess	-11.1384
▁possession	-11.1386
▁Trade	-11.1388
▁counties	-11.1391
▁hostile	-11.1395
▁mcg	-11.1398
acious	-11.1399
▁confusion	-11.1416
▁indonesia	-11.1417
▁Crime	-11.1417
▁consultant	-11.1422
▁Pope	-11.1422
▁wilson	-11.1422
▁monster	-11.143
▁pollster	-11.143
▁pause	-11.1432
▁starring	-11.1435
▁Doesn	-11.1441
▁hello	-11.1444
▁entitled	-11.1453
▁surrogate	-11.1453
▁vaccine	-11.1453
▁hannity	-11.1453
▁Business	-11.1453
▁Sexual	-11.1454
▁citizenship	-11.1456
▁underground	-11.1459
▁800	-11.1462
▁dish	-11.1462
▁Best	-11.1477
▁Near	-11.148
▁michel	-11.1482
heart	-11.1483
▁74	-11.1486
▁divisive	-11.149
▁description	-11.149
▁soviet	-11.149
▁swimming	-11.149
▁casual	-11.149
▁swimmer	-11.1491
saturday	-11.1491
▁journalism	-11.1502
▁Put	-11.1516
▁painful	-11.1519
▁whit	-11.1526
▁consecutive	-11.1527
▁defensive	-11.1527
▁Alleged	-11.1527
▁robbery	-11.1527
▁Tweet	-11.1527
▁Speak	-11.1527
▁attendees	-11.1527
▁hammer	-11.1534
▁continent	-11.1537
▁ultimate	-11.154
▁Violence	-11.1564
▁advocacy	-11.1564
▁portrait	-11.1564
▁pioneer	-11.1564
▁tpm	-11.1564
▁Shot	-11.1564
▁saint	-11.1566
▁garner	-11.1571
▁austria	-11.1573
▁farmers	-11.1595
▁Transgender	-11.1601
▁galaxy	-11.1601
▁gawker	-11.1601
▁grocery	-11.1601
▁negotiate	-11.1601
▁Major	-11.1601
▁devoted	-11.1601
▁ideological	-11.1601
▁carbon	-11.1602
▁sidewalk	-11.1602
game	-11.1604
▁comfortable	-11.1605
▁cafe	-11.1616
▁84	-11.1635
▁ambition	-11.1638
▁Abortion	-11.1638
▁colbert	-11.164
▁Space	-11.1641
obama	-11.1647
▁Threat	-11.1648
▁bruce	-11.1649
▁hometown	-11.1651
▁capable	-11.1654
▁courtroom	-11.1655
host	-11.1667
▁attitude	-11.1676
▁contributor	-11.1676
▁blunt	-11.1676
▁nurse	-11.1677
▁trapped	-11.168
▁filmmaker	-11.1683
morning	-11.1686
▁emmanuel	-11.1713
▁legislator	-11.1713
atlantic	-11.1717
great	-11.1718
▁enforce	-11.1723
▁Marco	-11.1732
▁entrance	-11.1751
▁properties	-11.1751
▁unpopular	-11.1751
▁fossil	-11.1751
▁blew	-11.1751
▁Milo	-11.1751
▁rachel	-11.1754
▁Ran	-11.1754
▁$14	-11.1773
▁mccarthy	-11.1789
▁technologies	-11.1789
▁Internet	-11.1789
▁Prince	-11.1789
▁beneath	-11.1789
▁invitation	-11.1789
▁exceed	-11.1789
▁oath	-11.1789
friend	-11.1791
deadliest	-11.1794
▁frequent	-11.1803
▁turnout	-11.1809
▁metropolitan	-11.1827
▁turmoil	-11.1827
phobia	-11.1827
requiring	-11.1827
▁marvel	-11.1827
▁damaging	-11.1828
▁derail	-11.1828
▁consent	-11.1831
▁pound	-11.1835
enberg	-11.1839
▁bible	-11.1844
▁submit	-11.1865
▁subsequent	-11.1865
▁worship	-11.1865
▁grabbed	-11.1865
▁confidential	-11.1867
▁buried	-11.1868
▁awful	-11.1882
▁barred	-11.1895
▁disappointing	-11.1903
▁huffington	-11.1903
▁motivated	-11.1903
▁necessarily	-11.1903
▁telephone	-11.1903
▁absurd	-11.1903
▁borrow	-11.1905
▁sample	-11.1906
Russia	-11.191
▁testified	-11.1914
▁refusal	-11.1942
▁infected	-11.1942
▁Senator	-11.1944
▁engagement	-11.1946
▁Foundation	-11.1948
▁earnest	-11.1951
▁Blasio	-11.198
▁embattled	-11.198
▁supremacist	-11.198
▁Blame	-11.1981
▁battling	-11.1981
▁guidelines	-11.1981
▁Tesla	-11.1981
▁trafficking	-11.1985
▁existence	-11.1988
▁1999	-11.2019
▁encouraging	-11.2019
▁horrific	-11.2019
▁1996	-11.2019
▁Kasich	-11.2019
▁volume	-11.2019
▁ninth	-11.202
▁Endorse	-11.202
▁hiding	-11.2021
▁vocal	-11.2021
▁crackdown	-11.2021
▁destination	-11.2026
▁Phil	-11.2027
▁Close	-11.2029
▁69	-11.2029
▁swim	-11.2057
▁elderly	-11.2058
▁escalate	-11.2058
▁Earth	-11.2058
▁superior	-11.2058
▁smooth	-11.2058
▁motive	-11.2058
▁retain	-11.2059
▁betsy	-11.2059
▁shrink	-11.206
▁Planned	-11.2062
john	-11.2067
▁equality	-11.2068
▁obtain	-11.2077
▁impression	-11.2097
▁Hope	-11.2098
▁setback	-11.2113
ilateral	-11.2126
▁Scientists	-11.2136
▁cincinnati	-11.2136
▁hernandez	-11.2136
▁horrible	-11.2136
▁Crisis	-11.2136
▁airplane	-11.2137
▁intercept	-11.2149
safe	-11.2165
▁Threaten	-11.2166
▁Australia	-11.2176
▁Christmas	-11.2176
▁General	-11.2176
▁Middle	-11.2176
▁nickname	-11.2176
▁scramble	-11.2176
▁removal	-11.2176
▁mueller	-11.2176
russia	-11.2188
▁Without	-11.2198
▁inequality	-11.2215
▁invasion	-11.2215
▁wisdom	-11.2215
▁urgent	-11.2217
▁Name	-11.2218
▁depart	-11.2224
friday	-11.2225
▁memoir	-11.2226
▁Rally	-11.2239
▁violating	-11.2255
▁coulter	-11.2255
▁handgun	-11.2255
▁navigat	-11.2255
▁offender	-11.2256
▁convert	-11.2257
▁bryan	-11.2257
▁jazz	-11.2258
▁burden	-11.2262
▁naval	-11.2265
▁hospitalized	-11.227
▁brooks	-11.2271
▁prompt	-11.2292
▁Yankees	-11.2295
▁capacity	-11.2295
▁participants	-11.2295
▁forgotten	-11.2295
▁preserve	-11.2295
▁creep	-11.2295
▁Three	-11.2295
girl	-11.2306
▁List	-11.2308
watch	-11.2313
▁freeze	-11.2323
▁thick	-11.2324
▁industries	-11.2335
▁pharmaceutical	-11.2335
▁CIA	-11.2335
▁harvey	-11.2335
▁revised	-11.2337
▁northwest	-11.2355
high	-11.2359
▁anonymity	-11.2375
▁welfare	-11.2375
▁guidance	-11.2375
▁Service	-11.2375
▁injuring	-11.2377
▁steam	-11.2377
▁charm	-11.2377
▁Town	-11.2394
▁assertion	-11.2394
▁tattoo	-11.2415
▁Protect	-11.2415
▁assange	-11.2415
▁censor	-11.2415
▁rhode	-11.2415
▁expose	-11.2416
▁outfit	-11.2418
▁profound	-11.2419
▁gunfire	-11.2419
▁Green	-11.242
public	-11.2421
ucci	-11.2427
▁lease	-11.2437
▁Young	-11.2446
▁Wrong	-11.2456
▁bolster	-11.2456
▁dragged	-11.2456
▁deleted	-11.2456
talk	-11.2457
▁mitchell	-11.2459
▁classroom	-11.246
three	-11.2471
▁disappointed	-11.2496
▁Director	-11.2496
▁maduro	-11.2497
▁swiss	-11.2497
▁Children	-11.2498
▁Secretary	-11.2499
▁redstone	-11.2501
▁replacing	-11.2503
▁luther	-11.2509
▁jacket	-11.251
▁German	-11.2515
▁$11	-11.2521
▁physician	-11.2537
▁releasing	-11.2537
▁sprawling	-11.2537
▁removing	-11.2537
▁declining	-11.2537
▁greece	-11.2537
▁teeth	-11.2537
▁extent	-11.2538
▁Key	-11.2559
class	-11.2576
▁alphabet	-11.2578
▁Military	-11.2578
▁Virginia	-11.2578
▁evacuation	-11.2578
▁technique	-11.2578
▁streak	-11.2578
▁deemed	-11.2579
fair	-11.258
▁rampage	-11.2583
▁Music	-11.2595
▁Host	-11.26
▁baghdad	-11.2619
▁ceasefire	-11.2619
▁mnuchin	-11.2619
▁registration	-11.2619
▁verizon	-11.2619
▁nasty	-11.2621
▁Canada	-11.2622
▁cheese	-11.2624
▁cinema	-11.2625
Hillary	-11.2634
▁pending	-11.2635
▁cruel	-11.2641
▁Seek	-11.265
▁astronaut	-11.2661
▁exhaust	-11.2661
▁giuliani	-11.2661
▁glimpse	-11.2661
▁electorate	-11.2661
▁charging	-11.2661
▁Navy	-11.2662
▁messaging	-11.2662
▁denies	-11.2663
▁bread	-11.2681
thank	-11.2696
CLUSIVE	-11.2702
▁Ivanka	-11.2702
▁bangladesh	-11.2702
▁incredibly	-11.2702
▁misleading	-11.2702
▁supplies	-11.2702
▁decisive	-11.2702
▁freak	-11.2702
▁Reveal	-11.2703
▁dominate	-11.2704
▁smell	-11.2704
▁midtown	-11.2704
▁siege	-11.2712
▁burger	-11.2713
▁suv	-11.2718
welcome	-11.2718
tuesday	-11.2718
▁engage	-11.2741
▁Tillerson	-11.2744
▁belgian	-11.2744
▁caribbean	-11.2744
▁demographic	-11.2744
▁thorough	-11.2744
▁unidentified	-11.2744
▁disabled	-11.2744
▁Point	-11.2745
▁stewart	-11.2786
▁baldwin	-11.2786
▁sailors	-11.2786
▁surrender	-11.2786
▁chaotic	-11.2786
▁greek	-11.2786
▁transaction	-11.2787
▁gunshot	-11.2789
▁spray	-11.279
▁assassination	-11.2791
ullah	-11.2791
▁fitness	-11.2794
▁wonderful	-11.2795
publish	-11.2826
▁Confirm	-11.2828
▁diamond	-11.2828
▁innovation	-11.2828
▁casino	-11.2828
▁visible	-11.2828
▁flames	-11.2831
▁$500	-11.2832
▁essential	-11.2846
▁slap	-11.2852
▁commun	-11.2857
witch	-11.2867
▁retire	-11.2868
▁collusion	-11.287
▁insurgent	-11.287
deplorable	-11.287
▁Dallas	-11.287
▁Christie	-11.287
▁rebuke	-11.287
▁sneak	-11.287
▁serial	-11.2871
▁haunt	-11.2874
▁sgt	-11.2876
▁pav	-11.2879
How	-11.2894
▁Oregon	-11.2912
▁persuade	-11.2912
▁Strike	-11.2912
▁Valley	-11.2912
▁choosing	-11.2912
▁guitar	-11.2912
▁arriving	-11.2912
▁Issue	-11.2914
▁bubble	-11.2914
▁toddler	-11.2915
▁Percent	-11.2915
▁Wild	-11.2916
▁taught	-11.2917
▁acceptance	-11.2923
wednesday	-11.2931
What	-11.2931
▁linger	-11.2933
▁emphasiz	-11.2955
▁frustrated	-11.2955
▁schultz	-11.2955
unconstitutional	-11.2955
▁spoil	-11.2955
▁Promise	-11.2955
▁costume	-11.2958
▁Conway	-11.2966
▁Money	-11.2969
New	-11.2974
monday	-11.2989
▁Nuclear	-11.2998
▁commemorat	-11.2998
▁misdemeanor	-11.2998
▁neutral	-11.2998
▁opposing	-11.2998
▁oakland	-11.2998
▁preparation	-11.2998
▁fabric	-11.2998
▁Happen	-11.2998
▁ideology	-11.2998
▁falcon	-11.2998
▁steep	-11.2998
▁rodrig	-11.3
▁countless	-11.3008
▁Making	-11.3013
▁Rise	-11.3013
hawk	-11.3018
▁invok	-11.3028
▁Activist	-11.3041
▁Follow	-11.3041
▁eligible	-11.3041
▁stunned	-11.3041
▁cousin	-11.3041
cross	-11.3043
▁Doctor	-11.3045
▁Warren	-11.3049
security	-11.3061
speaking	-11.3061
special	-11.3062
visibl	-11.3063
▁Drop	-11.3063
▁blockbuster	-11.3084
▁inevitable	-11.3084
▁Scalia	-11.3084
▁Launch	-11.3084
▁clinch	-11.3085
ographic	-11.3094
school	-11.3105
▁eliminat	-11.3109
walk	-11.3115
▁Author	-11.3127
▁bacteria	-11.3127
▁medication	-11.3127
▁sovereign	-11.3127
▁Second	-11.3127
▁aviation	-11.3129
▁pretend	-11.3129
▁acknowledge	-11.313
▁herald	-11.3138
▁Mother	-11.314
▁sweep	-11.315
▁pronounced	-11.317
▁Future	-11.317
▁russell	-11.317
▁Visit	-11.317
▁ceiling	-11.3171
▁absence	-11.3171
▁ireland	-11.3171
reliable	-11.3176
▁rebuild	-11.3177
▁theories	-11.318
▁pants	-11.3185
▁ditch	-11.3199
Care	-11.3203
▁pruitt	-11.3214
▁understood	-11.3214
▁purported	-11.3214
▁stanley	-11.3214
▁stroke	-11.3214
▁tokyo	-11.3215
▁irish	-11.3216
▁awake	-11.3231
▁Cost	-11.3236
▁Between	-11.3258
▁comprehensive	-11.3258
▁dismantle	-11.3258
▁terrifying	-11.3258
▁sniper	-11.3258
▁curious	-11.3258
▁cleric	-11.326
▁belgium	-11.3302
▁mediterranean	-11.3302
▁optimism	-11.3302
▁peninsula	-11.3302
▁spectacular	-11.3302
▁tribune	-11.3302
▁pollution	-11.3302
▁sketch	-11.3302
basket	-11.3303
▁embarrassing	-11.3303
▁kirk	-11.3303
▁genius	-11.3303
▁slavery	-11.3308
▁Become	-11.3309
official	-11.3326
▁implications	-11.3346
▁walter	-11.3346
Culture	-11.3347
▁wrapped	-11.3348
▁thunder	-11.3349
▁ghost	-11.335
▁intervene	-11.3351
▁attribut	-11.3351
▁romantic	-11.3355
▁regardless	-11.3356
trial	-11.3374
▁suspicious	-11.3391
▁jinping	-11.3391
▁recipe	-11.3391
▁deciding	-11.3391
▁julian	-11.3391
▁klein	-11.3391
▁accidentally	-11.3396
because	-11.3416
author	-11.3416
▁Shoot	-11.3416
▁consume	-11.3424
▁communication	-11.3428
▁Executive	-11.3435
▁Michigan	-11.3435
▁affirm	-11.3435
▁athletic	-11.3435
▁jessica	-11.3435
▁predominantly	-11.3435
▁Study	-11.3435
▁drought	-11.3435
▁assigned	-11.3435
▁victoria	-11.3435
▁insisting	-11.3437
▁grappl	-11.3439
▁conclude	-11.344
▁discipline	-11.348
▁frozen	-11.348
▁hudson	-11.348
▁sensation	-11.3485
▁columbus	-11.3525
▁extremism	-11.3525
▁ourselves	-11.3525
▁primarily	-11.3525
▁troubling	-11.3525
▁trudeau	-11.3525
▁reopen	-11.3526
▁melissa	-11.3526
▁Demand	-11.3532
▁disgrace	-11.3556
▁enthusiast	-11.3565
▁Parenthood	-11.357
▁definition	-11.357
▁lifestyle	-11.357
▁sequel	-11.357
▁Science	-11.357
▁zealand	-11.3571
▁montana	-11.3571
▁historian	-11.3571
▁blaming	-11.3571
justice	-11.3604
▁Arabia	-11.3616
▁Scandal	-11.3616
▁jenner	-11.3616
▁bundy	-11.3619
▁discount	-11.362
▁carlson	-11.3622
versus	-11.3631
▁Georgia	-11.3662
▁coincide	-11.3662
▁scotland	-11.3662
▁lorett	-11.3662
▁athlete	-11.3664
▁submitted	-11.3665
▁Robert	-11.3667
health	-11.3691
▁Announce	-11.3707
▁atmosphere	-11.3707
▁kidnapping	-11.3707
▁simpson	-11.3707
▁gymnast	-11.3707
▁okay	-11.371
▁slipped	-11.371
▁obstruction	-11.3711
facebook	-11.3737
▁Primary	-11.3754
▁arguably	-11.3754
▁unconscious	-11.3754
▁milestone	-11.3754
▁Kids	-11.3756
▁residential	-11.3757
▁concede	-11.3769
▁slaughter	-11.38
Philippine	-11.38
▁animated	-11.38
▁plagu	-11.38
▁courtesy	-11.3801
▁toronto	-11.3802
▁tumble	-11.3805
▁castile	-11.3808
▁impeach	-11.3842
▁equivalent	-11.3846
▁ferguson	-11.3846
▁medicare	-11.3846
▁$400	-11.3846
▁balloon	-11.3846
▁pepper	-11.3846
▁vigil	-11.3846
▁stunt	-11.3847
▁looming	-11.3848
▁Walk	-11.3849
▁proceedings	-11.385
▁vetting	-11.3851
▁weakness	-11.3852
▁hatred	-11.3853
▁detonat	-11.387
▁dynamic	-11.3893
▁rookie	-11.3893
▁reckless	-11.3893
▁swamp	-11.3893
▁hottest	-11.3893
▁comply	-11.3894
▁Alien	-11.3894
▁interfere	-11.3895
▁clown	-11.3898
▁lethal	-11.3899
birth	-11.3928
▁amnesty	-11.394
▁exploring	-11.394
▁negotiating	-11.394
▁cocaine	-11.394
▁vatican	-11.394
▁nieto	-11.394
▁oliver	-11.394
▁muscle	-11.394
▁wildfire	-11.3941
▁lauren	-11.3948
terror	-11.3973
direct	-11.3977
▁elaborate	-11.3987
▁integrity	-11.3987
▁mortgage	-11.3987
▁optimistic	-11.3987
▁griffin	-11.3987
▁Castro	-11.3988
▁staple	-11.3988
▁denial	-11.3988
▁Brown	-11.399
▁kenya	-11.3996
▁confused	-11.4035
▁exclud	-11.4035
▁outspoken	-11.4035
▁scarborough	-11.4035
▁Nominee	-11.4035
▁barbara	-11.4035
▁leonard	-11.4035
▁pursuit	-11.4035
▁craig	-11.4035
partisan	-11.4067
correct	-11.4068
▁correspond	-11.4078
▁televised	-11.4082
▁monetary	-11.4082
▁grammy	-11.4082
▁liquid	-11.4082
▁ransom	-11.4083
▁gentle	-11.4085
▁organize	-11.4088
assi	-11.4092
White	-11.4117
▁elephant	-11.413
▁deputies	-11.413
▁orchestra	-11.413
▁premise	-11.413
sergey	-11.413
▁slump	-11.4131
▁titan	-11.4135
▁Victory	-11.4178
▁chocolate	-11.4178
▁inspiration	-11.4178
▁kidnapped	-11.4178
▁radar	-11.4179
▁Freedom	-11.4179
▁Member	-11.4183
extreme	-11.4214
▁Education	-11.4226
▁qaeda	-11.4226
▁sentencing	-11.4226
▁smoking	-11.4227
▁warehouse	-11.4227
▁aisle	-11.4238
before	-11.4263
▁adventure	-11.4275
▁kardashian	-11.4275
▁manslaughter	-11.4275
▁analyze	-11.4275
▁stupid	-11.4275
▁podium	-11.4275
▁courage	-11.4275
▁Sentence	-11.4275
▁brent	-11.4283
continental	-11.431
▁Chelsea	-11.4324
▁Kushner	-11.4324
▁Little	-11.4324
▁appreciate	-11.4324
▁buffett	-11.4324
▁fascinating	-11.4324
▁landslide	-11.4324
▁netherlands	-11.4324
▁walmart	-11.4324
counterterrorism	-11.4324
▁arctic	-11.4324
▁admire	-11.4325
▁restroom	-11.4328
pathetic	-11.4349
▁felon	-11.4353
united	-11.4364
▁assailant	-11.4373
▁disastrous	-11.4373
▁maximum	-11.4373
▁smuggle	-11.4373
▁subpoena	-11.4373
▁1994	-11.4373
▁spencer	-11.4373
▁sandwich	-11.4373
▁jurors	-11.4373
▁federation	-11.4373
▁wrestle	-11.4373
▁custom	-11.4374
▁nerve	-11.4375
▁outlined	-11.4375
▁authoritarian	-11.4422
▁calendar	-11.4422
▁database	-11.4422
▁escort	-11.4422
▁revenge	-11.4422
▁gorka	-11.4422
▁Church	-11.4422
▁outgoing	-11.4424
▁bounce	-11.4426
reducing	-11.4427
▁formula	-11.444
▁Challenge	-11.4472
▁Immigrants	-11.4472
▁MILO	-11.4472
▁chaffetz	-11.4472
▁engaging	-11.4472
▁switzerland	-11.4472
▁delaware	-11.4472
▁jeremy	-11.4472
▁offshore	-11.4472
▁Lawsuit	-11.4472
▁fireworks	-11.4472
▁isolated	-11.4472
▁Legal	-11.4472
▁memories	-11.4475
ctively	-11.4507
▁Manchester	-11.4521
▁Melania	-11.4521
▁contemporary	-11.4521
▁mohammed	-11.4521
▁Wisconsin	-11.4521
▁splash	-11.4525
donnell	-11.454
ddling	-11.4565
▁Special	-11.4571
▁categories	-11.4571
▁compensation	-11.4571
▁pedestrian	-11.4571
▁junior	-11.4571
▁1995	-11.4571
▁passionate	-11.4571
▁widow	-11.4571
wald	-11.4571
▁lindsey	-11.4571
▁polish	-11.4571
▁qualify	-11.4571
▁Self	-11.4572
▁benchmark	-11.4572
▁advertisers	-11.4573
letting	-11.4603
▁assassin	-11.4616
▁accompanied	-11.4622
▁diplomacy	-11.4622
▁grandmother	-11.4622
▁participating	-11.4622
▁prosecute	-11.4622
▁View	-11.4622
which	-11.4664
▁addict	-11.4665
▁speculat	-11.4666
▁bombshell	-11.4672
▁ingredient	-11.4672
▁murphy	-11.4672
▁treasure	-11.4672
▁Film	-11.4672
▁Price	-11.4673
▁moines	-11.4674
▁virgin	-11.4698
▁Governor	-11.4723
▁administrative	-11.4723
▁reynolds	-11.4723
▁Liberal	-11.4723
▁suppress	-11.4723
▁bargain	-11.4723
▁underscore	-11.4724
▁tyler	-11.4727
▁centuries	-11.4774
▁recognition	-11.4774
▁RNC	-11.4774
▁farewell	-11.4774
▁plaza	-11.4777
▁meyer	-11.4788
placing	-11.4814
▁opera	-11.4815
▁Silicon	-11.4825
▁Tuesday	-11.4825
▁nebraska	-11.4825
▁occupation	-11.4825
▁spacecraft	-11.4825
▁1992	-11.4825
▁ESPN	-11.4825
▁nikki	-11.4825
▁closure	-11.4825
▁assured	-11.4826
▁slain	-11.4827
▁manuel	-11.4827
▁propose	-11.484
conservative	-11.4871
would	-11.4871
▁Pentagon	-11.4877
▁gabriel	-11.4877
▁starbucks	-11.4877
▁swirl	-11.4877
▁Romney	-11.4877
▁Learn	-11.4878
▁array	-11.4878
▁steer	-11.4883
complete	-11.4923
▁Thousands	-11.4928
▁graduation	-11.4928
▁municipal	-11.4928
▁portfolio	-11.4928
▁precinct	-11.4928
▁rousseff	-11.4928
▁transparency	-11.4928
▁uncomfortable	-11.4928
▁populism	-11.4928
▁vicious	-11.4929
▁Father	-11.4929
▁absent	-11.4929
▁autonomous	-11.4981
▁conservatism	-11.4981
▁literature	-11.4981
▁rosenstein	-11.4981
▁relax	-11.4981
▁empower	-11.4982
▁relieve	-11.4991
depend	-11.5031
▁Yahoo	-11.5033
▁lesbian	-11.5033
▁occupied	-11.5033
▁NBA	-11.5033
▁genuine	-11.5033
▁stomach	-11.5033
▁attached	-11.5033
▁therefore	-11.5033
islam	-11.5044
▁chronic	-11.5053
▁detainee	-11.5086
▁fiorina	-11.5086
▁pneumonia	-11.5086
▁provocative	-11.5086
▁Through	-11.5086
▁uncovered	-11.5086
▁Democrat	-11.5086
version	-11.5092
▁Criminal	-11.5138
▁nutrition	-11.5138
▁spectacle	-11.5138
reasonable	-11.514
▁bestsell	-11.5141
▁whale	-11.5146
▁aggravate	-11.5192
▁territori	-11.5192
▁arsenal	-11.5192
▁exciting	-11.5192
▁gesture	-11.5192
▁collide	-11.5192
▁poured	-11.5193
▁contend	-11.5195
▁invite	-11.5207
▁Dakota	-11.5245
▁psychological	-11.5245
▁havana	-11.5245
▁ritual	-11.5245
▁Voting	-11.5245
▁betray	-11.5247
▁acres	-11.5249
▁Refus	-11.5249
▁allegation	-11.5265
build	-11.529
▁instrument	-11.5299
▁regain	-11.5299
▁Risk	-11.53
▁panama	-11.5311
cultural	-11.5352
▁1997	-11.5353
▁Michelle	-11.5353
▁incumbent	-11.5353
▁philosophy	-11.5353
▁prestigious	-11.5353
▁vegetable	-11.5353
▁centrist	-11.5353
▁clause	-11.5353
praising	-11.5353
▁travis	-11.5354
cleveland	-11.5407
▁allegiance	-11.5407
▁excellent	-11.5407
▁recipient	-11.5407
▁reservation	-11.5407
▁roosevelt	-11.5407
▁Nomination	-11.5407
▁stumble	-11.5407
▁storage	-11.5407
▁Blue	-11.5408
▁robbed	-11.5408
▁emirates	-11.5462
▁escalating	-11.5462
▁faculty	-11.5462
▁producing	-11.5462
▁EPA	-11.5462
▁Yemen	-11.5462
▁dishonest	-11.5462
▁recreation	-11.5462
▁casualties	-11.5462
▁ncaa	-11.5462
▁anxious	-11.5462
▁defy	-11.5463
▁rational	-11.5466
▁neuro	-11.5478
▁cemetery	-11.5517
▁enthusiasm	-11.5517
▁improving	-11.5517
▁credibility	-11.5517
▁envoy	-11.5517
▁elliman	-11.5517
▁lawrence	-11.5517
Suicide	-11.5517
▁Afghanistan	-11.5572
▁Economic	-11.5572
▁Stephen	-11.5572
▁hijack	-11.5572
▁reboot	-11.5572
▁bishop	-11.5572
▁ellison	-11.5572
▁martha	-11.5573
▁Shut	-11.5573
▁gallery	-11.5574
▁celeb	-11.5627
▁genocide	-11.5628
▁scrambling	-11.5628
▁rodriguez	-11.5628
▁trophy	-11.5628
▁gorilla	-11.5628
▁obscure	-11.5628
▁shoppers	-11.5628
▁Resign	-11.5629
archivebot	-11.5629
▁Female	-11.5684
▁immunity	-11.5684
▁schweizer	-11.5684
▁wrestling	-11.5684
▁hurdle	-11.5684
▁wasserman	-11.5684
▁hollande	-11.5684
▁Word	-11.5684
▁rabbi	-11.5686
north	-11.5696
Fac	-11.5709
▁component	-11.574
▁horizon	-11.574
▁perceived	-11.574
▁cigarette	-11.574
▁spectrum	-11.574
▁resemble	-11.574
▁Friend	-11.574
▁trooper	-11.574
▁filter	-11.574
▁katie	-11.574
▁Data	-11.574
▁Birth	-11.574
▁scope	-11.5741
▁reiterat	-11.5741
Opinion	-11.5741
Exclusive	-11.5743
yeah	-11.5746
leader	-11.5746
▁complet	-11.5761
▁confederate	-11.5796
▁precedent	-11.5796
▁retaliation	-11.5796
▁dennis	-11.5796
▁gonzal	-11.5796
▁hampton	-11.5796
▁debris	-11.5796
▁ambush	-11.5796
▁mutual	-11.5796
▁cannon	-11.58
writing	-11.5801
▁Treat	-11.5802
▁Hampshire	-11.5853
▁accelerate	-11.5853
▁arrangement	-11.5853
▁census	-11.5853
▁memorable	-11.5853
▁prevail	-11.5853
▁generous	-11.5853
▁doomed	-11.5854
▁Feel	-11.5855
▁disturb	-11.5904
▁collision	-11.591
▁credentials	-11.591
▁liberties	-11.591
▁obligation	-11.591
▁retweet	-11.591
▁zillow	-11.591
▁pursuing	-11.591
▁convoy	-11.591
▁abolish	-11.591
▁nelson	-11.591
▁policing	-11.591
▁curry	-11.5911
▁provok	-11.5913
▁subsidies	-11.5968
▁imminent	-11.5968
▁plaintiff	-11.5968
▁reassure	-11.5968
▁ahmad	-11.5968
▁communicate	-11.5968
▁Italy	-11.597
▁predator	-11.5972
▁accusation	-11.6021
▁Brussels	-11.6025
▁kislyak	-11.6025
▁maneuver	-11.6025
▁occupy	-11.6025
▁enrique	-11.6025
▁throat	-11.6025
▁yellen	-11.6026
▁richmond	-11.6026
▁drastic	-11.6026
▁clarify	-11.6026
▁crystal	-11.6026
▁Parents	-11.6026
▁smear	-11.6026
▁subtle	-11.6028
▁possess	-11.6073
▁Knicks	-11.6084
▁penalties	-11.6084
▁mandatory	-11.6084
▁goodbye	-11.6084
▁endorsing	-11.6084
▁expire	-11.6084
▁cotton	-11.6084
▁autism	-11.6085
▁destin	-11.6134
uckerberg	-11.6141
▁Afghan	-11.6142
▁Attorney	-11.6142
▁Inauguration	-11.6142
▁astonishing	-11.6142
▁concession	-11.6142
▁lieutenant	-11.6142
▁relentless	-11.6142
▁staggering	-11.6142
▁supplier	-11.6142
▁robinson	-11.6142
▁bitcoin	-11.6142
▁exxon	-11.6142
▁idaho	-11.6142
▁tmz	-11.6142
▁spear	-11.6143
▁Intelligence	-11.6201
▁Kaepernick	-11.6201
▁argentina	-11.6201
▁experiencing	-11.6201
▁ignoring	-11.6201
▁distant	-11.6202
following	-11.621
▁recess	-11.6253
▁swap	-11.6254
▁appropriation	-11.626
▁cavaliers	-11.626
▁conservation	-11.626
▁damascus	-11.626
▁raqqa	-11.626
▁survival	-11.626
▁Megyn	-11.626
▁rahami	-11.626
▁reversal	-11.626
▁duties	-11.626
▁cairo	-11.6261
▁parliamentar	-11.6278
▁dorm	-11.6283
▁enforc	-11.6303
▁McCain	-11.632
▁minneapolis	-11.632
▁motorcycle	-11.632
▁lebanon	-11.632
▁tropical	-11.632
▁Interview	-11.632
▁Lawyer	-11.6321
Dollar	-11.6323
▁Caucus	-11.6379
▁Louisiana	-11.6379
▁participation	-11.6379
▁rallied	-11.6379
▁Friday	-11.6379
▁defiant	-11.638
▁lopez	-11.638
▁apparel	-11.638
▁dominant	-11.638
▁grief	-11.638
▁genital	-11.638
▁defence	-11.638
▁enhance	-11.638
▁proportion	-11.638
▁swipe	-11.6381
michael	-11.6391
▁Full	-11.6404
discriminate	-11.644
▁Cleveland	-11.644
▁NYPD	-11.644
▁cocktail	-11.644
▁1989	-11.644
▁activism	-11.644
▁improper	-11.644
▁contrary	-11.644
▁kassam	-11.644
▁harlem	-11.644
▁cardinal	-11.644
▁slur	-11.6442
▁nicolas	-11.65
▁supermarket	-11.65
▁thriller	-11.65
▁northeastern	-11.65
▁solicit	-11.65
▁hoax	-11.65
▁thread	-11.6501
▁blond	-11.6512
defining	-11.6518
▁Pakistan	-11.6561
▁disappointment	-11.6561
▁Continue	-11.6561
▁Merkel	-11.6561
▁limbaugh	-11.6561
▁obsessed	-11.6561
▁orthodox	-11.6561
▁sacrifice	-11.6561
▁applause	-11.6561
▁Jersey	-11.6561
▁munich	-11.6561
▁respectively	-11.6561
▁smiling	-11.6561
▁bureaucrat	-11.6562
▁swath	-11.6576
▁pearl	-11.6616
▁Presidency	-11.6623
▁Reject	-11.6623
▁DeVos	-11.6623
▁compelling	-11.6623
▁complications	-11.6623
▁conglomerate	-11.6623
▁financing	-11.6623
▁unauthorized	-11.6623
▁volkswagen	-11.6623
▁scratch	-11.6623
▁upgrade	-11.6623
▁depth	-11.6623
▁ousted	-11.6624
When	-11.6637
▁profess	-11.6673
catastrophic	-11.6684
▁delegation	-11.6684
▁exposure	-11.6684
▁syndrome	-11.6684
▁League	-11.6684
▁spiral	-11.6685
▁upheld	-11.6685
▁Movie	-11.6685
▁Coming	-11.6686
▁instinct	-11.6691
▁corcoran	-11.6746
▁dialogue	-11.6746
▁emanuel	-11.6746
▁microphone	-11.6746
▁critique	-11.6747
▁reluctant	-11.6747
▁1998	-11.6747
▁nashville	-11.6747
▁Budget	-11.6747
▁penthouse	-11.6747
▁pistol	-11.6747
▁intimate	-11.6747
▁showcase	-11.6748
▁Plea	-11.6762
psycho	-11.6766
update	-11.6785
▁consolidat	-11.6809
▁besieged	-11.6809
▁obstacle	-11.6809
▁sufficient	-11.6809
▁Canadian	-11.6809
▁thwart	-11.6809
▁warfare	-11.6809
▁layoffs	-11.6809
▁Consider	-11.6809
▁lewd	-11.681
▁meteor	-11.681
▁Martin	-11.681
▁verbal	-11.6811
▁Abuse	-11.6821
twitter	-11.6826
▁bharara	-11.6872
▁fragile	-11.6872
▁lochte	-11.6872
▁kanye	-11.6872
▁Believe	-11.6873
▁Cancel	-11.6884
absolutely	-11.6889
▁Arizona	-11.6935
▁Committee	-11.6935
▁Schumer	-11.6935
▁commencement	-11.6935
▁diabetes	-11.6935
▁ecuador	-11.6935
▁obsession	-11.6935
▁shkreli	-11.6935
▁timothy	-11.6935
▁ukrainian	-11.6935
▁Patriot	-11.6935
▁Williams	-11.6935
▁culminat	-11.6935
▁feminism	-11.6935
▁solidarity	-11.6935
▁literary	-11.6935
▁clarity	-11.6935
▁Stories	-11.6935
▁longstanding	-11.6935
▁mohamed	-11.6935
▁wrongdoing	-11.6935
:00	-11.6936
▁Search	-11.6936
Brexit	-11.6953
▁unfortunate	-11.6958
▁defie	-11.6969
▁Matthew	-11.6999
▁acclaimed	-11.6999
▁deutsche	-11.6999
▁excitement	-11.6999
▁nasdaq	-11.6999
▁unpredictable	-11.6999
▁System	-11.6999
▁Weapon	-11.6999
▁inflict	-11.6999
▁Trial	-11.6999
▁revolt	-11.7
▁snake	-11.7
▁1984	-11.7063
▁collaboration	-11.7063
▁grandfather	-11.7063
▁huckabee	-11.7063
▁sophisticated	-11.7063
Citizen	-11.7063
▁backdrop	-11.7063
▁revival	-11.7063
▁Cosby	-11.7064
▁emoji	-11.7066
beirut	-11.7073
▁Access	-11.7127
▁Brooklyn	-11.7127
▁Netflix	-11.7127
▁margaret	-11.7127
▁Center	-11.7128
▁slice	-11.7136
CNN	-11.7148
earlier	-11.7148
▁Effort	-11.7192
▁NASA	-11.7192
▁examining	-11.7192
▁hijab	-11.7192
▁surviving	-11.7192
▁tobacco	-11.7192
▁volatile	-11.7192
▁applaud	-11.7192
▁parallel	-11.7192
▁valuation	-11.7192
▁decrease	-11.7192
▁studied	-11.7193
▁ankara	-11.7193
▁Minister	-11.7258
▁default	-11.7258
▁regulate	-11.7258
▁identities	-11.7258
▁manufacture	-11.7285
▁Cabinet	-11.7324
▁alexandria	-11.7324
▁economies	-11.7324
▁fracture	-11.7324
▁observation	-11.7324
▁Coulter	-11.7324
▁Number	-11.7324
▁vulgar	-11.7324
▁favour	-11.7324
▁Expert	-11.7324
▁homeowner	-11.7324
▁Reason	-11.7324
▁Since	-11.7324
▁advancing	-11.739
▁cyberattack	-11.739
▁microcephaly	-11.739
▁salvador	-11.739
Hamilton	-11.739
▁Charles	-11.739
▁skull	-11.739
▁forthcoming	-11.739
crooked	-11.7393
characterized	-11.7434
▁SCOTUS	-11.7456
▁organizing	-11.7456
▁shinzo	-11.7456
▁Expect	-11.7457
▁ahmed	-11.7457
▁slamming	-11.7457
▁Pull	-11.7459
cruz	-11.7482
▁inspire	-11.7484
▁1991	-11.7524
▁Delegate	-11.7524
▁Economy	-11.7524
▁NATO	-11.7524
▁authentic	-11.7524
▁blizzard	-11.7524
▁jurisdiction	-11.7524
▁sebastian	-11.7524
▁subscription	-11.7524
▁supervisor	-11.7524
▁dignity	-11.7524
▁Crowd	-11.7524
▁clerk	-11.7525
▁plug	-11.7526
▁Create	-11.7545
▁1979	-11.7591
▁1993	-11.7591
▁Adviser	-11.7591
▁certificate	-11.7591
▁currencies	-11.7591
▁devastated	-11.7591
▁furniture	-11.7591
▁Document	-11.7591
▁harassed	-11.7591
▁wield	-11.7591
lapse	-11.7592
▁organic	-11.7594
philadelphia	-11.7618
▁Hospital	-11.7659
▁Turkish	-11.7659
▁altogether	-11.7659
▁cologne	-11.7659
▁controversies	-11.7659
▁protocol	-11.7659
▁sacramento	-11.7659
▁cautious	-11.7659
▁circus	-11.7659
▁garbage	-11.7659
▁probation	-11.7659
▁advertise	-11.7665
maybe	-11.7672
▁Smith	-11.7673
advertisement	-11.7719
▁Anthony	-11.7728
▁Hurricane	-11.7728
▁Nevada	-11.7728
▁buffalo	-11.7728
