<unk>	0
<s>	0
</s>	0
▁the	-3.16503
,	-3.36695
.	-3.53579
s	-3.54141
▁a	-3.8533
▁to	-3.90902
▁of	-3.94732
’	-4.00569
▁in	-4.12465
▁and	-4.16955
▁	-4.57604
▁on	-4.78322
▁that	-4.83738
."	-4.85985
▁for	-4.8982
▁is	-5.06347
,"	-5.17097
▁trump	-5.24928
▁“	-5.27133
▁with	-5.31211
▁was	-5.33467
▁it	-5.36263
▁at	-5.48249
▁his	-5.5145
▁he	-5.52493
▁as	-5.57439
:	-5.59291
▁from	-5.60303
—	-5.62631
t	-5.63908
▁by	-5.65286
▁”	-5.71485
▁has	-5.71641
ing	-5.72538
▁an	-5.72865
▁said	-5.79268
▁’	-5.84134
”	-5.86409
▁be	-5.86865
▁new	-5.89378
ed	-5.90051
▁are	-5.93461
▁have	-5.94393
▁who	-6.02199
▁but	-6.04402
▁this	-6.06327
,”	-6.10017
▁not	-6.11102
▁(	-6.11856
▁i	-6.1446
▁about	-6.15317
▁after	-6.17116
▁president	-6.20651
▁her	-6.23144
▁will	-6.28321
▁donald	-6.29421
▁they	-6.29888
d	-6.29925
)	-6.31832
▁their	-6.32473
▁one	-6.33644
▁"	-6.3854
▁you	-6.39204
▁been	-6.43202
▁had	-6.44167
the	-6.44417
▁more	-6.4712
","	-6.48514
a	-6.49517
▁were	-6.50338
▁out	-6.51317
▁clinton	-6.51608
▁over	-6.5197
▁she	-6.52192
▁its	-6.53852
i	-6.55003
▁we	-6.55817
▁u	-6.55907
▁people	-6.56517
▁or	-6.57556
▁up	-6.58342
▁-	-6.59206
▁s	-6.62172
▁when	-6.63124
▁which	-6.65688
ly	-6.66679
▁would	-6.67892
▁what	-6.6889
▁first	-6.69972
▁than	-6.71832
▁state	-6.73269
▁into	-6.74391
▁breitbart	-6.77523
-	-6.78314
▁all	-6.80474
▁two	-6.81066
▁york	-6.83726
▁house	-6.87341
▁can	-6.88648
▁news	-6.89932
▁last	-6.90057
re	-6.91479
▁just	-6.91949
▁[	-6.92602
y	-6.95609
▁year	-6.95657
▁no	-6.95884
▁years	-6.9612
▁obama	-6.96679
▁so	-6.96876
▁time	-6.97058
▁us	-6.98468
er	-6.98784
▁there	-6.99605
▁some	-7.00285
▁like	-7.01367
▁week	-7.01472
▁campaign	-7.01472
▁police	-7.0165
▁how	-7.04044
in	-7.04343
m	-7.0567
▁now	-7.0607
▁republican	-7.06272
▁if	-7.0723
▁presidential	-7.07463
▁him	-7.07795
?	-7.08961
▁could	-7.09836
▁hillary	-7.1033
▁most	-7.1043
▁times	-7.11787
▁white	-7.13107
▁according	-7.13465
▁other	-7.15797
▁told	-7.16532
▁against	-7.16926
▁world	-7.18398
▁before	-7.20358
▁day	-7.21873
e	-7.2273
▁do	-7.23732
▁during	-7.24247
▁national	-7.24658
▁tuesday	-7.25591
▁says	-7.25623
▁friday	-7.2566
▁former	-7.2578
▁‘	-7.27215
▁election	-7.28413
▁american	-7.289
▁also	-7.29159
▁may	-7.2968
▁thursday	-7.30276
cnn	-7.30604
▁man	-7.30973
▁city	-7.3206
▁back	-7.3207
▁them	-7.3324
▁court	-7.33274
▁states	-7.33383
it	-7.34698
▁our	-7.35483
▁monday	-7.3556
▁down	-7.38522
▁while	-7.38829
▁wednesday	-7.39809
▁united	-7.40001
▁my	-7.40492
n	-7.40802
▁country	-7.4179
▁many	-7.41857
▁government	-7.42532
▁even	-7.43549
▁made	-7.44958
▁night	-7.45219
▁where	-7.45568
▁here	-7.46815
▁percent	-7.46859
▁get	-7.48071
▁off	-7.48982
▁million	-7.50104
▁your	-7.5066
▁media	-7.51192
▁because	-7.51199
▁party	-7.51892
▁being	-7.5239
▁since	-7.52682
▁say	-7.53196
▁show	-7.53261
▁only	-7.54821
▁women	-7.5586
▁federal	-7.57138
ve	-7.58071
▁bill	-7.58516
▁america	-7.58818
▁three	-7.58932
▁make	-7.59051
▁sunday	-7.60027
▁me	-7.61819
on	-7.61877
r	-7.62161
▁company	-7.62544
▁group	-7.63294
▁political	-7.63443
▁home	-7.63752
▁way	-7.64707
al	-7.6472
▁under	-7.64932
▁administration	-7.65678
▁democratic	-7.66371
▁between	-7.67758
o	-7.67914
▁washington	-7.67914
▁officials	-7.70092
es	-7.70366
▁saturday	-7.70548
▁those	-7.70817
▁should	-7.70897
▁through	-7.71012
▁law	-7.71131
▁report	-7.71881
▁want	-7.72179
▁did	-7.7257
▁public	-7.73023
▁security	-7.73169
▁take	-7.73196
▁department	-7.74028
▁don	-7.74255
▁around	-7.74372
▁much	-7.75599
▁know	-7.76237
▁called	-7.76723
▁any	-7.76759
▁office	-7.7707
▁going	-7.77237
▁health	-7.77713
▁attack	-7.77844
▁north	-7.78424
▁days	-7.79135
▁still	-7.79734
▁000	-7.79925
▁black	-7.79972
▁found	-7.8014
▁part	-7.80295
we	-7.8062
▁post	-7.80624
th	-7.81266
▁why	-7.81452
▁go	-7.82017
▁think	-7.83978
p	-7.84111
▁school	-7.84114
▁right	-7.85085
▁next	-7.86668
▁life	-7.8755
▁nominee	-7.87804
▁reported	-7.88469
▁un	-7.89253
▁another	-7.89466
▁gop	-7.89518
▁vote	-7.89605
▁war	-7.89614
▁then	-7.90059
▁)	-7.90381
▁work	-7.91361
▁including	-7.91749
▁killed	-7.92523
▁deal	-7.93284
▁good	-7.93473
▁big	-7.93758
▁top	-7.94035
c	-7.943
▁both	-7.94361
▁press	-7.94469
▁these	-7.95128
▁twitter	-7.95182
▁death	-7.95297
▁long	-7.95302
▁senate	-7.95303
▁team	-7.95346
▁russia	-7.95614
▁candidate	-7.95682
▁woman	-7.95839
▁family	-7.96069
▁m	-7.96351
▁month	-7.96408
▁2016	-7.96534
▁own	-7.96734
▁very	-7.97277
▁need	-7.97673
▁left	-7.97958
▁support	-7.98391
▁policy	-7.98985
▁won	-7.99397
▁university	-7.99403
▁video	-7.99419
▁republicans	-8.00105
▁secretary	-8.00824
▁morning	-8.011
▁sanders	-8.01664
▁cruz	-8.02196
▁south	-8.02335
▁took	-8.02389
.”	-8.02536
▁end	-8.02653
▁well	-8.02671
▁great	-8.03086
▁four	-8.03434
▁debate	-8.03729
▁statement	-8.03801
▁least	-8.03886
▁announced	-8.04089
▁ago	-8.04445
▁case	-8.05169
▁de	-8.05191
▁asked	-8.05382
▁see	-8.05907
▁chief	-8.0652
ers	-8.07291
man	-8.07402
▁men	-8.07822
▁few	-8.08018
▁p	-8.08115
▁business	-8.08348
or	-8.08447
▁john	-8.08519
▁released	-8.08726
ll	-8.08917
▁director	-8.09015
▁care	-8.09202
▁high	-8.09293
▁past	-8.09553
▁c	-8.09659
▁set	-8.10016
▁months	-8.10068
▁russian	-8.1009
▁help	-8.10203
▁plan	-8.10554
an	-8.1107
▁recent	-8.12063
▁come	-8.12129
▁general	-8.12212
▁might	-8.12386
▁executive	-8.12589
▁americans	-8.12691
▁came	-8.13795
▁democrats	-8.14018
ic	-8.14062
▁use	-8.14183
▁interview	-8.14271
u	-8.14341
▁win	-8.14465
▁cnn	-8.14928
▁billion	-8.14964
▁committee	-8.15038
▁never	-8.15444
▁voters	-8.15536
▁such	-8.1591
▁major	-8.16281
▁order	-8.16408
▁change	-8.16686
▁speech	-8.16766
▁whether	-8.17052
▁second	-8.17061
▁across	-8.17431
▁best	-8.1778
▁reports	-8.17795
▁history	-8.18065
▁place	-8.18132
▁10	-8.18158
k	-8.18242
▁early	-8.18446
▁every	-8.18785
▁got	-8.1904
▁used	-8.19436
▁fbi	-8.19685
▁race	-8.19714
▁far	-8.19942
le	-8.20742
▁justice	-8.21095
▁car	-8.21124
▁among	-8.21548
en	-8.21815
▁china	-8.22002
▁re	-8.2213
▁military	-8.22718
▁story	-8.2279
▁five	-8.22857
▁street	-8.2289
▁wall	-8.23033
▁star	-8.23792
▁investigation	-8.23932
▁sen	-8.24521
▁leader	-8.24593
▁today	-8.24759
▁texas	-8.24776
▁look	-8.24897
b	-8.25449
▁judge	-8.25596
f	-8.25784
▁put	-8.26042
▁several	-8.26099
▁too	-8.2624
▁children	-8.26375
▁away	-8.26445
▁known	-8.26591
▁email	-8.26597
▁social	-8.26826
▁facebook	-8.2706
▁congress	-8.27128
▁same	-8.2719
▁immigration	-8.27359
▁california	-8.27865
▁saying	-8.28026
as	-8.28029
▁fox	-8.28079
▁nearly	-8.28205
▁little	-8.2837
▁members	-8.28918
▁latest	-8.29092
▁again	-8.29138
▁didn	-8.29308
▁without	-8.29343
▁call	-8.29557
▁foreign	-8.29844
▁become	-8.29972
▁live	-8.30111
▁nation	-8.3101
▁mr	-8.31221
▁decision	-8.31553
▁head	-8.31589
▁ever	-8.31841
g	-8.32436
▁really	-8.33097
▁islamic	-8.3346
▁game	-8.33862
▁yet	-8.34025
▁official	-8.34203
▁daily	-8.34349
▁power	-8.3438
▁gun	-8.34454
▁shot	-8.34646
▁supreme	-8.34664
▁number	-8.34689
▁real	-8.34706
▁behind	-8.3521
▁j	-8.35282
▁died	-8.35605
▁things	-8.3571
▁young	-8.35936
▁making	-8.36213
▁act	-8.36447
▁face	-8.36784
▁minister	-8.37341
▁lot	-8.37524
▁please	-8.37582
▁d	-8.38066
▁already	-8.38287
▁name	-8.38381
▁center	-8.38396
▁international	-8.38765
▁syria	-8.38778
▁season	-8.38965
▁dead	-8.38988
▁march	-8.39038
▁near	-8.39189
▁2	-8.39585
▁money	-8.40438
▁series	-8.40445
▁air	-8.40672
▁move	-8.4074
l	-8.40775
▁something	-8.40822
▁host	-8.40823
▁later	-8.4104
▁conservative	-8.41101
▁5	-8.41256
▁intelligence	-8.4141
▁meeting	-8.4149
▁fire	-8.41515
▁o	-8.41925
to	-8.41996
▁late	-8.42224
▁hours	-8.42254
▁hit	-8.42354
▁border	-8.42776
▁less	-8.4293
▁went	-8.42938
this	-8.42977
▁politics	-8.43459
▁officer	-8.43883
▁does	-8.44221
▁barack	-8.44635
▁florida	-8.44709
▁james	-8.45352
▁stop	-8.45558
▁paul	-8.45755
▁system	-8.45756
▁conference	-8.45813
▁service	-8.46092
▁tax	-8.4612
▁local	-8.46139
▁following	-8.46257
▁20	-8.46413
▁attacks	-8.46556
▁rights	-8.46804
▁question	-8.46885
▁lead	-8.46927
▁shooting	-8.46957
▁open	-8.47038
▁likely	-8.47503
▁close	-8.47551
▁control	-8.47612
▁ban	-8.47693
▁west	-8.47711
▁agency	-8.47717
▁job	-8.48202
?,"	-8.48587
▁run	-8.48614
▁seen	-8.48637
▁students	-8.48711
▁market	-8.48734
▁six	-8.48779
▁1	-8.49245
▁pay	-8.49256
▁ads	-8.49344
at	-8.49491
▁attorney	-8.4971
washington	-8.49722
▁union	-8.49764
▁ryan	-8.4978
▁final	-8.50364
▁point	-8.50786
▁leaders	-8.51024
▁poll	-8.51275
▁global	-8.51299
▁college	-8.51344
▁once	-8.51567
no	-8.51633
▁earlier	-8.51799
▁information	-8.51994
he	-8.52102
▁trade	-8.52336
▁korea	-8.52489
▁shows	-8.52571
▁himself	-8.52819
▁doesn	-8.52852
▁taking	-8.52859
▁carolina	-8.52936
▁weeks	-8.53837
▁fight	-8.53856
▁officers	-8.53926
▁authorities	-8.54261
,"’	-8.54276
▁began	-8.5435
▁trying	-8.54388
if	-8.54402
▁k	-8.54436
▁keep	-8.54446
▁obamacare	-8.54703
▁stories	-8.54768
▁primary	-8.5489
▁each	-8.55232
▁event	-8.55254
▁better	-8.55479
▁thing	-8.55519
▁comes	-8.55536
▁book	-8.55661
▁san	-8.55782
▁comey	-8.55988
▁continue	-8.56063
▁weekend	-8.561
trump	-8.56158
▁start	-8.56207
▁free	-8.56365
▁3	-8.56603
▁tv	-8.56698
▁record	-8.56759
▁clear	-8.57022
▁town	-8.57062
▁convention	-8.57282
el	-8.57513
▁human	-8.57536
▁expected	-8.5775
▁future	-8.5789
▁companies	-8.58137
▁working	-8.58294
▁special	-8.58297
▁ted	-8.58344
h	-8.58595
▁european	-8.58609
la	-8.59348
▁find	-8.59362
▁county	-8.59412
▁arrested	-8.59533
▁bernie	-8.59593
▁love	-8.59596
▁economic	-8.59657
▁private	-8.59949
▁almost	-8.60235
▁let	-8.60253
▁outside	-8.60453
’,"	-8.60921
▁matter	-8.61331
able	-8.61363
▁old	-8.61377
▁wrote	-8.61996
▁water	-8.62248
▁countries	-8.6252
ion	-8.62545
▁until	-8.62745
▁getting	-8.62833
▁st	-8.62856
▁plans	-8.6309
▁supporters	-8.63227
▁small	-8.63521
▁though	-8.63526
▁running	-8.63578
▁victory	-8.63645
is	-8.64007
▁data	-8.64313
▁isis	-8.64696
▁questions	-8.64777
▁lives	-8.64901
▁n	-8.65751
▁michael	-8.6589
▁talk	-8.66098
▁person	-8.66284
▁film	-8.66448
▁f	-8.66629
▁taken	-8.66923
▁mexico	-8.67023
▁issue	-8.67071
▁key	-8.67089
▁having	-8.67686
▁accused	-8.67862
▁sources	-8.67901
z	-8.68061
▁mother	-8.681
▁financial	-8.68189
▁thousands	-8.68227
▁side	-8.68336
▁using	-8.68428
▁biggest	-8.68612
▁hard	-8.69018
▁bank	-8.69073
▁receive	-8.69119
▁syrian	-8.69237
▁believe	-8.69295
▁enough	-8.69296
▁along	-8.69369
▁line	-8.69447
▁program	-8.69454
▁legal	-8.69778
▁father	-8.70096
▁give	-8.70465
▁son	-8.70546
▁held	-8.70588
▁whose	-8.7083
▁different	-8.70853
▁follow	-8.70871
▁senior	-8.70875
▁defense	-8.70937
▁student	-8.71103
▁force	-8.7146
▁leave	-8.71583
▁lost	-8.7178
5	-8.7196
▁food	-8.72139
▁east	-8.72159
▁apple	-8.72264
▁online	-8.72402
▁4	-8.72516
▁rubio	-8.72717
▁senator	-8.73049
▁full	-8.73055
▁led	-8.73082
▁bad	-8.73218
▁fact	-8.73413
▁drug	-8.73582
ist	-8.73725
▁claims	-8.73911
▁despite	-8.73929
▁often	-8.73952
▁coming	-8.74005
▁prime	-8.74007
▁recently	-8.74602
▁[“	-8.74965
▁isn	-8.75082
▁capital	-8.75093
▁7	-8.75281
▁role	-8.75354
▁david	-8.75406
▁governor	-8.75451
▁thought	-8.75507
▁iran	-8.75838
▁wife	-8.7607
▁jobs	-8.76089
▁8	-8.76536
▁others	-8.76647
▁nomination	-8.76663
w	-8.76667
▁inside	-8.76769
▁always	-8.76829
▁process	-8.76905
▁e	-8.76912
▁published	-8.76964
and	-8.77038
▁partners	-8.77054
▁ceo	-8.77409
▁muslim	-8.77467
▁network	-8.77714
▁front	-8.77789
▁la	-8.7797
ity	-8.78088
▁climate	-8.78162
▁started	-8.78179
▁forces	-8.78437
▁sex	-8.78451
▁6	-8.78459
▁co	-8.7848
▁9	-8.78538
▁seven	-8.78771
▁actually	-8.78839
▁rally	-8.78879
▁charged	-8.79306
▁park	-8.79369
▁must	-8.79457
▁mark	-8.79872
▁am	-8.80062
▁release	-8.80114
▁writing	-8.80167
▁sexual	-8.80248
▁economy	-8.80251
▁bring	-8.80266
▁charges	-8.80282
▁british	-8.803
▁below	-8.80337
▁looking	-8.80551
▁100	-8.80552
▁middle	-8.80698
▁problem	-8.80759
▁possible	-8.80776
▁turned	-8.80884
▁sign	-8.80896
ta	-8.80995
▁oil	-8.81041
▁per	-8.81156
▁murder	-8.81306
ton	-8.81445
▁action	-8.81459
▁board	-8.8151
▁district	-8.81639
▁course	-8.82027
▁community	-8.82038
▁battle	-8.82578
▁london	-8.82687
▁central	-8.82747
▁sent	-8.8279
▁violence	-8.82802
▁watch	-8.83
us	-8.83026
▁study	-8.83143
▁ahead	-8.8318
▁building	-8.83195
ting	-8.83199
x	-8.83225
▁wants	-8.83297
▁child	-8.83608
▁prison	-8.83665
▁instead	-8.8368
▁moment	-8.83988
▁room	-8.84221
▁read	-8.84265
▁travel	-8.84278
▁workers	-8.84371
▁industry	-8.84445
ry	-8.84505
▁decades	-8.84793
▁became	-8.84824
▁play	-8.84962
▁super	-8.85018
▁half	-8.852
▁illegal	-8.85227
less	-8.85228
▁updates	-8.85251
▁third	-8.85412
▁list	-8.8549
na	-8.85788
there	-8.85887
▁11	-8.85911
for	-8.86089
▁cut	-8.8623
ling	-8.86438
▁important	-8.8661
un	-8.86679
▁killing	-8.86721
▁b	-8.86728
▁staff	-8.86869
▁january	-8.87107
▁largest	-8.87184
▁response	-8.87273
▁gov	-8.87304
▁evidence	-8.87356
one	-8.87378
▁europe	-8.87465
▁chairman	-8.87612
▁w	-8.87729
▁presidency	-8.87763
▁rep	-8.87917
▁kind	-8.87993
▁candidates	-8.88019
▁calls	-8.88047
you	-8.88308
ri	-8.88347
▁space	-8.88414
il	-8.88579
▁calling	-8.88734
▁message	-8.8885
▁address	-8.88858
▁music	-8.8887
▁crisis	-8.88973
▁issues	-8.89049
▁letter	-8.89379
▁body	-8.89625
▁evening	-8.89668
▁15	-8.89709
▁doing	-8.89719
▁met	-8.89723
▁summer	-8.89728
▁com	-8.89811
co	-8.89972
ment	-8.89993
▁member	-8.90128
▁november	-8.90282
▁confirmed	-8.90369
▁reporters	-8.90549
▁afternoon	-8.90716
▁tell	-8.9096
son	-8.91014
▁bush	-8.91109
▁nuclear	-8.91252
▁comments	-8.91416
▁view	-8.91678
▁hospital	-8.91763
am	-8.91823
▁protest	-8.91964
▁enforcement	-8.92205
▁mike	-8.92372
▁civil	-8.92405
▁april	-8.92668
te	-8.93033
▁red	-8.93058
▁area	-8.934
▁turn	-8.93506
▁short	-8.93669
?”	-8.93725
▁price	-8.93882
?"	-8.93989
▁given	-8.9409
▁popular	-8.94147
▁research	-8.94309
▁personal	-8.94397
▁june	-8.94491
▁assault	-8.94554
when	-8.94623
▁together	-8.9476
▁steps	-8.94785
▁los	-8.94786
▁french	-8.9506
▁50	-8.95189
▁large	-8.95245
▁angeles	-8.95253
▁soon	-8.9539
▁wanted	-8.95545
▁words	-8.95994
ma	-8.96033
▁12	-8.96316
▁wrong	-8.96592
▁30	-8.96787
▁girl	-8.96843
ne	-8.97
▁criminal	-8.97067
▁sponsors	-8.97098
▁terrorist	-8.97303
▁wasn	-8.97321
ism	-8.97341
▁adviser	-8.97398
▁field	-8.97682
▁phone	-8.97717
▁effort	-8.97729
▁groups	-8.98095
▁friends	-8.98186
▁britain	-8.98248
▁display	-8.98301
▁iraq	-8.98321
▁internet	-8.98387
▁added	-8.98436
▁george	-8.98529
▁review	-8.98586
est	-8.99161
▁within	-8.99298
▁g	-8.99314
▁toward	-8.99454
▁fall	-8.99467
▁done	-8.99547
▁leading	-8.99635
▁gave	-8.99636
ia	-8.99637
▁movie	-8.99667
▁hand	-8.99701
▁rules	-8.99766
▁test	-8.99793
▁appeared	-8.99812
▁israel	-8.99966
▁green	-9.00024
▁interest	-9.00093
▁crowd	-9.00187
▁happened	-9.0025
▁nothing	-9.00265
▁posted	-9.00369
do	-9.00383
▁makes	-9.00464
donald	-9.00488
▁potential	-9.00515
▁congressional	-9.00662
de	-9.00856
ish	-9.00886
▁age	-9.01038
ce	-9.01092
▁threat	-9.01216
▁idea	-9.01279
▁received	-9.01348
▁education	-9.01724
v	-9.01891
▁le	-9.02104
1	-9.0217
ive	-9.02279
▁terror	-9.02282
▁majority	-9.02343
ian	-9.02372
ted	-9.02377
▁however	-9.02509
▁vice	-9.0259
ation	-9.02794
▁organization	-9.02797
▁19	-9.02835
▁planned	-9.02846
▁parents	-9.02999
▁france	-9.03031
▁budget	-9.03041
▁tried	-9.03404
ch	-9.03619
▁showed	-9.03624
▁lawsuit	-9.03664
▁chicago	-9.03665
▁saw	-9.0369
7	-9.03744
▁access	-9.03765
▁july	-9.03863
▁mass	-9.03866
▁medical	-9.03921
ra	-9.04016
▁pence	-9.04055
j	-9.04274
▁eight	-9.04399
▁island	-9.04568
▁reportedly	-9.04734
▁spent	-9.0493
▁failed	-9.04965
▁claim	-9.05097
▁daughter	-9.05118
▁meet	-9.05145
▁sea	-9.05236
▁fired	-9.05325
2	-9.05472
▁repeal	-9.05488
▁finally	-9.05532
▁ohio	-9.05664
▁iowa	-9.06035
▁sales	-9.0607
▁heard	-9.06398
▁based	-9.06398
▁crime	-9.06454
▁suspect	-9.06479
▁protesters	-9.06536
▁heart	-9.0659
▁named	-9.06618
▁mayor	-9.06736
▁sessions	-9.06827
▁site	-9.0689
▁movement	-9.06951
▁putin	-9.06989
▁boy	-9.07123
ty	-9.07124
▁stage	-9.07166
"	-9.07274
▁stock	-9.07289
▁speaker	-9.074
▁hold	-9.07474
▁18	-9.07613
▁current	-9.07734
▁single	-9.07987
▁secret	-9.0799
▁living	-9.08239
▁pick	-9.08268
▁filed	-9.08333
▁...	-9.08383
▁pro	-9.08537
ness	-9.08674
ap	-9.08686
▁anti	-9.08853
▁feel	-9.08944
▁paris	-9.09014
▁growing	-9.09112
▁share	-9.09188
▁emails	-9.09239
▁points	-9.09446
▁ground	-9.0947
▁results	-9.0954
▁career	-9.09551
▁victims	-9.09867
me	-9.09876
▁amid	-9.10024
▁source	-9.10032
▁services	-9.10059
▁someone	-9.10106
▁immigrants	-9.10266
▁firm	-9.10374
▁brought	-9.10378
▁reason	-9.10468
▁reporter	-9.10545
4	-9.10612
▁female	-9.10673
▁bar	-9.10689
▁visit	-9.10734
▁alleged	-9.10844
▁hundreds	-9.10954
▁radio	-9.10965
▁millions	-9.10973
▁agreement	-9.11128
▁television	-9.11281
▁minutes	-9.11392
▁position	-9.11557
▁hope	-9.11657
▁technology	-9.11816
▁everyone	-9.11872
▁turkey	-9.1193
▁seems	-9.12272
▁due	-9.12349
▁article	-9.12434
▁claimed	-9.12539
▁incident	-9.12615
▁stand	-9.12859
▁revealed	-9.12952
▁light	-9.12999
▁foundation	-9.13008
▁hearing	-9.13093
▁al	-9.13188
▁rise	-9.13236
▁select	-9.13252
▁policies	-9.13492
▁step	-9.13521
▁inc	-9.13565
▁google	-9.13694
▁station	-9.13742
id	-9.13842
▁low	-9.1389
▁employees	-9.13935
▁means	-9.13988
ie	-9.13995
▁couple	-9.14173
▁hollywood	-9.14222
▁return	-9.14235
▁tech	-9.14259
▁gay	-9.14319
▁everything	-9.14387
▁science	-9.14476
▁polls	-9.14508
▁husband	-9.14755
▁themselves	-9.14755
▁allegedly	-9.14832
▁strong	-9.1484
▁v	-9.14848
▁land	-9.14901
▁virginia	-9.14924
▁bid	-9.1493
▁annual	-9.15015
9	-9.15181
▁editor	-9.15247
▁voting	-9.15312
▁king	-9.15555
▁spokesman	-9.15587
▁talking	-9.15674
▁takes	-9.15866
▁efforts	-9.15868
▁hall	-9.16234
▁rate	-9.16298
▁club	-9.16315
▁anything	-9.16339
▁jeff	-9.16339
▁trial	-9.16495
▁growth	-9.16497
▁airport	-9.16523
▁chinese	-9.16627
▁chris	-9.16653
▁lawmakers	-9.16779
▁church	-9.16852
▁account	-9.16978
president	-9.17028
▁blocking	-9.17227
▁army	-9.17265
▁described	-9.17385
▁buy	-9.17405
8	-9.17497
▁art	-9.17561
▁massive	-9.17742
▁mexican	-9.17831
mo	-9.17893
▁miles	-9.17945
▁energy	-9.18149
▁speaking	-9.18265
▁con	-9.18495
▁fans	-9.18496
ca	-9.1852
my	-9.18605
▁class	-9.18723
▁able	-9.18808
▁cost	-9.18838
led	-9.18883
▁cities	-9.19056
▁refugees	-9.19069
▁fund	-9.19094
▁flight	-9.19103
ter	-9.19105
▁spending	-9.19128
▁reality	-9.19195
ul	-9.19222
▁coast	-9.19384
▁mean	-9.1939
▁southern	-9.19448
▁manager	-9.19465
▁decided	-9.19882
▁friend	-9.19973
▁democrat	-9.19993
▁longer	-9.20006
▁risk	-9.20073
▁sure	-9.2014
▁council	-9.20378
ad	-9.20497
▁german	-9.20523
▁2015	-9.20532
▁passed	-9.20605
▁saudi	-9.20715
po	-9.20756
▁ex	-9.208
▁goes	-9.20808
▁probably	-9.2091
ar	-9.21057
▁leaving	-9.2114
▁voted	-9.21181
▁signed	-9.21373
▁cash	-9.21449
▁choice	-9.21622
▁author	-9.2183
ate	-9.21859
▁project	-9.22036
ur	-9.22243
▁brown	-9.22541
▁stay	-9.22561
▁concerns	-9.22636
▁coverage	-9.2281
▁freedom	-9.23049
▁sports	-9.231
▁atlantic	-9.23152
▁try	-9.23159
▁rather	-9.23284
▁scandal	-9.2338
▁attention	-9.23463
▁true	-9.23552
▁serious	-9.2357
▁zika	-9.23627
▁kids	-9.23684
ent	-9.23685
▁website	-9.23715
▁itself	-9.23731
▁extension	-9.23765
▁events	-9.2382
▁40	-9.23909
▁offer	-9.24225
per	-9.24279
out	-9.24295
▁injured	-9.24311
▁spoke	-9.24311
▁tells	-9.24521
▁further	-9.2463
▁nations	-9.24723
▁1,	-9.24741
ge	-9.24783
▁chance	-9.24844
▁fear	-9.2535
▁rock	-9.25461
ine	-9.25583
3	-9.25629
▁votes	-9.25645
▁helped	-9.25721
▁february	-9.25731
▁trip	-9.25795
▁bannon	-9.25812
▁reuters	-9.25845
ley	-9.25959
▁uber	-9.25969
▁labor	-9.26222
▁investors	-9.26224
▁flynn	-9.26274
▁break	-9.26295
up	-9.26345
▁details	-9.2637
▁jersey	-9.2646
▁paid	-9.26523
▁magazine	-9.26647
▁league	-9.26709
after	-9.26848
▁billionaire	-9.2701
▁games	-9.27018
▁documents	-9.27081
▁scene	-9.27084
▁eu	-9.27088
▁germany	-9.27185
▁issued	-9.27294
da	-9.27379
6	-9.27382
rs	-9.27404
▁13	-9.27581
▁photo	-9.27584
▁rose	-9.27698
land	-9.27806
▁cover	-9.2816
▁level	-9.28166
▁written	-9.28319
▁rival	-9.28348
▁dr	-9.28384
▁raised	-9.28609
ies	-9.28861
ous	-9.28896
▁forward	-9.28941
▁bit	-9.28963
▁gets	-9.29027
▁word	-9.29064
▁2017	-9.29084
▁storm	-9.29117
▁manhattan	-9.29184
▁scientists	-9.29349
ant	-9.29498
▁controversial	-9.29501
ke	-9.29596
▁ad	-9.29597
▁talks	-9.29689
▁culture	-9.29698
▁worth	-9.29719
▁winning	-9.29802
▁shares	-9.29836
what	-9.29843
▁december	-9.2995
▁channel	-9.29969
▁attempt	-9.3005
▁launched	-9.30182
▁answer	-9.30316
ized	-9.30389
▁fighting	-9.30442
▁especially	-9.30451
0	-9.3048
▁protests	-9.30499
▁families	-9.30515
▁nbc	-9.30563
▁declared	-9.30609
▁road	-9.30652
new	-9.30859
▁robert	-9.30871
▁joe	-9.30894
▁allow	-9.30912
▁worst	-9.31018
▁build	-9.31029
ful	-9.31124
▁images	-9.31273
▁’’	-9.31286
▁anyone	-9.31341
▁hill	-9.31353
▁term	-9.314
▁fell	-9.31455
▁looks	-9.31462
▁remain	-9.31573
▁14	-9.31869
▁hear	-9.31897
▁worked	-9.32012
▁hands	-9.3205
▁store	-9.32073
▁giant	-9.32081
▁cause	-9.32162
▁residents	-9.32258
▁marco	-9.32287
▁johnson	-9.32394
▁terrorism	-9.32533
▁quickly	-9.32603
▁orlando	-9.32733
▁cases	-9.32813
ated	-9.32991
con	-9.33076
▁hate	-9.33088
▁reach	-9.33226
▁region	-9.33327
ba	-9.33389
▁professor	-9.33433
▁mar	-9.33433
▁join	-9.33543
▁elected	-9.33645
▁appears	-9.33663
▁opposition	-9.33802
▁insurance	-9.33828
▁immediately	-9.33985
▁include	-9.34008
▁total	-9.34053
be	-9.3415
▁mind	-9.3419
▁result	-9.34202
▁milo	-9.34242
▁stephen	-9.34268
▁hotel	-9.34704
ary	-9.34737
▁page	-9.34756
▁plane	-9.34834
so	-9.34849
▁created	-9.3496
▁reform	-9.34982
▁tweet	-9.34999
▁charge	-9.35008
▁cast	-9.35046
▁kelly	-9.35215
▁born	-9.35271
se	-9.3533
▁lower	-9.35362
lo	-9.35381
▁perhaps	-9.35418
▁protect	-9.35548
▁inauguration	-9.35637
▁rest	-9.35772
▁note	-9.3585
▁train	-9.35915
▁seem	-9.35941
▁send	-9.35947
▁ask	-9.35963
▁september	-9.35988
▁rule	-9.36318
▁briefing	-9.36367
▁abortion	-9.36439
▁safety	-9.36452
▁football	-9.36788
▁ended	-9.36936
▁push	-9.36964
ni	-9.37191
▁quarter	-9.37192
▁consider	-9.37233
▁francisco	-9.37415
▁huge	-9.37435
▁played	-9.37523
▁25	-9.37554
▁en	-9.37575
▁associated	-9.37588
▁ties	-9.37589
ner	-9.37591
ka	-9.37631
▁model	-9.37642
▁steve	-9.37856
▁learned	-9.37925
▁app	-9.37999
▁17	-9.38067
▁opening	-9.38147
▁facing	-9.38153
▁sense	-9.38196
▁base	-9.38202
▁experience	-9.38212
▁opened	-9.38363
▁peace	-9.38451
▁weapons	-9.38463
▁replace	-9.38468
▁strike	-9.38533
▁cancer	-9.38617
▁focus	-9.38629
▁probe	-9.38639
▁nine	-9.38701
▁forced	-9.38753
▁gas	-9.38754
ff	-9.389
▁relationship	-9.38937
our	-9.38969
▁500	-9.39049
▁spicer	-9.39087
▁piece	-9.39178
▁birth	-9.39194
▁ben	-9.39271
▁fellow	-9.39301
ha	-9.39323
▁transgender	-9.39339
▁pass	-9.39403
▁giving	-9.39449
▁involved	-9.39461
▁common	-9.39462
▁asking	-9.3947
▁conservatives	-9.39532
▁multiple	-9.39769
▁r	-9.39797
▁familiar	-9.39864
▁dis	-9.39873
▁powerful	-9.39908
▁experts	-9.39967
▁l	-9.39982
▁nfl	-9.40071
▁brexit	-9.40136
▁launch	-9.40141
▁legislation	-9.40218
▁transition	-9.40222
▁exchange	-9.40285
li	-9.4033
ally	-9.40396
▁western	-9.40534
▁h	-9.40542
▁blue	-9.40573
▁identified	-9.40658
▁voice	-9.40663
▁eastern	-9.40803
by	-9.41003
ey	-9.41008
▁estate	-9.4116
▁continued	-9.41163
▁criticism	-9.41225
▁whole	-9.41303
they	-9.41347
▁migrants	-9.4145
▁comment	-9.41491
▁remains	-9.41527
age	-9.41539
▁search	-9.41548
▁rio	-9.41582
▁pressure	-9.41634
▁commission	-9.41696
▁t	-9.41756
▁problems	-9.41764
et	-9.41771
▁users	-9.41887
▁allegations	-9.41908
▁fashion	-9.42055
▁korean	-9.42236
▁hot	-9.42352
▁ba	-9.42421
ga	-9.42613
▁citizens	-9.42627
▁baby	-9.42674
▁kill	-9.42719
▁august	-9.42776
▁else	-9.42825
▁decade	-9.42853
▁increase	-9.42888
im	-9.42934
▁scott	-9.42973
pe	-9.42991
▁playing	-9.43034
▁chair	-9.43081
▁et	-9.43148
▁needs	-9.43158
▁gone	-9.43222
▁liberal	-9.43252
▁begin	-9.43273
▁numbers	-9.43296
▁offered	-9.43296
▁gold	-9.43437
▁square	-9.43477
▁surprise	-9.43479
▁players	-9.4375
▁prices	-9.43793
▁japan	-9.43832
▁2016,	-9.44029
▁ambassador	-9.44067
▁armed	-9.44096
▁journal	-9.44101
▁actor	-9.44155
▁camp	-9.44191
go	-9.44316
▁ruling	-9.44371
▁faces	-9.44527
▁understand	-9.44622
▁via	-9.44683
▁previous	-9.44683
▁announcement	-9.44742
▁performance	-9.44774
▁religious	-9.44802
▁earth	-9.44812
▁16	-9.44818
▁seemed	-9.44823
▁missile	-9.44831
▁loss	-9.44837
▁either	-9.44885
▁round	-9.44958
▁michigan	-9.44985
▁iphone	-9.44987
tic	-9.44994
▁pa	-9.45219
▁changed	-9.4525
▁october	-9.45259
▁founder	-9.45264
▁ready	-9.45349
▁beach	-9.45407
▁campus	-9.45528
▁1.	-9.45603
over	-9.4565
▁uk	-9.45652
▁remarks	-9.45664
ci	-9.45755
▁lawyer	-9.45842
▁northern	-9.45861
▁track	-9.45928
▁pennsylvania	-9.45956
ro	-9.4597
▁mo	-9.45994
▁floor	-9.46012
▁tweeted	-9.46014
▁suicide	-9.4602
▁apparently	-9.46195
▁independent	-9.4634
▁showing	-9.46365
▁warned	-9.46639
▁currently	-9.46653
▁version	-9.4677
ster	-9.4691
▁caught	-9.46922
▁npr	-9.46926
ex	-9.46951
▁israeli	-9.46968
well	-9.46974
▁agreed	-9.46986
▁tower	-9.47028
▁average	-9.47151
▁disease	-9.47162
▁bomb	-9.4717
not	-9.47198
▁photos	-9.47233
▁century	-9.47336
▁jail	-9.47341
▁cars	-9.47375
ho	-9.47561
va	-9.47729
▁knew	-9.47787
▁ho	-9.47806
▁girls	-9.47857
▁joined	-9.48001
▁abuse	-9.48018
▁dozens	-9.48048
▁missing	-9.48056
▁rape	-9.48098
▁sheriff	-9.48103
that	-9.48194
▁fake	-9.48209
▁included	-9.48283
▁similar	-9.48352
▁activists	-9.48366
▁needed	-9.48375
▁victim	-9.48613
▁higher	-9.48828
▁entire	-9.48861
▁block	-9.48872
▁broke	-9.48891
▁target	-9.48914
▁warning	-9.48991
▁main	-9.49114
▁broadcast	-9.49181
ah	-9.49213
▁affordable	-9.49317
▁form	-9.49374
▁arrest	-9.4943
▁cleveland	-9.49467
▁provide	-9.49567
▁bowl	-9.49605
▁exactly	-9.49653
▁leadership	-9.49719
▁save	-9.49739
▁pretty	-9.49773
▁tour	-9.49953
▁standing	-9.49955
▁provided	-9.49966
▁dangerous	-9.49976
▁hampshire	-9.50017
▁previously	-9.50151
▁suit	-9.50192
▁amazon	-9.50294
▁guilty	-9.50418
▁establishment	-9.50477
▁period	-9.50489
▁funding	-9.50541
▁brand	-9.50567
▁certain	-9.50577
▁discuss	-9.50632
▁picture	-9.50745
▁schools	-9.50809
▁emergency	-9.50825
▁sean	-9.50862
▁ways	-9.51028
▁challenge	-9.51307
▁driver	-9.51365
▁el	-9.51519
▁seat	-9.51603
▁reached	-9.51689
▁protection	-9.51851
▁explained	-9.51944
▁proposed	-9.52018
▁deep	-9.52034
mon	-9.52106
ny	-9.52113
di	-9.52153
▁allowed	-9.52178
▁african	-9.52287
▁happen	-9.52456
▁jones	-9.52509
▁pre	-9.52532
▁pic	-9.52724
▁caused	-9.5279
▁moving	-9.52809
ver	-9.53042
▁24	-9.53123
▁felt	-9.53131
▁owner	-9.53175
▁wake	-9.53379
but	-9.53462
▁seeking	-9.53489
▁episode	-9.53492
▁dallas	-9.53622
▁beyond	-9.53668
▁2014	-9.53669
▁iraqi	-9.53729
▁virus	-9.5378
▁beat	-9.53807
▁audience	-9.53828
▁delegates	-9.5388
▁speak	-9.53881
▁christian	-9.53884
ize	-9.53888
presumptive	-9.53943
▁investment	-9.53998
▁request	-9.54052
with	-9.54065
▁figure	-9.54107
▁rates	-9.54175
▁fast	-9.54176
▁whom	-9.54185
▁drop	-9.54255
▁critics	-9.54261
▁lose	-9.5434
▁hour	-9.5439
▁feet	-9.5442
▁pop	-9.54483
▁guy	-9.54509
▁above	-9.54553
▁holding	-9.54602
▁success	-9.547
ig	-9.54757
▁parties	-9.5482
▁survey	-9.5482
▁brooklyn	-9.54929
▁brain	-9.55228
▁”[	-9.5524
▁suggested	-9.55247
ir	-9.55395
▁deadly	-9.55418
▁apartment	-9.55432
▁simple	-9.55509
▁impact	-9.55592
▁wisconsin	-9.55704
▁significant	-9.55738
▁raise	-9.55754
▁agenda	-9.55841
▁create	-9.55979
▁dog	-9.56077
▁dropped	-9.56091
▁agents	-9.56107
▁exclusive	-9.56182
▁signs	-9.56468
▁band	-9.5648
▁brief	-9.56483
▁considered	-9.56506
▁pen	-9.5655
all	-9.56616
▁ran	-9.56723
▁laws	-9.56729
▁olympic	-9.5675
▁changes	-9.568
▁looked	-9.56858
▁cops	-9.56872
▁prosecutors	-9.56927
▁canada	-9.56939
▁na	-9.56994
▁valley	-9.57016
▁christmas	-9.57037
▁favorite	-9.57103
▁enter	-9.57363
▁ca	-9.57415
▁safe	-9.57533
▁easy	-9.57584
▁avoid	-9.57599
▁discovered	-9.57668
▁conversation	-9.57684
▁situation	-9.57692
▁aid	-9.57713
▁modern	-9.57757
dy	-9.57829
▁feature	-9.57933
▁truth	-9.58037
▁kasich	-9.58073
▁arrived	-9.58076
▁ra	-9.58155
▁appear	-9.5819
▁beginning	-9.58227
▁coach	-9.58244
▁particularly	-9.58379
▁sell	-9.58441
▁kim	-9.58452
▁21	-9.58504
▁telling	-9.58589
▁door	-9.58709
em	-9.5873
▁quite	-9.58752
▁dollars	-9.58762
▁aren	-9.58781
mp	-9.58828
▁poor	-9.5885
▁followed	-9.58943
▁tom	-9.59053
▁song	-9.59097
▁tim	-9.59159
▁newspaper	-9.5918
▁researchers	-9.59292
▁album	-9.59316
▁streets	-9.59321
▁development	-9.59381
▁martin	-9.59401
▁abc	-9.59437
▁sound	-9.5948
▁sale	-9.59517
▁ma	-9.59593
▁violent	-9.59616
tion	-9.59644
▁blood	-9.59654
▁agencies	-9.59663
▁alone	-9.59687
▁check	-9.59741
▁famous	-9.59743
▁served	-9.59756
▁grand	-9.59846
▁wearing	-9.59877
▁60	-9.59935
let	-9.59937
▁fed	-9.59941
▁crash	-9.59969
▁starting	-9.60036
▁mc	-9.60065
▁richard	-9.60082
▁conflict	-9.60106
ac	-9.60116
▁sometimes	-9.60129
▁throughout	-9.60159
▁lack	-9.60276
lin	-9.60276
▁panel	-9.60278
que	-9.60305
▁title	-9.6033
▁defeat	-9.60454
▁records	-9.60543
▁jr	-9.6062
▁relations	-9.60625
▁rich	-9.60647
▁trail	-9.60964
▁sanctions	-9.60994
▁moved	-9.61055
▁arabia	-9.61142
▁maybe	-9.61149
▁2015,	-9.61251
▁player	-9.61259
▁effect	-9.61319
▁responded	-9.61391
▁pulled	-9.6142
▁radical	-9.61424
▁navy	-9.61497
▁serve	-9.61517
▁allies	-9.61572
▁wins	-9.61622
she	-9.61636
▁date	-9.61697
▁lady	-9.61777
▁marriage	-9.61937
▁deputy	-9.62115
old	-9.62196
ten	-9.62406
▁van	-9.62416
▁guard	-9.62442
▁brazil	-9.62572
▁paper	-9.62633
▁muslims	-9.6274
▁bus	-9.62869
▁male	-9.63006
▁convicted	-9.63204
▁character	-9.63334
▁wounded	-9.63342
▁appearance	-9.63351
▁refugee	-9.6336
▁favor	-9.63374
▁era	-9.63552
bb	-9.63569
▁honor	-9.63602
▁losing	-9.63664
▁mission	-9.63685
▁critical	-9.63723
▁georgia	-9.63757
▁worse	-9.63769
▁restaurant	-9.63809
▁buzzfeed	-9.63839
▁spring	-9.63902
bi	-9.64021
▁drive	-9.64063
ler	-9.64191
▁joint	-9.64212
▁gorsuch	-9.64357
▁dream	-9.64368
▁fourth	-9.64378
▁lee	-9.64434
▁population	-9.64449
▁$1	-9.64529
▁spread	-9.64532
line	-9.64542
▁singer	-9.64786
▁treatment	-9.64822
▁watching	-9.64823
▁believed	-9.64834
▁marine	-9.64903
▁smith	-9.64919
▁delivered	-9.64941
▁voter	-9.6503
▁river	-9.65118
▁fair	-9.65163
▁tough	-9.65259
les	-9.65361
▁truck	-9.65407
▁customers	-9.65419
▁politicians	-9.65539
▁institute	-9.65543
▁although	-9.65618
▁afghanistan	-9.65635
▁simply	-9.65662
hillary	-9.6571
▁suspected	-9.65761
▁historic	-9.65885
▁mostly	-9.65889
▁association	-9.65911
▁proposal	-9.66063
▁increasingly	-9.66246
ger	-9.66287
▁example	-9.66348
▁taxes	-9.66437
▁msnbc	-9.66464
▁path	-9.66549
▁facts	-9.66563
▁lu	-9.66599
men	-9.66687
▁sold	-9.66724
▁markets	-9.66744
▁bo	-9.66812
▁22	-9.6684
▁condition	-9.66923
▁attacked	-9.66968
how	-9.67019
▁debt	-9.67023
▁difficult	-9.67031
▁terms	-9.67055
sen	-9.67182
▁du	-9.67195
lu	-9.67204
▁shared	-9.67215
vi	-9.6728
▁mis	-9.67346
▁carry	-9.67437
▁struck	-9.67489
▁gender	-9.67598
▁boost	-9.67602
▁racist	-9.67697
▁largely	-9.67752
▁turns	-9.67844
▁strategy	-9.67864
▁expect	-9.67877
▁mosul	-9.67959
▁communications	-9.68009
▁built	-9.68101
▁actions	-9.68165
den	-9.68175
▁flag	-9.68319
▁original	-9.6841
▁spend	-9.68451
▁god	-9.68509
ru	-9.68559
▁capitol	-9.68619
▁prevent	-9.68667
▁couldn	-9.6876
der	-9.68799
mar	-9.68809
▁eyes	-9.68817
▁ideas	-9.68893
izing	-9.69248
▁table	-9.69251
▁thanks	-9.69254
▁classified	-9.6929
▁vehicle	-9.69348
▁scheduled	-9.69406
▁ordered	-9.69494
▁remember	-9.69527
▁drugs	-9.69625
▁dark	-9.69713
▁va	-9.69889
▁fraud	-9.69937
▁closed	-9.70003
▁server	-9.70054
ber	-9.70135
▁scalia	-9.70146
▁promise	-9.70179
▁platform	-9.70333
▁opportunity	-9.70337
▁peter	-9.70418
▁subject	-9.7045
▁indiana	-9.7045
▁language	-9.70556
▁related	-9.70656
▁ball	-9.70665
▁traffic	-9.70942
▁fuel	-9.71024
▁activist	-9.71073
io	-9.71119
▁aleppo	-9.71157
▁turkish	-9.71163
▁demand	-9.71222
▁mom	-9.71225
▁becoming	-9.71341
▁cabinet	-9.71403
▁controversy	-9.71499
▁image	-9.71525
▁cannot	-9.71534
mi	-9.71659
▁planning	-9.71816
▁rare	-9.71878
▁sun	-9.71916
▁approach	-9.71928
▁ta	-9.71994
▁england	-9.72086
▁businesses	-9.72329
▁investigators	-9.72494
▁fan	-9.72499
▁cuts	-9.72548
▁revenue	-9.72577
▁reporting	-9.7264
▁christie	-9.72678
▁measure	-9.72756
▁environmental	-9.72787
▁awards	-9.72797
▁confirmation	-9.72883
▁continues	-9.72984
▁goal	-9.73068
▁dinner	-9.73072
▁herself	-9.73088
▁production	-9.7309
▁brother	-9.73147
ee	-9.73194
▁journalists	-9.7327
▁teen	-9.73274
▁yes	-9.73407
pi	-9.73421
▁practice	-9.73456
▁holiday	-9.73557
▁village	-9.7359
▁putting	-9.73636
▁cold	-9.73668
▁pe	-9.73669
sh	-9.73698
fi	-9.73777
▁planet	-9.73792
▁cia	-9.7381
▁electoral	-9.73865
▁amendment	-9.73867
▁guns	-9.7392
▁agree	-9.73928
▁banks	-9.73934
▁unit	-9.73965
▁caucus	-9.74018
▁eye	-9.74029
▁trust	-9.74049
▁promised	-9.74056
▁influence	-9.7408
com	-9.74086
▁lo	-9.74128
▁2012	-9.74134
▁hu	-9.74136
▁rising	-9.74148
▁troops	-9.74182
▁parliament	-9.74224
▁denied	-9.74265
▁tweets	-9.74341
▁operations	-9.74341
▁threats	-9.74357
▁names	-9.74501
▁domestic	-9.74566
▁adding	-9.74644
▁bridge	-9.74648
▁doctors	-9.74717
▁ice	-9.74718
▁driving	-9.74787
▁publicly	-9.74817
▁parts	-9.74918
▁views	-9.75034
▁elections	-9.75052
nd	-9.7506
▁pope	-9.75173
▁hurt	-9.75251
▁lines	-9.75347
▁wikileaks	-9.75566
▁wave	-9.75597
▁edge	-9.75705
▁offering	-9.75721
time	-9.75812
▁200	-9.75862
▁stopped	-9.75881
▁conway	-9.75889
▁jan	-9.75902
▁range	-9.76038
▁straight	-9.76085
▁accounts	-9.76089
▁books	-9.7618
▁jewish	-9.7629
▁reasons	-9.76457
▁sat	-9.76654
▁fla	-9.76696
▁agent	-9.76697
▁exit	-9.76713
mer	-9.76756
▁society	-9.76801
▁areas	-9.76834
▁cop	-9.76902
▁vladimir	-9.76904
▁cbs	-9.76912
▁arizona	-9.76931
▁fresh	-9.7696
ol	-9.76993
▁islam	-9.77079
▁highest	-9.77177
▁seek	-9.77197
▁hopes	-9.77214
▁li	-9.77249
▁pair	-9.77339
▁repeatedly	-9.7737
▁available	-9.77419
▁baseball	-9.77423
▁investigating	-9.77522
▁dozen	-9.77539
▁argued	-9.77587
▁veteran	-9.77592
▁walk	-9.77685
▁draft	-9.77817
▁philadelphia	-9.77892
▁thinking	-9.77921
▁hair	-9.78053
▁refused	-9.7811
▁false	-9.78142
ham	-9.78155
▁bay	-9.78218
▁wouldn	-9.7824
▁cuba	-9.78317
▁chemical	-9.78392
▁color	-9.78398
ti	-9.78533
▁boston	-9.7865
ance	-9.78775
▁management	-9.78778
▁drama	-9.78873
▁dollar	-9.79036
▁includes	-9.79105
▁returns	-9.7915
▁citing	-9.79196
▁dies	-9.792
▁doctor	-9.7925
▁23	-9.79272
▁funds	-9.79313
year	-9.7933
▁stone	-9.79384
tro	-9.79431
▁works	-9.79523
▁di	-9.79818
▁appeals	-9.79917
▁canadian	-9.80073
▁prince	-9.80146
▁text	-9.80248
▁failure	-9.80697
red	-9.80699
▁anthony	-9.80823
▁alex	-9.80916
▁shortly	-9.8098
▁winner	-9.81041
▁present	-9.81069
os	-9.8114
▁digital	-9.81318
▁da	-9.81368
▁williams	-9.81378
▁traditional	-9.81487
▁shut	-9.81552
some	-9.81631
▁status	-9.81644
▁warren	-9.8166
▁happy	-9.81675
▁senators	-9.81688
▁jackson	-9.81863
bo	-9.81872
▁operation	-9.81891
ck	-9.81902
▁oregon	-9.81965
▁india	-9.82011
house	-9.82011
▁neighborhood	-9.8233
▁faced	-9.82371
▁meant	-9.82491
ier	-9.82583
▁individual	-9.82686
▁lawyers	-9.82765
▁tillerson	-9.82863
▁products	-9.82922
▁ongoing	-9.82931
▁supposed	-9.83144
▁stood	-9.83162
▁bureau	-9.83162
▁tesla	-9.83286
▁racial	-9.83309
▁gathered	-9.83366
▁kept	-9.83381
▁amount	-9.83432
▁claiming	-9.83437
▁olympics	-9.83536
▁carried	-9.83548
▁healthcare	-9.83631
▁die	-9.83768
▁patrol	-9.83824
▁dad	-9.83838
don	-9.83873
▁aimed	-9.84113
▁aide	-9.8436
▁sitting	-9.84385
▁regard	-9.84419
▁andrew	-9.84581
▁criticized	-9.84641
▁festival	-9.84707
▁computer	-9.84851
▁carson	-9.85078
▁believes	-9.8509
▁stars	-9.85133
▁income	-9.85146
▁learn	-9.85157
▁appeal	-9.85237
▁sought	-9.85264
▁credit	-9.85357
▁im	-9.85428
▁compared	-9.85494
▁$1.	-9.85504
▁moscow	-9.85592
▁sa	-9.85596
▁colorado	-9.856
▁complex	-9.856
▁45	-9.85786
▁pentagon	-9.85824
▁romney	-9.85824
▁writer	-9.85892
▁deliver	-9.8591
▁transcript	-9.85937
▁occurred	-9.85939
▁jury	-9.85946
▁roughly	-9.85985
▁constitution	-9.86066
▁coalition	-9.86275
▁sp	-9.86291
▁gunman	-9.86305
▁reserve	-9.8632
▁style	-9.86322
▁helping	-9.86365
▁promises	-9.86511
▁turning	-9.86538
▁vi	-9.86567
▁militants	-9.86584
▁opinion	-9.86596
ut	-9.86719
▁gang	-9.86726
▁reagan	-9.86728
▁highly	-9.86798
▁homeland	-9.86928
▁blasio	-9.87069
▁frontrunner	-9.87069
▁reading	-9.87071
▁brussels	-9.87256
ney	-9.8728
▁discussion	-9.87281
▁stated	-9.87409
tu	-9.87441
▁..	-9.87612
▁training	-9.87844
▁trading	-9.87869
▁castro	-9.87883
▁writes	-9.87884
▁concern	-9.87896
▁iranian	-9.87906
▁museum	-9.87984
▁designed	-9.8799
▁pipeline	-9.881
▁spot	-9.88112
▁carrying	-9.88155
▁ten	-9.88164
from	-9.88222
min	-9.88353
▁declined	-9.88356
▁trouble	-9.88375
▁potentially	-9.88405
▁eat	-9.88448
▁louisiana	-9.88476
▁blame	-9.88484
▁actress	-9.88547
▁soldiers	-9.88662
▁$5	-9.88675
▁moments	-9.88696
▁setting	-9.8877
▁prosecutor	-9.88795
▁ka	-9.88803
▁journalist	-9.88832
▁considering	-9.88874
▁minority	-9.88917
▁regime	-9.88938
▁2008	-9.88982
▁arm	-9.88986
vo	-9.89004
▁combat	-9.89019
▁attempted	-9.89167
▁prominent	-9.89171
▁2013	-9.89179
▁various	-9.89255
▁avenue	-9.89372
▁responsible	-9.89372
▁firing	-9.89375
▁90	-9.89394
ron	-9.89461
▁disaster	-9.8953
▁damage	-9.89564
▁golden	-9.8967
▁doubt	-9.89752
ab	-9.89754
▁sentence	-9.89818
▁retired	-9.89832
ard	-9.89898
off	-9.89924
▁particular	-9.89946
▁identity	-9.89956
▁upcoming	-9.90092
▁complete	-9.90405
▁property	-9.90428
▁upon	-9.90439
▁dakota	-9.90543
▁japanese	-9.90546
▁admitted	-9.90548
▁contest	-9.90558
tra	-9.90572
▁pushed	-9.90656
▁thomas	-9.90705
▁crimes	-9.90766
▁nor	-9.9077
▁returned	-9.90776
▁authority	-9.9081
▁ability	-9.90837
▁parenthood	-9.90899
▁perfect	-9.90915
▁democracy	-9.91056
▁miami	-9.91141
▁approved	-9.91234
ned	-9.91347
▁row	-9.91423
br	-9.91548
▁dc	-9.91561
▁cuban	-9.91564
▁explain	-9.91697
▁wait	-9.9172
▁approval	-9.91729
▁ocean	-9.91729
▁comedy	-9.91773
▁obtained	-9.91815
▁selling	-9.91827
▁snow	-9.91832
way	-9.91847
▁homes	-9.91854
op	-9.91904
▁emerged	-9.9194
▁focused	-9.92075
▁ceremony	-9.92087
▁captured	-9.9209
▁winter	-9.92153
coming	-9.9222
▁yankees	-9.92266
▁onto	-9.92296
former	-9.92382
▁raising	-9.92449
▁threatened	-9.9254
▁teacher	-9.92546
her	-9.92775
▁follows	-9.92824
ina	-9.92848
▁golf	-9.92859
▁africa	-9.92861
▁document	-9.9295
▁partner	-9.93002
▁direct	-9.93008
ja	-9.93041
▁eric	-9.93123
ging	-9.93124
▁value	-9.93368
pa	-9.93442
▁miss	-9.93489
▁hasn	-9.93509
▁match	-9.93596
▁waiting	-9.93624
▁celebrate	-9.93715
▁wild	-9.93723
▁natural	-9.93729
▁fit	-9.93786
▁costs	-9.93808
▁nba	-9.93811
▁consumer	-9.93813
king	-9.93883
▁corporate	-9.93899
▁newly	-9.93919
▁attend	-9.94019
▁struggling	-9.94021
▁size	-9.94026
▁respect	-9.94073
▁treat	-9.94154
▁2,	-9.94223
car	-9.94243
▁hacking	-9.94246
▁conducted	-9.94248
▁content	-9.94369
▁referendum	-9.9451
▁finds	-9.94513
▁endorsement	-9.94518
▁tiny	-9.94536
▁levels	-9.94605
▁weather	-9.94633
▁regulations	-9.94645
▁ring	-9.94649
▁vehicles	-9.94674
▁2014,	-9.94678
▁sector	-9.94757
▁certainly	-9.94831
▁nice	-9.94887
ure	-9.94912
▁suggests	-9.95067
▁greatest	-9.95088
▁suspended	-9.95097
▁speed	-9.95126
▁successful	-9.95135
▁decide	-9.95191
▁ivanka	-9.95214
▁australia	-9.95239
just	-9.95321
▁defend	-9.95335
▁z	-9.95403
▁contract	-9.95426
▁deaths	-9.95432
▁michelle	-9.95443
▁stocks	-9.95552
▁progress	-9.95734
▁behavior	-9.95744
▁fifth	-9.95744
▁sort	-9.9577
▁figures	-9.95786
▁haven	-9.9586
▁card	-9.95862
▁housing	-9.95871
▁cl	-9.95955
back	-9.95976
▁internal	-9.96
▁killer	-9.96243
▁chuck	-9.96244
▁migrant	-9.9629
ning	-9.96291
ship	-9.96321
▁linked	-9.9633
▁commercial	-9.96367
▁concerned	-9.96414
ite	-9.96505
▁closer	-9.96589
▁espn	-9.96601
▁tonight	-9.96629
▁airlines	-9.9666
▁suffered	-9.96746
▁artist	-9.96765
▁cable	-9.96888
▁boss	-9.96936
▁alabama	-9.9704
▁prize	-9.97062
▁kushner	-9.97119
▁fears	-9.9713
▁walked	-9.972
▁happens	-9.97233
▁removed	-9.97293
▁widely	-9.97359
more	-9.97381
▁camera	-9.97382
▁italy	-9.97523
um	-9.97602
▁blow	-9.97622
▁testimony	-9.97624
▁longtime	-9.97794
▁web	-9.97867
▁product	-9.97958
▁ruled	-9.97973
volving	-9.97988
▁legacy	-9.98004
▁committed	-9.9801
▁lived	-9.98123
▁competition	-9.98131
▁rain	-9.98165
▁jim	-9.982
▁corruption	-9.98266
▁heat	-9.98332
▁pull	-9.98343
▁novel	-9.98392
▁double	-9.98395
▁26	-9.98414
▁background	-9.98521
▁ro	-9.98586
▁nevada	-9.98641
▁anchor	-9.98642
▁walking	-9.98662
▁80	-9.98742
▁footage	-9.98777
▁welcome	-9.98794
pl	-9.98825
▁bombing	-9.9884
▁pain	-9.98866
▁aides	-9.9888
▁directly	-9.98904
ence	-9.98917
▁terrorists	-9.98952
▁49	-9.98976
ud	-9.98981
▁y	-9.99017
▁analysis	-9.99025
▁27	-9.99068
gan	-9.99081
▁biden	-9.99222
ization	-9.99233
▁sleep	-9.99275
▁memorial	-9.99282
▁additional	-9.99305
▁native	-9.99431
za	-9.99437
▁pushing	-9.99505
▁70	-9.99539
▁bob	-9.99568
▁settlement	-9.99623
▁usually	-9.99751
▁constitutional	-9.99779
▁fa	-9.99847
▁increased	-9.99864
▁fine	-9.99927
▁academy	-9.99927
▁mate	-10
▁rhetoric	-10.0003
fox	-10.0007
▁professional	-10.0016
▁supporting	-10.0017
▁catholic	-10.0019
▁shift	-10.0023
▁offensive	-10.0028
▁concert	-10.0032
▁gives	-10.0038
▁francis	-10.0043
▁discussed	-10.0052
▁officially	-10.006
▁programs	-10.0062
▁session	-10.0069
▁ko	-10.007
▁instagram	-10.0071
▁william	-10.0071
▁gen	-10.0072
▁ride	-10.0074
▁heavy	-10.0084
▁communities	-10.0084
▁angry	-10.0084
▁revolution	-10.0084
▁2.	-10.0084
▁knows	-10.009
▁ethics	-10.0097
▁bathroom	-10.0098
▁memo	-10.01
ak	-10.0101
▁broken	-10.0103
▁finding	-10.0108
▁expressed	-10.0116
▁orders	-10.0119
▁mets	-10.0125
▁code	-10.0134
▁offers	-10.0138
▁ne	-10.0139
▁cross	-10.0141
▁resolution	-10.0149
▁patients	-10.0157
q	-10.0159
▁analysts	-10.0164
▁sister	-10.018
▁matt	-10.0184
▁foot	-10.0188
▁add	-10.0191
▁reveal	-10.0196
right	-10.0198
▁rick	-10.0202
▁quarterback	-10.0203
▁award	-10.0207
▁listen	-10.0215
▁measures	-10.0219
▁command	-10.0221
▁wear	-10.0222
ow	-10.0232
▁fix	-10.0237
▁design	-10.024
▁twice	-10.0242
▁plot	-10.0255
▁english	-10.0255
▁harassment	-10.0255
▁silicon	-10.0263
▁passengers	-10.0264
▁box	-10.0269
▁remove	-10.0277
▁generation	-10.0279
▁manchester	-10.028
▁unusual	-10.0282
▁representatives	-10.0285
▁charles	-10.0301
▁insider	-10.0303
▁task	-10.0305
▁plant	-10.0322
▁targeted	-10.0329
▁software	-10.0335
▁ha	-10.0352
▁nearby	-10.0353
▁fun	-10.0357
▁pregnant	-10.0362
white	-10.0367
▁completely	-10.0375
▁construction	-10.0376
▁stores	-10.0389
▁faith	-10.039
▁normal	-10.0391
▁places	-10.0394
wa	-10.0398
▁anger	-10.04
▁quick	-10.0402
▁acting	-10.0402
here	-10.0411
▁keeping	-10.0413
▁benefits	-10.0414
▁injuries	-10.0416
▁aircraft	-10.0416
▁sending	-10.0419
▁begins	-10.0421
▁paying	-10.0421
ial	-10.0428
▁mccain	-10.0429
▁grew	-10.043
▁pool	-10.0431
like	-10.0432
▁separate	-10.0439
▁standard	-10.0439
▁ship	-10.0442
▁confirm	-10.0447
▁urged	-10.045
▁argument	-10.0452
▁watched	-10.0454
▁conditions	-10.0457
dis	-10.0459
▁nato	-10.0461
▁ri	-10.0461
▁positive	-10.0463
ring	-10.0469
▁gain	-10.0471
according	-10.0476
▁accept	-10.0481
▁nightclub	-10.0484
ative	-10.0491
▁veterans	-10.0496
▁.)	-10.0499
’","	-10.0511
▁counter	-10.052
▁finance	-10.0522
▁breaking	-10.0527
▁animal	-10.0536
▁replacement	-10.0541
ct	-10.0541
▁weapon	-10.0542
▁choose	-10.0552
mb	-10.0554
▁representative	-10.0563
▁advice	-10.0566
▁summit	-10.0567
▁employee	-10.0567
▁sentenced	-10.0573
▁politico	-10.0576
hi	-10.0577
▁arms	-10.0593
▁assistant	-10.0593
▁sch	-10.0597
▁messages	-10.0604
▁giants	-10.0607
▁fatal	-10.0611
▁elizabeth	-10.0613
▁weight	-10.0616
oc	-10.0619
last	-10.0623
▁marijuana	-10.0623
very	-10.063
▁sky	-10.0634
cy	-10.0643
▁cultural	-10.0649
▁challenges	-10.0653
▁individuals	-10.0669
▁chain	-10.0671
▁immigrant	-10.0675
▁siriusxm	-10.0676
▁sharp	-10.0677
▁stands	-10.0679
▁civilians	-10.0689
war	-10.0692
▁readers	-10.0695
▁wage	-10.0704
▁roll	-10.0712
▁reaction	-10.0722
▁movies	-10.0729
of	-10.073
▁nov	-10.0731
▁responsibility	-10.0731
▁connection	-10.0735
▁port	-10.0758
▁worried	-10.0759
▁houston	-10.0764
▁schumer	-10.0765
▁debut	-10.0765
rk	-10.0766
ville	-10.0773
▁possibility	-10.0773
▁relative	-10.0778
▁kansas	-10.0782
▁ending	-10.0783
▁minnesota	-10.0787
▁ali	-10.0795
▁wonder	-10.0796
▁counsel	-10.0798
day	-10.0799
▁dec	-10.0802
▁ni	-10.0804
▁bought	-10.0815
▁advance	-10.0817
▁0	-10.0818
▁corp	-10.0818
▁unlikely	-10.0823
▁upset	-10.0823
▁initial	-10.0831
▁seriously	-10.0831
▁jets	-10.0831
end	-10.084
▁pointed	-10.0849
▁expand	-10.0854
,000	-10.0855
▁happening	-10.0858
▁affairs	-10.0861
▁opponent	-10.0865
▁serving	-10.0866
▁suddenly	-10.0882
▁yahoo	-10.0884
▁features	-10.0886
▁edition	-10.0886
▁wide	-10.0889
▁entered	-10.0889
▁https	-10.0892
▁frank	-10.0899
▁ms	-10.0899
▁ministry	-10.09
▁count	-10.0909
▁conspiracy	-10.0918
▁australian	-10.0921
▁feeling	-10.0925
▁fighters	-10.0928
▁vision	-10.0936
▁nasa	-10.0948
▁italian	-10.0957
▁35	-10.0959
▁sides	-10.096
during	-10.0968
▁values	-10.0969
ph	-10.0971
▁eve	-10.0974
▁dispute	-10.0981
▁screen	-10.0983
▁cyber	-10.0985
▁dan	-10.0987
▁apparent	-10.0987
▁polling	-10.0988
▁progressive	-10.0991
field	-10.0993
▁stake	-10.0996
▁lake	-10.0999
▁leaked	-10.1005
▁bigger	-10.1005
ious	-10.1015
▁usa	-10.102
▁possibly	-10.1021
tz	-10.1021
▁clean	-10.1024
▁mental	-10.1024
head	-10.1025
▁yesterday	-10.1026
▁cook	-10.1034
▁write	-10.1035
▁videos	-10.1036
▁sick	-10.1043
▁surveillance	-10.1045
cu	-10.1048
▁jeb	-10.1051
▁corner	-10.1052
▁po	-10.1053
▁cap	-10.1059
▁youtube	-10.1064
▁$3	-10.1065
rd	-10.1068
▁headquarters	-10.1072
ub	-10.1075
▁$6	-10.1076
▁prepared	-10.1082
▁massachusetts	-10.1088
▁banned	-10.1089
ice	-10.1093
▁se	-10.1094
▁owners	-10.1095
20	-10.1098
▁brutal	-10.1099
▁changing	-10.1101
▁deportation	-10.1102
▁venezuela	-10.1104
▁bra	-10.1105
▁28	-10.1107
▁expectations	-10.111
▁shooter	-10.111
▁leads	-10.1118
ot	-10.1119
▁shock	-10.1123
▁investigate	-10.1125
▁photographer	-10.1127
▁machine	-10.113
▁ticket	-10.113
▁mal	-10.1141
▁yiannopoulos	-10.1147
cent	-10.1151
▁miller	-10.1154
▁nature	-10.1159
▁classic	-10.1163
▁indian	-10.1168
▁cup	-10.117
▁ru	-10.1171
▁ga	-10.1172
▁champion	-10.118
▁netflix	-10.118
▁closing	-10.1188
▁pm	-10.1195
au	-10.1195
▁grow	-10.1195
clinton	-10.1201
▁kennedy	-10.1202
▁kaine	-10.1203
qui	-10.1204
▁bed	-10.1211
▁smart	-10.1225
▁pat	-10.123
▁documentary	-10.1232
▁hurricane	-10.1238
▁crew	-10.1252
▁neil	-10.1254
▁leaves	-10.1255
jo	-10.1256
▁entering	-10.1259
▁moderate	-10.1259
▁rocket	-10.126
▁allowing	-10.1261
▁dnc	-10.1263
▁mainstream	-10.1266
▁headed	-10.1266
▁diplomatic	-10.1268
pp	-10.1269
▁estimated	-10.1269
▁conduct	-10.1274
▁specific	-10.1281
▁chelsea	-10.1286
▁em	-10.1295
▁trend	-10.1305
▁supporter	-10.1314
pping	-10.1315
▁married	-10.1328
▁suggest	-10.1335
▁theory	-10.1336
tan	-10.1347
▁nationwide	-10.135
▁sarah	-10.1361
▁dramatic	-10.1364
▁accident	-10.1373
▁reduce	-10.1375
▁basic	-10.1378
▁creating	-10.1379
wood	-10.1379
▁decline	-10.1384
▁statements	-10.1385
▁secure	-10.1394
▁kerry	-10.1395
▁hedge	-10.1396
▁chaos	-10.1409
▁citizen	-10.141
▁stuff	-10.1411
state	-10.142
▁bodies	-10.1424
while	-10.1424
▁covered	-10.1429
▁mobile	-10.1431
fa	-10.1433
▁elite	-10.1435
▁guardian	-10.1441
▁strikes	-10.1443
▁mu	-10.145
▁ii	-10.1452
▁cool	-10.1487
▁threatening	-10.1498
ang	-10.1498
▁gap	-10.15
▁29	-10.1505
▁2011	-10.1508
▁2010	-10.1513
▁investor	-10.1519
ki	-10.1524
▁viewers	-10.1525
▁matthew	-10.1526
▁older	-10.1527
▁eventually	-10.1531
▁respond	-10.1539
▁daniel	-10.1541
▁activity	-10.1544
▁treated	-10.1548
▁rejected	-10.1548
▁baltimore	-10.1555
▁collection	-10.156
▁jerusalem	-10.158
▁islamist	-10.158
▁reveals	-10.1588
▁unprecedented	-10.1588
▁material	-10.1589
▁todd	-10.159
▁organizations	-10.1604
ven	-10.1613
▁seeing	-10.1613
kin	-10.1618
▁jack	-10.1623
▁bloomberg	-10.1627
▁crack	-10.1647
▁extra	-10.1648
▁dress	-10.1651
▁arab	-10.1655
▁sub	-10.1659
,"“	-10.166
▁championship	-10.1666
du	-10.1666
side	-10.1671
▁hell	-10.1671
▁vegas	-10.1681
▁larger	-10.1682
▁oklahoma	-10.1686
▁melania	-10.1693
▁religion	-10.1696
▁picked	-10.1701
▁swing	-10.1702
▁hits	-10.1706
▁gu	-10.1713
▁surrounding	-10.1717
▁goldman	-10.1728
▁positions	-10.1728
star	-10.1731
▁sexually	-10.1731
can	-10.1734
▁core	-10.1736
▁net	-10.174
▁electric	-10.1741
▁kingdom	-10.1743
▁commander	-10.1744
▁regular	-10.1745
▁mall	-10.1745
▁anniversary	-10.1758
▁afghan	-10.1758
▁basketball	-10.1758
reilly	-10.1758
▁jason	-10.1759
tri	-10.1766
▁sit	-10.1768
▁failing	-10.1769
▁republic	-10.1771
▁surge	-10.1772
ible	-10.1772
▁notice	-10.1779
▁slow	-10.1779
ists	-10.1779
▁beautiful	-10.1781
two	-10.1793
▁filled	-10.1797
▁introduced	-10.1804
▁celebrity	-10.1813
▁shop	-10.182
▁infrastructure	-10.1822
▁territory	-10.1835
▁bi	-10.1842
▁colleagues	-10.1845
▁lies	-10.1851
▁split	-10.1851
▁maryland	-10.1852
▁devices	-10.1852
▁asia	-10.1852
▁cell	-10.1859
top	-10.1862
▁yemen	-10.1864
▁ver	-10.1866
▁mcconnell	-10.1867
ical	-10.1874
▁300	-10.1876
▁backed	-10.1878
ov	-10.1878
▁escape	-10.1879
care	-10.1882
▁roof	-10.1882
▁coal	-10.1886
▁racism	-10.1891
▁bond	-10.1893
▁prove	-10.1896
▁drew	-10.1898
▁hoping	-10.1899
▁illegally	-10.1899
▁clearly	-10.1899
▁direction	-10.1902
han	-10.1902
▁harm	-10.1906
▁$10	-10.1913
▁privacy	-10.1913
▁musical	-10.1917
▁tradition	-10.1924
▁custody	-10.1929
▁resort	-10.1929
▁wish	-10.193
▁noted	-10.1931
▁non	-10.1942
▁massacre	-10.1945
▁palestinian	-10.1946
▁broad	-10.1948
▁businessman	-10.1955
▁alongside	-10.1962
▁type	-10.197
▁interests	-10.197
▁recall	-10.1977
▁lgbt	-10.1978
▁disney	-10.1986
▁signature	-10.1992
▁strategist	-10.1992
▁khan	-10.2002
▁wars	-10.2003
▁stunning	-10.2012
▁announce	-10.2016
▁forecast	-10.2024
▁beijing	-10.2027
▁negative	-10.2028
▁congressman	-10.203
af	-10.2042
▁intended	-10.2046
▁option	-10.2054
▁facility	-10.2056
▁knicks	-10.2056
▁moore	-10.2056
▁crude	-10.2059
▁wind	-10.2063
▁sal	-10.2071
▁merkel	-10.2072
▁specifically	-10.2073
▁tens	-10.2073
▁deeply	-10.2077
▁shoot	-10.2085
▁soccer	-10.2088
▁deals	-10.21
▁shape	-10.2105
▁device	-10.212
▁worker	-10.2127
▁studies	-10.2136
ford	-10.2139
▁jet	-10.2142
▁strange	-10.2146
▁cat	-10.2147
▁maker	-10.2151
▁fully	-10.2151
▁farm	-10.2166
▁2018	-10.2168
▁marked	-10.2168
▁discussing	-10.217
town	-10.2177
ick	-10.218
▁rescue	-10.218
▁adam	-10.2185
▁jon	-10.2188
▁vast	-10.2192
▁advocates	-10.2192
ze	-10.2194
▁bag	-10.2195
▁publisher	-10.2196
who	-10.2198
▁exercise	-10.22
▁margin	-10.2203
▁suggesting	-10.2203
los	-10.2208
▁charlotte	-10.2209
▁inter	-10.2211
▁tape	-10.2214
▁benefit	-10.2223
▁2017,	-10.2223
▁boys	-10.2225
▁sites	-10.2232
▁outlets	-10.2237
▁surprising	-10.2244
▁stein	-10.2245
▁prior	-10.2247
▁mosque	-10.2249
▁pictures	-10.2257
▁fatally	-10.2264
▁primaries	-10.2265
▁utah	-10.2265
▁ballot	-10.2269
▁gains	-10.227
▁blocked	-10.2273
▁outrage	-10.2278
▁subscribers	-10.2281
▁finish	-10.2286
▁populist	-10.2287
▁jump	-10.2288
▁entirely	-10.2291
▁mention	-10.2292
om	-10.2295
▁advantage	-10.2297
▁atlanta	-10.2301
▁theater	-10.2306
▁moves	-10.2307
pro	-10.2312
▁required	-10.2314
▁shootings	-10.2314
▁passenger	-10.2318
▁blog	-10.2329
ified	-10.2329
▁cycle	-10.233
▁executives	-10.2331
▁adults	-10.2331
▁producer	-10.2339
▁placed	-10.2342
▁spokeswoman	-10.2346
▁initially	-10.2361
▁preparing	-10.2363
▁zuckerberg	-10.2363
▁imagine	-10.2367
▁oscar	-10.2369
berg	-10.2372
▁rex	-10.2376
▁falling	-10.2378
▁studio	-10.2385
▁vowed	-10.2388
▁steven	-10.2395
▁talked	-10.2396
▁31	-10.2397
nc	-10.2398
▁profit	-10.24
▁ku	-10.24
▁division	-10.2403
▁environment	-10.2403
▁tennessee	-10.2412
▁referring	-10.2412
▁tied	-10.2412
▁entertainment	-10.2415
▁priebus	-10.2429
▁viral	-10.2429
▁explains	-10.2433
▁athletes	-10.2437
▁buying	-10.2441
▁route	-10.2447
▁discrimination	-10.2453
▁circuit	-10.2462
▁animals	-10.2464
▁outcome	-10.2468
▁thank	-10.2476
▁centers	-10.2483
▁mail	-10.2495
▁sight	-10.2503
▁recorded	-10.2508
▁tests	-10.2509
▁remaining	-10.2511
▁province	-10.2511
▁moon	-10.2525
▁elect	-10.2525
▁devos	-10.2529
▁hackers	-10.2531
▁wa	-10.2532
▁sha	-10.2533
▁cited	-10.2535
▁detained	-10.2536
▁opponents	-10.2553
▁detroit	-10.2555
▁comedian	-10.2556
▁pledge	-10.2561
▁luxury	-10.2562
▁tale	-10.2566
▁fill	-10.2574
▁stadium	-10.2578
▁warm	-10.2579
▁2005	-10.2581
▁$2	-10.2583
lan	-10.2589
▁anthem	-10.2596
▁necessary	-10.26
ward	-10.2602
▁weekly	-10.2602
har	-10.2607
▁column	-10.2609
▁plenty	-10.2612
▁shopping	-10.2612
▁feels	-10.262
▁lie	-10.2622
ps	-10.2622
people	-10.2627
take	-10.2629
nt	-10.2634
▁$100	-10.2634
▁draw	-10.2639
▁su	-10.2643
▁cuomo	-10.2646
▁silver	-10.2646
▁parent	-10.2648
▁auto	-10.2648
▁kentucky	-10.2649
▁ratings	-10.265
▁commissioner	-10.2653
▁runs	-10.2653
▁col	-10.2657
▁overall	-10.2659
▁quiet	-10.266
gen	-10.2662
▁identify	-10.2662
▁davis	-10.2663
▁moral	-10.2668
▁link	-10.2675
▁owned	-10.2681
▁pakistan	-10.2683
▁christians	-10.2685
▁nypd	-10.2687
▁divided	-10.2692
▁adult	-10.2695
▁greater	-10.2698
▁string	-10.2699
▁contact	-10.2702
ill	-10.2704
▁terrible	-10.2706
▁kick	-10.2711
are	-10.2723
pped	-10.2723
▁fly	-10.2726
▁ap	-10.2727
▁trans	-10.2736
▁carrier	-10.2736
▁gary	-10.2742
▁collapse	-10.2746
▁rallies	-10.2747
▁garden	-10.2748
▁macron	-10.2748
▁politician	-10.2748
▁alien	-10.2751
▁wedding	-10.2753
▁egypt	-10.2753
▁del	-10.2761
▁alternative	-10.2763
▁urban	-10.2764
updated	-10.2769
▁counts	-10.2772
▁contain	-10.2773
▁gray	-10.2788
▁drivers	-10.2789
▁za	-10.2794
▁joke	-10.2794
▁complaint	-10.2795
▁knowledge	-10.2799
▁partnership	-10.2799
▁penn	-10.2808
▁mistake	-10.2812
▁meaning	-10.2814
▁newsletter	-10.2816
▁remained	-10.2819
▁designer	-10.2825
▁supported	-10.283
▁rent	-10.283
ator	-10.2833
cha	-10.2836
mat	-10.2845
▁candidacy	-10.285
▁options	-10.2853
▁guide	-10.2857
▁33	-10.2862
▁flying	-10.2866
▁silence	-10.2867
▁treasury	-10.2867
▁boycott	-10.2868
▁rice	-10.2876
ping	-10.2877
▁36	-10.2877
▁par	-10.2879
▁active	-10.2879
▁immediate	-10.288
▁$4	-10.2881
▁las	-10.2881
iv	-10.2884
▁tra	-10.2886
▁map	-10.2899
▁none	-10.2901
▁supply	-10.2902
▁kellyanne	-10.2902
▁coup	-10.2905
▁limited	-10.291
▁hero	-10.291
▁leg	-10.2916
▁musk	-10.2921
▁worldwide	-10.2921
▁titled	-10.2921
▁filing	-10.2926
▁hacked	-10.2929
most	-10.2932
▁plays	-10.2933
ana	-10.2934
▁donors	-10.2939
od	-10.294
che	-10.2952
▁meetings	-10.2953
▁opposed	-10.2953
▁targeting	-10.2958
▁laid	-10.2959
▁pacific	-10.2962
▁roger	-10.2962
▁firms	-10.2966
republican	-10.2983
▁jo	-10.2985
▁alliance	-10.2989
now	-10.299
breitbart	-10.2991
▁beck	-10.2992
▁cu	-10.2993
▁originally	-10.2995
▁calif	-10.2997
▁libya	-10.3
▁rivals	-10.3001
cl	-10.3001
▁heads	-10.3011
▁downtown	-10.3013
row	-10.3015
▁managed	-10.302
▁presence	-10.3024
▁mogul	-10.3024
▁attended	-10.3028
▁whatever	-10.3029
▁harvard	-10.3029
chi	-10.303
▁thinks	-10.3037
▁cha	-10.3041
▁crucial	-10.3041
▁defended	-10.3045
▁carter	-10.305
▁struggle	-10.305
▁passing	-10.3053
▁questioned	-10.3054
▁32	-10.3055
▁birthday	-10.306
▁tensions	-10.306
▁netanyahu	-10.3064
▁throw	-10.3073
▁addition	-10.3074
▁antonin	-10.3077
▁section	-10.3077
▁indeed	-10.3078
▁je	-10.3081
▁retail	-10.3083
▁headlines	-10.3083
▁joy	-10.3087
lic	-10.3093
▁gathering	-10.3095
▁backlash	-10.3096
▁aim	-10.3096
▁worry	-10.3097
▁fi	-10.3101
▁standards	-10.3101
▁brian	-10.3115
▁bl	-10.3115
▁rolling	-10.3118
▁fe	-10.3119
▁films	-10.3125
▁missouri	-10.313
ko	-10.3131
▁ally	-10.3133
▁earnings	-10.3137
▁iconic	-10.3137
▁attract	-10.3142
▁promote	-10.3147
▁fate	-10.3149
▁witness	-10.3151
▁hack	-10.3155
▁catch	-10.3161
▁buildings	-10.3163
▁songs	-10.317
▁correct	-10.3173
▁shouldn	-10.3176
▁lynch	-10.3183
▁bright	-10.3184
▁inspired	-10.3185
▁confidence	-10.3186
val	-10.3188
▁400	-10.3192
▁horror	-10.3201
▁medicaid	-10.3201
▁resignation	-10.3202
ble	-10.3205
▁mountain	-10.3209
▁matters	-10.3209
▁snap	-10.3215
▁hired	-10.3217
▁diet	-10.3219
▁determined	-10.3223
▁highway	-10.3223
▁bear	-10.3223
▁self	-10.3234
▁vermont	-10.3237
▁liberty	-10.3242
▁cooper	-10.3245
▁begun	-10.325
▁require	-10.325
america	-10.325
▁loved	-10.3251
▁ke	-10.3251
▁window	-10.3253
ane	-10.3258
▁targets	-10.3258
▁pal	-10.3259
▁alive	-10.3261
▁pledged	-10.3262
▁neighbor	-10.327
▁analyst	-10.3271
gate	-10.3271
▁advertising	-10.3272
▁graham	-10.3273
tel	-10.3273
▁affected	-10.3281
▁3,	-10.3285
▁improve	-10.329
▁legend	-10.329
▁featured	-10.3293
▁stolen	-10.3294
work	-10.3302
▁assets	-10.3302
▁consumers	-10.3304
▁wi	-10.3305
▁sweeping	-10.3307
port	-10.3309
▁apart	-10.3309
▁kaepernick	-10.3312
▁jordan	-10.3313
▁berlin	-10.3315
▁shown	-10.3317
▁physical	-10.332
ran	-10.3337
▁capture	-10.3344
▁coffee	-10.3345
▁independence	-10.3345
▁recount	-10.3346
▁teachers	-10.3348
good	-10.3349
▁bell	-10.3353
▁severe	-10.3363
▁parade	-10.3365
▁hbo	-10.3365
▁har	-10.3367
▁shocking	-10.3367
▁$7	-10.337
▁heading	-10.3374
▁48	-10.3374
▁legislative	-10.3381
even	-10.3391
je	-10.3391
▁industrial	-10.3399
▁sept	-10.3399
▁negotiations	-10.34
▁destroyed	-10.3402
ach	-10.3403
▁politically	-10.3407
why	-10.3409
▁emotional	-10.3411
▁theresa	-10.3412
zz	-10.3417
▁explosion	-10.3419
▁mac	-10.342
▁sport	-10.3421
▁accusations	-10.3423
gar	-10.3425
▁kid	-10.3432
▁illinois	-10.3435
▁causing	-10.3436
▁sounds	-10.3441
▁mary	-10.3445
▁jay	-10.347
▁spark	-10.3475
▁clip	-10.3476
▁willing	-10.3477
▁perform	-10.3482
▁fewer	-10.3488
▁endorsed	-10.3488
▁affect	-10.3488
▁pages	-10.3489
▁sad	-10.349
▁myself	-10.3491
▁lay	-10.3496
▁75	-10.3498
▁penalty	-10.3509
▁puerto	-10.3509
▁impossible	-10.3509
ile	-10.351
▁danger	-10.3514
▁ensure	-10.3516
▁crazy	-10.3522
▁bottom	-10.3527
▁rural	-10.3527
▁operating	-10.3528
▁temporary	-10.3534
▁ultimately	-10.3534
▁hunt	-10.354
ker	-10.3541
▁arguing	-10.3546
▁sachs	-10.3546
ip	-10.3546
▁commitment	-10.3547
▁wing	-10.3549
▁solar	-10.3553
▁guest	-10.3553
▁skin	-10.3555
▁fish	-10.3555
▁pac	-10.3558
▁fisher	-10.3559
▁diversity	-10.356
▁asks	-10.3564
▁update	-10.3567
▁grant	-10.3568
▁describe	-10.3571
▁istanbul	-10.3582
▁asylum	-10.3583
▁minor	-10.3583
▁dance	-10.3587
zi	-10.3591
▁answers	-10.3597
▁index	-10.3597
▁overhaul	-10.3601
▁delay	-10.3602
▁strength	-10.3603
gra	-10.3605
▁eating	-10.3609
▁plus	-10.362
▁globe	-10.3628
▁prompted	-10.3629
▁pilot	-10.3647
▁jared	-10.3649
▁express	-10.3649
▁fame	-10.3652
▁mad	-10.3654
dr	-10.3656
▁pet	-10.3656
▁ukraine	-10.3657
▁aside	-10.3659
▁determine	-10.366
▁consequences	-10.367
▁expert	-10.3675
sunday	-10.3685
▁beauty	-10.3687
▁te	-10.3688
▁cartel	-10.3689
fe	-10.369
▁philippines	-10.3693
▁unique	-10.3696
▁surgery	-10.3696
▁systems	-10.3698
vin	-10.3702
▁staffers	-10.3703
▁teams	-10.3708
▁aggressive	-10.3708
▁guys	-10.3717
▁cal	-10.3726
len	-10.3728
▁headline	-10.3732
▁striking	-10.3732
▁chamber	-10.3732
▁everybody	-10.3733
▁stream	-10.3735
▁narrow	-10.3738
▁symbol	-10.3739
▁kevin	-10.3743
▁powers	-10.3746
american	-10.3747
▁diego	-10.3752
▁airline	-10.3757
▁limit	-10.376
▁celebrated	-10.3761
▁produced	-10.3768
▁20,	-10.3769
▁circle	-10.377
▁located	-10.3772
▁extend	-10.378
▁accusing	-10.3789
▁heavily	-10.3789
▁flint	-10.3789
▁seeks	-10.379
▁rob	-10.3791
▁dealing	-10.3806
▁judiciary	-10.3808
▁medicine	-10.3808
▁balance	-10.3808
▁subway	-10.3808
▁behalf	-10.3812
▁patriots	-10.3816
▁recording	-10.3818
▁erdogan	-10.3827
▁barely	-10.3831
▁profile	-10.3846
▁halt	-10.3847
▁speeches	-10.3851
▁hosted	-10.3852
.)"	-10.3855
▁tea	-10.3855
▁44	-10.3856
▁ham	-10.3857
▁flat	-10.386
▁attempts	-10.3863
▁expensive	-10.3865
▁scale	-10.3869
▁deadline	-10.3869
▁weak	-10.3873
▁seized	-10.3874
▁caucuses	-10.3874
▁neither	-10.3884
▁click	-10.3884
▁ok	-10.3887
▁surprised	-10.3893
▁praised	-10.3899
cc	-10.3901
▁waters	-10.3901
▁lewis	-10.3903
▁bbc	-10.3903
▁oppose	-10.3904
▁horse	-10.3904
▁beating	-10.3904
▁handle	-10.3906
▁2015.	-10.3906
▁advisers	-10.3908
▁cloud	-10.3915
▁drone	-10.3917
▁healthy	-10.3918
▁bashar	-10.3923
▁warns	-10.3927
▁gotten	-10.3928
▁testing	-10.3939
▁ancient	-10.3941
▁seal	-10.3964
▁regional	-10.3964
▁palm	-10.3966
▁rush	-10.3968
▁seattle	-10.3972
▁unveiled	-10.3974
▁blast	-10.3979
▁charity	-10.398
▁blamed	-10.3991
▁quit	-10.3993
▁ju	-10.3997
▁manufacturing	-10.3999
▁packed	-10.3999
▁wildlife	-10.3999
▁difference	-10.4
▁medal	-10.4
▁rebels	-10.4001
▁microsoft	-10.4009
ett	-10.4011
▁alcohol	-10.4018
▁mine	-10.402
▁boat	-10.4024
▁mess	-10.4029
ries	-10.403
ib	-10.4042
▁columnist	-10.4047
▁palin	-10.4047
iest	-10.4048
▁youth	-10.4049
▁feb	-10.405
▁glass	-10.4065
▁settle	-10.4079
▁attacking	-10.4081
▁actual	-10.4085
▁mel	-10.4089
▁jumped	-10.409
▁interesting	-10.4093
▁babies	-10.4096
▁broadway	-10.4097
▁represents	-10.4098
die	-10.4098
▁37	-10.4103
iz	-10.4108
▁lying	-10.411
ep	-10.4112
▁widespread	-10.4116
▁visited	-10.4118
▁unexpected	-10.4122
under	-10.4133
▁narrative	-10.4135
▁conversations	-10.4137
▁ends	-10.4139
▁brady	-10.4141
ou	-10.4146
lock	-10.4146
▁mitt	-10.4155
▁ja	-10.4165
▁manning	-10.4166
▁score	-10.4168
ably	-10.4169
bu	-10.4171
▁expansion	-10.4174
▁transportation	-10.4175
▁orange	-10.4175
▁embassy	-10.4194
▁characters	-10.4198
▁demanding	-10.4201
ino	-10.4201
▁aviv	-10.4204
▁queens	-10.4205
burg	-10.4213
▁rifle	-10.4214
▁spotted	-10.4216
▁assad	-10.4218
▁fargo	-10.4221
▁formally	-10.4227
▁cosby	-10.4234
▁bin	-10.4241
▁granted	-10.4243
▁justin	-10.4248
▁icon	-10.4251
▁duterte	-10.4253
▁mystery	-10.4253
▁departure	-10.4253
▁earned	-10.4256
▁seats	-10.4256
▁phil	-10.4256
real	-10.4261
▁’”	-10.4265
gi	-10.4273
▁updated	-10.4274
▁outbreak	-10.4278
▁effective	-10.4283
▁nominated	-10.4286
▁demands	-10.4288
▁urging	-10.4293
▁interference	-10.4293
▁sh	-10.4295
▁brazilian	-10.4296
▁crashed	-10.4296
▁2009	-10.4305
▁sc	-10.4308
▁usual	-10.4309
▁minimum	-10.4313
▁developed	-10.4314
▁ar	-10.4318
▁sue	-10.4319
▁variety	-10.4333
▁sweden	-10.4334
▁weren	-10.4334
11	-10.4334
▁survive	-10.4335
▁43	-10.4336
▁judges	-10.434
▁nyc	-10.4343
▁losses	-10.4346
gg	-10.4348
▁42	-10.4349
▁startup	-10.4349
▁forum	-10.4351
▁drove	-10.4353
▁gulf	-10.4353
▁slideshow	-10.4353
▁resign	-10.4356
ions	-10.4359
und	-10.436
▁solution	-10.4364
▁defending	-10.4366
▁louis	-10.4366
sky	-10.4366
▁produce	-10.4369
▁nobody	-10.437
▁interior	-10.4373
▁complicated	-10.4376
▁bat	-10.4376
▁covering	-10.4376
▁samsung	-10.4381
▁engaged	-10.4382
▁pace	-10.4384
▁notes	-10.4385
▁interested	-10.4388
▁predicted	-10.4388
▁shadow	-10.4389
▁suspects	-10.439
▁unless	-10.4392
▁journey	-10.4393
▁relief	-10.4393
▁scrutiny	-10.4393
▁customs	-10.4394
▁borders	-10.44
▁resigned	-10.44
▁bull	-10.4407
▁tri	-10.4408
▁publication	-10.4414
▁vox	-10.4414
▁ann	-10.4421
ade	-10.4421
▁invited	-10.4422
▁closely	-10.4424
ari	-10.4427
▁location	-10.4427
gle	-10.4427
▁nationalist	-10.4428
▁franchise	-10.4433
▁podesta	-10.4433
▁temporarily	-10.4433
▁dismissed	-10.4433
▁threatens	-10.4437
stepped	-10.4438
▁truly	-10.4438
▁obvious	-10.4441
▁harry	-10.4451
black	-10.4453
▁error	-10.4454
▁susan	-10.4455
▁id	-10.4456
▁desk	-10.4457
▁forget	-10.4459
▁missed	-10.4461
▁wh	-10.4464
ving	-10.4465
▁increasing	-10.4466
▁pounds	-10.4466
▁backing	-10.4468
▁ronald	-10.4469
▁soul	-10.4472
▁plea	-10.4473
▁alaska	-10.4474
▁tank	-10.4475
▁sparked	-10.4484
▁master	-10.4485
▁leak	-10.4485
▁2012,	-10.4492
providing	-10.4494
▁girlfriend	-10.4495
▁1980	-10.4495
▁schedule	-10.4496
▁memory	-10.4496
▁josh	-10.4497
▁holds	-10.4502
▁ny	-10.4508
▁colin	-10.4509
ise	-10.4513
▁tend	-10.4514
▁podcast	-10.4514
▁starts	-10.4521
▁sam	-10.4521
▁feed	-10.4523
▁empire	-10.4535
▁intense	-10.4535
▁mississippi	-10.4539
▁drink	-10.4539
▁suffering	-10.454
▁except	-10.4541
▁fu	-10.4542
▁scientific	-10.4543
▁institutions	-10.4546
▁stick	-10.455
▁becomes	-10.4553
bar	-10.4554
▁numerous	-10.4555
▁phrase	-10.4555
▁poverty	-10.4555
▁seemingly	-10.4555
▁vacation	-10.4556
▁sugar	-10.4556
▁dogs	-10.4571
▁returning	-10.4574
▁conclusion	-10.4576
▁rebel	-10.4582
▁2013,	-10.4583
▁sweet	-10.4595
▁santa	-10.4595
▁featuring	-10.4596
▁snapchat	-10.4602
▁mi	-10.4603
▁user	-10.4604
▁literally	-10.4605
cr	-10.4607
▁encounter	-10.461
▁smartphone	-10.4615
▁structure	-10.4617
▁package	-10.4617
▁warrant	-10.4619
ball	-10.462
hu	-10.4622
▁talent	-10.4631
▁sentences	-10.4632
dor	-10.4636
▁joseph	-10.4638
▁fat	-10.4641
▁brothers	-10.4641
▁represent	-10.4653
▁receiving	-10.4658
▁mcdonald	-10.4661
▁stance	-10.4662
ix	-10.4664
▁fl	-10.4669
▁34	-10.4677
▁ge	-10.4682
▁teenager	-10.4683
pre	-10.4683
▁euro	-10.4684
▁items	-10.4685
▁cutting	-10.4686
qu	-10.4688
▁fallen	-10.469
▁aliens	-10.4699
ita	-10.4704
ities	-10.4707
▁38	-10.471
nna	-10.4713
▁busy	-10.4722
life	-10.4722
▁epa	-10.4725
▁tone	-10.4725
bra	-10.4727
▁columbia	-10.4728
▁bars	-10.4731
▁zone	-10.4734
▁finished	-10.4734
▁learning	-10.4739
ft	-10.474
▁1990	-10.4741
▁attempting	-10.4742
▁alert	-10.4758
▁mix	-10.476
▁bizarre	-10.4762
▁mars	-10.4763
▁artists	-10.4764
board	-10.4774
long	-10.4781
▁amazing	-10.4782
▁easily	-10.4782
▁pot	-10.4783
▁object	-10.4784
▁effectively	-10.4796
▁announcing	-10.4803
▁purchase	-10.481
▁factory	-10.4812
▁dem	-10.4812
▁hire	-10.4813
▁nick	-10.4815
▁bur	-10.4818
has	-10.4822
▁landed	-10.4824
▁accepted	-10.4825
▁otherwise	-10.4826
▁slightly	-10.4829
▁absolutely	-10.4829
▁strip	-10.484
▁tree	-10.4845
▁curb	-10.4846
▁spotlight	-10.4846
▁x	-10.4847
▁kong	-10.4847
▁allows	-10.4857
▁earthquake	-10.4866
gr	-10.487
▁celebrities	-10.4872
▁resident	-10.4873
▁refuge	-10.4876
▁wealthy	-10.4876
aw	-10.4886
act	-10.4899
uck	-10.49
eu	-10.4901
▁dictator	-10.4908
▁traveling	-10.4909
▁witnesses	-10.4914
▁tries	-10.4915
▁royal	-10.4921
will	-10.4923
▁slammed	-10.493
hy	-10.494
▁asian	-10.4941
cur	-10.4945
▁trillion	-10.4951
▁undocumented	-10.4951
▁funeral	-10.4951
▁smoke	-10.4951
▁unclear	-10.4952
▁phones	-10.4953
▁tu	-10.496
▁extended	-10.4961
▁scores	-10.4967
▁marks	-10.4968
zer	-10.4969
▁berkeley	-10.4972
▁gained	-10.4973
▁homeless	-10.4975
run	-10.4977
▁grown	-10.4981
▁queen	-10.4982
ji	-10.4983
▁extreme	-10.4984
▁younger	-10.4987
▁currency	-10.4994
▁opioid	-10.4994
yes	-10.5003
▁gift	-10.5004
▁partial	-10.5009
▁chose	-10.501
▁percentage	-10.5011
▁warner	-10.5013
▁hispanic	-10.5015
▁ross	-10.5016
▁sued	-10.5018
ren	-10.5026
▁wealth	-10.5027
van	-10.5031
▁resources	-10.5033
▁meat	-10.5037
▁warming	-10.5057
▁threw	-10.5058
mr	-10.5064
▁bias	-10.5073
obama	-10.5076
▁drawing	-10.5078
▁rouge	-10.5079
▁editorial	-10.5081
▁papers	-10.509
▁drinking	-10.5092
▁beyonc	-10.5093
▁streaming	-10.5095
▁dressed	-10.5096
▁jews	-10.5097
▁reject	-10.5098
late	-10.5101
▁landmark	-10.5102
▁touch	-10.5103
▁conflicts	-10.5107
pri	-10.5117
▁injury	-10.5123
▁oval	-10.5125
▁directed	-10.5128
med	-10.5131
▁strategic	-10.5131
▁hitting	-10.5135
▁endorse	-10.5138
▁harris	-10.5139
▁latin	-10.514
▁resistance	-10.5141
▁file	-10.5144
▁flights	-10.5145
▁rand	-10.5146
▁shell	-10.5147
▁registered	-10.5147
▁noticed	-10.5149
▁nominees	-10.5149
▁warriors	-10.5163
▁des	-10.5166
▁yourself	-10.5167
▁stuck	-10.5168
▁sharing	-10.518
▁quietly	-10.5182
ev	-10.5184
▁falls	-10.5189
ual	-10.519
▁visiting	-10.5191
▁39	-10.5194
▁addressed	-10.5196
▁baton	-10.5198
▁kicked	-10.5201
▁harder	-10.5202
▁humans	-10.5203
▁mouth	-10.5204
▁rod	-10.5208
▁gross	-10.5208
▁species	-10.5209
▁entry	-10.521
▁nancy	-10.521
▁dating	-10.5213
ric	-10.5213
▁handful	-10.5214
▁insisted	-10.522
yn	-10.5223
▁fought	-10.5231
▁collins	-10.5231
▁unknown	-10.5232
▁woods	-10.5241
▁solid	-10.5242
▁aaron	-10.5247
▁pitch	-10.5247
cal	-10.5251
▁arrival	-10.5253
▁jerry	-10.5253
▁bipartisan	-10.5253
▁approve	-10.5257
▁mateen	-10.5258
▁liberals	-10.5262
▁pok	-10.5264
press	-10.527
ag	-10.5271
▁followers	-10.5274
▁practices	-10.5278
▁scheme	-10.5278
▁enjoy	-10.5281
▁equal	-10.5285
fer	-10.5286
▁sees	-10.5291
▁knife	-10.5297
▁tournament	-10.5297
▁rating	-10.5299
?","	-10.5302
▁spy	-10.5305
▁tony	-10.5307
▁parking	-10.5307
▁cor	-10.5309
▁basis	-10.5319
▁creator	-10.5319
▁detailed	-10.5321
win	-10.533
▁audio	-10.5333
▁unlike	-10.5335
▁toll	-10.5335
▁bu	-10.5338
▁janeiro	-10.5341
▁mitch	-10.5341
▁overseas	-10.5341
▁minute	-10.5353
▁keeps	-10.5355
▁hang	-10.536
▁41	-10.5362
▁motion	-10.5365
▁socialist	-10.5371
▁tie	-10.5373
▁bitter	-10.538
▁zoo	-10.5382
rate	-10.5384
▁connecticut	-10.5385
▁inquiry	-10.5386
▁restaurants	-10.5387
▁gear	-10.5391
pen	-10.5392
▁concluded	-10.5395
▁rico	-10.5395
▁acknowledged	-10.5395
▁megyn	-10.5399
▁topic	-10.5399
▁missiles	-10.5402
▁bro	-10.5405
▁promising	-10.5408
▁aftermath	-10.5408
▁everywhere	-10.5409
▁upper	-10.5414
▁ill	-10.5419
▁kills	-10.5422
▁effects	-10.5427
▁joining	-10.5428
▁universe	-10.543
▁hiring	-10.543
▁remarkable	-10.5431
▁unable	-10.5434
▁accuse	-10.5435
▁desert	-10.5453
▁bow	-10.5454
▁puts	-10.5455
▁merger	-10.5456
▁mattis	-10.5458
▁abroad	-10.5464
▁risks	-10.5466
▁referred	-10.5475
▁canceled	-10.5477
▁towards	-10.5482
ju	-10.5489
vent	-10.5495
▁ford	-10.5495
fire	-10.5496
▁equity	-10.5497
▁arkansas	-10.5497
▁standoff	-10.5499
▁ken	-10.5501
▁comic	-10.5503
down	-10.5504
wi	-10.5506
▁formal	-10.5507
▁flash	-10.5508
ug	-10.5508
▁soldier	-10.5511
▁hawaii	-10.5517
▁murdered	-10.5517
▁reputation	-10.552
▁nunes	-10.5521
▁surface	-10.5524
ok	-10.5527
▁restrictions	-10.5542
▁millennials	-10.5543
▁archive	-10.5543
▁rapper	-10.5543
▁fidel	-10.5545
▁experienced	-10.5556
▁dow	-10.5557
▁spirit	-10.5558
▁peak	-10.5563
▁spanish	-10.5566
▁jimmy	-10.5566
▁highlight	-10.5567
▁investigations	-10.5573
▁sixth	-10.5574
▁privilege	-10.5575
▁routine	-10.5575
des	-10.5575
▁monitor	-10.5577
▁decisions	-10.5586
▁chancellor	-10.5587
▁$8	-10.5588
▁debates	-10.559
▁shirt	-10.5592
▁jong	-10.5593
▁chi	-10.5595
▁reader	-10.5598
▁exposed	-10.56
▁questioning	-10.5602
▁activities	-10.561
▁explanation	-10.561
▁ballistic	-10.561
▁marlow	-10.5611
▁undermine	-10.5614
▁militant	-10.5616
london	-10.5621
▁taste	-10.5622
▁picks	-10.5629
▁remote	-10.5633
▁hundred	-10.564
ella	-10.564
▁chip	-10.5642
▁chat	-10.5643
get	-10.5647
▁3.	-10.5653
gue	-10.5654
▁extremely	-10.5654
▁easier	-10.5655
▁speculation	-10.5656
▁folks	-10.566
▁mor	-10.5664
▁hole	-10.5668
net	-10.5671
▁boom	-10.5674
▁regulators	-10.5684
▁developing	-10.5684
lia	-10.5691
▁visitors	-10.5692
▁lunch	-10.5701
▁meanwhile	-10.5703
nk	-10.5712
▁tribute	-10.5713
▁cent	-10.5719
▁critic	-10.572
▁anonymous	-10.5724
▁patient	-10.5727
ability	-10.5731
▁prospect	-10.5732
▁generally	-10.5734
▁wood	-10.5734
▁accord	-10.5737
▁austin	-10.5738
▁2000	-10.5749
▁stretch	-10.5751
▁chosen	-10.5754
▁label	-10.5759
▁gut	-10.5761
▁xi	-10.5765
▁rage	-10.5765
▁totally	-10.5767
▁terry	-10.577
▁oversight	-10.577
▁affiliate	-10.5775
▁handling	-10.5777
big	-10.5795
▁continuing	-10.5799
san	-10.58
▁interviews	-10.5801
oh	-10.5802
▁inmates	-10.5807
▁desire	-10.5817
▁porn	-10.5817
▁chicken	-10.5817
▁links	-10.5819
▁visa	-10.5821
▁recovery	-10.5822
▁responding	-10.5827
hand	-10.5831
▁glenn	-10.584
▁initiative	-10.5853
▁corps	-10.586
▁bombs	-10.586
▁arena	-10.5864
▁gi	-10.5865
lar	-10.5871
▁0.	-10.5876
put	-10.5885
▁militia	-10.5885
▁retirement	-10.5887
▁discovery	-10.5892
▁typically	-10.5897
hood	-10.5898
▁pin	-10.5902
▁hike	-10.5905
▁$20	-10.5907
▁purpose	-10.5908
▁founded	-10.5909
▁shelter	-10.591
▁involvement	-10.591
eg	-10.5911
▁destroy	-10.5912
▁tool	-10.5914
▁shots	-10.5918
▁rein	-10.5921
▁presented	-10.5922
▁crown	-10.5925
▁kar	-10.5929
▁causes	-10.5932
▁weird	-10.5933
▁impeachment	-10.5933
▁offense	-10.5935
▁hopeful	-10.5935
▁ti	-10.5941
▁arguments	-10.5941
▁extraordinary	-10.5942
▁virtual	-10.5944
gh	-10.5945
▁advisor	-10.5947
ng	-10.5951
▁46	-10.5952
▁neck	-10.5953
▁praise	-10.5954
▁pride	-10.5957
▁attacker	-10.5957
vis	-10.5961
tch	-10.5962
▁calm	-10.5972
▁lab	-10.5974
▁shake	-10.5976
10	-10.5982
▁devastating	-10.5987
▁uses	-10.5987
▁han	-10.5988
▁searching	-10.5992
▁proud	-10.5993
▁op	-10.5993
use	-10.5998
▁ram	-10.6008
▁pursue	-10.6009
▁organized	-10.6009
▁pan	-10.6018
▁ob	-10.6019
police	-10.6019
▁ya	-10.6022
▁delegate	-10.6022
▁forest	-10.6022
ette	-10.6023
▁47	-10.6028
▁chase	-10.6029
▁anymore	-10.6035
uk	-10.6036
av	-10.6042
▁tap	-10.6044
▁networks	-10.6044
▁producers	-10.6044
▁complaints	-10.6049
▁refusing	-10.6051
fully	-10.6053
▁pleaded	-10.6058
▁allen	-10.6059
first	-10.6067
light	-10.6072
▁kurdish	-10.6075
▁taylor	-10.6075
▁celebrating	-10.6075
▁epidemic	-10.608
▁mon	-10.6082
▁driven	-10.6091
▁beloved	-10.6098
▁mag	-10.6101
▁checks	-10.6109
tter	-10.611
low	-10.6114
ell	-10.6115
▁shi	-10.612
▁mandate	-10.6126
▁perry	-10.6131
▁gar	-10.6137
▁qu	-10.6144
▁auction	-10.6146
mm	-10.6146
fake	-10.6152
kh	-10.6153
▁riot	-10.6159
▁stra	-10.6167
▁venture	-10.617
▁bankruptcy	-10.617
▁$15	-10.6174
▁emerge	-10.6176
▁angela	-10.6181
every	-10.6194
▁bernardino	-10.6194
▁patrick	-10.6195
▁zero	-10.6195
watch	-10.6197
▁bomber	-10.6198
▁tourists	-10.62
▁guests	-10.621
ek	-10.6214
▁register	-10.6215
▁payments	-10.6221
▁fail	-10.6221
▁ron	-10.6222
▁repeated	-10.6223
away	-10.6229
▁hidden	-10.6229
▁cheap	-10.6234
these	-10.6235
▁established	-10.6239
▁manage	-10.6239
today	-10.624
▁concept	-10.6242
▁replied	-10.6242
▁tight	-10.6243
▁swift	-10.6254
▁partisan	-10.626
▁odds	-10.6261
oo	-10.6263
▁cameras	-10.6265
▁legislature	-10.6267
del	-10.627
▁hoped	-10.6278
▁posting	-10.6281
▁65	-10.6285
▁ease	-10.6286
▁smaller	-10.6286
▁cancel	-10.6287
▁greg	-10.6288
▁taiwan	-10.6291
▁omar	-10.6297
▁fields	-10.6297
▁proposals	-10.6299
▁heroin	-10.6308
rie	-10.631
▁lift	-10.6313
▁migration	-10.6316
▁pi	-10.6316
▁smile	-10.6316
▁fighter	-10.6318
▁indicted	-10.6319
▁chances	-10.6323
▁understanding	-10.6326
▁feminist	-10.6331
▁violated	-10.6331
air	-10.6335
▁enemy	-10.634
▁wells	-10.6345
▁ignore	-10.6346
▁maria	-10.6349
ob	-10.6351
forcing	-10.6352
ani	-10.6354
▁$2.	-10.6359
▁donations	-10.636
▁carl	-10.6363
▁challenging	-10.6364
▁segment	-10.6364
ration	-10.6368
▁essentially	-10.6372
rt	-10.6374
▁handed	-10.6383
rated	-10.6384
▁gingrich	-10.6389
▁arrests	-10.6389
▁colombia	-10.6391
▁hitler	-10.6395
▁embrace	-10.6395
▁odd	-10.6396
▁prepare	-10.64
▁pulling	-10.6402
▁fled	-10.6404
▁kremlin	-10.6413
▁universities	-10.6413
▁saved	-10.6414
▁maine	-10.6416
▁bold	-10.6423
▁incidents	-10.6424
50	-10.6427
rri	-10.6433
▁benjamin	-10.6438
▁coulter	-10.6438
▁unemployment	-10.6438
▁statue	-10.6438
▁boyfriend	-10.6438
▁funny	-10.6439
▁lane	-10.6441
▁$9	-10.6441
ria	-10.6441
▁print	-10.6442
▁leaks	-10.6445
▁combined	-10.6451
▁soft	-10.6452
▁tears	-10.6452
tte	-10.6454
▁experiment	-10.6458
▁academic	-10.6463
▁inaugural	-10.6463
▁pelosi	-10.6463
▁buzz	-10.6463
▁dying	-10.6464
▁pink	-10.6467
▁aired	-10.6474
▁succeed	-10.6485
▁quality	-10.6487
▁thanksgiving	-10.6487
▁tennis	-10.6488
▁garland	-10.6488
▁actors	-10.6493
▁4.	-10.6494
▁nightmare	-10.6512
▁stanford	-10.6512
▁earn	-10.6519
▁oscars	-10.6528
▁recruit	-10.6528
▁est	-10.6532
▁twist	-10.6537
▁taliban	-10.6537
▁antonio	-10.6537
▁guess	-10.6537
▁struggled	-10.6538
▁anderson	-10.6539
▁haley	-10.6539
▁harsh	-10.654
▁performed	-10.6549
▁traveled	-10.6555
▁shocked	-10.6559
▁benghazi	-10.6562
▁swedish	-10.6562
▁fiscal	-10.6562
▁2004	-10.6565
▁cruise	-10.6565
ology	-10.6566
▁stress	-10.6572
▁honest	-10.6572
▁doors	-10.6575
▁raises	-10.6581
▁detail	-10.6589
▁grab	-10.6593
▁reid	-10.66
▁execution	-10.6603
▁projects	-10.6603
▁52	-10.6605
▁lit	-10.6606
▁bronx	-10.6612
▁surrounded	-10.6619
30	-10.6623
wn	-10.6624
▁divide	-10.6627
▁transfer	-10.6636
▁spokesperson	-10.6637
▁greet	-10.6639
▁locked	-10.6639
ez	-10.6642
cor	-10.6646
▁celebration	-10.665
▁ray	-10.6657
▁childhood	-10.6664
▁raid	-10.6674
gy	-10.6676
▁brings	-10.6682
▁sanctuary	-10.6682
▁writers	-10.6683
▁selection	-10.6686
▁predecessor	-10.6688
▁trailer	-10.669
▁trick	-10.6693
▁advanced	-10.6695
pan	-10.6699
▁nazi	-10.6701
▁wolf	-10.6704
▁teenage	-10.6709
▁si	-10.6712
▁compete	-10.6712
▁emissions	-10.6713
▁rnc	-10.6714
▁jose	-10.6715
▁wine	-10.6719
▁cameron	-10.6719
▁walker	-10.6719
bill	-10.6735
reuters	-10.6737
▁scenes	-10.6738
▁innocent	-10.6738
▁kitchen	-10.6738
▁assembly	-10.674
▁rid	-10.6743
▁ailes	-10.6748
▁thoughts	-10.6756
▁confront	-10.676
▁loud	-10.6761
▁explosive	-10.6761
▁150	-10.6771
▁frequently	-10.6772
▁demanded	-10.6784
teen	-10.6785
want	-10.6785
▁latino	-10.6786
▁tiger	-10.679
▁1970	-10.679
▁approached	-10.6809
▁dubbed	-10.6815
▁windows	-10.6818
▁hide	-10.6833
▁51	-10.6834
▁howard	-10.6835
▁travelers	-10.6836
▁blind	-10.684
▁describing	-10.6841
▁uncertainty	-10.6841
▁switch	-10.6842
far	-10.6844
▁11,	-10.6846
▁che	-10.6848
ama	-10.6849
▁tar	-10.685
▁confident	-10.6852
▁listed	-10.6857
▁clash	-10.6862
▁appropriate	-10.6865
▁settled	-10.6865
▁clothes	-10.6866
▁midnight	-10.6866
▁hook	-10.6867
▁drawn	-10.6875
▁findings	-10.6876
▁sand	-10.688
ya	-10.6886
▁lawmaker	-10.689
▁elon	-10.6896
face	-10.6897
▁portion	-10.6901
▁ear	-10.6906
▁describes	-10.6908
▁bound	-10.6909
▁unity	-10.6916
▁disagree	-10.6916
▁libertarian	-10.6918
▁lincoln	-10.6918
nes	-10.692
▁pr	-10.6922
▁regulatory	-10.6922
▁regret	-10.6923
▁panic	-10.6926
▁strongly	-10.6926
▁flow	-10.6929
▁lock	-10.6936
▁completed	-10.6939
▁tackle	-10.6941
▁graphic	-10.6944
▁blocks	-10.6947
▁maher	-10.6949
▁rarely	-10.6952
▁rec	-10.6964
▁spoken	-10.6969
▁acquisition	-10.697
▁rail	-10.6972
▁2016.	-10.6978
▁depend	-10.698
▁conviction	-10.6993
▁regulation	-10.6994
▁contrast	-10.6996
▁influential	-10.6996
▁propaganda	-10.6996
▁tragedy	-10.6996
▁empty	-10.6996
▁dutch	-10.6996
his	-10.6996
▁steel	-10.7
game	-10.7007
▁robot	-10.7008
▁55	-10.7013
▁disturbing	-10.7013
▁maintain	-10.7014
▁commerce	-10.7022
▁stabbed	-10.7022
▁pattern	-10.7022
▁furious	-10.7022
▁personally	-10.7024
▁marketing	-10.7033
▁vs	-10.7036
lie	-10.7039
▁clothing	-10.7048
▁4,	-10.7052
era	-10.7064
uc	-10.7073
tom	-10.7074
▁emerging	-10.7074
▁silent	-10.7074
▁signal	-10.7075
▁somebody	-10.7078
▁withdraw	-10.7083
look	-10.7089
▁develop	-10.7092
ec	-10.7098
▁holocaust	-10.71
▁feud	-10.7101
▁leftist	-10.7106
▁gawker	-10.7111
▁russians	-10.7112
sch	-10.7123
▁breakfast	-10.7127
▁degree	-10.7129
▁evil	-10.7142
▁representing	-10.7142
▁charlie	-10.7143
▁suffer	-10.7146
▁appointed	-10.7148
▁illness	-10.715
ung	-10.7153
▁equipment	-10.7153
▁uniform	-10.7153
▁keith	-10.7153
▁correspondent	-10.7156
video	-10.7156
▁signing	-10.7161
▁mixed	-10.7162
▁charleston	-10.7172
▁acts	-10.7173
▁ag	-10.7176
▁helicopter	-10.718
▁instance	-10.718
▁communist	-10.7181
play	-10.7182
▁disclosure	-10.7186
▁hamilton	-10.7188
meet	-10.7188
▁seconds	-10.7191
▁judicial	-10.7195
▁broker	-10.7197
▁cards	-10.7198
▁prisoners	-10.7199
▁hospitals	-10.7201
▁petition	-10.7206
▁weiner	-10.7207
▁hol	-10.7209
nie	-10.7218
▁53	-10.7221
▁forever	-10.7228
ification	-10.723
point	-10.7237
▁banning	-10.7238
▁jill	-10.724
▁thrown	-10.7242
▁reverse	-10.7243
▁boo	-10.7244
ong	-10.7244
▁blasted	-10.7244
▁replaced	-10.725
▁hardly	-10.725
▁baker	-10.7252
▁twin	-10.7255
▁spin	-10.7257
▁ski	-10.7259
sec	-10.7259
▁suspension	-10.726
▁waste	-10.7269
nce	-10.7272
▁resist	-10.728
▁flood	-10.7286
▁fundraising	-10.7287
▁fence	-10.7291
▁flooding	-10.7292
▁encourage	-10.7295
▁vo	-10.7298
▁banking	-10.73
▁dig	-10.7303
▁mount	-10.7305
lor	-10.7305
▁intel	-10.7306
istic	-10.7308
gged	-10.7308
▁detention	-10.7314
▁opposite	-10.7314
▁jake	-10.7315
dia	-10.732
▁aims	-10.7321
▁affair	-10.7321
pr	-10.7321
▁arts	-10.7321
▁expanding	-10.7322
free	-10.7323
ever	-10.7327
▁fees	-10.7329
▁launching	-10.7329
▁troubled	-10.733
bert	-10.7335
▁landing	-10.7339
▁vietnam	-10.734
▁disorder	-10.7341
▁operator	-10.7341
▁pulse	-10.7341
▁boeing	-10.7341
▁cho	-10.7342
ai	-10.7343
▁captain	-10.7348
▁tehran	-10.7349
lon	-10.7349
▁crossing	-10.7354
▁deny	-10.7354
ash	-10.7357
▁ignored	-10.7361
▁clock	-10.7365
▁nixon	-10.7368
▁dev	-10.737
▁fleeing	-10.7371
▁betsy	-10.7372
▁posts	-10.7375
▁legendary	-10.7377
▁takeover	-10.7383
▁hong	-10.7384
▁attending	-10.7386
▁facilities	-10.7395
▁lewandowski	-10.7395
▁manafort	-10.7395
▁battleground	-10.7395
arian	-10.7395
▁fault	-10.7395
▁recession	-10.7396
▁abu	-10.7396
▁meddling	-10.7396
▁abedin	-10.7401
ban	-10.7403
▁function	-10.7403
▁pla	-10.7419
▁commit	-10.742
▁reads	-10.7422
▁breast	-10.7422
▁apology	-10.7422
rep	-10.7423
▁assessment	-10.7423
▁fierce	-10.7436
▁reacted	-10.7438
▁dean	-10.7439
▁clients	-10.7439
russia	-10.7447
ken	-10.7448
▁deported	-10.7448
▁milk	-10.7449
▁eager	-10.7449
▁historical	-10.745
▁neighbors	-10.7452
▁sorry	-10.7455
▁aware	-10.7457
▁personality	-10.7458
▁badly	-10.7463
▁customer	-10.7466
▁campaigning	-10.747
▁reince	-10.7478
mark	-10.7479
▁artificial	-10.7482
▁hosts	-10.7484
keep	-10.7486
▁closest	-10.7486
▁sharply	-10.7502
▁principal	-10.7504
▁douglas	-10.7504
▁burning	-10.7509
▁banner	-10.7512
▁fires	-10.7517
▁pile	-10.7519
▁chef	-10.752
▁airstrikes	-10.7521
",	-10.7524
rio	-10.7528
gn	-10.753
▁chapter	-10.7531
promoting	-10.7531
▁assaulted	-10.7533
poised	-10.7534
rick	-10.7535
▁tenure	-10.7538
▁muhammad	-10.7539
▁99	-10.7539
▁reflect	-10.754
▁requested	-10.7541
▁renewed	-10.7542
▁realize	-10.7548
▁pack	-10.7549
▁hat	-10.7551
▁30,	-10.7556
▁orleans	-10.7559
▁fruit	-10.7559
▁inflation	-10.7559
▁qatar	-10.7559
▁harbor	-10.7559
water	-10.7563
▁rev	-10.7564
▁firearms	-10.7567
▁loans	-10.7572
▁orbit	-10.7572
▁permanent	-10.7574
▁morgan	-10.7587
▁contentious	-10.7587
▁bills	-10.7589
▁requires	-10.759
ral	-10.7596
▁anyway	-10.7596
▁oldest	-10.7597
▁rapidly	-10.7598
▁tactics	-10.7599
▁profits	-10.7603
▁crowded	-10.7606
▁condemned	-10.7608
lum	-10.7608
▁heritage	-10.7614
▁thrones	-10.7615
▁5,	-10.762
▁organizers	-10.7621
▁hearings	-10.7624
ik	-10.7632
▁$3.	-10.7633
▁dar	-10.764
▁desperate	-10.7641
▁awkward	-10.7642
▁declaring	-10.7642
▁sworn	-10.7642
▁larry	-10.7642
▁fortune	-10.7642
▁lord	-10.7642
▁grace	-10.7644
make	-10.7648
▁belt	-10.7651
stone	-10.7658
▁grim	-10.7658
pon	-10.7663
▁prayer	-10.7666
▁perspective	-10.767
▁plastic	-10.767
▁importance	-10.767
▁abandon	-10.767
▁tan	-10.7671
▁dropping	-10.7671
▁painting	-10.7674
▁2020	-10.7674
▁plain	-10.7676
▁rap	-10.7677
▁script	-10.768
▁rushed	-10.7682
ked	-10.7684
▁apologized	-10.7687
▁recognize	-10.7688
▁launches	-10.7688
▁connected	-10.769
lyn	-10.7696
▁estimates	-10.7697
▁murray	-10.7698
▁personnel	-10.7698
▁foods	-10.77
▁reference	-10.77
▁felony	-10.7702
▁discussions	-10.7709
▁basically	-10.771
▁sets	-10.7713
dale	-10.7715
▁posed	-10.7715
▁hub	-10.7717
▁bon	-10.772
▁tapper	-10.7727
▁revolutionary	-10.7728
▁lowest	-10.7732
▁teens	-10.7734
▁sits	-10.7734
ough	-10.7737
▁associates	-10.774
▁branch	-10.7749
cho	-10.7751
▁ugly	-10.7754
▁2006	-10.7757
▁duty	-10.7757
▁math	-10.7767
▁dominated	-10.7767
▁contained	-10.7771
▁pad	-10.7772
▁tested	-10.7775
▁protecting	-10.7776
▁engineer	-10.7779
▁mob	-10.778
▁ambitious	-10.7782
▁deficit	-10.7782
▁tomorrow	-10.7782
▁essay	-10.7782
▁madison	-10.7782
▁realized	-10.7783
▁deport	-10.7785
▁momentum	-10.7785
▁typical	-10.7791
▁afraid	-10.7792
▁burn	-10.7792
▁sudden	-10.7797
▁divorce	-10.7798
rich	-10.7808
▁tribe	-10.781
▁shark	-10.7811
▁proved	-10.7815
▁aboard	-10.7815
▁shore	-10.7818
70	-10.7819
▁limits	-10.782
▁mid	-10.7821
▁listening	-10.7824
law	-10.7824
▁outlet	-10.7824
▁laugh	-10.7835
▁slogan	-10.7839
▁steady	-10.7839
▁winners	-10.7839
▁colbert	-10.7839
▁successfully	-10.784
wore	-10.7846
▁lt	-10.7847
▁violate	-10.7849
▁oct	-10.785
▁magic	-10.7861
elle	-10.7863
▁afford	-10.7865
▁homicide	-10.7867
▁satellite	-10.7867
▁squad	-10.7867
▁bump	-10.7869
▁egyptian	-10.7869
▁diagnosed	-10.787
▁craft	-10.7876
▁enormous	-10.7879
▁factor	-10.788
cher	-10.7882
▁theme	-10.7887
▁suburb	-10.7888
▁recalled	-10.7888
▁photograph	-10.7888
▁flee	-10.7888
▁warn	-10.7893
▁prefer	-10.7894
▁moderator	-10.7895
rin	-10.7897
▁battery	-10.7897
▁tall	-10.7899
▁apply	-10.7915
▁centre	-10.7919
▁bre	-10.7919
▁throwing	-10.792
ory	-10.792
▁provides	-10.7923
▁sentiment	-10.7924
▁prevention	-10.7929
▁bunch	-10.793
ky	-10.7934
▁flu	-10.7939
▁briefly	-10.7939
▁grave	-10.7941
▁57	-10.7947
▁mer	-10.7948
▁expanded	-10.7951
▁extensive	-10.7953
▁shield	-10.7953
▁cohen	-10.7953
▁buck	-10.7954
▁passage	-10.7956
▁refuse	-10.7961
▁lifetime	-10.7963
▁distance	-10.7964
john	-10.7965
▁staying	-10.7966
▁southwest	-10.7969
▁electronic	-10.798
▁fundraiser	-10.7981
▁galaxy	-10.7981
fu	-10.7983
▁creation	-10.7983
▁engine	-10.7998
▁cry	-10.8002
▁performing	-10.8004
▁gene	-10.8006
▁trigger	-10.8008
▁sensitive	-10.8009
▁abandoned	-10.801
▁sterling	-10.801
▁flew	-10.8012
ica	-10.8014
▁refer	-10.8016
▁nobel	-10.8017
▁raped	-10.8021
▁overnight	-10.8022
fight	-10.8023
▁significantly	-10.8026
▁rome	-10.8027
set	-10.8028
▁infamous	-10.8029
▁wheel	-10.803
▁dylan	-10.8033
▁landscape	-10.8039
▁1960	-10.804
▁epic	-10.8041
▁mood	-10.8041
cker	-10.8048
▁prompting	-10.8056
▁mrs	-10.8068
▁library	-10.8068
▁denver	-10.8069
▁punishment	-10.8069
ations	-10.807
▁portland	-10.807
sign	-10.8076
▁civilian	-10.8077
▁files	-10.808
▁criticiz	-10.808
▁delivery	-10.8093
▁indictment	-10.8097
▁creative	-10.8098
▁managing	-10.8099
▁grounds	-10.8102
▁obviously	-10.8108
▁defends	-10.8109
ea	-10.8113
▁10,	-10.8116
▁restore	-10.8116
many	-10.8122
▁yellow	-10.8126
▁labour	-10.8127
▁beast	-10.8128
▁goals	-10.8136
▁hadn	-10.8137
fr	-10.8146
▁shareholders	-10.8154
▁marathon	-10.8156
▁rely	-10.8156
▁jonathan	-10.8166
▁nominate	-10.8166
▁argue	-10.8171
▁publishing	-10.8175
▁$50	-10.8178
mor	-10.8179
got	-10.8182
),"	-10.8182
▁proceed	-10.8184
▁venue	-10.8185
▁existing	-10.8185
▁2014.	-10.8186
▁diverse	-10.8186
▁lots	-10.8187
▁22,	-10.819
▁lights	-10.8195
▁infant	-10.8214
▁statistics	-10.8219
▁islands	-10.8222
▁juan	-10.8223
▁temperatures	-10.8226
▁pastor	-10.8232
▁models	-10.8233
▁proof	-10.8233
▁stronger	-10.8234
▁mentioned	-10.8234
▁origin	-10.8237
▁diplomats	-10.8242
▁suing	-10.8242
▁premier	-10.8243
▁metal	-10.8249
brook	-10.8249
▁“[	-10.825
▁viewed	-10.825
▁stark	-10.8254
ola	-10.8256
▁exist	-10.8257
▁retailer	-10.8265
▁fiction	-10.8269
▁anxiety	-10.8273
▁cartoon	-10.8273
▁residence	-10.8273
▁comparison	-10.8273
▁alarm	-10.8274
▁q	-10.8274
▁recommend	-10.8274
▁scientist	-10.8281
▁suggestion	-10.8284
▁ren	-10.8285
▁universal	-10.829
bad	-10.829
▁broader	-10.8291
hr	-10.8297
▁gig	-10.8301
ched	-10.8308
▁pointing	-10.8309
▁trash	-10.831
▁premiere	-10.8317
load	-10.8318
▁spa	-10.832
▁hannity	-10.8325
▁admits	-10.8327
▁mile	-10.8328
▁8,	-10.8331
▁anybody	-10.8335
▁duke	-10.8339
▁comeback	-10.834
▁incredible	-10.8354
▁explaining	-10.8355
▁context	-10.8363
▁excited	-10.8363
▁assange	-10.8363
▁nonprofit	-10.8363
▁jennifer	-10.8363
ologist	-10.8363
▁denies	-10.8364
▁southeast	-10.8364
oli	-10.8365
▁remind	-10.8374
▁entrepreneur	-10.8376
▁6,	-10.8379
making	-10.8383
▁demonstrators	-10.8393
▁hernandez	-10.8393
▁alleging	-10.8393
▁elementary	-10.8393
▁pieces	-10.8394
▁colleague	-10.8404
zar	-10.8406
▁hanging	-10.8408
cle	-10.8411
▁flags	-10.8412
▁apologize	-10.8422
▁verdict	-10.8423
▁vulnerable	-10.8423
▁""	-10.8425
▁killings	-10.8432
ily	-10.8438
world	-10.8439
illa	-10.8449
▁jokes	-10.845
▁christopher	-10.8453
▁fundamental	-10.8454
▁adds	-10.8455
▁challenged	-10.8462
▁appointment	-10.8466
▁definitely	-10.8466
▁protester	-10.8467
ua	-10.8469
▁openly	-10.8469
▁roads	-10.8473
▁rough	-10.848
▁wire	-10.848
▁triumph	-10.8482
▁somehow	-10.8482
▁terminal	-10.8483
▁employment	-10.8484
did	-10.8485
cast	-10.8487
▁fo	-10.8487
▁modest	-10.8489
▁faster	-10.8489
▁veto	-10.8489
▁tracking	-10.8493
▁tools	-10.8497
▁beer	-10.8497
▁informed	-10.8499
great	-10.8501
▁relatives	-10.8503
▁adopted	-10.8508
▁advocate	-10.8509
▁institution	-10.851
▁sec	-10.851
▁burst	-10.8511
▁vol	-10.8513
▁permission	-10.8514
▁dear	-10.8515
▁bash	-10.8516
▁bloody	-10.8516
▁yo	-10.8517
taking	-10.8525
▁jesus	-10.8526
▁gra	-10.8528
$	-10.8529
▁bombings	-10.8535
▁salt	-10.8537
▁associate	-10.854
▁achievement	-10.8545
▁reduced	-10.8552
▁slams	-10.8556
▁crowds	-10.8558
az	-10.8559
▁spreading	-10.8562
▁grade	-10.8562
▁sing	-10.8573
▁preliminary	-10.8574
▁tunnel	-10.8574
▁metro	-10.8576
bit	-10.8579
▁somewhat	-10.8587
▁lawsuits	-10.8588
ery	-10.859
cat	-10.8601
▁license	-10.8603
▁computers	-10.8604
▁giuliani	-10.8605
▁opportunities	-10.8605
▁stabbing	-10.8605
▁indication	-10.8605
▁elsewhere	-10.8605
▁addiction	-10.8606
▁requests	-10.8615
rant	-10.8615
▁phoenix	-10.8616
▁violation	-10.8622
gl	-10.8627
▁ordinary	-10.8635
▁shutdown	-10.8636
▁patriot	-10.8636
▁den	-10.8636
▁marshall	-10.8638
wall	-10.8651
▁rapid	-10.8655
book	-10.8658
lay	-10.866
▁toxic	-10.8661
▁filibuster	-10.8666
▁judgment	-10.8666
▁mccarthy	-10.8666
▁alexander	-10.8667
▁redstone	-10.8668
▁priority	-10.8669
▁genetic	-10.8669
▁loses	-10.8675
▁dump	-10.8676
▁increases	-10.8682
▁mysterious	-10.8684
▁breaks	-10.8687
▁regularly	-10.8692
▁trees	-10.8694
▁oh	-10.8696
▁opt	-10.8697
▁worries	-10.8697
▁phase	-10.8697
▁bruce	-10.8698
▁graduate	-10.8698
▁ty	-10.8701
report	-10.8704
▁indicated	-10.871
ray	-10.8715
▁stamp	-10.8718
fo	-10.8727
▁breach	-10.8727
▁destruction	-10.8728
▁fantasy	-10.8728
▁marvel	-10.8728
▁awarded	-10.8731
▁bird	-10.8733
▁59	-10.8735
▁successor	-10.874
▁waves	-10.8744
▁yu	-10.8744
mann	-10.8746
▁brands	-10.8747
▁28,	-10.875
graph	-10.8758
ue	-10.8758
▁testify	-10.8759
▁bangladesh	-10.8759
▁stronghold	-10.876
▁northeast	-10.8761
▁911	-10.8762
▁membership	-10.8762
▁investigated	-10.8767
▁tired	-10.8768
▁shoes	-10.877
▁speaks	-10.8772
▁billions	-10.8772
ular	-10.878
▁cellphone	-10.879
▁roundup	-10.8794
▁dave	-10.8795
nan	-10.8795
▁gunmen	-10.8798
▁pittsburgh	-10.8804
was	-10.8813
▁highlights	-10.8815
▁thin	-10.8819
▁tickets	-10.882
▁differences	-10.8821
▁mueller	-10.8821
▁henry	-10.8822
▁retreat	-10.8822
kel	-10.8828
▁slip	-10.8831
▁revealing	-10.8836
▁2007	-10.8837
▁eliminate	-10.884
iff	-10.8841
news	-10.8843
▁slowly	-10.8847
▁ranks	-10.8847
▁cro	-10.8847
▁choices	-10.8848
post	-10.8849
▁thompson	-10.8853
▁wallace	-10.8854
25	-10.8863
▁excuse	-10.8865
”)	-10.8867
▁notorious	-10.8871
▁knee	-10.8872
▁output	-10.8873
▁hunting	-10.8877
▁dismiss	-10.8878
▁motor	-10.8879
▁defect	-10.888
▁nervous	-10.8884
▁harvey	-10.8884
▁minorities	-10.8885
▁confrontation	-10.8887
aries	-10.8892
▁tourist	-10.8893
▁humanity	-10.89
▁disclose	-10.8901
▁hi	-10.8901
60	-10.8916
▁watchdog	-10.8917
▁topics	-10.8921
▁span	-10.8924
▁establish	-10.8924
▁minds	-10.8932
▁opens	-10.8936
▁legally	-10.8937
▁recovered	-10.8937
fil	-10.894
democratic	-10.8942
▁survived	-10.8945
▁ch	-10.8947
▁circumstances	-10.8947
▁protections	-10.8953
▁screening	-10.8957
▁correction	-10.8957
▁participate	-10.8961
▁struggles	-10.8962
tar	-10.8962
ify	-10.8963
▁2011,	-10.8964
▁ranking	-10.8967
▁hy	-10.8973
▁thousand	-10.8976
front	-10.8977
▁lecture	-10.8979
▁portrait	-10.8979
▁survivors	-10.8979
ku	-10.898
▁bible	-10.8983
▁gather	-10.8983
▁intent	-10.8983
▁lifted	-10.8983
mus	-10.8986
▁brilliant	-10.8987
hol	-10.8988
ski	-10.899
▁payment	-10.8991
▁gro	-10.8993
▁virtually	-10.8996
▁eli	-10.8998
▁tur	-10.9001
▁appearing	-10.9006
▁newest	-10.9008
rating	-10.9009
▁unarmed	-10.9011
▁burned	-10.9011
▁laptop	-10.9011
▁naked	-10.9012
▁chronicle	-10.9014
▁2003	-10.9014
▁jam	-10.9014
tes	-10.9021
▁interviewed	-10.9027
▁hawk	-10.9031
▁hor	-10.904
▁finger	-10.9042
▁bee	-10.9042
▁humanitarian	-10.9043
▁priest	-10.9043
▁blaze	-10.9044
▁cream	-10.9044
▁mansion	-10.9046
▁campuses	-10.9063
▁alt	-10.9066
high	-10.9068
bel	-10.9068
since	-10.9069
▁depression	-10.9075
▁tayyi	-10.9075
▁hashtag	-10.9075
▁protected	-10.9076
▁fool	-10.9076
▁foster	-10.9076
▁transform	-10.908
▁heated	-10.908
wing	-10.9083
▁spur	-10.9086
▁charter	-10.909
▁paint	-10.9099
▁ph	-10.9102
realdonaldtrump	-10.9107
▁rachel	-10.9107
▁substance	-10.9107
▁permit	-10.9108
▁insight	-10.9111
cid	-10.9113
▁collect	-10.9115
▁66	-10.9128
▁vp	-10.9131
▁25,	-10.9133
read	-10.9137
▁recep	-10.9139
▁intellectual	-10.9139
▁”[“	-10.914
▁selected	-10.914
▁breath	-10.9141
▁min	-10.9146
▁revelations	-10.9146
▁executed	-10.9148
▁underway	-10.9152
▁verizon	-10.9153
▁farmers	-10.9153
▁easter	-10.9154
▁winds	-10.9155
ei	-10.916
▁reforms	-10.9164
▁steal	-10.9167
▁controlled	-10.9168
mal	-10.9171
▁enemies	-10.9172
▁intervention	-10.9172
▁manner	-10.9172
▁blasts	-10.9172
▁priorities	-10.9172
▁citizenship	-10.9173
▁bench	-10.9174
▁54	-10.9174
▁robbery	-10.9176
▁bail	-10.9177
▁bathrooms	-10.9177
▁pyongyang	-10.9177
▁solo	-10.918
zy	-10.9182
▁contested	-10.9182
▁represented	-10.9183
▁sar	-10.9188
▁complained	-10.9189
▁ce	-10.9193
▁prosecution	-10.9204
▁repair	-10.9206
▁workplace	-10.9206
▁vital	-10.9209
▁angel	-10.9222
▁historically	-10.9222
ties	-10.9231
despite	-10.9232
▁copy	-10.9234
▁attorneys	-10.9236
▁suspicion	-10.9237
▁vaccine	-10.9237
▁assistance	-10.9237
▁suburban	-10.924
▁lap	-10.9241
▁scar	-10.9248
▁ideal	-10.9249
▁erupted	-10.9252
▁marking	-10.9252
▁define	-10.9252
rn	-10.9255
▁tip	-10.9257
▁21,	-10.9269
▁vessel	-10.927
▁mirror	-10.927
▁crackdown	-10.927
▁ripped	-10.927
▁letters	-10.9282
▁conventional	-10.9283
▁loose	-10.9283
▁marc	-10.9297
zo	-10.9297
▁degrees	-10.9301
burn	-10.9301
▁category	-10.9302
▁stewart	-10.9302
▁bust	-10.9303
▁monster	-10.9303
▁dramatically	-10.9304
▁robots	-10.9305
▁admit	-10.9306
▁spain	-10.9312
▁heels	-10.9314
▁voices	-10.9316
▁corrupt	-10.9318
▁developer	-10.932
eb	-10.9328
▁coat	-10.9329
saturday	-10.9331
▁wilson	-10.9336
▁chapo	-10.9337
▁solve	-10.9342
mad	-10.935
▁kate	-10.9351
▁baghdad	-10.9352
▁expose	-10.9352
sex	-10.936
▁prepares	-10.9361
▁saving	-10.9363
▁greece	-10.9368
▁qui	-10.9371
▁journalism	-10.9374
▁commentator	-10.9378
love	-10.9386
▁lessons	-10.9386
ifying	-10.9394
▁misconduct	-10.9401
▁pocket	-10.9401
▁pregnancy	-10.9401
▁prescription	-10.9401
▁scenario	-10.9401
▁125	-10.9402
cation	-10.9403
var	-10.9411
▁beaten	-10.9413
▁impose	-10.9416
▁pose	-10.9418
▁chest	-10.9424
▁governing	-10.9424
▁peaceful	-10.9426
▁delivering	-10.9431
▁jeffrey	-10.9435
hl	-10.9435
▁tragic	-10.9435
▁jazz	-10.9435
▁underground	-10.9436
▁plate	-10.9453
▁600	-10.9461
lies	-10.9465
▁19,	-10.9465
uch	-10.9467
▁declaration	-10.9468
▁soviet	-10.9468
▁greek	-10.9468
▁dedicated	-10.947
▁resulted	-10.947
▁adopt	-10.9472
▁turnout	-10.9475
▁drag	-10.9476
▁consideration	-10.9477
▁stem	-10.9479
▁staffer	-10.9484
▁economists	-10.9492
▁cre	-10.9493
▁fer	-10.9497
▁rolled	-10.95
▁huffington	-10.9501
▁emmanuel	-10.9501
▁sudan	-10.9501
▁thus	-10.9502
▁exception	-10.9502
▁random	-10.9503
try	-10.9503
▁cooperation	-10.9504
pet	-10.951
▁spike	-10.9516
▁addressing	-10.9523
▁loan	-10.9529
see	-10.953
▁belgian	-10.9535
▁trudeau	-10.9535
▁bedroom	-10.9535
▁dawn	-10.9536
▁collapsed	-10.9538
▁showdown	-10.9543
▁transit	-10.9546
▁bears	-10.9547
▁airports	-10.9548
eh	-10.955
▁hills	-10.9556
▁dam	-10.956
▁sur	-10.9563
▁pray	-10.9565
bed	-10.9568
▁pioneer	-10.9569
▁saint	-10.9569
▁overdose	-10.9569
▁700	-10.9571
▁rangers	-10.9574
▁pit	-10.9574
kar	-10.9576
▁bottle	-10.9583
▁edward	-10.9583
▁23,	-10.9595
▁enterprise	-10.9602
▁nominating	-10.9602
▁swimming	-10.9602
▁palace	-10.9603
▁pension	-10.9603
editor	-10.9606
mmer	-10.9608
afp	-10.9609
▁7,	-10.9612
▁"‘	-10.9619
▁oakland	-10.9619
met	-10.962
▁myth	-10.9621
▁yorkers	-10.9623
▁tear	-10.9624
▁collective	-10.9625
▁passes	-10.9625
▁pizza	-10.9628
ack	-10.9629
""	-10.9629
▁stole	-10.9631
mir	-10.9632
▁phenomenon	-10.9636
▁schultz	-10.9636
▁unnamed	-10.9636
▁confusion	-10.9637
▁garner	-10.9638
▁seventh	-10.9638
▁abortions	-10.9642
▁expression	-10.9644
▁56	-10.9645
▁shoulder	-10.9645
maker	-10.9646
▁elites	-10.9649
uous	-10.9649
▁pressed	-10.9652
▁challenger	-10.9652
▁meme	-10.9652
▁guards	-10.9656
▁meets	-10.966
▁koch	-10.9668
▁competitive	-10.967
▁applied	-10.967
▁crossed	-10.9673
▁appoint	-10.9676
▁escaped	-10.9676
▁knock	-10.9678
▁lesson	-10.9681
stand	-10.9682
▁singing	-10.9683
ram	-10.9686
▁imposed	-10.9689
▁reminder	-10.9695
▁vows	-10.9701
▁consensus	-10.9704
▁turmoil	-10.9704
▁swimmer	-10.9705
▁dems	-10.9707
▁plants	-10.971
▁elderly	-10.971
ano	-10.9712
▁answered	-10.9712
▁nose	-10.9713
▁colleges	-10.9716
▁commentary	-10.9719
▁violations	-10.9719
▁wade	-10.9719
▁29,	-10.9722
▁barrel	-10.9723
▁bullet	-10.9724
▁enforce	-10.9729
▁employers	-10.9733
▁roles	-10.9734
▁exact	-10.9737
▁divisive	-10.9739
▁frustration	-10.9739
▁inequality	-10.9739
▁baldwin	-10.9739
▁tapped	-10.974
pac	-10.9744
▁max	-10.9745
▁pundits	-10.9757
cra	-10.9758
▁volunteer	-10.9758
▁knowing	-10.9759
col	-10.976
▁deployed	-10.976
▁attackers	-10.9764
▁districts	-10.9765
▁disclosed	-10.9765
▁legs	-10.9765
log	-10.9768
▁scan	-10.9769
▁triggered	-10.9771
▁secrets	-10.9773
▁competing	-10.9773
▁securities	-10.9773
▁victories	-10.9774
▁inspector	-10.9774
morning	-10.9774
too	-10.9777
thank	-10.9782
▁hosting	-10.9786
iness	-10.9786
apple	-10.9788
▁resolve	-10.9789
table	-10.9793
▁rumors	-10.9794
▁remark	-10.9796
▁slam	-10.9797
▁governments	-10.9801
▁brave	-10.9809
▁hogan	-10.981
▁arrive	-10.981
▁approximately	-10.9814
▁julian	-10.9816
▁climb	-10.9817
▁types	-10.9824
▁torture	-10.9824
▁bloc	-10.9824
▁visas	-10.9825
par	-10.9836
▁extremist	-10.9836
▁haiti	-10.9839
hold	-10.9839
▁lobby	-10.9842
▁compound	-10.9842
▁mnuchin	-10.9842
▁forgotten	-10.9842
▁nurse	-10.9842
▁teenagers	-10.9843
▁equality	-10.9845
▁lengthy	-10.9851
▁rat	-10.9853
▁duck	-10.9858
▁milwaukee	-10.9859
▁(“	-10.9861
▁episodes	-10.9861
▁hostile	-10.9861
▁suv	-10.9863
▁nsa	-10.9865
bal	-10.9871
▁loyal	-10.9875
▁fossil	-10.9877
▁supremacist	-10.9877
▁welfare	-10.9877
▁trapped	-10.9878
▁barred	-10.9881
▁anywhere	-10.9881
ium	-10.9881
▁picking	-10.989
din	-10.9891
▁sexist	-10.9894
▁painful	-10.99
▁ruin	-10.9902
▁ballots	-10.9905
▁scored	-10.991
▁jenner	-10.9912
▁tpm	-10.9913
▁trafficking	-10.9913
▁carbon	-10.9914
▁pig	-10.9916
▁2010,	-10.9917
▁buffett	-10.9918
▁hiding	-10.9922
▁merely	-10.9923
‘	-10.9925
▁fairly	-10.9925
▁feared	-10.9927
▁pollster	-10.9929
▁organ	-10.9938
▁brooks	-10.994
▁assess	-10.9946
▁visual	-10.9947
▁impressive	-10.9947
▁midtown	-10.9947
▁counties	-10.9949
part	-10.9952
never	-10.9954
▁warnings	-10.9955
wan	-10.996
ben	-10.9962
▁2001	-10.9965
box	-10.9968
▁amy	-10.9968
▁wages	-10.9976
▁blunt	-10.9982
▁attendees	-10.9982
▁oath	-10.9982
▁quest	-10.9982
▁stanley	-10.9982
ient	-10.9983
▁stepping	-10.9984
three	-10.9984
pul	-10.9987
▁planes	-10.9992
▁hometown	-10.9992
north	-10.9993
▁disrupt	-11
gop	-11.0002
▁nigeria	-11.0011
▁abe	-11.0015
▁freak	-11.0017
▁griffin	-11.0017
▁maduro	-11.0017
▁pruitt	-11.0017
▁swept	-11.0017
▁valuable	-11.0017
▁holy	-11.0019
▁turner	-11.002
▁anticipated	-11.0021
▁defeated	-11.0022
▁implement	-11.0024
▁val	-11.0024
▁aged	-11.0024
▁ultimate	-11.0025
pm	-11.0035
▁chan	-11.0035
pat	-11.0036
▁neighborhoods	-11.004
▁threaten	-11.004
ston	-11.0047
▁jihadist	-11.0048
▁zealand	-11.0052
▁montana	-11.0053
▁mitchell	-11.0053
▁consultant	-11.0053
▁bags	-11.0054
▁$4.	-11.0055
▁condemn	-11.0061
▁17,	-11.0064
▁famously	-11.0069
▁expecting	-11.0069
▁ci	-11.0073
▁prospects	-11.0073
▁length	-11.0078
rr	-11.0081
▁dreams	-11.0083
▁predict	-11.0089
▁hello	-11.0092
▁luck	-11.0092
ada	-11.0094
▁2002	-11.0096
▁suspend	-11.0099
▁tre	-11.01
▁locations	-11.01
▁monthly	-11.0106
▁$12	-11.011
▁weighed	-11.0112
▁justices	-11.0113
fra	-11.0114
mu	-11.0115
▁cleared	-11.0116
bn	-11.0119
have	-11.0119
▁carrie	-11.0121
▁sisters	-11.0121
▁contributor	-11.0123
▁investigative	-11.0123
deadliest	-11.0124
▁comfortable	-11.0125
▁roots	-11.0126
thursday	-11.0127
▁starring	-11.013
▁walls	-11.0132
▁teach	-11.0132
mis	-11.0138
▁shouted	-11.0141
▁revive	-11.0142
▁helps	-11.0146
china	-11.0151
▁classes	-11.0153
ula	-11.0156
ros	-11.0156
▁27,	-11.0156
▁amnesty	-11.0159
▁concrete	-11.0159
▁buried	-11.0159
▁echo	-11.0165
▁filmmaker	-11.0168
▁guarantee	-11.0176
bla	-11.0177
ira	-11.0187
▁somalia	-11.0194
▁advocacy	-11.0195
▁belgium	-11.0195
▁defensive	-11.0195
▁grammy	-11.0195
▁unpopular	-11.0195
▁klein	-11.0195
▁combination	-11.0195
▁bundy	-11.0195
▁grocery	-11.0197
▁possession	-11.0197
▁cincinnati	-11.0203
▁awful	-11.0203
▁wound	-11.0205
▁sustained	-11.0207
▁popularity	-11.0207
▁apps	-11.0208
▁parker	-11.021
sure	-11.0213
▁cow	-11.0217
▁outsider	-11.022
human	-11.0221
▁strict	-11.0222
▁para	-11.0225
▁busted	-11.023
▁ideological	-11.0231
▁invasion	-11.0231
▁walmart	-11.0231
▁swiss	-11.0231
▁guidelines	-11.0231
▁gym	-11.0231
▁huma	-11.0233
▁fleet	-11.0238
▁kiss	-11.024
▁mat	-11.0241
▁confirms	-11.0245
▁protesting	-11.0246
▁skills	-11.0247
▁delayed	-11.0248
▁evan	-11.025
▁outlook	-11.0251
char	-11.0252
ese	-11.0252
▁surprisingly	-11.0259
▁entitled	-11.0267
▁evacuation	-11.0267
▁ireland	-11.0267
▁signaled	-11.0269
brexit	-11.0273
▁ze	-11.0275
▁damaged	-11.0288
▁notion	-11.0292
▁serves	-11.0297
▁consecutive	-11.0303
▁description	-11.0303
▁invitation	-11.0303
▁gorka	-11.0303
▁melissa	-11.0303
▁blew	-11.0305
▁overwhelming	-11.0306
▁sweep	-11.0307
▁deeper	-11.0309
▁engineering	-11.0309
▁burger	-11.031
anti	-11.0316
▁","	-11.0317
lly	-11.0319
▁mock	-11.0329
▁sin	-11.033
▁riding	-11.0336
▁technical	-11.0337
▁removal	-11.034
▁rhode	-11.034
▁assassination	-11.034
▁memoir	-11.0342
▁perfectly	-11.0342
(	-11.0342
▁rescued	-11.0345
atlantic	-11.0346
▁shortage	-11.0346
▁insurers	-11.0346
▁forms	-11.0349
week	-11.0352
▁bio	-11.0353
▁farage	-11.0354
pol	-11.0355
▁grip	-11.0361
▁projected	-11.0361
rag	-11.0366
gel	-11.0367
▁introduce	-11.0372
▁drunk	-11.0373
▁diplomat	-11.0373
▁embattled	-11.0376
▁kardashian	-11.0376
▁refusal	-11.0376
▁motive	-11.0376
▁damaging	-11.0376
▁consent	-11.0376
▁26,	-11.0376
▁toddler	-11.0378
▁carlson	-11.0378
▁belief	-11.0379
▁oliver	-11.0381
▁argues	-11.0408
▁tracks	-11.0412
▁quoted	-11.0412
▁encouraging	-11.0413
▁classroom	-11.0414
▁engagement	-11.0414
▁sidewalk	-11.0414
▁replacing	-11.0414
▁courtroom	-11.0418
▁viacom	-11.0419
▁motivated	-11.042
▁absurd	-11.0425
▁achieve	-11.043
▁urge	-11.0435
▁800	-11.0439
▁ridiculous	-11.0441
▁capable	-11.0443
▁stations	-11.0446
▁friendly	-11.0447
hop	-11.0448
▁russell	-11.0449
▁ninth	-11.0449
▁confidential	-11.045
▁naval	-11.0451
ide	-11.0451
▁humor	-11.0453
▁devoted	-11.0455
facebook	-11.0457
▁alphabet	-11.0457
▁mau	-11.0459
▁punish	-11.0462
pass	-11.0464
▁stranger	-11.0466
▁24,	-11.0466
▁def	-11.0467
ically	-11.0472
▁rigged	-11.0473
▁constant	-11.0474
▁ipo	-11.0475
▁ghost	-11.0478
▁casting	-11.0481
▁scrap	-11.0482
▁battles	-11.0485
▁74	-11.0485
▁intercept	-11.0486
▁necessarily	-11.0486
▁technologies	-11.0486
requiring	-11.0486
▁properties	-11.0486
▁irish	-11.0486
▁iii	-11.0488
▁castile	-11.0488
▁earnest	-11.0488
▁perez	-11.0489
rap	-11.0491
▁reward	-11.0492
▁arch	-11.0498
live	-11.05
where	-11.0504
▁principle	-11.0504
▁principles	-11.0517
▁31,	-11.0519
▁entrance	-11.0523
▁existence	-11.0524
▁hunter	-11.0529
▁tag	-11.0533
▁exploded	-11.0534
▁genre	-11.0552
▁multi	-11.0554
▁frequent	-11.0557
▁84	-11.0557
▁contains	-11.0558
▁beneath	-11.0561
▁debbie	-11.0561
▁cheese	-11.0561
▁violating	-11.0561
▁rampage	-11.0561
▁careful	-11.0565
▁disappointing	-11.0568
▁cr	-11.0574
▁deter	-11.0584
▁gla	-11.059
fin	-11.0591
▁tweeting	-11.0591
▁fur	-11.0591
▁pound	-11.0596
stein	-11.0596
▁stump	-11.0597
▁submit	-11.0597
▁bubble	-11.0598
▁caribbean	-11.0598
▁wisdom	-11.0598
▁62	-11.0598
▁famed	-11.0598
▁impression	-11.0599
▁luther	-11.0599
▁destination	-11.0599
▁burden	-11.0599
ight	-11.0603
▁photographs	-11.0604
▁brad	-11.0604
▁infected	-11.0605
▁unite	-11.0606
▁noah	-11.0607
▁setback	-11.0607
super	-11.0609
▁cave	-11.0615
nne	-11.0616
▁funded	-11.0626
▁simon	-11.0632
▁demonstrations	-11.0633
▁retailers	-11.0634
▁registration	-11.0635
▁tattoo	-11.0635
▁rebuke	-11.0635
▁diamond	-11.0635
political	-11.0637
night	-11.0639
▁discover	-11.0641
▁announces	-11.0645
ean	-11.0647
roll	-11.0652
▁resume	-11.0654
▁dash	-11.0658
▁hostage	-11.0658
art	-11.066
card	-11.066
▁founding	-11.0662
▁malaysia	-11.0667
▁sweat	-11.0669
▁machines	-11.0671
bol	-11.0671
▁scholar	-11.0672
▁mega	-11.0673
▁simpson	-11.0673
▁battling	-11.0673
▁grabbed	-11.0673
▁preserve	-11.0673
ala	-11.0674
▁airplane	-11.0674
▁wounds	-11.0675
▁refuses	-11.0676
▁gunfire	-11.0677
▁trace	-11.0679
▁hum	-11.068
▁hospitalized	-11.0681
▁horn	-11.0682
▁lucky	-11.0683
▁soros	-11.0684
▁horrible	-11.0687
▁disappeared	-11.0688
▁tune	-11.069
▁freeze	-11.0693
▁collected	-11.0705
cro	-11.0705
ero	-11.0708
▁comfort	-11.0709
▁glimpse	-11.0711
▁qualified	-11.0711
▁steam	-11.0711
▁vocal	-11.0711
▁arctic	-11.0711
▁handgun	-11.0712
▁timeline	-11.0712
▁signals	-11.0713
▁revised	-11.0715
▁sheet	-11.0715
▁poison	-11.0716
▁trends	-11.0718
▁architect	-11.0718
▁mode	-11.0719
power	-11.0719
▁elements	-11.0719
▁horrific	-11.072
▁transport	-11.0721
▁obtain	-11.0721
friday	-11.0721
▁accepting	-11.0726
▁gates	-11.0728
fall	-11.0731
▁encouraged	-11.0737
▁dur	-11.0739
cia	-11.0746
▁privately	-11.0748
▁collusion	-11.0749
▁metropolitan	-11.0749
▁vatican	-11.0749
▁superior	-11.0749
▁smooth	-11.0749
▁bolster	-11.0749
▁slavery	-11.075
▁opec	-11.0751
▁bread	-11.0752
▁yale	-11.0753
▁chart	-11.0754
▁skip	-11.0756
▁taxpayers	-11.0757
▁leap	-11.0758
▁sailors	-11.0761
qua	-11.0765
▁repealing	-11.0767
▁diver	-11.078
▁grande	-11.0782
13	-11.0783
▁midst	-11.0785
dom	-11.0786
unconstitutional	-11.0787
▁removing	-11.0787
▁retain	-11.0787
▁reign	-11.0787
▁serial	-11.0787
▁thiel	-11.0788
▁materials	-11.0789
▁teeth	-11.0789
▁fran	-11.0792
▁gate	-11.0792
▁ferguson	-11.0797
▁corn	-11.0798
sco	-11.08
▁doj	-11.0804
▁convince	-11.0806
▁dominate	-11.0806
▁58	-11.0809
▁dna	-11.0809
▁nasty	-11.0811
▁lip	-11.0814
▁exhibit	-11.0822
▁volume	-11.0825
▁dragged	-11.0825
▁ideology	-11.0825
▁nickname	-11.0825
▁compare	-11.0825
▁spray	-11.0825
▁lorett	-11.0826
▁testified	-11.0828
▁bike	-11.0828
▁lease	-11.083
▁jane	-11.0831
▁mounting	-11.0833
▁thick	-11.0835
▁connect	-11.0835
▁tense	-11.084
kill	-11.0842
rod	-11.0843
▁sir	-11.0845
▁ditch	-11.0847
▁daughters	-11.0847
▁dry	-11.0848
att	-11.0854
▁clark	-11.0856
▁urges	-11.0858
▁choosing	-11.0863
▁nikki	-11.0863
▁disabled	-11.0863
▁telephone	-11.0863
▁15,	-11.0866
▁sniper	-11.0869
▁deleted	-11.0871
▁briefed	-11.0873
national	-11.0876
▁secretly	-11.0881
▁cells	-11.0884
▁uc	-11.0887
▁lands	-11.0891
▁shame	-11.0893
▁expects	-11.0894
▁rant	-11.0895
▁releasing	-11.0901
▁ncaa	-11.0902
▁exec	-11.0903
▁siege	-11.0903
▁poland	-11.0905
▁consult	-11.0906
▁roman	-11.0907
gun	-11.091
▁explosives	-11.0916
▁repeat	-11.0919
ara	-11.0925
▁mainly	-11.0926
▁clinic	-11.0936
▁industries	-11.094
▁hudson	-11.094
▁button	-11.0943
▁confronted	-11.0943
▁units	-11.0943
ency	-11.0955
▁venezuelan	-11.0956
ised	-11.0959
▁tactic	-11.0961
▁iron	-11.0961
▁mountains	-11.0962
letting	-11.0962
▁consistent	-11.0966
lew	-11.0971
▁musician	-11.0972
▁85	-11.0974
▁1996	-11.0979
▁1999	-11.0979
▁pollution	-11.0979
▁starbucks	-11.0979
▁guidance	-11.0979
▁misleading	-11.0979
▁urgent	-11.0979
▁northwest	-11.0982
▁hip	-11.0983
▁hal	-11.0985
▁skeptical	-11.0988
▁egg	-11.0991
▁69	-11.0994
▁spill	-11.0997
▁delta	-11.0998
▁trucks	-11.1
▁bet	-11.1008
▁listing	-11.1015
▁fiorina	-11.1018
▁scotland	-11.1018
▁injuring	-11.1018
▁tel	-11.1022
ef	-11.1024
sum	-11.1026
▁touched	-11.1029
▁slim	-11.103
welcome	-11.1032
before	-11.1032
▁pole	-11.1036
▁retire	-11.1037
▁ages	-11.1042
▁acted	-11.1052
▁yorker	-11.1053
▁cleric	-11.1057
▁rodrig	-11.1057
▁wildfire	-11.1058
▁agriculture	-11.106
▁wil	-11.1063
▁18,	-11.1064
▁towns	-11.1066
▁strengthen	-11.1069
▁wrap	-11.107
▁qaeda	-11.1071
▁pur	-11.1072
gs	-11.1073
▁roy	-11.1076
▁bang	-11.1076
▁kirk	-11.1077
▁ev	-11.108
elect	-11.1086
▁princess	-11.1088
▁insult	-11.1088
mont	-11.109
▁$25	-11.109
▁continent	-11.1091
▁2017.	-11.1092
yer	-11.1092
▁ethnic	-11.1094
▁drought	-11.1096
▁streak	-11.1096
▁ceasefire	-11.1096
▁theories	-11.1097
▁intention	-11.1102
exclusive	-11.1111
▁settlements	-11.1113
▁infection	-11.1122
dig	-11.1123
▁weigh	-11.1133
lk	-11.1134
▁cam	-11.1134
▁pharmaceutical	-11.1135
▁anonymity	-11.1135
▁chaotic	-11.1135
▁jessica	-11.1135
▁deemed	-11.1135
▁seasons	-11.1136
▁outfit	-11.1136
▁cinema	-11.1136
▁profound	-11.1136
▁contacts	-11.1137
▁jacket	-11.1138
▁bri	-11.1143
▁operate	-11.1144
▁loves	-11.1147
bound	-11.1149
women	-11.1151
▁sink	-11.1152
▁drones	-11.1154
▁cult	-11.1155
▁disappointed	-11.1155
▁stable	-11.1158
▁sends	-11.116
bury	-11.116
lot	-11.116
kov	-11.117
▁beside	-11.117
amp	-11.117
▁managers	-11.1173
▁capacity	-11.1175
▁opposing	-11.1175
▁cousin	-11.1175
▁costume	-11.1175
▁denial	-11.1176
▁pitt	-11.1176
▁ol	-11.1177
▁pending	-11.1178
▁riots	-11.1183
▁prohibit	-11.1184
▁stakes	-11.1185
ison	-11.1189
▁concealed	-11.1189
▁quote	-11.119
▁mere	-11.1192
▁providers	-11.1193
▁walter	-11.1193
▁unveil	-11.1194
stop	-11.1198
▁dust	-11.12
▁corey	-11.1201
▁andrea	-11.1203
▁levin	-11.1205
▁quarterly	-11.1208
▁chaffetz	-11.1215
▁messaging	-11.1215
▁charging	-11.1215
▁smell	-11.1216
▁dun	-11.1219
▁inches	-11.122
▁heights	-11.1221
▁essential	-11.1223
▁criminals	-11.1231
▁convinced	-11.1234
▁assume	-11.1236
▁occasion	-11.1238
▁cubs	-11.1239
▁aug	-11.1241
erie	-11.1246
▁correspondents	-11.1252
▁jinping	-11.1254
▁mediterranean	-11.1254
▁physician	-11.1254
▁taught	-11.1254
nder	-11.1255
▁gunshot	-11.1256
▁salary	-11.1257
▁sim	-11.126
▁participants	-11.126
▁accidentally	-11.1261
▁highlighted	-11.1263
dding	-11.1264
ew	-11.1268
▁wonderful	-11.127
▁doubled	-11.1271
▁nominations	-11.1271
▁advisory	-11.1271
▁rig	-11.1271
80	-11.1273
▁tokyo	-11.1275
▁dick	-11.1276
▁sandy	-11.1279
ock	-11.1284
▁meal	-11.1285
▁teaching	-11.1291
▁demographic	-11.1294
▁frustrated	-11.1294
▁casino	-11.1294
▁extent	-11.1294
▁scarborough	-11.1295
▁kidnapping	-11.1295
▁blockbuster	-11.1295
▁obstruction	-11.1296
▁assertion	-11.1297
▁electronics	-11.1297
▁finale	-11.1298
▁temple	-11.1298
▁fitness	-11.1298
▁jihadists	-11.1302
any	-11.1302
▁assaulting	-11.1304
▁victoria	-11.1306
▁wondering	-11.1308
▁toronto	-11.1311
▁2009,	-11.1315
▁contests	-11.1316
▁feelings	-11.1317
▁feds	-11.1319
▁unfair	-11.1325
▁revelation	-11.1327
▁recommended	-11.1332
uber	-11.1334
▁confederate	-11.1335
▁innovation	-11.1335
▁slain	-11.1335
▁sum	-11.1337
▁unfortunately	-11.1342
▁experiences	-11.1351
wear	-11.1353
▁inappropriate	-11.1354
▁engage	-11.1355
about	-11.1356
▁shouting	-11.1358
hard	-11.1363
▁hail	-11.1363
dem	-11.1367
dra	-11.1368
▁export	-11.137
▁decisive	-11.1375
▁electorate	-11.1375
▁terrifying	-11.1375
▁tribune	-11.1375
▁declining	-11.1375
▁flames	-11.1375
▁camps	-11.1376
▁undergo	-11.1378
▁12,	-11.138
▁pact	-11.1381
feld	-11.1384
▁pu	-11.1388
▁nra	-11.139
trust	-11.1392
bat	-11.1398
bin	-11.1399
▁focusing	-11.1402
▁lied	-11.1405
▁height	-11.1411
▁sham	-11.1412
▁lone	-11.1414
▁eligible	-11.1415
▁recipe	-11.1415
▁absence	-11.1415
▁medicare	-11.1416
▁clinch	-11.1416
▁genius	-11.1416
▁pump	-11.1418
▁relationships	-11.1419
▁sprawling	-11.1422
▁surely	-11.1423
▁enable	-11.1427
uri	-11.1427
key	-11.1428
▁roberts	-11.1433
▁soil	-11.1435
▁legitimate	-11.1441
ima	-11.145
▁scare	-11.1452
▁rooms	-11.1454
▁christ	-11.1456
▁extremism	-11.1456
▁supplies	-11.1456
hau	-11.1457
▁strongest	-11.1465
▁denounced	-11.1467
ali	-11.1467
▁tighten	-11.1469
ending	-11.147
chen	-11.1471
▁johnny	-11.1472
ore	-11.1473
▁crop	-11.1478
▁defined	-11.1479
▁tro	-11.1479
▁bor	-11.1483
▁observers	-11.1484
▁mocked	-11.1487
▁longest	-11.1487
“	-11.1489
▁incredibly	-11.1497
▁swamp	-11.1497
▁blaming	-11.1497
▁fabric	-11.1498
▁vetting	-11.1498
’,"’	-11.1498
▁bel	-11.1499
▁occur	-11.15
▁spots	-11.1504
▁donor	-11.1508
▁recover	-11.1513
fla	-11.1513
▁pew	-11.1513
▁declare	-11.1517
▁tick	-11.1517
▁frozen	-11.1518
▁exclusively	-11.1518
▁cake	-11.152
▁gall	-11.1524
▁generations	-11.1527
born	-11.1528
gger	-11.1529
▁covers	-11.153
▁burns	-11.1533
▁root	-11.1537
▁inevitable	-11.1538
▁insurgent	-11.1538
▁persuade	-11.1538
▁rousseff	-11.1538
▁gal	-11.1539
pho	-11.1539
▁acceptance	-11.154
▁embarrassing	-11.1543
▁sounded	-11.1545
▁dim	-11.1545
ura	-11.1549
▁welcomed	-11.1556
▁broadcaster	-11.1558
tuesday	-11.1558
special	-11.1559
▁stayed	-11.1562
test	-11.1564
▁acquire	-11.1566
▁connections	-11.1569
▁beef	-11.1572
▁jihad	-11.1573
▁diseases	-11.1573
▁optimism	-11.1579
▁stealing	-11.1579
▁pepper	-11.1579
▁getty	-11.1584
▁14,	-11.1585
▁shower	-11.1587
▁fallout	-11.1587
▁enjoyed	-11.1589
nar	-11.1589
▁dia	-11.1594
▁ros	-11.1601
▁soda	-11.1602
▁95	-11.1603
▁recognized	-11.1617
▁16,	-11.1618
def	-11.1619
▁unidentified	-11.162
▁steep	-11.162
▁blames	-11.1623
▁mosquitoes	-11.1625
▁spell	-11.163
▁waited	-11.1633
▁corporations	-11.1638
call	-11.164
your	-11.1642
▁acknowledge	-11.1643
xi	-11.165
▁ramp	-11.1651
▁nationally	-11.1652
▁devin	-11.1662
▁ourselves	-11.1662
▁revenge	-11.1662
▁sketch	-11.1662
▁ceiling	-11.1662
▁lindsey	-11.1662
▁powell	-11.1664
▁shareholder	-11.1664
▁bolton	-11.1667
▁runway	-11.1669
▁barry	-11.1673
versus	-11.1674
▁sk	-11.1674
▁household	-11.1676
▁recalls	-11.1676
▁extremists	-11.1677
lee	-11.1677
come	-11.168
▁screaming	-11.1681
▁monument	-11.1685
▁estimate	-11.1689
▁micro	-11.1694
▁alleges	-11.1695
▁elephant	-11.1704
▁kidnapped	-11.1704
▁populism	-11.1704
▁curious	-11.1704
▁clown	-11.1704
▁lauren	-11.1704
▁sgt	-11.1705
▁herald	-11.1706
▁demonstration	-11.1706
▁visible	-11.1707
▁involves	-11.171
▁suspicious	-11.1717
▁habit	-11.1717
▁columbus	-11.1717
▁contributed	-11.1719
▁cox	-11.172
▁doping	-11.1722
cruz	-11.1726
speaking	-11.1726
▁misdemeanor	-11.1745
▁patent	-11.1748
▁friendship	-11.1749
▁evangelical	-11.1749
▁clashes	-11.1753
▁flowers	-11.1756
▁afterward	-11.1756
▁kanye	-11.1763
eng	-11.1765
▁72	-11.1766
▁sons	-11.1767
▁inner	-11.1768
birth	-11.1768
class	-11.1772
▁invest	-11.1773
▁surfaced	-11.178
▁13,	-11.1781
▁tam	-11.1786
▁lochte	-11.1787
▁promotion	-11.1787
▁arriving	-11.1787
▁stroke	-11.1787
▁stunned	-11.1788
▁medication	-11.1789
▁rip	-11.1795
▁drops	-11.1799
rest	-11.1799
▁76	-11.1806
because	-11.1811
▁77	-11.1821
▁websites	-11.1822
▁superhero	-11.1825
▁punch	-11.1825
▁beliefs	-11.1826
▁dismantle	-11.183
▁historian	-11.183
▁jeremy	-11.183
▁preparation	-11.183
▁reynolds	-11.183
▁farewell	-11.183
▁countless	-11.1834
ches	-11.184
▁mull	-11.184
turn	-11.1842
▁spacex	-11.1844
rc	-11.1846
▁interrupted	-11.1848
▁$	-11.1849
▁mask	-11.1851
▁suck	-11.186
▁$500	-11.1865
▁fights	-11.1866
gor	-11.1867
▁wondered	-11.187
▁cru	-11.1871
▁trauma	-11.1871
▁peninsula	-11.1872
▁barbara	-11.1872
▁stopping	-11.1877
▁matthews	-11.188
,"‘	-11.188
tig	-11.1885
▁runner	-11.1885
▁explore	-11.1886
▁sting	-11.1886
vy	-11.1887
using	-11.1888
▁okay	-11.1888
pin	-11.1889
▁supports	-11.189
▁tremendous	-11.1894
wednesday	-11.1897
monday	-11.1899
▁capt	-11.19
[	-11.1902
▁dirty	-11.1904
▁taxi	-11.1904
▁64	-11.1904
▁releases	-11.1906
▁raw	-11.1907
room	-11.1914
▁fails	-11.1914
ye	-11.1915
▁hatred	-11.1915
▁audit	-11.1932
▁criticize	-11.1934
15	-11.1938
▁endless	-11.1949
▁purchased	-11.1952
▁cocaine	-11.1957
▁sequel	-11.1957
▁troubling	-11.1957
▁slaughter	-11.1957
▁pants	-11.1958
▁tyler	-11.1958
▁purported	-11.1966
▁gri	-11.1967
▁somewhere	-11.1968
▁comprehensive	-11.1969
,’”	-11.1969
lian	-11.1972
▁dana	-11.1972
▁dispatch	-11.1973
gin	-11.1973
▁sleeping	-11.198
boy	-11.198
▁78	-11.1982
▁stupid	-11.1983
▁slide	-11.1983
▁hailed	-11.1986
▁doubts	-11.1989
▁dates	-11.1991
paul	-11.1995
▁motors	-11.2
▁spectacular	-11.2
▁understood	-11.2
▁smoking	-11.2
▁staple	-11.2
▁theft	-11.2003
▁fever	-11.2005
▁irs	-11.2008
▁economist	-11.2012
▁formed	-11.2015
▁grill	-11.2019
▁2008,	-11.202
▁jacob	-11.202
▁invite	-11.2025
▁timing	-11.2035
▁indicate	-11.2037
▁athletic	-11.2043
▁aviation	-11.2043
▁milestone	-11.2044
▁preview	-11.2046
▁contestant	-11.2047
▁examiner	-11.2049
▁drinks	-11.2052
▁barring	-11.2053
ele	-11.206
▁visits	-11.2061
▁scared	-11.2062
▁2012.	-11.2063
▁bal	-11.2067
▁jihadi	-11.2074
▁treaty	-11.2077
▁worship	-11.2087
▁definition	-11.2087
▁integrity	-11.2087
▁spencer	-11.2087
▁implications	-11.2087
▁deciding	-11.2087
▁merrick	-11.2087
▁discount	-11.2087
▁franklin	-11.2089
▁scout	-11.2089
ique	-11.2093
▁bowie	-11.2093
▁progressives	-11.2098
walk	-11.2099
▁performer	-11.2099
▁deploy	-11.2101
▁overwhelmingly	-11.2102
▁virgin	-11.2103
▁hikes	-11.2103
▁looming	-11.2106
▁monitoring	-11.2106
▁wo	-11.2107
▁61	-11.2108
▁250	-11.2111
▁conclude	-11.2112
▁restrict	-11.2112
source	-11.2112
▁stunt	-11.2121
▁knocked	-11.2121
ancy	-11.2122
▁brun	-11.2124
▁cont	-11.2124
▁sentencing	-11.213
▁smear	-11.213
▁subpoena	-11.213
▁romantic	-11.2132
▁lifestyle	-11.2133
miss	-11.2133
▁shed	-11.2134
▁regardless	-11.2136
▁scam	-11.2137
▁brace	-11.2137
▁$14	-11.2138
▁everyday	-11.2139
mel	-11.2139
▁pronounced	-11.2141
tv	-11.2143
ann	-11.2145
▁procedure	-11.2146
▁investments	-11.2146
▁airstrike	-11.2146
▁client	-11.2147
▁detective	-11.2147
lift	-11.2148
guard	-11.2157
though	-11.2159
▁overturn	-11.2162
▁detect	-11.2165
▁wayne	-11.2165
▁churches	-11.2167
▁mocking	-11.2169
▁cab	-11.2171
▁arsenal	-11.2174
▁widow	-11.2174
▁wrapped	-11.2174
▁wasserman	-11.2174
politic	-11.2175
▁flip	-11.2176
▁hiv	-11.2176
▁asset	-11.2178
▁animated	-11.2181
say	-11.2189
▁plunged	-11.2189
▁application	-11.2191
▁82	-11.2191
▁inmate	-11.2193
▁articles	-11.2196
▁rocky	-11.2198
jack	-11.2198
tim	-11.22
direct	-11.2203
▁reviewed	-11.2209
hey	-11.2213
found	-11.2214
▁normally	-11.2216
▁nebraska	-11.2218
▁schweizer	-11.2218
▁philip	-11.2218
▁uncertain	-11.2218
▁brent	-11.2218
▁exchanges	-11.2221
▁smartphones	-11.2221
▁draws	-11.2225
▁races	-11.2225
▁mill	-11.2225
hill	-11.2228
▁heroes	-11.223
▁qua	-11.2232
▁pure	-11.2234
▁cafe	-11.2236
▁volunteers	-11.2236
▁patch	-11.2237
elli	-11.2241
▁laying	-11.2253
nell	-11.2259
▁adventure	-11.2262
▁conservatism	-11.2262
▁landslide	-11.2262
▁marketplace	-11.2263
▁nude	-11.2264
▁potter	-11.2265
▁improvement	-11.2265
▁delight	-11.2268
had	-11.2272
▁communication	-11.2282
▁insisting	-11.2288
▁premiums	-11.2298
form	-11.2299
dar	-11.2305
▁delaware	-11.2306
▁exploring	-11.2306
▁mortgage	-11.2306
▁predominantly	-11.2306
▁unconscious	-11.2306
▁nieto	-11.2306
▁ought	-11.2307
▁deserve	-11.231
avi	-11.2311
▁brit	-11.2313
▁restrain	-11.2315
▁mir	-11.2318
▁holdings	-11.2321
▁coin	-11.2322
▁athlete	-11.2328
35	-11.233
▁opinions	-11.2332
▁ships	-11.2334
▁contender	-11.2335
▁requirements	-11.2336
bernie	-11.2337
nick	-11.2338
▁alan	-11.234
▁reg	-11.2344
▁88	-11.2347
▁addict	-11.2348
▁argentina	-11.235
▁assigned	-11.235
▁restroom	-11.2351
▁memories	-11.2351
▁yellen	-11.2351
▁touted	-11.2353
▁rebound	-11.2353
▁confused	-11.2355
once	-11.2359
bl	-11.237
▁bite	-11.2372
▁offices	-11.2375
▁locker	-11.2376
▁playoff	-11.2379
hamilton	-11.2381
▁rounds	-11.2382
▁champions	-11.2389
▁murders	-11.2389
▁nowhere	-11.239
▁ash	-11.2392
▁michel	-11.2392
▁exxon	-11.2394
list	-11.2395
▁primarily	-11.2395
▁rookie	-11.2395
▁hottest	-11.2396
▁polish	-11.2396
anna	-11.2398
▁abruptly	-11.2401
▁bug	-11.2402
▁buyers	-11.2402
▁supposedly	-11.2402
▁ser	-11.2402
▁eighth	-11.2412
▁dynamic	-11.2415
▁bombers	-11.2416
▁relevant	-11.2419
▁acquired	-11.2422
hate	-11.2426
▁ky	-11.2429
▁68	-11.2434
▁balloon	-11.244
▁slipped	-11.244
▁panama	-11.244
▁quo	-11.2446
▁dodge	-11.2447
vice	-11.2449
12	-11.2449
ching	-11.2449
▁assist	-11.245
▁drill	-11.2455
▁courtesy	-11.2461
▁corporation	-11.2466
▁sporting	-11.2476
▁formula	-11.2479
▁tips	-11.2485
▁authoritarian	-11.2485
▁equivalent	-11.2485
▁optimistic	-11.2485
▁curry	-11.2485
▁bombshell	-11.2485
▁lethal	-11.2487
ising	-11.2487
▁haram	-11.2488
bor	-11.2489
▁whip	-11.2492
40	-11.2494
▁counselor	-11.2495
▁advised	-11.2498
▁sexism	-11.25
▁approaching	-11.25
pec	-11.2503
▁hatch	-11.2514
▁proven	-11.2515
count	-11.2516
conservative	-11.2518
▁sues	-11.2521
▁manslaughter	-11.253
▁negotiating	-11.253
▁netherlands	-11.253
▁katie	-11.253
▁warehouse	-11.253
▁noon	-11.2533
going	-11.2539
ryan	-11.2544
▁67	-11.2549
▁reviews	-11.255
would	-11.2564
enberg	-11.2564
▁remembered	-11.2569
▁accuser	-11.2573
dan	-11.2573
▁atmosphere	-11.2576
▁chocolate	-11.2576
▁switzerland	-11.2576
▁nerve	-11.2576
▁brawl	-11.2576
▁advertisers	-11.2576
▁laura	-11.2577
▁ellison	-11.2578
▁toilet	-11.2579
▁der	-11.2581
▁billboard	-11.2587
▁gaining	-11.2594
hil	-11.2597
▁boxing	-11.2597
▁mich	-11.2597
▁prof	-11.26
▁leaking	-11.2603
▁seize	-11.2605
▁barrier	-11.2605
eem	-11.2613
ius	-11.2617
▁scandals	-11.2621
▁reckless	-11.2621
▁trained	-11.2622
▁grandmother	-11.2622
▁proceedings	-11.2623
▁submitted	-11.2623
▁trek	-11.2625
▁stability	-11.2625
▁brush	-11.2626
▁alter	-11.2629
rise	-11.2635
▁parks	-11.2637
▁2013.	-11.2637
▁prop	-11.2638
▁murderer	-11.2639
▁fare	-11.2642
app	-11.2642
▁bonds	-11.2645
eo	-11.2648
▁accurate	-11.2654
▁firearm	-11.2655
▁weighing	-11.2659
▁lan	-11.2663
▁ger	-11.2663
▁arguably	-11.2667
▁transparency	-11.2667
▁muscle	-11.2667
▁pursuit	-11.2667
oid	-11.2667
▁residential	-11.2668
▁radar	-11.2669
▁pol	-11.2669
▁passport	-11.2669
▁knight	-11.2669
▁caption	-11.2672
▁notable	-11.2674
▁fee	-11.2678
counterterrorism	-11.2679
▁lineup	-11.268
▁limbaugh	-11.2682
rg	-11.2683
▁noise	-11.269
▁rub	-11.269
nate	-11.269
mc	-11.269
▁delays	-11.2694
pu	-11.2703
▁7.	-11.2704
own	-11.2709
▁opera	-11.2713
▁calendar	-11.2713
▁deputies	-11.2713
▁murphy	-11.2713
▁gorilla	-11.2713
▁comply	-11.2713
▁rosenstein	-11.2713
▁liquid	-11.2713
▁bot	-11.2715
via	-11.2715
▁wireless	-11.2715
▁char	-11.2717
pot	-11.2717
nik	-11.2722
▁norms	-11.2733
▁preventing	-11.2734
▁passion	-11.2736
open	-11.2739
▁$18	-11.2745
▁slave	-11.2747
ctor	-11.2748
▁provision	-11.2748
bon	-11.2751
▁indonesia	-11.2753
▁lind	-11.2756
▁donated	-11.2757
▁wreck	-11.2759
▁inspiration	-11.2759
▁outspoken	-11.2759
sergey	-11.276
▁database	-11.276
▁plaza	-11.276
▁whale	-11.2761
▁honored	-11.2761
▁liar	-11.2764
▁wright	-11.2765
▁attribut	-11.2769
▁120	-11.2773
▁pearl	-11.2775
▁9,	-11.2775
▁unleashed	-11.2779
hur	-11.2779
▁manuel	-11.278
▁forth	-11.2781
▁carefully	-11.2781
▁triple	-11.2782
▁react	-11.2782
cop	-11.2785
▁intern	-11.2785
▁bans	-11.2786
racist	-11.2797
▁legislators	-11.28
▁$11	-11.2802
▁elaborate	-11.2806
▁treasure	-11.2806
▁travis	-11.2807
▁seth	-11.2808
▁poet	-11.2809
▁ownership	-11.2809
▁plum	-11.2813
▁meyer	-11.2814
▁hollande	-11.2815
▁evacuated	-11.2817
▁rental	-11.2819
▁outgoing	-11.2822
▁hammer	-11.2827
▁pause	-11.2836
▁$400	-11.2836
▁generated	-11.2839
▁reaches	-11.2839
driving	-11.2843
▁vet	-11.2844
▁partly	-11.2845
▁mosquito	-11.2848
▁cy	-11.2849
▁disastrous	-11.2853
▁mohammed	-11.2853
▁idaho	-11.2853
▁slump	-11.2853
▁premise	-11.2853
▁fireworks	-11.2853
▁assailant	-11.2853
▁lung	-11.2856
▁dumb	-11.2856
▁billy	-11.2863
▁genocide	-11.2863
arm	-11.2865
▁seekers	-11.2868
wal	-11.2869
election	-11.2874
▁gm	-11.2876
▁belonging	-11.2878
▁lisa	-11.2888
flo	-11.2889
▁secured	-11.2889
hn	-11.2892
▁89	-11.2896
▁hearts	-11.2897
▁appreciate	-11.29
▁fascinating	-11.29
▁monetary	-11.29
▁podium	-11.29
▁thunder	-11.29
▁diplomacy	-11.29
▁filmed	-11.29
woman	-11.2901
▁boko	-11.2901
▁carpet	-11.2904
paris	-11.2906
▁volkswagen	-11.2908
▁pickup	-11.2908
▁unlock	-11.2909
▁mourn	-11.2911
safe	-11.2913
▁pitcher	-11.2917
due	-11.2922
▁demonstrate	-11.2928
▁pushes	-11.2932
▁anne	-11.2933
each	-11.2933
michael	-11.2938
wick	-11.294
▁admission	-11.2941
▁uphold	-11.2942
▁lobbying	-11.2944
▁centuries	-11.2947
▁televised	-11.2947
▁offshore	-11.2947
▁gabriel	-11.2947
▁slash	-11.2947
▁dunham	-11.2947
▁aisle	-11.2949
▁admire	-11.2949
▁correctness	-11.295
▁posing	-11.295
▁wider	-11.2953
▁jurors	-11.2955
▁karl	-11.2956
▁doomed	-11.2961
▁engineers	-11.2965
til	-11.2965
leigh	-11.2971
▁woke	-11.2972
▁stating	-11.2973
rock	-11.2976
▁unrest	-11.2977
may	-11.2978
▁bacteria	-11.298
▁makeup	-11.2986
▁$13	-11.2992
▁graduation	-11.2994
▁lesbian	-11.2994
▁shkreli	-11.2994
▁bargain	-11.2994
▁dennis	-11.2994
▁moines	-11.2994
▁dissent	-11.2994
▁cavaliers	-11.2995
▁hulk	-11.2995
▁snowden	-11.2997
▁verge	-11.2997
sville	-11.2998
▁haul	-11.3
▁79	-11.3001
▁falsely	-11.3005
bling	-11.3013
▁palestinians	-11.3014
▁barn	-11.3014
▁splash	-11.3016
▁musicians	-11.3017
▁approaches	-11.3017
▁examine	-11.3018
2,	-11.3018
▁mobil	-11.3021
ico	-11.3023
suit	-11.3035
anne	-11.3038
▁administrator	-11.3038
▁73	-11.304
▁compar	-11.3041
▁closure	-11.3042
▁envoy	-11.3042
▁lebron	-11.3042
▁hoax	-11.3042
▁reduction	-11.3043
▁workforce	-11.3044
▁tension	-11.3044
utter	-11.3049
mic	-11.3049
▁dive	-11.305
shot	-11.3051
▁govern	-11.3052
▁conducting	-11.3052
dear	-11.3052
▁properly	-11.3052
ute	-11.3061
▁lean	-11.3062
▁nationalism	-11.3068
▁advances	-11.307
▁saga	-11.307
▁custom	-11.3075
media	-11.3078
bul	-11.3079
▁owns	-11.3081
▁resulting	-11.3083
rou	-11.3084
▁tele	-11.3089
▁engaging	-11.309
▁perpetrat	-11.309
▁83	-11.309
▁cure	-11.3091
▁shootout	-11.3093
flat	-11.3093
▁janet	-11.3094
▁mothers	-11.3095
bot	-11.3096
▁substantial	-11.3099
▁avoided	-11.31
▁operatives	-11.3104
▁portray	-11.3106
▁insults	-11.3108
▁exploit	-11.3109
90	-11.3112
▁condo	-11.3115
▁yards	-11.3115
▁dining	-11.3117
▁frame	-11.3119
▁mil	-11.3121
▁6.	-11.3123
▁survivor	-11.3137
▁havana	-11.3138
▁occupation	-11.3138
▁federation	-11.3138
▁lyft	-11.3138
▁promoted	-11.314
▁superstar	-11.3142
bach	-11.3145
▁exports	-11.3146
▁sail	-11.3148
aya	-11.3148
cap	-11.3149
augh	-11.3152
▁insists	-11.3162
▁fri	-11.3164
▁hacker	-11.3166
▁chill	-11.3167
▁publish	-11.3167
ement	-11.3167
▁94	-11.3168
▁gore	-11.3172
▁sells	-11.3181
chris	-11.3182
weight	-11.3185
▁rahami	-11.3186
▁recognition	-11.3186
▁martha	-11.3186
▁cotton	-11.3186
▁empower	-11.3187
▁yates	-11.3187
▁spacecraft	-11.3187
▁hank	-11.3188
▁outright	-11.3192
▁bolt	-11.32
aid	-11.3201
▁vicious	-11.3201
▁fulfill	-11.3202
▁meals	-11.3203
▁destroying	-11.3205
bro	-11.3212
ological	-11.3217
▁alike	-11.3224
worth	-11.3224
▁concerning	-11.3227
▁habits	-11.3231
▁administrative	-11.3235
▁categories	-11.3235
▁uncomfortable	-11.3235
▁relax	-11.3235
▁isolated	-11.3235
▁caddell	-11.3235
▁autism	-11.3235
▁maximum	-11.3235
▁trademark	-11.3238
▁reef	-11.3238
▁diesel	-11.3244
▁gaga	-11.3244
▁jos	-11.3244
▁denying	-11.3245
▁duo	-11.3249
▁traders	-11.325
▁overcome	-11.3252
▁abused	-11.3256
▁prayers	-11.3258
▁bud	-11.326
24	-11.3261
▁philippine	-11.3263
▁stall	-11.3267
▁embraced	-11.3271
▁boats	-11.3283
▁1994	-11.3283
▁junior	-11.3283
▁raqqa	-11.3283
▁stomach	-11.3283
▁anxious	-11.3283
▁bishop	-11.3283
reducing	-11.3284
▁seoul	-11.3285
▁1950	-11.3286
▁springs	-11.3286
▁declares	-11.3287
wl	-11.3293
four	-11.3298
▁contractor	-11.3299
▁deutsche	-11.3299
▁bou	-11.33
▁contracts	-11.3303
ander	-11.331
rat	-11.3314
▁firefighters	-11.3319
▁controls	-11.3321
▁ranch	-11.3331
▁upend	-11.3331
▁allegiance	-11.3332
▁appropriation	-11.3332
▁compensation	-11.3332
▁credibility	-11.3332
▁damascus	-11.3332
▁ecuador	-11.3332
▁immunity	-11.3332
▁participating	-11.3332
▁spectacle	-11.3332
▁munich	-11.3332
▁distress	-11.3333
▁contemporary	-11.3333
▁monica	-11.3333
▁ambush	-11.3333
▁preferred	-11.3333
▁passionate	-11.3333
▁vow	-11.3334
▁cher	-11.3338
grad	-11.3339
▁racially	-11.334
▁deck	-11.3342
▁defy	-11.3345
▁carries	-11.3348
▁prisoner	-11.3349
▁outlined	-11.335
▁caution	-11.3354
","(	-11.3354
▁rocked	-11.3355
▁cowboys	-11.3357
▁jar	-11.3358
▁flaw	-11.3365
eff	-11.337
▁wilders	-11.3371
▁method	-11.3373
▁twins	-11.3373
▁reminded	-11.3377
which	-11.3377
david	-11.3378
▁borrow	-11.3379
▁bitcoin	-11.3382
▁bezos	-11.3383
▁pardon	-11.3383
▁mining	-11.3386
▁laden	-11.339
▁withdrawal	-11.3391
▁labeled	-11.3391
▁traditionally	-11.3393
▁$200	-11.3395
ware	-11.3398
▁amounts	-11.3402
▁smash	-11.3404
only	-11.3404
▁dancing	-11.3405
▁ranging	-11.3407
ila	-11.3409
▁mai	-11.3412
▁poses	-11.3418
▁lately	-11.342
▁speculat	-11.3429
▁cemetery	-11.3431
▁pneumonia	-11.3431
▁lawrence	-11.3431
▁dishonest	-11.3432
▁blogger	-11.3433
▁favored	-11.3433
heart	-11.3437
stock	-11.3438
▁helm	-11.3438
▁laughing	-11.3439
▁premium	-11.3439
▁retake	-11.344
hal	-11.344
▁karen	-11.3441
▁kit	-11.3445
▁disputed	-11.3446
▁indianapolis	-11.3449
check	-11.3451
▁barb	-11.3456
▁mont	-11.3458
▁divisions	-11.346
▁narrowly	-11.3465
eth	-11.3468
▁hotels	-11.3474
▁sever	-11.3475
▁jab	-11.3475
▁chronic	-11.3477
▁specialist	-11.3478
▁literature	-11.3481
▁nutrition	-11.3481
▁benchmark	-11.3481
▁steer	-11.3481
▁electricity	-11.3486
praising	-11.349
▁unanimously	-11.3491
used	-11.3493
▁bath	-11.3494
shi	-11.3494
▁contributions	-11.3494
▁scary	-11.3498
▁colon	-11.35
▁jailed	-11.351
friend	-11.3513
▁complaining	-11.3513
still	-11.3523
▁$40	-11.3527
▁breed	-11.3529
▁1995	-11.3531
▁autonomous	-11.3531
▁bharara	-11.3531
▁faculty	-11.3531
▁savage	-11.3532
▁cite	-11.3535
▁alarming	-11.3536
▁vin	-11.3537
▁risen	-11.3539
hit	-11.3547
▁ranked	-11.3555
▁playoffs	-11.3555
▁vest	-11.3556
action	-11.3557
▁unexpectedly	-11.3564
beat	-11.3564
▁colorful	-11.357
▁comics	-11.3577
israel	-11.3579
radical	-11.3579
twitter	-11.3579
▁adapt	-11.358
▁airbnb	-11.3581
▁policing	-11.3581
▁reboot	-11.3581
▁accompanied	-11.3583
▁fallon	-11.3583
▁joked	-11.3586
▁pav	-11.3586
▁generate	-11.3588
▁hamas	-11.3589
▁surged	-11.3591
▁traded	-11.3593
▁youngest	-11.3607
▁cord	-11.3609
hor	-11.3609
▁5.	-11.361
▁cheer	-11.3613
▁compromise	-11.3613
ich	-11.3617
chan	-11.3618
dell	-11.362
▁freed	-11.3622
sell	-11.363
foot	-11.3631
▁huckabee	-11.3632
▁roosevelt	-11.3632
▁regain	-11.3632
▁ufc	-11.3632
▁exciting	-11.3633
▁assured	-11.3633
▁loyalty	-11.3633
▁sponsor	-11.3636
▁strain	-11.3636
▁addresses	-11.3637
▁$1,	-11.3646
▁marry	-11.3647
▁luke	-11.3648
dec	-11.365
▁apprentice	-11.3655
▁wings	-11.3661
▁overturned	-11.3663
▁cheating	-11.3664
▁taco	-11.3665
▁mourning	-11.3667
16	-11.3668
▁climbed	-11.3672
▁backers	-11.3674
▁beard	-11.3675
▁counted	-11.3679
▁caller	-11.368
▁genuine	-11.3682
▁precinct	-11.3682
▁trophy	-11.3682
▁goodbye	-11.3682
▁robbed	-11.3683
▁pakistani	-11.3685
range	-11.3686
▁sally	-11.3689
▁complain	-11.3689
▁crying	-11.3689
▁mason	-11.3691
▁broadcasting	-11.3692
▁colombian	-11.3695
▁freshman	-11.3698
▁surgeon	-11.3699
▁consistently	-11.3699
▁boot	-11.3706
▁eggs	-11.3708
▁speakers	-11.3717
▁undo	-11.3721
▁commonly	-11.3723
▁austria	-11.3727
▁mentally	-11.3728
▁horizon	-11.3733
▁philosophy	-11.3733
▁provocative	-11.3733
▁harlem	-11.3733
▁ritual	-11.3733
▁revolt	-11.3733
▁android	-11.3734
▁array	-11.3734
▁rift	-11.3735
▁flagship	-11.3736
▁latter	-11.3737
▁birds	-11.3739
sea	-11.3739
▁yard	-11.374
gie	-11.3741
▁liked	-11.3742
▁cannon	-11.3744
▁heck	-11.3749
▁stern	-11.375
▁inform	-11.3752
▁occupied	-11.3752
▁audiences	-11.3755
▁crushed	-11.3759
▁villain	-11.376
▁weaken	-11.3765
▁plunge	-11.3766
kind	-11.3766
▁contribute	-11.3767
▁adams	-11.3768
17	-11.378
▁educational	-11.3784
▁1992	-11.3785
▁municipal	-11.3785
▁portfolio	-11.3785
▁subsidies	-11.3785
▁uncovered	-11.3785
▁cardinal	-11.3785
▁hart	-11.3785
▁predator	-11.3785
▁cheat	-11.3786
▁sole	-11.3786
absolutely	-11.3787
▁brick	-11.3788
▁jackie	-11.3788
tell	-11.3791
▁thr	-11.3795
▁appearances	-11.3796
▁secur	-11.3798
▁boil	-11.3798
▁cri	-11.3798
▁63	-11.3798
▁eagle	-11.3804
▁info	-11.3811
▁physically	-11.3821
▁stops	-11.383
▁kenya	-11.3831
jan	-11.3834
▁unusually	-11.3834
▁titan	-11.3835
▁doll	-11.3836
▁reservation	-11.3836
▁shook	-11.3836
▁gesture	-11.3836
▁craig	-11.3836
▁jefferson	-11.3836
▁mara	-11.3836
▁gallery	-11.3837
cleveland	-11.3837
▁precedent	-11.3837
▁morris	-11.3837
▁attendance	-11.3839
▁maintained	-11.3839
▁nod	-11.384
▁couch	-11.3841
▁studying	-11.3842
▁raping	-11.3848
home	-11.3848
▁foe	-11.3851
lc	-11.3853
▁pipe	-11.3853
▁hint	-11.3863
▁utter	-11.3864
▁crashes	-11.3864
▁bankers	-11.3865
▁pie	-11.3865
▁kabul	-11.3868
▁quake	-11.3871
isis	-11.3873
▁ruth	-11.3873
▁mp	-11.3873
▁hostages	-11.3873
uf	-11.3881
:15	-11.3882
▁wal	-11.3885
▁pap	-11.3887
▁censor	-11.3888
▁cologne	-11.3888
▁enthusiasm	-11.3888
▁psychological	-11.3888
▁layoffs	-11.3888
▁brink	-11.3888
health	-11.3889
▁tent	-11.3889
▁useful	-11.3892
▁banker	-11.3893
▁flock	-11.3893
▁slowing	-11.3894
▁dylann	-11.3899
▁trending	-11.3899
▁attached	-11.39
▁outdoor	-11.3901
▁counting	-11.3904
▁hung	-11.3915
▁clause	-11.3918
▁equally	-11.3918
lov	-11.3922
▁vowing	-11.3923
▁expressing	-11.3927
citing	-11.3928
100	-11.3928
▁$17	-11.3931
▁contradict	-11.3932
democrats	-11.3935
▁collision	-11.394
▁convoy	-11.394
▁defiant	-11.394
▁emirates	-11.394
▁hijab	-11.394
▁rodriguez	-11.394
▁syndrome	-11.394
▁hurdle	-11.394
▁filter	-11.394
▁abolish	-11.394
▁therefore	-11.394
▁casualties	-11.394
▁grief	-11.394
▁acres	-11.3941
▁mini	-11.3944
▁cpac	-11.3945
cco	-11.3948
▁wise	-11.3949
▁handled	-11.395
▁factors	-11.3951
▁fillon	-11.3956
▁rejects	-11.3962
talk	-11.3963
ois	-11.3964
▁permanently	-11.3964
▁allegation	-11.3965
▁recommendation	-11.3966
▁shifting	-11.3967
▁deserves	-11.3968
cover	-11.3968
▁teammates	-11.397
▁holder	-11.3974
▁aggressively	-11.3976
▁--	-11.3977
▁kl	-11.3979
god	-11.3983
gal	-11.3985
▁log	-11.3987
atory	-11.3987
mme	-11.3988
lip	-11.3988
cott	-11.3988
▁87	-11.3988
▁census	-11.3993
▁feminism	-11.3993
▁ignoring	-11.3993
▁incumbent	-11.3993
▁tropical	-11.3993
▁otto	-11.3993
▁wrestling	-11.3993
▁fiery	-11.3993
▁spotify	-11.3993
lier	-11.3995
ctively	-11.3997
▁undercover	-11.3997
▁stressed	-11.3998
▁ears	-11.4
▁losers	-11.4
▁hunger	-11.4002
▁rapist	-11.4007
hon	-11.4007
▁critically	-11.4016
▁competitors	-11.4018
▁witnessed	-11.4021
▁moms	-11.4024
▁couples	-11.4025
▁pressing	-11.4029
▁drain	-11.4034
mitt	-11.4035
aq	-11.4045
▁bloom	-11.4045
build	-11.4045
▁purple	-11.4045
▁recipient	-11.4045
▁reversal	-11.4045
▁kassam	-11.4045
▁imports	-11.4046
▁excessive	-11.4046
▁valid	-11.4046
▁temer	-11.4047
▁agrees	-11.4048
▁emmy	-11.4049
▁ref	-11.4052
▁slate	-11.4053
▁intends	-11.406
▁cooking	-11.406
charge	-11.4062
ien	-11.4063
▁boxes	-11.4064
▁tide	-11.4066
fair	-11.4071
▁researcher	-11.4073
▁pam	-11.4076
▁rogue	-11.4077
▁apologizes	-11.4079
▁logic	-11.4089
▁credits	-11.4092
bie	-11.4094
▁mud	-11.4094
lio	-11.4094
▁contend	-11.4095
cen	-11.4095
▁centrist	-11.4098
▁genital	-11.4098
▁dhs	-11.4099
▁elevator	-11.41
▁org	-11.4103
▁battlefield	-11.4104
▁jean	-11.4106
▁occasionally	-11.4108
▁observed	-11.4108
▁excellent	-11.4111
▁outline	-11.4114
▁trooper	-11.4115
▁jamie	-11.4116
▁mills	-11.4126
▁gaza	-11.413
▁glad	-11.414
▁wounding	-11.4146
▁filling	-11.4149
▁aggravate	-11.4151
▁retaliation	-11.4151
▁endorsing	-11.4151
▁obscure	-11.4151
▁cigarette	-11.4151
▁vague	-11.4153
▁deployment	-11.4153
▁cnbc	-11.4154
▁skill	-11.4158
hara	-11.4166
▁lifting	-11.417
▁poured	-11.417
▁startling	-11.4176
▁raids	-11.4177
▁$30	-11.418
pay	-11.418
▁designate	-11.4181
▁grows	-11.4196
▁boring	-11.4196
▁manufacturers	-11.42
▁painted	-11.4202
▁prestigious	-11.4205
▁resemble	-11.4205
▁storage	-11.4205
▁memorable	-11.4205
▁richmond	-11.4205
▁obsession	-11.4205
▁breakthrough	-11.4205
▁translate	-11.4206
▁platforms	-11.4207
▁rot	-11.4209
▁editors	-11.421
▁cement	-11.4211
▁absolute	-11.4211
▁sav	-11.4214
▁nail	-11.4215
▁aging	-11.4215
▁bone	-11.422
ump	-11.422
▁peers	-11.4221
▁hardline	-11.4224
▁shine	-11.4225
▁symptoms	-11.4226
▁slight	-11.4229
▁valued	-11.4233
▁prep	-11.4234
cum	-11.4237
▁safer	-11.4237
▁marines	-11.4243
inter	-11.4246
▁recovering	-11.4248
note	-11.4253
▁walks	-11.4257
▁swim	-11.4258
▁escalating	-11.4258
▁prevail	-11.4258
▁scrambling	-11.4258
▁throat	-11.4258
▁ukrainian	-11.4258
▁mandatory	-11.4258
▁shoppers	-11.4259
▁obligation	-11.426
▁brock	-11.4261
▁wooden	-11.4265
▁improving	-11.4268
▁km	-11.4277
nor	-11.4278
▁masters	-11.4279
unc	-11.428
bank	-11.4281
▁noting	-11.4284
mur	-11.4284
▁exceed	-11.4285
▁marched	-11.4288
▁procedures	-11.4293
cup	-11.4298
▁fold	-11.43
▁mistakes	-11.4306
verse	-11.4309
▁recess	-11.4311
▁1997	-11.4313
▁producing	-11.4313
:45	-11.4313
▁reinstate	-11.4314
fact	-11.4314
▁ward	-11.4314
▁minneapolis	-11.4321
▁gru	-11.4322
▁improved	-11.4322
▁bun	-11.4323
hole	-11.4327
▁yen	-11.4331
▁nat	-11.4335
▁racing	-11.4336
▁luis	-11.4336
▁shar	-11.4337
▁desperately	-11.4337
ida	-11.4338
▁shade	-11.4339
▁euros	-11.434
▁makers	-11.434
breaking	-11.4344
▁accusation	-11.435
▁reversed	-11.435
fun	-11.4355
▁pivot	-11.4362
▁sneak	-11.4363
▁lebanon	-11.4367
▁survival	-11.4367
▁reddit	-11.4367
▁slur	-11.4367
▁wr	-11.4367
▁scope	-11.4367
▁thailand	-11.4368
▁goldberg	-11.437
▁sharia	-11.437
▁millionaire	-11.437
▁fixed	-11.437
▁attendant	-11.4371
represent	-11.4375
▁authorized	-11.4375
▁arc	-11.4377
▁salman	-11.4378
▁kinds	-11.4378
▁ousted	-11.4385
▁reflects	-11.4396
▁gifts	-11.4397
▁operative	-11.4405
▁quot	-11.4406
▁180	-11.441
▁sab	-11.4418
▁activism	-11.4422
▁concession	-11.4422
▁nasdaq	-11.4422
▁streep	-11.4422
▁mutual	-11.4422
▁ahmad	-11.4422
▁bureaucrat	-11.4422
▁valentine	-11.4422
▁flooded	-11.4423
▁130	-11.4423
▁robinson	-11.4423
▁holes	-11.4424
▁sony	-11.4424
▁foul	-11.4425
▁plotting	-11.4428
▁mum	-11.4428
▁trove	-11.4429
▁titles	-11.4432
▁carlos	-11.4433
▁menu	-11.4434
iel	-11.4437
▁sorts	-11.4439
▁nafta	-11.4441
▁cargo	-11.4443
matic	-11.4447
▁assumed	-11.4447
▁surrender	-11.4449
▁safely	-11.4449
▁prompt	-11.4459
▁tin	-11.4463
▁investing	-11.4464
bag	-11.4467
▁condemning	-11.4472
▁apparel	-11.4476
▁component	-11.4476
▁debris	-11.4476
▁spectrum	-11.4476
▁clarify	-11.4476
▁elliman	-11.4477
▁somali	-11.4478
▁crush	-11.4483
serious	-11.4485
▁rocks	-11.4485
▁dorm	-11.4488
▁exam	-11.4488
▁kris	-11.449
▁carly	-11.4491
▁pill	-11.4491
▁pledges	-11.4496
▁bare	-11.4499
21	-11.451
▁regulator	-11.451
▁pulls	-11.4516
▁taxpayer	-11.4519
▁element	-11.4519
▁slot	-11.4521
▁lam	-11.4529
▁credentials	-11.4532
▁reassure	-11.4532
▁swipe	-11.4532
▁kathy	-11.4532
▁crystal	-11.4532
▁lopez	-11.4532
▁cairo	-11.4532
▁86	-11.4534
▁staged	-11.4534
▁sitcom	-11.4534
▁perceived	-11.4536
▁respected	-11.4545
▁employ	-11.4545
fresh	-11.4547
▁outrageous	-11.4557
▁developments	-11.456
▁proves	-11.4561
name	-11.4562
south	-11.4563
▁shoe	-11.457
▁instant	-11.4575
▁automaker	-11.4576
▁avoiding	-11.4579
▁kislyak	-11.4587
▁liberties	-11.4587
▁penalties	-11.4587
▁scotus	-11.4587
▁thwart	-11.4587
▁tmz	-11.4587
▁commencement	-11.4588
▁mcmaster	-11.4588
▁lure	-11.4588
▁introduc	-11.4593
think	-11.4594
▁precisely	-11.4595
▁displaced	-11.4596
writing	-11.4596
california	-11.4596
muslim	-11.4596
▁mick	-11.4596
▁deliberately	-11.4597
▁defie	-11.4598
▁hover	-11.4599
▁signaling	-11.4601
","“	-11.4603
▁fist	-11.4604
▁imminent	-11.4606
▁reasonable	-11.4606
▁nashville	-11.4607
▁shy	-11.4607
▁floating	-11.4608
▁quotes	-11.4609
▁marches	-11.4611
made	-11.4614
▁derail	-11.4616
▁responses	-11.4624
▁inspire	-11.4625
iran	-11.4629
▁yield	-11.4633
▁lag	-11.4636
non	-11.4636
▁kicking	-11.4639
▁conn	-11.464
▁insiders	-11.4641
▁shout	-11.4642
▁insist	-11.4643
▁enrique	-11.4643
▁reluctant	-11.4643
▁sebastian	-11.4643
▁nelson	-11.4643
▁sprint	-11.4643
▁realtor	-11.4643
▁generous	-11.4643
▁motivation	-11.4645
▁admitting	-11.4646
▁rises	-11.465
▁fred	-11.4655
▁carr	-11.4657
▁provisions	-11.4657
▁slaves	-11.4657
▁cbo	-11.4659
ured	-11.4661
▁demonstrated	-11.4665
rop	-11.4666
▁hay	-11.4668
▁involve	-11.4671
▁victor	-11.4673
▁felon	-11.469
▁whit	-11.4691
▁transformed	-11.4691
▁objects	-11.4691
▁kissing	-11.4694
▁goods	-11.4697
▁lists	-11.4698
▁plaintiff	-11.4699
▁pursuing	-11.4699
▁communicate	-11.47
▁modi	-11.47
▁reception	-11.4701
▁render	-11.4705
▁prisons	-11.4707
bur	-11.4708
▁quin	-11.4711
▁presentation	-11.4713
▁bounce	-11.4713
▁tru	-11.4715
senate	-11.4717
▁uncle	-11.4719
▁solutions	-11.4725
▁loaded	-11.4725
▁cooperate	-11.4726
▁celebrations	-11.4728
▁ye	-11.4728
tech	-11.4728
▁pilots	-11.4729
▁globes	-11.4731
▁routinely	-11.4731
▁savings	-11.4744
update	-11.4748
ova	-11.4749
▁prevented	-11.4749
▁stemm	-11.4749
▁critique	-11.4756
▁enhance	-11.4756
▁margaret	-11.4756
▁philando	-11.4756
▁zillow	-11.4756
▁cocktail	-11.4756
▁expire	-11.4756
▁arrangement	-11.4756
▁emanuel	-11.4756
▁tariff	-11.4756
▁subtle	-11.4757
▁fond	-11.4758
▁wildly	-11.4759
▁poster	-11.4759
▁exhibition	-11.4759
▁upgrade	-11.4761
▁grey	-11.4764
▁basement	-11.4767
▁harrison	-11.4769
etta	-11.4783
mass	-11.4784
▁booker	-11.4785
▁performances	-11.4799
▁reno	-11.4804
▁possess	-11.4809
discriminate	-11.4813
▁astonishing	-11.4813
▁jupiter	-11.4813
▁maneuver	-11.4813
▁murdoch	-11.4813
▁supplier	-11.4813
▁distant	-11.4813
▁cyberattack	-11.4813
illo	-11.4814
hir	-11.4815
▁roster	-11.4818
▁sacrifice	-11.4821
▁batman	-11.4822
▁bother	-11.4824
cock	-11.4826
▁fda	-11.4829
following	-11.4833
▁cater	-11.4836
vol	-11.4844
▁oversee	-11.4848
place	-11.4849
vote	-11.4855
▁mild	-11.4857
▁fishing	-11.4857
▁exists	-11.4862
▁laughed	-11.4868
pop	-11.4868
▁selfie	-11.487
▁contrary	-11.487
▁orthodox	-11.487
▁revival	-11.487
▁warfare	-11.487
▁emoji	-11.487
▁constituents	-11.487
▁taunt	-11.4871
▁anna	-11.4871
▁jewelry	-11.4871
▁failures	-11.4876
▁notably	-11.4878
▁combine	-11.488
rude	-11.4882
▁photography	-11.4889
▁obsessed	-11.4889
▁140	-11.4892
▁ambitions	-11.4894
▁batch	-11.4894
▁pirate	-11.4899
▁courthouse	-11.4905
hai	-11.4906
▁risky	-11.4907
▁focuses	-11.4909
▁dangers	-11.4912
▁lender	-11.4916
ello	-11.4925
▁chipotle	-11.4927
▁kalanick	-11.4927
▁lieutenant	-11.4927
▁ramadan	-11.4927
▁relentless	-11.4927
▁thriller	-11.4927
▁spiral	-11.4927
▁ankara	-11.4927
▁ladies	-11.4927
▁paragraph	-11.4928
▁nigel	-11.4928
▁supermarket	-11.4928
▁grassley	-11.4928
▁persist	-11.4928
▁intentionally	-11.4929
▁nicolas	-11.4929
▁jesse	-11.493
pic	-11.4931
▁tampa	-11.4931
▁betting	-11.4931
▁dish	-11.4933
▁outraged	-11.4935
▁proper	-11.4936
tory	-11.4938
strong	-11.4939
sanctuary	-11.494
▁economics	-11.494
although	-11.4946
▁latinos	-11.4949
▁cheaper	-11.4949
cut	-11.4953
▁overtime	-11.4953
▁millennial	-11.4955
▁employed	-11.4956
▁import	-11.4957
▁lin	-11.4958
▁gala	-11.496
▁cage	-11.4961
▁symbolic	-11.4965
▁newborn	-11.4966
▁creates	-11.4967
▁scratch	-11.4985
▁staggering	-11.4985
▁lewd	-11.4985
▁tougher	-11.4986
▁romance	-11.4987
▁patron	-11.4987
▁instruction	-11.4989
▁civilization	-11.4991
▁clearance	-11.4996
▁candy	-11.4999
▁endangered	-11.5005
▁halted	-11.5012
mother	-11.5017
rum	-11.5018
▁contenders	-11.5019
▁rogers	-11.502
▁inbox	-11.5021
▁searches	-11.5023
▁grants	-11.5023
▁nun	-11.5035
trans	-11.5036
▁zones	-11.504
word	-11.5041
▁dept	-11.5042
▁telecom	-11.5043
▁diabetes	-11.5043
▁proportion	-11.5043
▁dossier	-11.5043
▁exposure	-11.5043
ole	-11.5044
▁disappointment	-11.5044
▁compelling	-11.5044
▁beckham	-11.5045
▁cancelled	-11.5046
▁stroll	-11.5046
▁disagreement	-11.5046
▁watergate	-11.5049
▁zo	-11.5049
mag	-11.5054
▁defects	-11.5055
▁hurting	-11.5057
several	-11.5057
▁screens	-11.5061
▁rust	-11.5062
▁enjoying	-11.5072
▁nu	-11.5079
etti	-11.5084
loo	-11.5087
▁kra	-11.5088
angled	-11.5095
give	-11.5097
▁buffalo	-11.5102
▁fragile	-11.5102
▁motorcycle	-11.5102
▁mulvaney	-11.5102
▁pistol	-11.5102
▁smiling	-11.5102
▁thread	-11.5102
▁solicit	-11.5102
▁installment	-11.5103
▁duties	-11.5103
▁awareness	-11.5104
▁surrogate	-11.5105
▁expense	-11.5105
▁governors	-11.5111
▁lion	-11.5112
▁nigerian	-11.5112
▁jewel	-11.5117
slated	-11.5119
mike	-11.5122
chu	-11.513
lash	-11.514
▁maps	-11.5147
green	-11.515
rog	-11.5153
▁berkshire	-11.5161
▁conservation	-11.5161
▁dominant	-11.5161
▁experiencing	-11.5161
▁microcephaly	-11.5161
▁participation	-11.5161
▁unauthorized	-11.5161
▁unpredictable	-11.5161
▁ginsburg	-11.5161
▁defence	-11.5161
▁checkpoint	-11.5162
▁accountability	-11.5163
▁committing	-11.5164
▁2016:	-11.5165
plan	-11.5167
▁shifted	-11.5167
▁manufacturer	-11.5168
▁admissions	-11.5168
▁shutting	-11.5169
▁counterpart	-11.5171
▁2016,"	-11.5171
▁rash	-11.5172
▁assembled	-11.5178
▁zu	-11.518
▁sox	-11.5181
▁$16	-11.5182
▁junk	-11.5182
gov	-11.5184
▁tab	-11.5186
▁bullets	-11.5188
shire	-11.5189
▁ki	-11.5192
▁predictions	-11.5194
republicans	-11.5201
▁filings	-11.5201
▁chains	-11.5215
▁temp	-11.5218
▁presents	-11.5219
▁salvador	-11.522
▁kellogg	-11.522
▁warmbier	-11.522
▁watson	-11.522
▁snake	-11.522
▁freddie	-11.522
▁schiff	-11.5221
▁depth	-11.5222
▁condemnation	-11.5223
▁enduring	-11.5223
mine	-11.5228
▁instinct	-11.5231
▁graduates	-11.5242
▁foreigners	-11.5246
▁achieved	-11.5249
22	-11.5252
▁newspapers	-11.5254
▁contacted	-11.5256
▁punched	-11.5258
▁rum	-11.5259
west	-11.5261
▁93	-11.5269
▁dirt	-11.5272
▁affirm	-11.5279
▁reflected	-11.5279
▁besieged	-11.5279
▁dialogue	-11.5279
▁literary	-11.5279
▁rallied	-11.5279
▁singapore	-11.5279
▁northeastern	-11.5279
▁monkey	-11.528
▁collecting	-11.528
▁accomplishment	-11.528
▁showcase	-11.5282
▁stat	-11.5282
▁imagined	-11.5287
▁trio	-11.5291
bre	-11.5294
▁merit	-11.5295
phone	-11.5297
shock	-11.5297
▁constantly	-11.53
▁ransom	-11.5303
▁clues	-11.5305
▁lawn	-11.5307
▁roe	-11.5307
▁operated	-11.5309
▁fried	-11.531
▁erupt	-11.5312
▁pc	-11.5322
▁damages	-11.5327
▁dire	-11.5328
▁assaults	-11.533
▁consulting	-11.533
wo	-11.5334
▁channels	-11.5335
▁leonard	-11.5335
▁celeb	-11.5338
vir	-11.5338
▁applause	-11.5339
▁obstacle	-11.5339
▁stranded	-11.5339
▁vulgar	-11.5339
▁caesar	-11.5339
▁mohamed	-11.5339
▁shinzo	-11.5339
▁breathing	-11.534
▁intimate	-11.534
▁password	-11.534
▁shiite	-11.534
▁naturally	-11.5342
▁rudy	-11.5342
▁mcg	-11.5345
being	-11.5346
▁rank	-11.5352
▁upheld	-11.5352
nevertrump	-11.5353
mouth	-11.5356
▁accountable	-11.5358
▁illustrated	-11.5359
add	-11.5362
▁lasted	-11.5362
▁stir	-11.5366
fest	-11.5366
▁belong	-11.5369
▁leon	-11.537
▁macy	-11.5374
▁evolution	-11.5379
nbc	-11.5386
▁checking	-11.5386
▁tightening	-11.5387
▁stab	-11.5389
▁borough	-11.5392
▁enact	-11.5397
▁1989	-11.5399
▁blizzard	-11.5399
▁capsule	-11.5399
▁circus	-11.5399
▁corcoran	-11.5399
▁financing	-11.5399
▁skull	-11.5399
▁tobacco	-11.5399
▁default	-11.5399
▁subjects	-11.54
space	-11.54
▁lyrics	-11.54
▁emily	-11.54
▁usher	-11.54
▁persistent	-11.54
▁adaptation	-11.5402
▁cease	-11.5403
▁injection	-11.5404
having	-11.5405
▁keen	-11.5409
ena	-11.5414
iva	-11.5416
should	-11.5417
other	-11.5418
▁detailing	-11.5418
▁hacks	-11.5421
▁employer	-11.5422
▁enforc	-11.5431
▁airing	-11.5431
▁swath	-11.5433
eck	-11.5434
▁unions	-11.5435
door	-11.5442
▁sang	-11.5444
▁beats	-11.5445
▁incorrect	-11.5446
▁theaters	-11.5449
deplorable	-11.5457
▁dinosaur	-11.546
▁guantanamo	-11.546
▁solidarity	-11.546
▁stockholm	-11.546
▁surviving	-11.546
▁broncos	-11.546
▁complications	-11.546
▁penthouse	-11.546
▁leslie	-11.546
▁cdc	-11.546
▁grandfather	-11.546
▁ethical	-11.546
▁blanket	-11.5461
▁onstage	-11.5461
▁trap	-11.5461
▁geneva	-11.5462
▁manhunt	-11.5462
▁directive	-11.5466
▁shaped	-11.5469
rose	-11.5471
▁farc	-11.5474
▁dock	-11.5475
▁kin	-11.5477
google	-11.5479
▁coordinated	-11.5479
given	-11.548
▁shifts	-11.548
lton	-11.5483
▁endorses	-11.5483
▁parliamentar	-11.5485
▁$300	-11.5491
▁levi	-11.5492
▁cheered	-11.5493
▁labels	-11.5495
mos	-11.5496
▁studios	-11.5497
▁rack	-11.5499
ude	-11.5502
▁julia	-11.5507
▁mun	-11.5512
▁cents	-11.5513
body	-11.5516
train	-11.5517
▁dose	-11.5517
amid	-11.5518
▁sensation	-11.5518
▁medals	-11.552
▁alexandria	-11.5521
▁delegation	-11.5521
▁fugitive	-11.5521
▁shakespeare	-11.5521
▁wrongdoing	-11.5521
▁microphone	-11.5521
▁ahmed	-11.5521
▁heaven	-11.5521
▁therapy	-11.5522
full	-11.5522
▁arthur	-11.5522
▁shipping	-11.5524
▁screw	-11.5525
▁load	-11.5528
▁loving	-11.5529
▁respectively	-11.5531
▁bros	-11.5531
ridge	-11.5535
▁edited	-11.5538
▁mph	-11.5539
▁campaigned	-11.5542
nobody	-11.5542
▁sway	-11.5544
zel	-11.5545
▁initiatives	-11.5549
▁pretend	-11.5549
▁bend	-11.555
▁rebuild	-11.5553
▁detain	-11.5554
▁stalled	-11.5555
▁filming	-11.5557
▁applications	-11.5558
placing	-11.5563
▁reliable	-11.5569
▁lined	-11.5572
▁logo	-11.5574
▁holt	-11.5574
▁explosions	-11.5575
▁cliff	-11.5577
view	-11.5578
page	-11.5579
▁190	-11.5579
▁antibiotic	-11.5582
▁autopsy	-11.5582
▁conglomerate	-11.5582
▁corbyn	-11.5582
▁excitement	-11.5582
▁manziel	-11.5582
▁tolerance	-11.5582
tier	-11.5582
▁serena	-11.5583
▁conscience	-11.5583
▁distribution	-11.5583
▁humble	-11.5583
▁wander	-11.5585
▁mlb	-11.5586
▁reelection	-11.5586
▁answering	-11.5586
▁convictions	-11.559
▁lamar	-11.5594
▁kyle	-11.5596
chicago	-11.5603
those	-11.5603
lb	-11.5604
▁wash	-11.5609
▁movements	-11.5611
▁recommendations	-11.5616
▁convert	-11.5617
▁hassan	-11.5617
▁walt	-11.5626
▁recuse	-11.5627
▁charm	-11.5638
▁oral	-11.5641
▁cautious	-11.5644
▁clarity	-11.5644
▁defamation	-11.5644
▁sufficient	-11.5644
▁ossoff	-11.5644
▁homeowner	-11.5644
▁outreach	-11.5644
▁holmes	-11.5644
▁awesome	-11.5644
▁verbal	-11.5645
▁guzman	-11.5646
▁grind	-11.5648
▁emma	-11.565
▁holidays	-11.565
characterized	-11.565
▁imam	-11.5652
▁malaysian	-11.5654
▁suburbs	-11.5654
▁donation	-11.5656
▁grass	-11.5662
▁marcus	-11.5662
▁plug	-11.5664
▁unfolded	-11.5665
could	-11.5665
nothing	-11.5665
▁observer	-11.5668
▁requirement	-11.5669
▁declines	-11.5673
▁controlling	-11.5675
▁fin	-11.5676
▁2007,	-11.5682
▁detected	-11.5683
▁fal	-11.5683
▁donate	-11.5684
▁wit	-11.5689
▁explicit	-11.5693
▁tee	-11.5698
▁households	-11.5704
▁1998	-11.5706
▁alzheimer	-11.5706
▁clooney	-11.5706
▁dignity	-11.5706
▁identities	-11.5706
▁parallel	-11.5706
▁perception	-11.5706
▁samantha	-11.5706
▁ipad	-11.5706
▁garbage	-11.5706
▁jumping	-11.5706
▁jamaica	-11.5707
▁mounted	-11.5707
▁louisville	-11.5707
▁interstate	-11.5708
▁shaking	-11.5708
▁hughes	-11.571
cca	-11.571
▁nike	-11.5711
▁$35	-11.5712
▁remake	-11.5712
▁clashed	-11.5713
▁arson	-11.5714
ister	-11.5715
▁demo	-11.5716
▁fictional	-11.5716
▁explicitly	-11.5719
▁slice	-11.5724
natural	-11.5728
mun	-11.5737
▁doug	-11.5739
▁sponsored	-11.574
▁interrupt	-11.5741
▁bones	-11.5744
▁trusted	-11.5753
▁defeating	-11.5753
moral	-11.5755
▁trips	-11.5757
▁evangelicals	-11.5763
hum	-11.5764
▁miranda	-11.5769
▁timothy	-11.5769
▁volatile	-11.5769
▁madrid	-11.5769
▁examining	-11.5769
▁gordon	-11.5769
▁spree	-11.5769
▁issuing	-11.5769
▁wiretapping	-11.5769
▁nathan	-11.5769
▁35,	-11.5774
▁shutter	-11.5776
▁fastest	-11.5778
▁checked	-11.5779
▁pine	-11.5787
▁commuter	-11.579
▁linda	-11.579
▁accomplished	-11.5791
▁matches	-11.5793
▁shin	-11.5796
chy	-11.5802
▁fines	-11.5802
▁dated	-11.5806
▁partially	-11.5806
,"(	-11.5809
▁reactions	-11.5819
▁rolls	-11.5825
▁counterparts	-11.5826
▁appealing	-11.5827
▁reviewing	-11.5829
went	-11.5831
▁sophisticated	-11.5831
▁backdrop	-11.5831
▁robust	-11.5832
▁organisation	-11.5832
▁programming	-11.5832
▁consist	-11.5832
▁brotherhood	-11.5833
▁yoga	-11.5833
▁longstanding	-11.5834
▁harper	-11.5835
▁northwestern	-11.5835
▁bobby	-11.5836
▁roar	-11.5838
▁chu	-11.5839
▁harassed	-11.584
▁administrators	-11.5844
▁newsroom	-11.5848
pur	-11.5848
▁carol	-11.585
▁simone	-11.585
shoot	-11.5855
▁stag	-11.5856
▁nj	-11.5857
▁chanted	-11.5857
▁creature	-11.5858
▁tail	-11.5858
rigged	-11.5858
chief	-11.5859
▁buses	-11.5866
▁overseeing	-11.5868
▁differently	-11.5868
▁rad	-11.5869
americans	-11.5869
break	-11.5871
▁reopen	-11.5871
▁layer	-11.5873
▁charts	-11.5873
▁heir	-11.5877
▁tsa	-11.5878
▁rear	-11.588
▁ltd	-11.5881
▁emotions	-11.5888
▁suppress	-11.5893
▁brzezinski	-11.5895
▁meltdown	-11.5895
▁valuation	-11.5895
▁decrease	-11.5895
:00	-11.5895
▁puzzle	-11.5895
▁scalise	-11.5895
beirut	-11.5895
▁bulk	-11.5896
▁appointee	-11.5896
▁buyer	-11.5896
▁biles	-11.5898
fish	-11.5901
sburg	-11.5901
▁acclaimed	-11.5902
▁dismissal	-11.5904
ace	-11.5907
▁examples	-11.5911
▁cookie	-11.5919
aca	-11.592
▁shrinking	-11.5921
▁bachelor	-11.5925
▁lil	-11.5925
▁clinics	-11.5926
▁prediction	-11.5926
▁ivy	-11.5928
eur	-11.5929
maybe	-11.5934
▁gangs	-11.5935
▁pete	-11.5935
▁lobbyists	-11.5936
fbi	-11.5937
mail	-11.5939
master	-11.594
▁discipline	-11.594
▁offenders	-11.594
▁cape	-11.5944
▁bearing	-11.5949
▁cheers	-11.595
▁reed	-11.5951
▁drum	-11.5958
▁collaboration	-11.5958
▁hockey	-11.5958
▁raheem	-11.5958
▁studied	-11.5958
▁dubai	-11.5958
▁unravel	-11.5958
▁sacred	-11.5958
▁slamming	-11.5959
▁pornography	-11.5961
hel	-11.5961
▁objective	-11.5962
▁willingness	-11.5963
▁raging	-11.5963
▁oversees	-11.5964
▁interpret	-11.5967
held	-11.5968
▁cabin	-11.5972
▁automakers	-11.5972
▁secretive	-11.5974
▁documented	-11.5976
▁slap	-11.598
public	-11.5981
▁wield	-11.5981
wind	-11.5982
donnell	-11.5984
please	-11.5984
▁burr	-11.5984
▁resigns	-11.5988
isation	-11.5994
▁executions	-11.5995
▁grain	-11.5996
▁hints	-11.5997
▁hamptons	-11.6
sanders	-11.6003
▁unanimous	-11.601
bell	-11.601
▁contractors	-11.6018
actor	-11.6021
▁1984	-11.6023
▁sacramento	-11.6023
▁seizure	-11.6023
▁smuggling	-11.6023
▁grasp	-11.6024
▁bailout	-11.6024
▁boris	-11.6026
▁georgetown	-11.6028
▁disruption	-11.6031
▁din	-11.6032
▁globalization	-11.6033
▁kan	-11.6034
▁arabic	-11.6035
▁justify	-11.6036
▁lang	-11.6037
▁cruel	-11.6037
▁figured	-11.6039
▁dip	-11.604
▁tanks	-11.6042
▁talented	-11.6044
school	-11.6048
earlier	-11.6049
▁cartels	-11.6053
▁sexy	-11.6054
▁attitude	-11.6055
19	-11.6057
lex	-11.6061
▁dug	-11.6063
▁beam	-11.6066
▁programme	-11.6067
▁gab	-11.6071
▁advertise	-11.6073
▁searched	-11.6073
▁broadly	-11.6075
▁joan	-11.608
▁debuted	-11.6084
▁courage	-11.6086
▁controversies	-11.6087
▁definitive	-11.6087
▁economies	-11.6087
▁indigenous	-11.6087
▁icahn	-11.6087
▁calais	-11.6087
▁marlins	-11.6087
▁organizing	-11.6088
▁spurred	-11.6088
▁sunni	-11.6089
▁joking	-11.6089
▁hyper	-11.6092
▁copies	-11.6093
▁darkness	-11.6095
cam	-11.6098
▁christianity	-11.6099
▁mur	-11.61
▁occasions	-11.6105
▁proclaimed	-11.6105
ille	-11.6107
leg	-11.6107
▁hype	-11.611
▁boasts	-11.611
▁kor	-11.6111
social	-11.6114
yard	-11.6115
▁coaches	-11.6123
▁bottles	-11.6125
▁advise	-11.6128
▁corr	-11.6128
▁organic	-11.613
▁gil	-11.6131
▁explode	-11.6134
▁commentators	-11.6136
▁subsequent	-11.6139
▁lena	-11.6141
▁amber	-11.6148
▁developers	-11.6148
eating	-11.6149
▁devastated	-11.6152
▁diagnosis	-11.6152
▁furniture	-11.6152
▁probation	-11.6152
▁prosperity	-11.6152
▁pulitzer	-11.6152
▁subscription	-11.6152
▁carnage	-11.6152
▁simmons	-11.6152
▁chunk	-11.6152
▁biological	-11.6153
▁egyptair	-11.6153
▁bigotry	-11.6153
▁trent	-11.6154
▁fingers	-11.6156
▁spies	-11.6158
poll	-11.6164
▁troll	-11.6165
nam	-11.6168
▁krauthammer	-11.617
▁descended	-11.6171
▁yelling	-11.6173
style	-11.6177
▁slid	-11.6178
▁seed	-11.6182
bomb	-11.6184
▁clue	-11.6185
bridge	-11.6187
▁grad	-11.6188
▁edwards	-11.619
girls	-11.6197
dog	-11.6208
▁distinct	-11.6213
▁aiming	-11.6214
▁weakness	-11.6217
▁algorithm	-11.6217
▁observation	-11.6217
▁retiring	-11.6217
▁samuel	-11.6217
▁grateful	-11.6217
▁uproar	-11.6217
▁clerk	-11.6217
▁tebow	-11.6218
▁rubble	-11.6218
▁forthcoming	-11.6218
▁flick	-11.6219
▁damn	-11.6222
▁sunny	-11.6222
▁$150	-11.6224
och	-11.6234
code	-11.6237
▁remembers	-11.6238
▁weighs	-11.624
▁infections	-11.6241
▁purposes	-11.6244
▁naming	-11.6245
philadelphia	-11.6246
▁ponder	-11.6247
▁bryan	-11.625
▁touching	-11.6253
dicating	-11.6253
▁hurl	-11.6254
▁wy	-11.6254
bc	-11.6255
▁unleash	-11.6256
▁crushing	-11.6256
▁nar	-11.6257
▁temperature	-11.6257
▁catching	-11.6273
▁butter	-11.6277
▁sandwich	-11.6278
▁nicole	-11.6281
▁bankrupt	-11.6283
▁advancing	-11.6283
▁ammunition	-11.6283
▁carmelo	-11.6283
▁lloyd	-11.6283
▁protocol	-11.6283
▁sullivan	-11.6283
▁arnold	-11.6283
▁defining	-11.6283
▁defund	-11.6284
▁garcia	-11.6284
▁tinder	-11.6284
▁headache	-11.6286
aud	-11.6286
▁frankly	-11.6286
▁bronze	-11.6287
▁feat	-11.629
city	-11.6294
▁responds	-11.6294
▁elliott	-11.6295
▁clarke	-11.6296
mental	-11.6299
▁endured	-11.6301
usa	-11.6301
▁hood	-11.6303
▁cats	-11.6304
▁kha	-11.6305
▁credible	-11.6313
ava	-11.6314
▁rallying	-11.6314
▁startups	-11.6315
▁smashed	-11.632
▁relat	-11.632
greg	-11.6326
▁joel	-11.6331
▁denounce	-11.6331
▁fianc	-11.6333
▁crashing	-11.6334
▁sid	-11.6335
▁bridges	-11.6335
▁ordering	-11.6337
▁purchases	-11.6338
▁suspending	-11.6344
▁looms	-11.6345
▁earning	-11.6345
member	-11.6348
▁bully	-11.6349
▁baptist	-11.6349
▁boehner	-11.6349
▁certificate	-11.6349
▁confusing	-11.6349
▁excerpt	-11.6349
▁jurisdiction	-11.6349
▁juvenile	-11.6349
▁madonna	-11.6349
▁sergeant	-11.6349
▁transplant	-11.6349
▁schilling	-11.6349
▁isolation	-11.6349
▁midwest	-11.635
▁clapper	-11.635
▁kimmel	-11.635
▁invented	-11.6351
tag	-11.6351
▁juice	-11.6352
▁pivotal	-11.6355
▁fcc	-11.6356
▁underwater	-11.6361
▁jpmorgan	-11.6362
▁subscribe	-11.6362
wait	-11.6364
▁navigate	-11.6364
▁dj	-11.6366
▁warship	-11.6369
phil	-11.637
▁barriers	-11.6372
advertisement	-11.6373
▁arrives	-11.6375
hare	-11.6376
▁witch	-11.638
▁jaw	-11.6383
does	-11.639
▁cute	-11.6396
russian	-11.6399
bus	-11.6404
lou	-11.6408
▁indians	-11.641
stead	-11.6412
▁riders	-11.6413
▁cathedral	-11.6416
▁despair	-11.6416
▁sioux	-11.6416
▁painkiller	-11.6416
▁supervisor	-11.6416
▁freezing	-11.6416
▁glance	-11.6417
▁parole	-11.6417
▁joshua	-11.6417
▁petersburg	-11.6417
▁cornell	-11.6417
ghan	-11.642
▁cough	-11.6423
▁katy	-11.6423
▁succeeded	-11.6423
rgen	-11.6427
▁klan	-11.6428
▁veil	-11.6429
▁exceptional	-11.643
lemonade	-11.6432
▁pleased	-11.6434
▁provider	-11.6436
▁decent	-11.6436
▁bets	-11.644
▁doc	-11.6444
hong	-11.645
▁2001,	-11.6456
▁71	-11.6456
▁lou	-11.6458
hat	-11.6458
▁palmer	-11.6459
▁rivera	-11.646
▁severely	-11.6463
core	-11.6468
▁aspects	-11.6472
▁measured	-11.6474
▁methods	-11.6475
una	-11.6476
▁orchestra	-11.6482
▁1991	-11.6483
▁reinforce	-11.6483
▁worn	-11.6484
▁abbott	-11.6484
▁tribal	-11.6484
▁skirt	-11.6484
▁surging	-11.6484
hall	-11.6484
▁llc	-11.6486
nut	-11.6486
▁greatly	-11.6487
▁nest	-11.6488
▁abducted	-11.649
▁fitting	-11.6492
▁md	-11.6494
▁finances	-11.6497
▁swap	-11.6498
girl	-11.6498
hack	-11.6498
▁professionals	-11.6506
▁lending	-11.6509
▁shu	-11.6513
child	-11.6515
amazon	-11.6515
global	-11.6515
liberal	-11.6515
yan	-11.6519
▁flawed	-11.6521
milo	-11.6526
▁pedestrians	-11.6532
▁boots	-11.6532
▁regulate	-11.6543
▁robber	-11.6544
ease	-11.6548
18	-11.6549
▁1979	-11.6551
▁1993	-11.6551
▁bleeding	-11.6551
▁brennan	-11.6551
▁catastrophe	-11.6551
▁currencies	-11.6551
▁mccrory	-11.6551
▁nintendo	-11.6551
▁oxford	-11.6551
▁threshold	-11.6551
▁tulsa	-11.6551
▁lavish	-11.6551
▁dairy	-11.6551
▁vanished	-11.6551
▁drake	-11.6551
▁phelps	-11.6551
ibility	-11.6551
▁destroyer	-11.6551
▁transmission	-11.6551
▁phillip	-11.6551
▁derek	-11.6551
▁pleasure	-11.6551
zen	-11.6552
▁bidding	-11.6552
▁97	-11.6552
▁hungry	-11.6553
▁interim	-11.6554
▁thanked	-11.6558
▁intend	-11.6561
▁richest	-11.6561
▁shattered	-11.6569
▁distributed	-11.657
lit	-11.6571
▁installed	-11.6577
14	-11.6581
▁disgraced	-11.6581
▁jungle	-11.6583
▁ian	-11.6587
▁workout	-11.6592
▁chilling	-11.6597
▁scramble	-11.66
sexual	-11.6601
▁tossed	-11.6604
▁creep	-11.661
gress	-11.6611
▁absent	-11.6618
▁consumption	-11.6619
▁convincing	-11.6619
▁lucrative	-11.6619
▁neglect	-11.6619
▁vacancy	-11.6619
▁altogether	-11.6619
▁vogue	-11.6619
▁sovereignty	-11.662
▁drift	-11.662
▁initiat	-11.662
▁mario	-11.6621
▁oz	-11.6621
▁compiled	-11.6624
▁allied	-11.6624
▁brutality	-11.6626
raymond	-11.6629
barr	-11.663
active	-11.6632
▁invade	-11.664
racial	-11.664
▁wary	-11.6641
▁praises	-11.6642
▁libyan	-11.6643
▁loser	-11.6644
pack	-11.6644
▁160	-11.6647
▁firmly	-11.6647
▁robin	-11.6649
▁donna	-11.665
evil	-11.6657
▁appointments	-11.666
▁hb	-11.6663
worthy	-11.6665
▁brewer	-11.6666
▁intervene	-11.6669
▁crews	-11.667
▁nyt	-11.6674
bet	-11.6677
▁flurry	-11.6687
▁texan	-11.6687
▁ebola	-11.6687
▁asteroid	-11.6687
▁spouse	-11.6687
▁earliest	-11.6687
▁lions	-11.6688
▁accent	-11.6688
▁bradley	-11.6689
▁playboy	-11.669
▁hardware	-11.669
▁loft	-11.669
▁preside	-11.669
▁prospective	-11.6691
step	-11.6691
▁attractive	-11.6692
▁matchup	-11.6693
▁tenant	-11.6693
▁mtv	-11.6693
▁devil	-11.6696
▁scottish	-11.6699
▁confessed	-11.6704
▁encountered	-11.671
▁commute	-11.6714
▁torch	-11.6716
▁enacted	-11.6718
mie	-11.672
little	-11.6722
vision	-11.6724
▁swan	-11.6725
▁farmer	-11.6729
▁brandon	-11.673
▁cheering	-11.6732
▁congo	-11.6736
▁negotiate	-11.6738
▁boyle	-11.6738
▁factions	-11.6742
▁insurer	-11.6743
osi	-11.6743
aunt	-11.6745
▁monuments	-11.6753
▁alligator	-11.6756
▁epipen	-11.6756
▁injunction	-11.6756
▁lauderdale	-11.6756
▁puzder	-11.6756
▁sydney	-11.6756
▁glory	-11.6756
▁patriarch	-11.6756
▁flavor	-11.6756
▁tissue	-11.6757
▁disappearance	-11.6757
▁amanda	-11.6757
▁wives	-11.6757
goers	-11.6757
▁heidi	-11.6757
▁julie	-11.6757
▁instructor	-11.6758
▁pra	-11.6758
▁depict	-11.6759
▁rethink	-11.676
▁folk	-11.676
▁proving	-11.676
wald	-11.6761
▁outstanding	-11.6768
▁reflection	-11.6768
▁flown	-11.6773
▁item	-11.6774
▁98	-11.6776
▁mayer	-11.6777
▁unacceptable	-11.6786
deep	-11.6789
nearly	-11.6796
▁sticking	-11.6798
hart	-11.6801
▁sooner	-11.6808
▁accounting	-11.681
▁affecting	-11.6811
▁panthers	-11.6813
▁install	-11.6816
▁dumped	-11.6818
▁(1	-11.6825
▁raucous	-11.6826
▁tuition	-11.6826
▁accompany	-11.6826
▁dilma	-11.6826
▁acosta	-11.6826
▁heavyweight	-11.6826
▁introduction	-11.6827
▁preference	-11.6827
▁truce	-11.6827
▁rotation	-11.6828
▁basket	-11.6828
▁distraction	-11.683
▁correspond	-11.6831
▁lightning	-11.6832
▁relay	-11.6832
▁selfies	-11.6834
▁disappear	-11.6835
▁tourism	-11.6837
▁spare	-11.6839
▁melbourne	-11.6841
▁92	-11.6842
▁asserted	-11.685
▁pouring	-11.6855
▁fantastic	-11.6857
▁robotic	-11.6859
▁fringe	-11.6862
▁phony	-11.6864
ika	-11.6865
▁clinical	-11.6867
hour	-11.6868
▁breathe	-11.6868
▁lining	-11.6872
▁dealt	-11.6872
▁execute	-11.6877
▁tons	-11.6878
▁implemented	-11.688
▁soap	-11.6884
▁pale	-11.6885
▁astronaut	-11.6886
▁91	-11.6888
▁upstate	-11.6891
▁guitar	-11.6893
makers	-11.6895
▁companion	-11.6896
▁convenience	-11.6896
▁ethiopia	-11.6896
▁gamble	-11.6896
▁permits	-11.6896
▁snack	-11.6896
▁slowdown	-11.6897
▁colo	-11.6897
▁dislike	-11.69
▁nap	-11.6904
▁statewide	-11.6905
▁scream	-11.6906
▁practically	-11.6906
▁dancer	-11.6907
▁holders	-11.6913
▁unfairly	-11.6918
▁renew	-11.6923
▁rang	-11.6932
▁falcons	-11.6934
▁sack	-11.6934
▁impeach	-11.6937
▁shops	-11.6941
▁’90	-11.6942
▁tally	-11.6945
▁meaningful	-11.6947
vie	-11.6947
▁corpse	-11.6951
based	-11.6951
▁slashed	-11.6952
▁displayed	-11.6954
▁alton	-11.6964
▁1968	-11.6966
▁imagination	-11.6966
▁miracle	-11.6966
▁naacp	-11.6966
▁supplement	-11.6966
▁chapman	-11.6966
▁nonetheless	-11.6966
▁southeastern	-11.6966
▁unfit	-11.6966
▁fraternity	-11.6967
▁remarkably	-11.6967
▁censorship	-11.6967
▁finishing	-11.6967
▁skepticism	-11.6967
▁garage	-11.6968
▁jen	-11.6972
▁beau	-11.6972
▁rejection	-11.6973
▁obstruct	-11.6973
▁stoke	-11.6974
▁detainees	-11.6974
▁detonated	-11.6981
▁offset	-11.6983
▁escalated	-11.6984
▁wishes	-11.6987
▁neutral	-11.6988
holder	-11.6994
▁poorly	-11.7
▁plague	-11.7001
▁whenever	-11.7001
intentional	-11.7002
ouch	-11.7003
definitely	-11.7005
mexico	-11.7005
major	-11.7005
▁alec	-11.7005
screen	-11.7005
▁gre	-11.7008
▁honoring	-11.7011
▁penis	-11.7011
▁surf	-11.7012
une	-11.7013
▁grapple	-11.7017
heur	-11.703
▁ambulance	-11.7037
▁amtrak	-11.7037
▁efficient	-11.7037
▁gasoline	-11.7037
▁magnitude	-11.7037
▁terrified	-11.7037
▁heightened	-11.7037
▁gaffe	-11.7037
▁gymnastics	-11.7037
▁snapped	-11.7037
▁automatically	-11.7037
▁abdul	-11.7038
▁wreckage	-11.7038
▁unify	-11.7039
▁eleven	-11.704
▁adele	-11.7041
▁payroll	-11.7041
▁waiver	-11.7045
▁greenhouse	-11.7045
▁austrian	-11.7045
▁vanity	-11.7049
▁amend	-11.7054
▁decor	-11.7054
▁utterly	-11.7055
▁pills	-11.7056
justice	-11.7059
▁surveyed	-11.706
▁jun	-11.7062
owski	-11.7063
▁boxer	-11.7066
▁blend	-11.7068
▁soaring	-11.7069
▁nazis	-11.7071
https	-11.7077
44	-11.7077
true	-11.7079
▁eagles	-11.7082
▁invested	-11.7083
review	-11.7092
▁deliberate	-11.7098
▁900	-11.7098
▁nate	-11.7098
▁dread	-11.71
▁predicting	-11.7103
▁constitute	-11.7108
▁contributing	-11.7108
▁estranged	-11.7108
▁extradition	-11.7108
▁graffiti	-11.7108
▁halloween	-11.7108
▁myanmar	-11.7108
▁palmyra	-11.7108
▁strategies	-11.7108
▁tamaulipas	-11.7108
▁nursing	-11.7108
▁kkk	-11.7108
▁liverpool	-11.7108
▁gaming	-11.7109
▁cybersecurity	-11.7109
▁roast	-11.7109
▁glut	-11.7109
▁hungary	-11.711
▁shaping	-11.711
▁mormon	-11.7112
▁denton	-11.7112
best	-11.7114
path	-11.7116
▁motorist	-11.7121
▁sag	-11.7126
▁tal	-11.713
atomic	-11.7136
lessness	-11.7139
rob	-11.7142
▁bullying	-11.7144
dangerous	-11.7149
▁portrayed	-11.7149
▁plummet	-11.7153
oul	-11.7162
37	-11.7162
▁receiver	-11.7165
ulation	-11.7175
▁alarmed	-11.7175
western	-11.7179
▁evident	-11.718
▁happiness	-11.718
▁montgomery	-11.718
▁negotiator	-11.718
▁obesity	-11.718
▁stephanopoulos	-11.718
▁thrilled	-11.718
▁wyoming	-11.718
▁skyrocket	-11.718
▁armstrong	-11.7181
▁dismay	-11.7182
▁laboratory	-11.7182
▁81	-11.7183
▁disability	-11.7183
▁simultaneously	-11.7184
▁danny	-11.7184
▁magical	-11.7185
▁soften	-11.7189
pathetic	-11.7189
▁loot	-11.719
▁publicity	-11.7192
▁bru	-11.7192
acious	-11.7193
▁tire	-11.7193
▁glasses	-11.7198
▁negotiated	-11.72
▁insane	-11.72
▁stan	-11.721
▁pharma	-11.7212
▁jeans	-11.7214
▁entertainer	-11.7216
opinion	-11.7222
▁participated	-11.7222
2016	-11.7223
▁blowing	-11.7223
▁crow	-11.7226
▁beaches	-11.7227
▁detectives	-11.7227
23	-11.7235
▁floods	-11.7238
▁explores	-11.724
▁unfortunate	-11.724
almost	-11.7242
▁worthy	-11.7252
▁charitable	-11.7253
▁hilarious	-11.7253
▁significance	-11.7253
▁squeeze	-11.7253
▁civic	-11.7253
▁psychology	-11.7253
▁incentive	-11.7253
▁surreal	-11.7253
▁aerial	-11.7254
▁playlist	-11.7255
▁interpretation	-11.7256
▁abusing	-11.7256
▁polar	-11.7257
gur	-11.7257
▁graves	-11.7262
▁wales	-11.7263
▁pageant	-11.7263
▁chile	-11.7264
▁fet	-11.7264
▁yields	-11.7266
▁instantly	-11.7269
uz	-11.7273
▁snl	-11.7273
▁fury	-11.7277
▁mic	-11.7277
▁forbes	-11.7277
▁globally	-11.7279
▁hardest	-11.7279
▁thi	-11.7288
death	-11.7296
sometimes	-11.7296
▁96	-11.73
another	-11.73
▁divorced	-11.73
▁leaning	-11.7303
▁interfere	-11.7307
▁escalate	-11.7307
▁slowed	-11.7309
▁meters	-11.7313
▁influenced	-11.7314
yo	-11.7315
▁albert	-11.7316
▁nuts	-11.7316
▁feminists	-11.7318
▁sometime	-11.732
▁lemon	-11.732
33	-11.7324
▁1986	-11.7326
▁hazard	-11.7326
▁offseason	-11.7326
▁beverage	-11.7326
▁jfk	-11.7326
▁contempt	-11.7326
▁hats	-11.7327
▁determination	-11.7327
▁waving	-11.7327
▁reclaim	-11.7328
▁rican	-11.7328
▁sample	-11.7329
▁predictable	-11.733
plane	-11.733
▁peer	-11.7335
▁creepy	-11.7336
▁theatre	-11.7337
▁runoff	-11.7339
▁reflecting	-11.734
▁erin	-11.734
▁boasted	-11.7342
ache	-11.7349
▁separated	-11.7352
▁trolls	-11.7359
▁belonged	-11.7359
oil	-11.736
▁institutional	-11.7367
▁sealed	-11.7372
▁loom	-11.7377
▁indicates	-11.7378
▁disgusting	-11.7382
lashed	-11.7399
▁applicants	-11.7399
▁dysfunction	-11.7399
▁examination	-11.7399
▁imposing	-11.7399
▁sanchez	-11.7399
▁tabloid	-11.7399
▁snatch	-11.7399
▁pompeo	-11.7399
▁railroad	-11.7399
▁exposing	-11.74
▁chairwoman	-11.7401
▁booed	-11.7401
▁investigator	-11.7405
▁mainland	-11.7408
▁tb	-11.7408
flu	-11.7413
▁skies	-11.7414
▁regrets	-11.7415
sandra	-11.7417
▁stun	-11.7418
▁integration	-11.7418
▁bribe	-11.742
▁cannes	-11.7434
▁chanting	-11.7435
▁kal	-11.7439
▁vr	-11.744
aki	-11.7442
million	-11.7445
▁linkedin	-11.7451
▁ruined	-11.7458
▁tube	-11.7462
▁assumption	-11.7473
▁capabilities	-11.7473
▁fraudulent	-11.7473
▁hussein	-11.7473
▁incarceration	-11.7473
▁kristol	-11.7473
▁reshape	-11.7473
▁rouhani	-11.7473
▁trevor	-11.7473
▁twenty	-11.7473
▁wiretapped	-11.7473
▁medium	-11.7473
▁tumultuous	-11.7473
▁rihanna	-11.7474
▁brazen	-11.7474
▁dashboard	-11.7474
▁hated	-11.7474
▁aclu	-11.7474
▁vault	-11.7474
▁playground	-11.7474
▁ascend	-11.7475
▁gallup	-11.7475
▁renewable	-11.7475
▁emotion	-11.7475
fan	-11.7477
▁playbook	-11.7477
▁listened	-11.7479
▁uprising	-11.7481
▁themes	-11.7483
▁guru	-11.7484
▁depends	-11.7485
▁protested	-11.7489
▁citi	-11.749
▁pleads	-11.7493
▁scrambled	-11.7494
▁elevated	-11.7495
▁sour	-11.7497
▁notified	-11.75
▁compromised	-11.7501
▁toys	-11.7502
▁bern	-11.7505
▁hug	-11.7506
rol	-11.7507
▁archivebot	-11.7508
▁warrior	-11.7509
▁brass	-11.7517
imagine	-11.752
▁bass	-11.7523
everyone	-11.7524
▁soar	-11.7525
berry	-11.7527
rice	-11.7527
itude	-11.7529
▁surpass	-11.7529
▁worrying	-11.7537
gro	-11.7538
:[	-11.7539
▁rode	-11.7541
▁strangers	-11.7543
▁betray	-11.7544
▁dominance	-11.7548
▁gianforte	-11.7548
▁grassroots	-11.7548
▁imprisoned	-11.7548
▁portugal	-11.7548
▁porzingis	-11.7548
▁rafael	-11.7548
▁revisit	-11.7548
▁recapture	-11.7548
fifty	-11.7549
▁spiritual	-11.7549
▁lament	-11.755
▁descent	-11.755
▁firestorm	-11.755
▁poem	-11.7552
▁divest	-11.7552
▁newton	-11.7552
▁blitzer	-11.7553
▁franken	-11.7553
▁fetus	-11.7556
▁embarrassed	-11.7556
▁woes	-11.7556
▁diner	-11.7557
▁halfway	-11.7557
▁interactions	-11.7565
▁bout	-11.7566
▁refine	-11.7567
▁chant	-11.7567
▁$250	-11.7568
▁biased	-11.7569
▁reeling	-11.757
▁bigot	-11.757
▁daylight	-11.7571
▁recruiting	-11.7572
▁bosses	-11.7576
▁backward	-11.7578
▁references	-11.7579
▁fundamentally	-11.758
▁evans	-11.758
▁licenses	-11.7583
▁swiftly	-11.7588
▁jacobs	-11.7589
▁bryant	-11.7589
berlin	-11.7593
▁accomplish	-11.7594
script	-11.7595
▁woo	-11.7595
▁hijack	-11.7596
islamic	-11.7598
senator	-11.7599
▁myths	-11.7599
▁rushing	-11.7601
gold	-11.7607
▁eliminated	-11.7613
both	-11.7618
▁container	-11.7619
▁samples	-11.762
iya	-11.762
▁interact	-11.7621
▁exploration	-11.7623
▁hysteria	-11.7623
▁psychologist	-11.7623
▁sympathy	-11.7623
▁gossip	-11.7623
▁influx	-11.7623
▁abbas	-11.7624
▁awaiting	-11.7624
▁campbell	-11.7624
▁eddie	-11.7624
▁straw	-11.7628
▁cope	-11.7628
▁iceland	-11.763
▁backyard	-11.7631
▁tang	-11.7633
▁aspect	-11.7636
▁gown	-11.7637
force	-11.7646
▁operates	-11.765
▁catastrophic	-11.7651
▁intentions	-11.7652
▁swear	-11.7654
▁remembering	-11.7656
potus	-11.7659
▁guaranteed	-11.7662
▁albe	-11.7665
cies	-11.7666
▁liz	-11.7671
texas	-11.7672
stream	-11.7672
jeff	-11.7677
▁punished	-11.7679
▁evacuate	-11.7681
▁birther	-11.7686
▁repeating	-11.7689
▁chants	-11.7691
rb	-11.7697
march	-11.7699
▁encryption	-11.7699
▁hypocrisy	-11.7699
▁immune	-11.7699
▁mcauliffe	-11.7699
▁olympian	-11.7699
▁santiago	-11.7699
▁respondents	-11.7699
▁infectious	-11.7699
▁ackman	-11.7699
▁bystander	-11.7699
▁circulating	-11.77
▁digging	-11.77
▁cheryl	-11.7701
▁bucket	-11.7701
▁fade	-11.7702
▁blur	-11.7703
▁barron	-11.7706
riv	-11.7714
▁inject	-11.7717
▁listeners	-11.7719
▁conceded	-11.7723
▁examined	-11.7729
five	-11.7729
▁deer	-11.7732
piece	-11.7746
▁reserved	-11.7747
jerusalem	-11.7749
something	-11.775
▁subjected	-11.7763
▁elder	-11.7769
▁existed	-11.777
▁defender	-11.777
▁enthusiastic	-11.7772
▁knocking	-11.7772
▁hopkins	-11.7775
▁legitimacy	-11.7775
▁tsunami	-11.7775
▁adolf	-11.7775
▁cancellation	-11.7775
▁harvest	-11.7775
▁alternate	-11.7776
▁swarm	-11.7776
▁bribery	-11.7777
▁transferred	-11.7777
▁norway	-11.7779
▁friedman	-11.7779
▁backpack	-11.7783
▁debated	-11.7785
▁rattled	-11.7786
▁predicts	-11.7788
▁decree	-11.7788
▁hugh	-11.7794
▁nerd	-11.7794
▁coral	-11.7797
▁rancher	-11.7802
▁parish	-11.7805
▁torn	-11.7811
▁severed	-11.7819
▁creatures	-11.782
▁feeding	-11.7822
▁similarly	-11.7825
▁nast	-11.7827
▁blasting	-11.7829
▁erase	-11.7831
▁transported	-11.7831
ucci	-11.7831
▁seeds	-11.7836
extremely	-11.7837
ense	-11.784
aka	-11.7846
▁upside	-11.7846
▁occasional	-11.7849
▁rips	-11.7851
tern	-11.7851
▁dilemma	-11.7852
▁impending	-11.7852
▁riyadh	-11.7852
▁westminster	-11.7852
▁rescind	-11.7852
▁ralph	-11.7852
▁domain	-11.7852
▁revamp	-11.7853
▁nepal	-11.7853
▁renzi	-11.7853
▁frog	-11.7855
▁francois	-11.7855
▁foxnews	-11.7859
▁270	-11.7864
gay	-11.7866
fusion	-11.7868
▁yelled	-11.7873
▁floated	-11.7876
▁barrels	-11.7888
move	-11.7892
mac	-11.79
houston	-11.7904
historic	-11.7904
hollywood	-11.7904
everything	-11.7904
▁etc	-11.7905
tti	-11.7905
frank	-11.7905
▁propell	-11.7909
esh	-11.7912
▁replica	-11.7915
▁mah	-11.7915
▁astronomers	-11.7928
▁smuggle	-11.7929
36	-11.7929
▁asleep	-11.793
▁confidant	-11.793
▁ridicule	-11.793
▁scathing	-11.793
▁shapiro	-11.793
▁staunch	-11.793
▁withdrew	-11.793
▁intrigue	-11.793
▁ivory	-11.793
▁unlawful	-11.793
▁telegraph	-11.793
▁hungarian	-11.793
▁crises	-11.793
▁discredit	-11.793
▁songwriter	-11.793
▁tentative	-11.793
▁barrage	-11.7931
▁mentor	-11.7931
▁reconsider	-11.7931
▁applies	-11.7932
▁neo	-11.794
▁offender	-11.7952
▁shack	-11.7952
▁firefighter	-11.7956
stick	-11.7965
pal	-11.7965
complete	-11.797
tax	-11.7972
46	-11.7973
ddling	-11.7974
▁novelist	-11.7975
nuclear	-11.7983
▁toast	-11.7984
close	-11.7986
fear	-11.7988
tail	-11.799
▁faction	-11.7993
▁insulting	-11.7995
▁metaphor	-11.7995
wash	-11.7996
▁expenses	-11.8004
gio	-11.8004
▁horrifying	-11.8008
▁mastermind	-11.8008
▁outskirts	-11.8008
▁swallow	-11.8008
▁undisclosed	-11.8008
▁unilateral	-11.8008
▁bennett	-11.8008
▁meryl	-11.8008
▁erect	-11.8008
▁lucas	-11.8008
▁demise	-11.8009
▁purge	-11.8011
▁parked	-11.8013
▁madness	-11.8013
▁defenders	-11.8013
▁petty	-11.8013
▁fancy	-11.8014
▁foil	-11.8014
▁crisp	-11.8016
▁toughest	-11.8019
▁astronauts	-11.8019
▁princeton	-11.8019
▁frontier	-11.802
▁booth	-11.8023
▁battered	-11.8024
▁powerhouse	-11.8025
eau	-11.8026
▁pier	-11.8026
tale	-11.8026
▁instructed	-11.8027
▁maintaining	-11.8028
max	-11.8028
mary	-11.8033
▁peril	-11.8035
▁soared	-11.8037
▁fascist	-11.8043
▁dealers	-11.8049
▁clearing	-11.8051
▁thorn	-11.8056
lv	-11.8057
▁cole	-11.8058
▁conceal	-11.8059
through	-11.8066
happy	-11.8067
▁pour	-11.8067
▁halting	-11.8068
▁upward	-11.8073
honor	-11.8074
▁$60	-11.8077
▁lovers	-11.8078
▁marie	-11.8084
▁differ	-11.8085
▁wiretap	-11.8086
▁defiance	-11.8087
▁premature	-11.8087
▁steadily	-11.8087
corporat	-11.8087
▁bieber	-11.8087
▁disavow	-11.8087
▁nevertheless	-11.8087
▁warplanes	-11.8087
▁scoring	-11.8087
▁prank	-11.8087
▁newark	-11.8087
vil	-11.8087
▁extinction	-11.8088
jur	-11.8088
▁pillar	-11.8088
▁factories	-11.809
▁unhappy	-11.809
eye	-11.8091
▁hallway	-11.8094
▁coward	-11.8095
▁costa	-11.8099
▁miners	-11.81
▁exile	-11.81
▁consumed	-11.8101
▁lifelong	-11.8101
▁recreational	-11.8102
▁solely	-11.8107
▁bride	-11.8108
▁villa	-11.8111
▁emphasis	-11.8112
▁technique	-11.8113
▁capitalism	-11.8114
▁watt	-11.8115
hell	-11.8116
▁anytime	-11.812
▁fixing	-11.8124
▁spying	-11.8125
▁commenting	-11.8129
▁shrink	-11.8133
▁bald	-11.8134
islam	-11.814
28	-11.814
significant	-11.8142
actress	-11.8142
mission	-11.8144
really	-11.8145
gree	-11.815
▁casual	-11.8152
lim	-11.8152
rome	-11.8154
▁vegetables	-11.8158
▁surrogates	-11.8162
▁embracing	-11.8166
▁malcolm	-11.8166
▁nordstrom	-11.8166
▁resettlement	-11.8166
▁whistleblower	-11.8166
▁1972	-11.8166
▁composer	-11.8166
▁shelves	-11.8166
▁orientation	-11.8166
▁stripped	-11.8166
▁electors	-11.8166
▁polite	-11.8167
▁objections	-11.8167
▁helmet	-11.8167
▁clever	-11.8167
▁delhi	-11.8168
band	-11.817
▁harmful	-11.8171
malley	-11.8175
▁goodell	-11.8178
help	-11.8181
▁assert	-11.8182
▁injustice	-11.8188
▁jeopardy	-11.8191
▁ariana	-11.8195
▁pitching	-11.8206
wire	-11.8211
lav	-11.8212
▁inspiring	-11.822
culture	-11.8223
nov	-11.8232
▁respective	-11.8241
▁lynn	-11.8243
alkingpointsmemo	-11.8246
▁disabilities	-11.8246
▁drudge	-11.8246
▁nehlen	-11.8246
▁observatory	-11.8246
▁reconciliation	-11.8246
▁reproductive	-11.8246
▁skyscraper	-11.8246
▁undecided	-11.8246
▁thrust	-11.8246
▁debating	-11.8246
▁utility	-11.8246
▁hefty	-11.8246
▁creek	-11.8247
▁enlist	-11.8248
▁implementation	-11.8249
▁unofficial	-11.8249
▁durant	-11.825
▁policymakers	-11.825
▁transformation	-11.8251
▁nam	-11.8252
▁engulfed	-11.8256
▁dressing	-11.8258
change	-11.8268
inside	-11.8272
▁goat	-11.8275
▁temper	-11.8275
▁sara	-11.8281
▁dense	-11.8289
rush	-11.8293
▁oust	-11.8306
▁deliberations	-11.8307
snl	-11.8309
:40	-11.8312
▁owens	-11.8318
▁visitor	-11.8326
▁1976	-11.8327
▁aggression	-11.8327
▁frenzy	-11.8327
▁patience	-11.8327
▁servant	-11.8327
▁technological	-11.8327
▁huddle	-11.8327
▁nonsense	-11.8327
▁chorus	-11.8327
▁pricing	-11.8327
▁beverly	-11.8327
▁deplorables	-11.8331
▁tpp	-11.8333
▁prim	-11.8335
▁wrestler	-11.8336
▁ouster	-11.8337
▁drowned	-11.8338
▁oak	-11.8339
▁favorable	-11.8343
blo	-11.8348
bee	-11.8348
▁unfold	-11.835
▁peek	-11.8354
nel	-11.8355
▁tha	-11.8358
▁peru	-11.8358
..’"	-11.8359
▁teammate	-11.8362
dress	-11.8363
gunned	-11.8363
▁blown	-11.8366
▁boosting	-11.8367
▁wipe	-11.8369
▁posters	-11.8372
lapped	-11.8375
▁qualify	-11.8375
▁justified	-11.8376
▁sustain	-11.8379
▁endanger	-11.8382
craft	-11.8383
thousands	-11.8386
▁disrupted	-11.839
▁von	-11.839
▁affiliated	-11.8392
rica	-11.8396
▁belongs	-11.8396
east	-11.8398
▁gaze	-11.84
rough	-11.8403
▁photographed	-11.8405
▁helpful	-11.8405
▁broaddrick	-11.8408
▁kilometers	-11.8408
▁nicholas	-11.8408
▁renowned	-11.8408
▁assignment	-11.8408
▁welcoming	-11.8408
▁steak	-11.8408
▁headphones	-11.8408
▁idiot	-11.8408
▁outcry	-11.8408
▁cambridge	-11.8408
▁curve	-11.8408
▁transparent	-11.8408
▁charities	-11.8408
▁bleak	-11.8409
▁derby	-11.841
▁sumner	-11.841
▁projections	-11.8413
▁keystone	-11.8413
▁clay	-11.8415
▁arranged	-11.8415
▁syl	-11.8418
▁continental	-11.8422
▁watches	-11.8422
▁trainer	-11.8426
▁extract	-11.8427
olo	-11.8428
▁pledg	-11.8429
▁shaken	-11.843
▁sock	-11.8432
▁vary	-11.8434
cair	-11.8434
▁berry	-11.844
▁lover	-11.844
▁transaction	-11.8446
▁pundit	-11.8446
▁falcon	-11.8447
▁spit	-11.8449
▁defendant	-11.8451
mili	-11.8469
shift	-11.847
jim	-11.8484
▁climbing	-11.8486
▁1988	-11.849
▁acknowledging	-11.849
▁dicaprio	-11.849
▁espionage	-11.849
▁intersection	-11.849
▁litigation	-11.849
▁norwegian	-11.849
▁presumably	-11.849
▁stimulus	-11.849
▁buoy	-11.849
▁thumb	-11.849
▁univision	-11.849
▁vacant	-11.849
▁martial	-11.849
▁monarch	-11.849
▁satire	-11.849
▁vegan	-11.849
▁sidelines	-11.849
▁architecture	-11.8491
▁salute	-11.8491
▁scoop	-11.8491
▁alicia	-11.8491
▁disarm	-11.8492
▁mook	-11.8493
▁honey	-11.8495
▁bret	-11.8497
▁gunpoint	-11.8497
▁scattered	-11.8499
▁hayes	-11.8499
▁acceptable	-11.8501
▁depp	-11.8508
▁wiped	-11.8509
▁mol	-11.8513
▁salon	-11.8518
▁thankful	-11.852
▁regarded	-11.8529
▁$22	-11.853
▁worsen	-11.8531
▁hinted	-11.8534
▁outlaw	-11.8534
▁defendants	-11.8535
ncies	-11.8535
▁reset	-11.8537
stage	-11.8541
▁format	-11.8547
rah	-11.8547
▁drilling	-11.855
atlanta	-11.8552
obamacare	-11.8554
mayor	-11.8558
ppy	-11.8562
▁instrument	-11.8568
▁excess	-11.8571
▁acquitted	-11.8573
▁bahrain	-11.8573
▁blueprint	-11.8573
▁inclusive	-11.8573
▁maddow	-11.8573
▁segregation	-11.8573
▁teresa	-11.8573
▁valeant	-11.8573
▁czech	-11.8573
▁fraction	-11.8573
▁proposing	-11.8573
▁stockpile	-11.8573
▁roommate	-11.8573
▁offended	-11.8573
▁davos	-11.8573
▁slaying	-11.8573
▁thug	-11.8573
▁sculpture	-11.8573
▁touchdown	-11.8574
▁decorated	-11.8574
▁sheikh	-11.8574
▁lgbtq	-11.8575
▁railed	-11.8577
▁stiff	-11.8578
▁punk	-11.8578
gone	-11.8578
▁illustrate	-11.8582
▁facto	-11.8584
▁halftime	-11.8584
▁handout	-11.859
▁fend	-11.859
▁sears	-11.8591
▁temperament	-11.8593
▁indexes	-11.8594
▁thai	-11.8597
▁withhold	-11.8609
▁shall	-11.861
▁apocalypse	-11.8611
gene	-11.8615
▁damning	-11.8615
▁competitor	-11.8616
▁deduct	-11.862
erous	-11.8622
mond	-11.8622
▁pressured	-11.8624
▁techniques	-11.8628
position	-11.863
neill	-11.8632
▁generat	-11.8632
united	-11.8634
bathroom	-11.8636
secretary	-11.8637
robert	-11.8639
ripping	-11.8641
▁download	-11.8646
▁norman	-11.8649
▁deepen	-11.8652
▁nut	-11.8653
▁1964	-11.8656
▁catalog	-11.8656
▁concussion	-11.8656
▁discourse	-11.8656
▁enclave	-11.8656
▁encrypted	-11.8656
▁gorgeous	-11.8656
▁monologue	-11.8656
▁physics	-11.8656
▁telescope	-11.8656
▁disdain	-11.8656
▁redskins	-11.8656
▁refrain	-11.8656
▁invisible	-11.8656
▁abraham	-11.8656
▁whistle	-11.8656
▁geert	-11.8656
▁toyota	-11.8656
0,000	-11.8656
▁sherman	-11.8656
▁denmark	-11.8656
▁rampant	-11.8658
▁rodham	-11.8658
▁dismal	-11.8658
▁awake	-11.8659
▁patriotism	-11.8659
▁breakdown	-11.8659
▁pbs	-11.8659
▁ucla	-11.866
▁finest	-11.8661
▁fog	-11.8662
▁unborn	-11.8664
▁ellen	-11.8664
▁mika	-11.8664
▁bore	-11.8664
▁spate	-11.8676
▁bury	-11.8676
▁pitched	-11.8677
▁finalized	-11.8682
▁technically	-11.8685
▁ego	-11.8687
▁proposes	-11.8689
derrick	-11.8693
▁attitudes	-11.8698
▁referenc	-11.8701
▁transactions	-11.8701
38	-11.8702
among	-11.8703
▁commun	-11.8704
▁qa	-11.8708
▁questionable	-11.871
▁ghostbusters	-11.8712
▁bestsell	-11.8716
▁ridge	-11.8717
orient	-11.8717
mini	-11.8721
perfect	-11.8721
british	-11.8721
▁glen	-11.8721
sorry	-11.8723
bird	-11.8725
▁waymo	-11.8727
angel	-11.873
▁dara	-11.8734
▁vigil	-11.8739
▁1973	-11.874
▁accumulat	-11.874
▁identification	-11.874
▁lavrov	-11.874
▁precious	-11.874
▁reaffirm	-11.874
▁subcommittee	-11.874
▁twelve	-11.874
▁unsuccessful	-11.874
▁wimbledon	-11.874
▁snyder	-11.874
▁flipped	-11.874
▁rainbow	-11.874
▁batteries	-11.874
pussy	-11.8741
▁skipping	-11.8742
▁inspection	-11.8742
▁joaquin	-11.8745
▁fray	-11.8745
▁churchill	-11.8745
▁adoption	-11.8746
▁outage	-11.8747
▁pepsi	-11.8747
▁faint	-11.8747
brand	-11.8749
▁analyzed	-11.8754
▁reiterated	-11.8754
▁impressed	-11.8755
▁lucie	-11.8755
fat	-11.8766
▁rout	-11.8768
▁caliphate	-11.8771
▁ingredients	-11.8772
▁wallet	-11.8774
▁dal	-11.878
▁cried	-11.8785
▁siblings	-11.8788
▁golfer	-11.8789
▁ambition	-11.8789
▁mono	-11.8791
▁tracked	-11.8792
storm	-11.8804
steve	-11.8804
▁punching	-11.8806
author	-11.8806
beijing	-11.8807
protect	-11.8807
congress	-11.8808
shirt	-11.8809
interest	-11.8809
eman	-11.8814
▁distract	-11.8816
jon	-11.8819
▁pluto	-11.8822
▁bol	-11.8825
▁appetite	-11.8825
▁cespedes	-11.8825
▁delicate	-11.8825
▁delicious	-11.8825
▁gadget	-11.8825
▁ignorance	-11.8825
▁leather	-11.8825
▁virtue	-11.8825
▁whisper	-11.8825
▁implant	-11.8825
▁loophole	-11.8825
▁statute	-11.8825
▁fallows	-11.8825
▁restructuring	-11.8825
▁circulated	-11.8825
▁consciousness	-11.8825
▁silly	-11.8826
▁rubber	-11.8826
▁smugglers	-11.8826
▁semi	-11.8826
▁protestors	-11.8826
▁santos	-11.8827
▁widening	-11.8828
luck	-11.8828
▁$24	-11.8828
▁spat	-11.8829
▁salad	-11.883
▁metric	-11.8831
▁touting	-11.8831
▁admin	-11.8835
▁raiders	-11.8836
▁branches	-11.8839
▁alice	-11.884
▁norm	-11.8843
▁prosecuted	-11.8843
▁unified	-11.8844
▁withdrawing	-11.8845
▁irony	-11.8846
iro	-11.885
month	-11.8854
▁propose	-11.8858
▁flop	-11.8859
▁quiz	-11.8873
▁classmates	-11.8878
▁drafted	-11.8879
rammed	-11.8882
smart	-11.8882
▁adjust	-11.8891
▁cracked	-11.8892
▁commented	-11.8892
critical	-11.8893
federal	-11.8893
barack	-11.8894
illegal	-11.8894
▁delete	-11.8894
provoke	-11.891
▁coincide	-11.891
obsolete	-11.891
▁believing	-11.891
▁compliance	-11.891
▁educator	-11.891
▁gruesome	-11.891
▁prejudice	-11.891
▁prostitute	-11.891
▁schwarzenegger	-11.891
▁straightforward	-11.891
▁dementia	-11.891
▁satisfy	-11.891
▁advising	-11.891
▁entities	-11.891
▁intensify	-11.891
▁secular	-11.8911
▁dissident	-11.8911
▁creditors	-11.8911
▁cheek	-11.8911
▁thrive	-11.8912
▁ashley	-11.8912
▁cohn	-11.8913
▁crane	-11.8914
▁groom	-11.8914
▁tyson	-11.8915
▁tilt	-11.8918
▁collided	-11.8924
▁costly	-11.8929
yne	-11.8934
▁sew	-11.8937
▁volcano	-11.8937
▁dare	-11.894
roy	-11.8945
▁booming	-11.8947
▁kir	-11.8953
▁bombed	-11.8961
▁align	-11.897
▁prosecute	-11.8978
▁underscore	-11.8978
secret	-11.8979
final	-11.8979
lena	-11.8983
▁preach	-11.8983
▁breached	-11.8986
▁marshal	-11.8991
need	-11.8992
▁sank	-11.8992
▁tycoon	-11.8996
thomson	-11.8996
▁1983	-11.8996
▁corridor	-11.8996
▁dorsey	-11.8996
▁dubious	-11.8996
▁elusive	-11.8996
▁leverage	-11.8996
▁resurrect	-11.8996
▁innovative	-11.8996
▁snub	-11.8996
▁minimal	-11.8997
▁landlord	-11.8997
▁groping	-11.8997
▁christina	-11.8997
▁neutrality	-11.8998
▁dictatorship	-11.8998
▁poetry	-11.8999
▁owes	-11.9
▁digest	-11.9001
▁chasing	-11.9001
▁personalities	-11.9002
▁evolved	-11.9005
▁clich	-11.9005
congratulations	-11.9005
▁practical	-11.9006
▁rosen	-11.9007
▁neuro	-11.9018
▁annie	-11.9021
▁annually	-11.9023
▁adjusted	-11.9024
▁capitalist	-11.9025
▁satan	-11.9026
▁lens	-11.9028
track	-11.9029
hear	-11.9032
▁tumble	-11.9033
▁credited	-11.9035
empt	-11.9036
standing	-11.9039
bull	-11.9045
anger	-11.9046
issa	-11.9049
▁ensur	-11.9054
▁underage	-11.9055
▁brag	-11.9056
▁crimea	-11.9058
▁$19	-11.906
▁organize	-11.9061
▁110	-11.9066
clean	-11.9066
security	-11.9067
james	-11.9068
authorities	-11.9068
gul	-11.9076
▁mack	-11.9077
▁guzm	-11.908
▁1985	-11.9083
▁exploding	-11.9083
▁intensified	-11.9083
▁persecution	-11.9083
▁coveted	-11.9083
▁grabbing	-11.9083
▁paramount	-11.9083
▁gdp	-11.9083
▁tucker	-11.9084
▁summary	-11.9084
▁preschool	-11.9084
start	-11.9086
▁confession	-11.9086
▁ukip	-11.9087
▁distinction	-11.9087
▁leaf	-11.909
▁roam	-11.9093
▁indonesian	-11.9095
▁specialize	-11.9099
▁considerable	-11.9106
▁aligned	-11.9111
▁esp	-11.9116
▁candid	-11.9116
wide	-11.9119
lab	-11.9123
▁disappearing	-11.9124
▁revived	-11.9129
▁reap	-11.9131
▁sellers	-11.9133
▁publicist	-11.9136
▁sanction	-11.9145
joy	-11.9148
▁stack	-11.9148
▁echoed	-11.915
official	-11.9152
hundreds	-11.9156
false	-11.9156
leader	-11.9156
▁abrupt	-11.9158
▁spear	-11.9171
▁autopilot	-11.9171
▁flourish	-11.9171
▁identical	-11.9171
▁inaccurate	-11.9171
▁inclusion	-11.9171
▁paralyzed	-11.9171
▁automated	-11.9171
▁intensive	-11.9171
▁seahawks	-11.9171
▁rodgers	-11.9171
▁retrieve	-11.9171
▁automobile	-11.9171
▁sasse	-11.9171
klux	-11.9171
▁piano	-11.9172
▁pablo	-11.9172
▁exxonmobil	-11.9173
▁gavin	-11.9173
▁difficulty	-11.9173
▁yank	-11.9173
dead	-11.9175
▁($1	-11.9175
▁1930	-11.9175
▁endure	-11.9176
▁maxim	-11.9183
▁primetime	-11.9185
left	-11.9185
▁townhouse	-11.9187
▁pleading	-11.9206
▁congratulate	-11.9214
▁$70	-11.9215
▁dude	-11.922
▁moss	-11.9224
ota	-11.9226
▁grilled	-11.9227
▁contribution	-11.9236
▁heller	-11.9245
▁marginal	-11.9245
clear	-11.9251
looking	-11.9252
▁mta	-11.9254
▁blank	-11.9259
▁merge	-11.9259
▁barcelona	-11.9259
▁cluster	-11.9259
▁dickerson	-11.9259
▁rupert	-11.926
▁lottery	-11.926
▁abusive	-11.926
▁kraft	-11.926
▁compris	-11.926
▁envision	-11.9261
▁tubman	-11.9262
▁territories	-11.9263
▁ramos	-11.9263
▁spoilers	-11.9264
▁syndicated	-11.9265
▁realistic	-11.9268
▁representation	-11.9269
▁mistakenly	-11.9271
▁triggering	-11.9271
▁incite	-11.9273
▁protective	-11.9275
▁daring	-11.928
soft	-11.9281
▁101	-11.9283
▁barra	-11.9284
▁float	-11.9289
▁impeached	-11.9294
▁handel	-11.9296
▁deserved	-11.9297
race	-11.9298
▁weakened	-11.9307
▁escort	-11.9321
zan	-11.9325
▁gran	-11.9326
▁dial	-11.9329
▁accelerate	-11.933
▁yeah	-11.9331
▁organizer	-11.9333
▁suite	-11.9334
settle	-11.9336
giving	-11.9336
▁thorough	-11.9336
▁poisoning	-11.9337
▁restored	-11.934
listen	-11.9341
presidential	-11.9342
▁plead	-11.9347
treat	-11.9347
▁curl	-11.9347
▁baggage	-11.9349
▁boulevard	-11.9349
▁carnival	-11.9349
▁denouncing	-11.9349
▁destructive	-11.9349
▁dolphin	-11.9349
▁elegant	-11.9349
▁hathaway	-11.9349
▁kenneth	-11.9349
▁prolific	-11.9349
▁proponent	-11.9349
▁curtain	-11.9349
▁intelligent	-11.9349
▁amateur	-11.9349
▁easing	-11.9349
▁bernard	-11.9349
wh	-11.935
▁enrollment	-11.935
▁coordinator	-11.935
▁fetal	-11.9355
▁misled	-11.9359
quan	-11.9369
▁hateful	-11.9371
fec	-11.9377
abc	-11.9379
▁prom	-11.9379
▁commanding	-11.9391
▁kay	-11.9399
boo	-11.9401
▁median	-11.9401
kim	-11.9402
▁rabbi	-11.9403
heim	-11.9404
▁butler	-11.9408
▁retweet	-11.9412
enko	-11.9413
tum	-11.9426
▁handler	-11.943
pamkeynen	-11.9439
▁blistering	-11.9439
▁collapsing	-11.9439
▁hornacek	-11.9439
▁mcgregor	-11.9439
▁ominous	-11.9439
▁petraeus	-11.9439
▁prophet	-11.9439
▁sauce	-11.9439
▁serbia	-11.944
▁scholarship	-11.944
terrorist	-11.944
▁collar	-11.9441
▁baylor	-11.9441
▁abdel	-11.9441
▁characteristic	-11.9441
▁captive	-11.9441
▁reply	-11.9442
▁cong	-11.9442
▁heather	-11.9442
▁switched	-11.9445
▁diana	-11.9445
▁syed	-11.9445
▁nhl	-11.9446
▁concede	-11.9448
▁sticker	-11.9449
▁overwhelmed	-11.9449
▁rope	-11.9449
▁postponed	-11.9451
▁rosa	-11.9455
▁experimental	-11.9456
hopped	-11.9458
aux	-11.9461
▁matched	-11.9462
▁entertaining	-11.9463
▁lonely	-11.9468
▁robertson	-11.9471
▁tricky	-11.9473
▁healthier	-11.9475
▁alma	-11.9478
▁lib	-11.9481
▁kneel	-11.9486
▁pub	-11.9491
▁restricted	-11.9496
▁directing	-11.9504
▁’80	-11.9511
▁wang	-11.9511
their	-11.9511
wise	-11.9516
lgbt	-11.9518
peace	-11.9518
turkey	-11.9518
george	-11.9518
normal	-11.9518
▁kerr	-11.9521
▁sigh	-11.9523
▁aunt	-11.9523
tesla	-11.9525
▁relate	-11.9526
▁arbitration	-11.953
▁condolences	-11.953
▁consequential	-11.953
▁disregard	-11.953
▁enquirer	-11.953
▁escalation	-11.953
▁existential	-11.953
▁immense	-11.953
▁machado	-11.953
▁rebellion	-11.953
▁snoop	-11.953
▁mattress	-11.953
▁osama	-11.953
▁aetna	-11.953
▁fret	-11.9531
▁tipped	-11.9531
▁bogus	-11.9531
▁sirius	-11.9531
▁generic	-11.9531
▁hostility	-11.9531
▁falter	-11.9531
▁popped	-11.9532
▁2019	-11.9533
▁fluid	-11.9533
▁permitted	-11.9534
▁deposition	-11.9536
▁litter	-11.9536
▁relies	-11.9538
▁recap	-11.9542
▁discriminatory	-11.9546
▁neu	-11.9556
▁misses	-11.9567
▁grid	-11.9569
▁appealed	-11.9571
▁messy	-11.9575
fuck	-11.9591
bak	-11.9591
fir	-11.9594
▁mold	-11.9594
▁spann	-11.9598
extreme	-11.9598
▁stuffed	-11.9606
equal	-11.9611
▁till	-11.9612
better	-11.9616
▁eventual	-11.9617
▁deposit	-11.9619
▁birmingham	-11.9622
▁eclipse	-11.9622
▁evaluate	-11.9622
▁fitzgerald	-11.9622
▁intimidation	-11.9622
▁misogyny	-11.9622
▁shanghai	-11.9622
▁retract	-11.9622
▁oracle	-11.9622
▁nonpartisan	-11.9622
▁penguin	-11.9622
▁altercation	-11.9622
▁canyon	-11.9622
▁curt	-11.9622
▁turnaround	-11.9623
▁tackling	-11.9623
pence	-11.9623
▁1940	-11.9624
▁martinez	-11.9624
▁diving	-11.9624
remember	-11.9624
▁rehab	-11.9626
▁roth	-11.9626
▁importantly	-11.9627
▁wrist	-11.9628
▁flake	-11.963
▁lend	-11.9631
▁preet	-11.9631
▁packers	-11.9633
▁formation	-11.9634
▁poorest	-11.9635
owitz	-11.9636
▁(19	-11.9636
▁buyout	-11.9637
▁kil	-11.964
▁stereotypes	-11.9641
▁flor	-11.9644
next	-11.9664
▁outpost	-11.9666
▁honestly	-11.9669
▁xm	-11.9672
▁avert	-11.9678
▁masked	-11.9684
▁limiting	-11.969
▁stumble	-11.9696
▁behave	-11.9696
criminal	-11.9704
suicide	-11.9704
second	-11.9705
gender	-11.9712
▁preced	-11.9713
▁chrysler	-11.9714
▁compassion	-11.9714
▁gaffney	-11.9714
▁glorious	-11.9714
▁imperial	-11.9714
▁paradise	-11.9714
▁parody	-11.9714
▁prostitution	-11.9714
▁terribly	-11.9714
▁unconventional	-11.9714
▁uninsured	-11.9714
▁wheelchair	-11.9714
▁capturing	-11.9714
▁zinke	-11.9714
▁coroner	-11.9714
▁integrate	-11.9714
▁profiling	-11.9714
▁britons	-11.9715
▁botched	-11.9715
▁flesh	-11.9715
▁springsteen	-11.9715
▁jolt	-11.9715
▁pierce	-11.9717
▁potent	-11.9718
▁agitat	-11.9718
▁milan	-11.9718
▁diane	-11.972
▁angle	-11.9721
▁buff	-11.9724
▁erik	-11.9731
▁subsequently	-11.9732
▁flowing	-11.9739
▁cleaning	-11.9741
▁issa	-11.9742
aved	-11.9742
▁mug	-11.9743
▁raft	-11.9747
▁audi	-11.9751
▁stretching	-11.9753
▁chop	-11.9757
▁shah	-11.9764
▁cautioned	-11.9766
▁shun	-11.9767
▁tumbled	-11.9768
▁stray	-11.9768
▁champ	-11.9772
▁swirl	-11.9775
▁embark	-11.9778
▁prohibited	-11.9779
lik	-11.978
photo	-11.9783
▁flower	-11.9787
scientists	-11.9798
abortion	-11.9798
student	-11.9798
brazil	-11.9798
market	-11.9801
▁wow	-11.9801
▁dayton	-11.9805
▁1967	-11.9808
▁adequate	-11.9808
▁deceased	-11.9808
▁doctrine	-11.9808
▁likelihood	-11.9808
▁mishandling	-11.9808
▁separation	-11.9808
▁vigorous	-11.9808
▁dwarf	-11.9808
▁modified	-11.9808
▁convey	-11.9808
▁inviting	-11.9808
▁bisexual	-11.9808
▁boundaries	-11.9808
▁gregory	-11.9808
▁coordination	-11.9808
▁lepage	-11.9809
▁hastert	-11.981
▁evade	-11.981
▁livewire	-11.9811
▁stride	-11.9811
▁comcast	-11.9812
06	-11.9815
▁homemade	-11.9816
▁dishes	-11.9816
▁combative	-11.9818
▁wool	-11.9823
lich	-11.9823
▁walsh	-11.9823
▁wilbur	-11.9827
shameful	-11.9831
▁thor	-11.9849
▁chess	-11.9851
▁dogged	-11.9853
prop	-11.9861
▁noble	-11.9862
▁commemorate	-11.9863
▁graduated	-11.9864
▁peel	-11.9867
much	-11.9869
pinned	-11.9872
▁supportive	-11.9874
aro	-11.9881
▁sheep	-11.9881
▁mast	-11.9885
▁minn	-11.9885
dine	-11.9888
▁comb	-11.9892
▁clam	-11.9898
▁1987	-11.9902
▁blumenthal	-11.9902
▁grievance	-11.9902
▁katrina	-11.9902
▁mercury	-11.9902
▁mourinho	-11.9902
▁neurosurgeon	-11.9902
▁stubborn	-11.9902
▁substantive	-11.9902
▁tweak	-11.9902
▁slope	-11.9902
▁relied	-11.9902
▁gilbert	-11.9902
▁tongue	-11.9902
▁persian	-11.9903
▁unnecessary	-11.9903
▁magnet	-11.9904
▁silk	-11.9905
▁nicol	-11.9906
▁sadness	-11.9908
▁descend	-11.9909
▁banana	-11.9914
▁doom	-11.9917
▁wrestle	-11.9918
▁carve	-11.9918
▁plowed	-11.9921
pope	-11.9923
ovich	-11.9925
▁350	-11.9928
▁zombie	-11.9928
▁accurately	-11.9928
▁purse	-11.9929
▁chic	-11.9932
▁payout	-11.9934
▁insert	-11.9934
▁weaker	-11.9948
▁verse	-11.9951
▁ruthless	-11.996
▁gust	-11.9965
▁petro	-11.997
▁faithful	-11.9971
▁observe	-11.9973
sports	-11.9973
▁$23	-11.9975
aging	-11.9979
▁strengthening	-11.9982
epa	-11.9986
▁guilt	-11.9988
cultural	-11.9989
probably	-11.999
▁nh	-11.9991
border	-11.9991
▁exempt	-11.9992
▁bypass	-11.9993
hope	-11.9995
▁impromptu	-11.9997
disciplinary	-11.9997
▁confiscat	-11.9997
▁debacle	-11.9997
▁discourage	-11.9997
▁djokovic	-11.9997
▁empathy	-11.9997
▁homophobic	-11.9997
▁luggage	-11.9997
▁schmidt	-11.9997
▁submarine	-11.9997
▁superintendent	-11.9997
▁tirade	-11.9997
▁unsubstantiated	-11.9997
▁kendall	-11.9997
▁clutch	-11.9997
▁lumber	-11.9997
▁unwanted	-11.9997
▁conquer	-11.9997
▁throne	-11.9997
▁granddaughter	-11.9997
▁solarcity	-11.9998
▁embarrassment	-11.9998
▁framework	-11.9998
▁cereal	-11.9998
▁vincent	-11.9998
▁biologist	-11.9998
▁expertise	-11.9999
▁kurt	-11.9999
▁flagged	-11.9999
▁kingpin	-12
▁ankle	-12.0001
▁blockade	-12.0003
▁rescuers	-12.0004
▁undercut	-12.0005
▁profitable	-12.0008
▁lacked	-12.001
▁sedan	-12.0011
▁mint	-12.0011
▁imagery	-12.0011
tip	-12.0013
person	-12.0026
▁alerted	-12.0028
▁haunt	-12.0034
▁needle	-12.0038
▁$26	-12.0039
▁streamed	-12.0041
▁eradicat	-12.0044
▁tortured	-12.0048
▁solved	-12.0051
▁worm	-12.0056
ault	-12.0056
▁grappl	-12.0057
para	-12.0057
large	-12.006
deb	-12.006
▁elevat	-12.0063
leave	-12.0065
▁rubin	-12.0067
serve	-12.0069
▁sinking	-12.0078
▁rational	-12.0081
▁whoever	-12.0085
britain	-12.0087
▁edit	-12.0088
▁olive	-12.0089
semitism	-12.0093
▁anticipation	-12.0093
▁dynasty	-12.0093
▁nordlinger	-12.0093
▁relocate	-12.0093
▁santorum	-12.0093
▁illicit	-12.0093
▁hemisphere	-12.0093
▁bentley	-12.0093
▁venice	-12.0093
▁proxy	-12.0093
▁stairs	-12.0094
▁digits	-12.0094
▁fifa	-12.0096
▁lamont	-12.0098
▁backup	-12.0101
▁candle	-12.0101
▁danish	-12.0102
spiring	-12.0102
▁portrayal	-12.0103
▁punches	-12.0104
enchant	-12.0105
▁abd	-12.0105
▁tommy	-12.0109
▁deli	-12.0118
▁guided	-12.0118
▁owe	-12.012
▁preacher	-12.0122
▁taped	-12.0122
▁bitch	-12.0125
ask	-12.0125
personal	-12.0127
▁115	-12.0136
▁patriotic	-12.0139
▁dull	-12.0144
:50	-12.0144
▁shaw	-12.0149
▁distort	-12.0155
▁spar	-12.0157
▁drape	-12.0159
▁proclaim	-12.0164
▁restricting	-12.0166
▁pursued	-12.0169
▁fx	-12.0181
▁agricultur	-12.0183
effective	-12.0185
dollar	-12.0185
▁separately	-12.0185
miami	-12.0185
dallas	-12.0185
support	-12.0185
freedom	-12.0185
short	-12.0186
▁culminat	-12.0189
otta	-12.0189
▁admiral	-12.019
▁ancestor	-12.019
▁calories	-12.019
▁eligibility	-12.019
▁eyebrows	-12.019
▁fraught	-12.019
▁indicator	-12.019
▁insurgency	-12.019
▁intriguing	-12.019
▁kathleen	-12.019
▁powder	-12.019
▁qualification	-12.019
▁thieves	-12.019
islamophobia	-12.019
▁harrowing	-12.019
▁mammal	-12.019
▁sheldon	-12.019
▁impersonat	-12.0191
▁midterm	-12.0191
▁theranos	-12.0191
▁assuming	-12.0191
▁vagina	-12.0191
▁gerald	-12.0191
▁duncan	-12.0191
▁buddy	-12.0192
▁cruelty	-12.0192
▁rooftop	-12.0193
▁intact	-12.0193
▁guitarist	-12.0194
▁gradually	-12.0197
▁raided	-12.0199
▁productive	-12.02
mean	-12.0202
▁rory	-12.0205
▁raj	-12.0205
getting	-12.0212
▁grove	-12.0217
wiping	-12.0218
▁lingering	-12.0219
▁emphasized	-12.022
blow	-12.0224
▁canceling	-12.0225
▁disgrace	-12.0234
▁psycho	-12.0235
▁fiercely	-12.0236
▁rahm	-12.0247
▁bog	-12.0247
▁chad	-12.0253
▁occupy	-12.0256
▁tolerate	-12.0258
▁trader	-12.026
▁correctly	-12.0261
▁ios	-12.0268
▁brazile	-12.0271
▁dragon	-12.0274
▁butcher	-12.0275
▁precise	-12.0276
▁seller	-12.0277
""","	-12.028
claim	-12.028
buy	-12.0282
continental	-12.0284
judge	-12.0284
▁badge	-12.0285
known	-12.0285
massive	-12.0286
▁gymnast	-12.0288
▁atrocities	-12.0288
▁beleaguered	-12.0288
▁bracket	-12.0288
▁buchanan	-12.0288
▁inflammatory	-12.0288
▁physicist	-12.0288
▁procedural	-12.0288
▁spectator	-12.0288
▁sunshine	-12.0288
▁thriving	-12.0288
▁ubiquitous	-12.0288
▁absorb	-12.0288
▁geographic	-12.0288
bilateral	-12.0288
▁pronoun	-12.0289
▁transmitted	-12.0289
▁governance	-12.029
▁dragging	-12.029
▁bragged	-12.029
▁biology	-12.029
▁textbook	-12.029
▁waging	-12.0293
▁marble	-12.0294
▁nuke	-12.0296
43	-12.03
▁gin	-12.0302
▁swinging	-12.0302
backed	-12.0302
▁messi	-12.0304
▁broaden	-12.0306
cbs	-12.0307
▁contracted	-12.031
▁vy	-12.0312
▁revel	-12.0312
▁shred	-12.0313
▁ashes	-12.0314
▁upbeat	-12.0316
namo	-12.0317
▁dresses	-12.0319
▁distracted	-12.032
▁dwell	-12.0321
▁invoked	-12.0321
▁grin	-12.0324
▁tighter	-12.0326
▁notoriously	-12.0329
▁converted	-12.0332
cuba	-12.0332
▁depicting	-12.0335
▁tamp	-12.0341
▁proudly	-12.0342
▁tenn	-12.0344
▁$27	-12.0344
▁biker	-12.0351
▁systemic	-12.0352
▁steele	-12.0357
▁castle	-12.036
joe	-12.0362
▁summon	-12.0366
▁unveiling	-12.037
▁expo	-12.0381
basket	-12.0384
attack	-12.0384
food	-12.0384
seoul	-12.0385
ordinarily	-12.0387
unresponsive	-12.0387
▁coahuila	-12.0387
▁feinstein	-12.0387
▁frightening	-12.0387
▁gretchen	-12.0387
▁guatemala	-12.0387
▁knives	-12.0387
▁nephew	-12.0387
▁petroleum	-12.0387
▁sharapova	-12.0387
▁henderson	-12.0387
▁reversing	-12.0387
▁stefan	-12.0387
▁lodge	-12.0388
▁smack	-12.0388
▁undermining	-12.0388
▁apollo	-12.0388
▁craze	-12.0388
▁silva	-12.0388
▁bonus	-12.0388
▁resonate	-12.0389
▁tribeca	-12.0391
▁laughter	-12.0391
▁blair	-12.0393
▁artistic	-12.0395
▁yuan	-12.0397
▁reunited	-12.04
▁worldview	-12.04
▁plight	-12.0401
▁barber	-12.0401
horn	-12.0405
▁lamb	-12.0407
▁resolved	-12.0408
▁mistaken	-12.041
▁promptly	-12.0411
boro	-12.0413
▁thoughtful	-12.0414
▁bland	-12.0419
▁legion	-12.0424
▁pee	-12.0425
▁surround	-12.0427
▁peacefully	-12.0429
▁charming	-12.044
▁premiered	-12.0442
brien	-12.0449
▁benefited	-12.0457
▁reacting	-12.0458
▁alley	-12.0466
▁spelling	-12.0466
▁watchers	-12.0472
▁restor	-12.048
suspect	-12.0485
including	-12.0485
climate	-12.0486
park	-12.0486
▁affleck	-12.0487
▁arlington	-12.0487
▁assurance	-12.0487
▁equipped	-12.0487
▁horrified	-12.0487
▁impassioned	-12.0487
▁liberation	-12.0487
▁morocco	-12.0487
▁natalie	-12.0487
▁nostalgia	-12.0487
▁pokemon	-12.0487
▁protagonist	-12.0487
▁substitute	-12.0487
▁shrine	-12.0487
▁vivid	-12.0487
▁peyton	-12.0487
▁sundance	-12.0487
▁guild	-12.0487
▁biopic	-12.0488
▁kuwait	-12.0488
▁refund	-12.0488
▁queer	-12.0489
▁vacate	-12.0492
▁scarce	-12.0492
▁recruitment	-12.0493
▁crusade	-12.0494
▁collector	-12.0497
▁waist	-12.0499
▁manila	-12.0502
▁slack	-12.0502
▁237	-12.0502
▁contention	-12.0502
▁lester	-12.0504
▁stretches	-12.0508
roger	-12.0509
▁attraction	-12.0513
spoke	-12.0515
▁eliminat	-12.0541
▁profession	-12.0548
▁altered	-12.0548
came	-12.0553
baum	-12.0561
▁shatter	-12.0563
▁habitat	-12.0564
▁fearful	-12.0569
▁hugely	-12.0573
▁wwe	-12.0587
▁sovereign	-12.0587
blood	-12.0587
▁1945	-12.0588
▁culprit	-12.0588
▁equities	-12.0588
▁festivities	-12.0588
▁frustrating	-12.0588
▁glitter	-12.0588
▁gloria	-12.0588
▁laureate	-12.0588
▁maintenance	-12.0588
▁maverick	-12.0588
▁solitary	-12.0588
▁translation	-12.0588
▁unthinkable	-12.0588
▁upscale	-12.0588
▁urgency	-12.0588
▁demagogue	-12.0588
▁scrutiniz	-12.0588
▁breakingviews	-12.0588
▁reunion	-12.0588
▁geller	-12.0588
▁overlooked	-12.0589
▁horowitz	-12.0589
▁drastically	-12.0589
▁chalk	-12.059
▁conspiring	-12.059
▁slipping	-12.059
▁wilmore	-12.059
▁ellis	-12.0591
▁sunset	-12.0591
▁clad	-12.0591
▁dumping	-12.0595
▁jordanian	-12.0595
▁accessible	-12.0596
▁calculated	-12.0597
▁burge	-12.0598
▁flies	-12.0599
▁raul	-12.0601
marco	-12.0602
▁finn	-12.0606
▁gem	-12.0607
boat	-12.0608
▁crawl	-12.0608
▁stumbled	-12.0609
▁deaf	-12.061
▁resource	-12.0611
▁denis	-12.0621
▁lamented	-12.0626
▁mylan	-12.0626
▁plummeted	-12.0627
▁deepening	-12.0628
▁unfolding	-12.063
▁yell	-12.0635
▁dared	-12.0652
▁bader	-12.0652
▁spilled	-12.066
▁consume	-12.0666
▁scal	-12.067
corn	-12.0681
▁vetoed	-12.0681
▁cory	-12.0683
▁parenting	-12.0685
writer	-12.0686
truth	-12.069
everybody	-12.069
responsibilities	-12.069
▁avalanche	-12.069
▁cannabis	-12.069
▁ceremonies	-12.069
▁devastation	-12.069
▁episcopal	-12.069
▁fentanyl	-12.069
▁financier	-12.069
▁fitzpatrick	-12.069
▁hezbollah	-12.069
▁intimidate	-12.069
▁magistrate	-12.069
▁populated	-12.069
▁quebec	-12.069
▁storied	-12.069
▁thrilling	-12.069
▁volatility	-12.069
▁external	-12.069
▁gowdy	-12.069
▁vienna	-12.069
▁blessing	-12.0691
▁ravag	-12.0691
▁foremost	-12.0691
▁unstable	-12.0691
▁suitcase	-12.0691
▁magnate	-12.0691
▁feather	-12.0691
▁treason	-12.0691
▁wealthiest	-12.0692
cbp	-12.0693
▁feast	-12.0693
▁farming	-12.0694
▁blond	-12.0694
34	-12.0695
▁bonuses	-12.0695
▁chatter	-12.0697
▁burglary	-12.0697
▁$28	-12.07
▁legalization	-12.0704
feel	-12.0704
▁thoroughly	-12.0705
▁chew	-12.0708
▁panther	-12.0709
fix	-12.0712
▁heartbreaking	-12.0714
took	-12.0717
alex	-12.0718
▁escorted	-12.0722
▁editing	-12.0725
▁axe	-12.0731
▁recogniz	-12.0732
▁secondary	-12.0734
▁terri	-12.074
▁derailed	-12.0741
▁rb	-12.0747
▁socialism	-12.0748
▁jew	-12.0752
▁krista	-12.0761
hub	-12.0778
ride	-12.0789
▁liver	-12.079
▁meteor	-12.0794
▁champagne	-12.0794
▁contraception	-12.0794
▁decapitat	-12.0794
▁envelope	-12.0794
▁exhausted	-12.0794
▁greenwich	-12.0794
▁inevitably	-12.0794
▁khizr	-12.0794
▁laundry	-12.0794
▁practicing	-12.0794
▁stephanie	-12.0794
▁underestimat	-12.0794
▁intensity	-12.0794
▁khalid	-12.0794
▁unchanged	-12.0794
▁pamela	-12.0794
▁sleeve	-12.0794
▁rousey	-12.0794
▁unwilling	-12.0794
▁erratic	-12.0794
▁houthi	-12.0794
▁educated	-12.0794
▁caracas	-12.0794
▁manchin	-12.0794
▁weaver	-12.0794
▁claire	-12.0794
perhaps	-12.0794
tivity	-12.0794
▁dominican	-12.0795
speaker	-12.0795
▁birthplace	-12.0795
▁stain	-12.0796
▁allege	-12.0796
▁feedback	-12.0796
parent	-12.0797
court	-12.0797
▁renewal	-12.0801
▁rollout	-12.0801
spring	-12.0802
stay	-12.0802
▁gps	-12.0804
▁fractured	-12.0806
▁brig	-12.0809
▁contradiction	-12.0809
▁armored	-12.0813
▁stretched	-12.0813
▁rhetorical	-12.0816
▁packing	-12.0817
raf	-12.0818
▁maj	-12.0819
▁statistical	-12.0829
▁newscast	-12.0832
bush	-12.0832
▁atheist	-12.0837
▁pga	-12.0839
▁globalist	-12.0839
▁carmaker	-12.0842
▁kent	-12.085
onnie	-12.0854
▁cad	-12.0861
▁moonlight	-12.0863
32	-12.0863
▁emotionally	-12.0868
▁pep	-12.0869
▁planted	-12.0869
▁shia	-12.0871
lize	-12.0873
logy	-12.0878
▁chased	-12.088
dark	-12.0887
msnbc	-12.0896
▁1975	-12.0898
▁accommodate	-12.0898
▁cockpit	-12.0898
▁consortium	-12.0898
▁impulse	-12.0898
▁oculus	-12.0898
▁paralympic	-12.0898
▁populous	-12.0898
▁rhythm	-12.0898
▁slept	-12.0898
▁unemployed	-12.0898
▁albany	-12.0898
▁linebacker	-12.0898
▁blake	-12.0898
▁cattle	-12.0898
▁pleasant	-12.0898
▁mayhem	-12.0898
▁ghana	-12.0898
▁shallow	-12.0898
patriot	-12.0899
number	-12.0899
▁verified	-12.09
▁liability	-12.09
dream	-12.09
▁rehear	-12.0901
▁tunisian	-12.0902
fidel	-12.0902
▁crooked	-12.0905
▁drunken	-12.0906
▁difficulties	-12.0909
kristen	-12.091
▁sharon	-12.0911
horse	-12.0912
▁monte	-12.0914
gnos	-12.0916
▁ammon	-12.0921
▁gill	-12.0921
▁starred	-12.0926
▁depicted	-12.0939
▁explorer	-12.0942
▁loudly	-12.095
▁strained	-12.0955
cree	-12.0962
▁tender	-12.0963
▁wig	-12.0969
▁leo	-12.0974
▁enroll	-12.0977
nazi	-12.0978
▁superman	-12.0978
▁restraint	-12.0983
▁enthusiast	-12.0984
forming	-12.0988
▁punishing	-12.0991
▁cel	-12.0992
▁fined	-12.0994
▁limbo	-12.0998
▁simulat	-12.0999
▁darker	-12.1001
▁gonzal	-12.1003
compromising	-12.1003
▁approving	-12.1003
▁bastille	-12.1003
▁embedded	-12.1003
▁embroiled	-12.1003
▁felix	-12.1003
▁fingerprint	-12.1003
▁fresno	-12.1003
▁gratitude	-12.1003
▁peanut	-12.1003
[...]
