<unk>	0
<s>	0
</s>	0
▁the	-3.22017
,	-3.39273
s	-3.43159
.	-3.56086
▁a	-3.88661
▁to	-3.95165
▁of	-3.98504
’	-4.04376
▁in	-4.16305
▁and	-4.20512
▁	-4.54215
▁on	-4.82667
▁that	-4.87344
."	-4.88468
▁for	-4.94397
▁is	-5.14086
,"	-5.23174
▁“	-5.29508
▁with	-5.36805
▁was	-5.36836
▁it	-5.41749
ing	-5.50802
t	-5.51445
▁at	-5.52932
▁his	-5.55927
▁he	-5.56224
▁trump	-5.58561
:	-5.61802
▁as	-5.62379
—	-5.65079
▁from	-5.659
ed	-5.6623
▁by	-5.68775
▁”	-5.73831
▁has	-5.7599
▁an	-5.76501
▁said	-5.81982
▁’	-5.86398
▁be	-5.92366
”	-5.92621
▁have	-5.9957
▁are	-6.00703
d	-6.06885
▁who	-6.07797
▁but	-6.08346
,”	-6.12097
▁(	-6.14135
▁this	-6.14281
▁not	-6.18077
▁new	-6.19832
▁about	-6.22223
▁i	-6.22535
▁after	-6.24891
▁her	-6.27549
▁president	-6.2778
)	-6.34366
▁they	-6.35036
▁will	-6.37131
▁their	-6.37244
▁one	-6.39609
a	-6.40302
▁"	-6.41285
▁donald	-6.4642
▁been	-6.46703
▁you	-6.47061
▁had	-6.47483
ly	-6.51453
i	-6.5182
the	-6.53167
▁were	-6.53787
▁more	-6.5418
","	-6.55485
▁she	-6.55519
▁s	-6.57091
▁out	-6.59165
▁Trump	-6.59414
▁its	-6.5948
▁over	-6.59567
▁or	-6.59805
▁people	-6.63482
er	-6.63617
▁we	-6.64009
y	-6.64722
▁up	-6.65945
▁when	-6.68358
▁which	-6.68529
▁would	-6.72956
re	-6.75093
▁first	-6.77149
▁than	-6.77185
▁u	-6.78932
▁into	-6.79238
▁clinton	-6.79431
-	-6.80806
▁what	-6.83575
▁state	-6.84517
▁all	-6.85243
▁two	-6.86592
e	-6.88354
m	-6.9277
▁last	-6.93646
▁[	-6.94938
in	-6.95359
▁just	-6.97103
▁news	-6.98976
▁so	-6.99453
▁can	-7.00912
▁year	-7.01105
▁years	-7.02114
▁house	-7.02948
▁time	-7.04175
▁no	-7.04177
n	-7.0568
▁some	-7.05773
▁there	-7.05904
▁week	-7.06868
▁like	-7.07924
▁campaign	-7.08837
▁The	-7.11512
▁police	-7.12338
▁presidential	-7.12479
▁him	-7.12874
▁if	-7.13615
▁now	-7.14316
?	-7.14714
▁republican	-7.15073
▁most	-7.15696
▁according	-7.16078
▁us	-7.16648
▁could	-7.17718
it	-7.19825
▁other	-7.19959
▁told	-7.20061
▁before	-7.25773
▁obama	-7.262
▁against	-7.26258
▁world	-7.2799
r	-7.2811
es	-7.28209
▁do	-7.28263
al	-7.28612
▁during	-7.29323
▁friday	-7.29557
▁‘	-7.29585
▁tuesday	-7.29624
▁white	-7.29866
▁how	-7.31212
▁A	-7.31582
▁day	-7.3189
▁national	-7.32579
▁former	-7.33072
▁thursday	-7.33683
▁also	-7.33873
cnn	-7.3427
▁election	-7.38052
▁them	-7.38499
▁may	-7.38877
▁hillary	-7.3891
▁states	-7.38996
▁monday	-7.39137
▁city	-7.40005
▁back	-7.4109
▁says	-7.41095
▁american	-7.42082
on	-7.4244
▁our	-7.42571
▁while	-7.42746
▁wednesday	-7.43178
▁man	-7.43225
ve	-7.44727
▁down	-7.4473
▁united	-7.46378
▁country	-7.46459
▁many	-7.47081
▁court	-7.47122
▁my	-7.47714
▁even	-7.48578
▁government	-7.49113
▁made	-7.49175
o	-7.49547
▁where	-7.49896
▁night	-7.50615
▁percent	-7.51598
▁york	-7.52244
▁off	-7.56367
▁get	-7.56647
▁since	-7.56792
▁because	-7.56871
▁million	-7.57446
▁being	-7.59062
th	-7.59311
S	-7.59886
▁show	-7.60304
▁only	-7.60516
▁media	-7.61109
▁party	-7.61413
▁say	-7.62018
▁sunday	-7.63784
▁three	-7.64322
▁federal	-7.64579
▁here	-7.64688
▁company	-7.66581
▁your	-7.66633
▁make	-7.66786
▁me	-7.67199
▁group	-7.6873
▁women	-7.69419
▁home	-7.69616
▁way	-7.69669
▁under	-7.69713
▁political	-7.70914
ers	-7.71203
▁administration	-7.71856
p	-7.72918
▁between	-7.73202
▁saturday	-7.7401
▁those	-7.74749
▁democratic	-7.75291
▁officials	-7.75624
▁through	-7.75817
▁To	-7.76641
▁washington	-7.78213
c	-7.78987
▁around	-7.7899
▁bill	-7.79054
▁public	-7.79513
▁did	-7.80238
an	-7.80385
▁called	-7.80697
▁much	-7.8079
▁law	-7.80956
▁want	-7.81243
we	-7.81332
▁security	-7.81341
▁any	-7.81355
▁department	-7.82111
▁000	-7.82377
▁take	-7.82903
▁should	-7.83182
▁In	-7.83531
▁office	-7.83586
▁de	-7.84205
▁going	-7.84525
▁know	-7.8482
▁america	-7.84959
▁days	-7.85157
▁found	-7.85843
man	-7.86404
▁report	-7.87036
▁don	-7.8712
▁un	-7.87379
▁post	-7.88491
▁part	-7.88751
▁still	-7.88944
▁m	-7.8895
▁go	-7.89266
▁think	-7.90303
▁health	-7.90607
▁attack	-7.91155
▁reported	-7.91634
▁re	-7.91758
le	-7.91971
▁nominee	-7.92856
▁)	-7.92879
▁right	-7.92962
ll	-7.9361
▁next	-7.93697
▁black	-7.94453
▁school	-7.95049
▁including	-7.95205
▁both	-7.95813
▁life	-7.96664
▁2016	-7.96807
▁another	-7.97298
’,"	-7.97345
▁then	-7.97978
▁p	-7.98248
▁deal	-7.98612
▁work	-7.98736
▁month	-8.00202
▁c	-8.00213
▁war	-8.00644
▁vote	-8.00668
ic	-8.00834
▁candidate	-8.01162
▁press	-8.01227
▁north	-8.01316
▁killed	-8.01491
▁very	-8.02361
▁long	-8.02549
▁good	-8.02688
.”	-8.03458
▁Clinton	-8.0355
▁top	-8.03844
or	-8.03891
▁own	-8.03969
▁team	-8.04119
▁family	-8.0466
▁morning	-8.04951
▁times	-8.0552
▁need	-8.05725
▁well	-8.05995
▁took	-8.0625
▁big	-8.06806
▁these	-8.06992
▁statement	-8.07003
▁announced	-8.07039
▁left	-8.0714
▁S	-8.07297
▁death	-8.07397
▁support	-8.07594
▁secretary	-8.07754
▁ago	-8.08027
▁see	-8.08588
▁university	-8.0898
▁Is	-8.09285
▁asked	-8.09373
▁least	-8.09633
▁four	-8.09777
▁woman	-8.09967
▁twitter	-8.10422
k	-8.10429
▁great	-8.10951
f	-8.11281
▁end	-8.1134
▁won	-8.11351
▁video	-8.1154
▁policy	-8.11613
▁few	-8.11895
▁released	-8.13093
▁business	-8.13325
▁senate	-8.13857
▁months	-8.14328
▁past	-8.14855
▁recent	-8.14915
▁chief	-8.15084
▁debate	-8.15087
▁director	-8.16268
▁set	-8.1628
▁came	-8.16498
▁men	-8.16716
▁case	-8.16801
l	-8.18091
▁care	-8.18236
en	-8.18363
▁U	-8.18468
▁come	-8.1884
▁such	-8.18868
▁south	-8.18893
▁might	-8.18919
▁executive	-8.18939
▁interview	-8.19423
ion	-8.19753
u	-8.19799
▁general	-8.1982
▁high	-8.19957
▁10	-8.20602
▁major	-8.20712
▁committee	-8.20773
▁whether	-8.2117
▁billion	-8.2129
g	-8.21321
▁help	-8.21342
▁order	-8.21693
el	-8.2178
▁use	-8.21935
▁across	-8.22319
▁plan	-8.22544
▁far	-8.22575
as	-8.22598
▁place	-8.23193
▁win	-8.23283
▁car	-8.23493
▁early	-8.23502
▁never	-8.23758
▁second	-8.2403
▁john	-8.24324
▁reports	-8.24375
▁every	-8.24492
▁republicans	-8.2462
h	-8.25181
▁used	-8.25261
▁best	-8.25921
▁among	-8.26037
▁got	-8.26404
▁why	-8.27071
▁voters	-8.272
▁cnn	-8.27909
▁change	-8.27929
▁speech	-8.28709
▁history	-8.28873
▁sanders	-8.29083
▁several	-8.29327
▁russia	-8.29534
▁russian	-8.30167
▁story	-8.30173
▁known	-8.3018
▁military	-8.30849
▁americans	-8.31147
▁cruz	-8.3148
▁five	-8.31495
▁Donald	-8.31831
b	-8.31864
▁put	-8.31937
▁same	-8.32377
▁Of	-8.32492
▁investigation	-8.32664
▁today	-8.32813
▁look	-8.32897
▁away	-8.3311
▁gop	-8.33136
▁star	-8.33333
▁nearly	-8.33379
▁race	-8.33488
▁leader	-8.33585
▁too	-8.33606
▁saying	-8.33606
ity	-8.33915
▁social	-8.3407
▁members	-8.3423
▁justice	-8.34481
▁children	-8.3461
▁become	-8.35493
▁latest	-8.35621
▁sen	-8.35643
▁j	-8.3569
▁little	-8.35738
▁breitbart	-8.36004
▁mr	-8.36047
▁decision	-8.36128
▁didn	-8.37062
▁k	-8.37313
▁nation	-8.37488
▁head	-8.37776
▁without	-8.37957
to	-8.38172
▁5	-8.38208
▁call	-8.38913
▁number	-8.3896
▁yet	-8.39293
▁judge	-8.39416
▁d	-8.39462
▁ever	-8.39715
▁foreign	-8.40051
▁live	-8.40069
▁street	-8.40122
ist	-8.4028
able	-8.40347
▁again	-8.40585
▁democrats	-8.40684
A	-8.41031
la	-8.41069
at	-8.41075
▁died	-8.41183
▁official	-8.41196
▁really	-8.4187
he	-8.41914
▁2	-8.41957
is	-8.42957
▁shot	-8.43021
▁lot	-8.43165
▁New	-8.43167
▁power	-8.43192
▁immigration	-8.43244
▁Obama	-8.43312
▁already	-8.43544
▁real	-8.43559
?,"	-8.43668
▁fox	-8.43714
▁minister	-8.44022
▁act	-8.44067
▁center	-8.44069
ar	-8.44122
▁things	-8.44133
▁name	-8.44198
▁young	-8.44217
▁congress	-8.44219
▁fbi	-8.44294
▁international	-8.44449
▁season	-8.44638
▁making	-8.4472
▁For	-8.44798
▁game	-8.4481
▁email	-8.44854
!	-8.45051
▁series	-8.45159
▁something	-8.45177
▁behind	-8.45388
ment	-8.45703
▁near	-8.45724
▁later	-8.45972
▁face	-8.46015
▁wall	-8.46081
▁host	-8.46289
▁o	-8.46297
▁20	-8.47071
▁california	-8.47137
▁went	-8.4715
▁move	-8.47386
▁late	-8.4777
▁march	-8.47952
▁hours	-8.48003
▁meeting	-8.48377
▁intelligence	-8.48693
▁texas	-8.49009
▁money	-8.49325
▁less	-8.49913
no	-8.50031
▁please	-8.50098
▁hit	-8.50302
▁system	-8.50375
▁air	-8.50468
▁conservative	-8.50695
▁I	-8.50867
▁local	-8.51104
▁officer	-8.51225
▁fire	-8.51251
▁facebook	-8.51257
▁conference	-8.51274
▁barack	-8.51309
ive	-8.51859
if	-8.51883
▁likely	-8.52241
▁agency	-8.52396
▁1	-8.52454
▁following	-8.52589
▁dead	-8.52699
▁question	-8.52816
▁seen	-8.52952
▁gun	-8.52982
washington	-8.5299
▁run	-8.53088
,"’	-8.5326
ia	-8.53389
this	-8.53662
ation	-8.53689
▁union	-8.53812
▁market	-8.5385
ry	-8.54019
▁control	-8.54087
un	-8.54221
▁earlier	-8.54549
▁service	-8.5464
▁F	-8.54659
▁china	-8.5488
▁close	-8.55097
▁six	-8.55464
▁stop	-8.55701
▁islamic	-8.5575
▁job	-8.56042
w	-8.56246
▁information	-8.56472
▁pay	-8.56502
▁attorney	-8.56583
▁How	-8.56678
il	-8.56763
▁point	-8.56788
▁once	-8.5683
▁does	-8.56887
▁lead	-8.56901
▁began	-8.57576
▁tax	-8.5775
▁ads	-8.57976
ch	-8.58227
▁clear	-8.58359
ate	-8.58451
▁final	-8.58545
co	-8.586
▁weeks	-8.58874
▁rights	-8.58902
ne	-8.58962
▁supreme	-8.58982
▁3	-8.59011
▁james	-8.5913
▁each	-8.59202
▁himself	-8.59222
▁authorities	-8.59319
▁trade	-8.5935
▁ban	-8.59549
▁taking	-8.59797
▁Hillary	-8.59889
▁open	-8.59944
▁leaders	-8.60003
▁attacks	-8.60182
am	-8.60211
▁f	-8.60423
and	-8.60425
I	-8.60617
▁politics	-8.60623
▁global	-8.6069
▁shooting	-8.60814
▁officers	-8.60977
x	-8.61099
ta	-8.61409
▁trying	-8.61449
▁border	-8.61504
▁expected	-8.61741
▁comes	-8.61747
te	-8.61757
▁thing	-8.61767
▁weekend	-8.61788
▁event	-8.62032
▁book	-8.62125
▁continue	-8.62147
▁economic	-8.62409
▁florida	-8.62706
▁Be	-8.62824
▁students	-8.63001
ian	-8.63112
ton	-8.63126
▁west	-8.63241
ur	-8.63262
▁daily	-8.63295
▁doesn	-8.6374
▁county	-8.63841
est	-8.63894
▁shows	-8.64104
▁companies	-8.64136
▁primary	-8.64137
▁free	-8.64412
▁Re	-8.64579
▁better	-8.6466
▁almost	-8.647
▁record	-8.6523
▁wrote	-8.65446
less	-8.65714
▁keep	-8.65873
▁w	-8.65972
ling	-8.65998
▁working	-8.661
▁private	-8.66141
▁san	-8.66417
▁though	-8.66477
▁outside	-8.66561
▁college	-8.66671
▁town	-8.66687
▁human	-8.66739
▁european	-8.67067
▁small	-8.67112
ism	-8.67421
▁n	-8.6751
▁until	-8.67578
▁countries	-8.67578
▁water	-8.67741
▁future	-8.67814
▁find	-8.68001
▁st	-8.68052
ter	-8.68539
▁start	-8.68811
▁poll	-8.68892
▁On	-8.6937
ent	-8.69656
▁fight	-8.69749
▁old	-8.69756
▁convention	-8.69975
▁paul	-8.70091
C	-8.70134
▁la	-8.70187
ul	-8.70195
ce	-8.70238
▁stories	-8.71002
▁running	-8.71012
P	-8.71044
▁getting	-8.71083
▁taken	-8.71135
us	-8.71281
▁love	-8.7177
▁arrested	-8.71807
▁legal	-8.72055
▁plans	-8.72087
▁let	-8.72196
▁person	-8.72211
▁data	-8.72388
▁co	-8.72406
▁syria	-8.72495
▁sources	-8.72503
▁issue	-8.72507
one	-8.72639
mo	-8.72659
▁having	-8.72786
na	-8.72807
▁along	-8.72885
▁victory	-8.73302
▁film	-8.7341
ant	-8.73693
id	-8.73983
▁4	-8.74018
ish	-8.74049
▁financial	-8.7416
▁key	-8.74189
▁special	-8.74254
▁P	-8.74259
▁whose	-8.74526
▁program	-8.74623
▁carolina	-8.74656
▁7	-8.74784
▁hard	-8.74802
▁b	-8.74929
▁biggest	-8.75127
▁supporters	-8.75216
▁held	-8.75221
son	-8.75386
▁believe	-8.75439
▁It	-8.75603
▁matter	-8.75662
▁talk	-8.757
▁enough	-8.75784
▁senior	-8.75807
B	-8.75809
ri	-8.75984
▁receive	-8.76157
▁C	-8.76271
▁per	-8.76275
▁different	-8.76319
▁questions	-8.76416
▁using	-8.76746
ie	-8.76784
▁follow	-8.7706
▁line	-8.77063
▁recently	-8.77122
▁e	-8.77166
▁[“	-8.77301
▁thousands	-8.77659
▁accused	-8.77693
▁bank	-8.77749
ir	-8.77841
ma	-8.77946
▁mother	-8.78114
ted	-8.78215
▁often	-8.78395
▁8	-8.78856
▁ryan	-8.78871
▁led	-8.78873
▁governor	-8.78955
▁And	-8.79154
▁defense	-8.7924
▁force	-8.79403
▁father	-8.79518
▁side	-8.79623
▁published	-8.79681
▁give	-8.80094
▁fact	-8.80138
▁lives	-8.80174
▁bad	-8.80333
▁g	-8.80379
▁online	-8.80466
M	-8.80495
▁am	-8.80616
▁prime	-8.80662
▁6	-8.80743
▁capital	-8.80755
▁thought	-8.80854
▁front	-8.80868
▁9	-8.81017
▁senator	-8.81045
▁lost	-8.81073
▁despite	-8.81245
▁com	-8.81554
▁With	-8.81613
▁full	-8.81667
▁son	-8.81721
▁leave	-8.81725
▁process	-8.8173
▁started	-8.81759
age	-8.81771
5	-8.81962
▁release	-8.82319
▁others	-8.82322
▁role	-8.8247
ness	-8.8262
▁east	-8.82665
▁coming	-8.82737
▁always	-8.82783
▁wife	-8.82968
▁food	-8.83074
▁100	-8.83081
▁tv	-8.83584
▁ted	-8.83618
▁T	-8.83672
▁network	-8.83876
▁partners	-8.83885
▁michael	-8.84353
▁comey	-8.84419
▁seven	-8.84516
▁park	-8.84522
▁drug	-8.84546
▁kind	-8.84844
▁nomination	-8.84976
▁actually	-8.85019
4	-8.85314
▁rally	-8.85332
▁below	-8.85409
▁forces	-8.85672
ine	-8.85979
▁bernie	-8.86122
2	-8.86186
▁What	-8.86312
▁isn	-8.86568
▁district	-8.86628
T	-8.86842
▁student	-8.86907
▁list	-8.87123
▁looking	-8.87144
▁sent	-8.87248
▁important	-8.87251
▁response	-8.87353
▁prison	-8.87426
▁board	-8.87485
▁turned	-8.87526
▁course	-8.87559
▁instead	-8.87977
▁possible	-8.88034
ke	-8.88142
▁jobs	-8.88151
▁moment	-8.88177
▁korea	-8.88177
ful	-8.88239
▁sexual	-8.88278
▁Why	-8.88465
▁11	-8.88538
v	-8.88587
ty	-8.88739
▁community	-8.88843
▁economy	-8.88883
▁con	-8.88904
▁building	-8.88921
▁action	-8.89133
ap	-8.89337
▁charges	-8.89375
▁bring	-8.89532
▁must	-8.89533
▁room	-8.8956
▁mexico	-8.89799
▁claims	-8.90178
▁central	-8.90183
▁charged	-8.9023
ies	-8.90728
▁writing	-8.90812
et	-8.90888
▁became	-8.91008
▁decades	-8.9114
▁read	-8.91187
de	-8.91265
me	-8.91374
▁industry	-8.91585
▁oil	-8.91753
▁sex	-8.91811
▁problem	-8.9186
▁david	-8.9187
▁ahead	-8.91891
z	-8.91959
mp	-8.91993
▁january	-8.9216
▁15	-8.92225
▁half	-8.92353
▁largest	-8.92543
▁chairman	-8.92638
▁De	-8.92643
▁third	-8.92748
up	-8.92987
▁murder	-8.93022
▁syrian	-8.93028
▁play	-8.93135
▁updates	-8.93176
per	-8.93264
rs	-8.93288
lo	-8.93307
▁afternoon	-8.93356
ting	-8.93603
▁middle	-8.93619
▁inside	-8.93648
▁staff	-8.93752
▁obamacare	-8.93896
▁D	-8.9425
▁rep	-8.94298
▁B	-8.94663
▁reporters	-8.94729
▁study	-8.94755
se	-8.94756
▁le	-8.94799
▁cut	-8.94879
▁E	-8.95173
▁mark	-8.95427
▁workers	-8.95482
▁doing	-8.95517
▁confirmed	-8.95531
▁climate	-8.95637
▁evidence	-8.95691
▁met	-8.95917
?”	-8.95944
▁message	-8.95975
▁member	-8.96031
▁battle	-8.96047
▁calling	-8.96093
▁november	-8.96228
▁summer	-8.96282
▁House	-8.96443
▁letter	-8.96447
ro	-8.96595
?"	-8.96618
there	-8.96639
ra	-8.9681
land	-8.96837
▁violence	-8.96948
▁sign	-8.97052
▁presidency	-8.9731
▁candidates	-8.97434
▁child	-8.97451
▁issues	-8.97619
▁gov	-8.97623
▁enforcement	-8.97676
▁travel	-8.97699
▁killing	-8.97717
▁body	-8.97757
▁50	-8.97844
▁12	-8.97854
▁british	-8.97947
▁super	-8.98135
ad	-8.98155
▁area	-8.98156
▁hand	-8.98194
▁view	-8.98406
▁hospital	-8.98413
▁april	-8.98427
▁given	-8.98552
▁los	-8.98823
▁comments	-8.99006
▁wants	-8.99011
▁30	-8.99266
▁music	-8.99327
▁space	-8.99336
▁popular	-8.99625
▁large	-8.99648
▁Are	-8.99841
▁tell	-8.99919
▁june	-8.99983
▁research	-9.00126
▁assault	-9.0015
▁green	-9.00296
j	-9.00376
▁personal	-9.00394
▁together	-9.00487
1	-9.00605
ley	-9.0079
▁GOP	-9.00853
be	-9.0086
▁evening	-9.00878
▁heart	-9.00903
▁short	-9.00933
▁apple	-9.01149
for	-9.01173
▁rubio	-9.01333
▁protest	-9.01422
you	-9.01465
ated	-9.01486
Trump	-9.01521
▁soon	-9.01522
E	-9.01655
▁added	-9.0201
▁wanted	-9.02047
led	-9.02062
▁appeared	-9.02372
▁london	-9.0239
▁turn	-9.02416
▁steps	-9.02555
▁fall	-9.02576
▁angeles	-9.02863
▁19	-9.02943
▁price	-9.03
▁G	-9.03126
▁crisis	-9.03286
▁friends	-9.03449
ance	-9.03515
▁words	-9.03762
▁posted	-9.03789
▁civil	-9.0388
▁sponsors	-9.03884
▁within	-9.0409
ol	-9.04095
▁phone	-9.04423
▁wasn	-9.045
▁nuclear	-9.04549
when	-9.04554
▁effort	-9.04583
▁display	-9.04597
▁illegal	-9.04637
ating	-9.04703
▁Will	-9.0475
The	-9.04757
▁received	-9.04848
▁however	-9.04952
ge	-9.05061
▁done	-9.05075
▁leading	-9.05147
do	-9.05192
our	-9.05281
li	-9.05301
▁red	-9.05498
▁gave	-9.05506
ous	-9.05741
▁muslim	-9.0585
▁address	-9.05894
ized	-9.0596
▁happened	-9.0597
▁adviser	-9.06029
▁speaker	-9.06037
▁toward	-9.0607
F	-9.0622
7	-9.06223
▁US	-9.0685
▁idea	-9.06854
▁potential	-9.06938
▁isis	-9.07018
▁showed	-9.07042
▁criminal	-9.07081
▁ceo	-9.07086
▁organization	-9.07199
▁movie	-9.07509
▁Not	-9.07523
▁interest	-9.07591
▁groups	-9.07659
▁nothing	-9.07986
▁dis	-9.08019
▁saw	-9.08047
▁crowd	-9.08234
▁congressional	-9.08423
▁terrorist	-9.08444
▁iran	-9.08559
▁movement	-9.08661
▁v	-9.08864
▁spent	-9.08934
▁tried	-9.09067
out	-9.09181
▁sales	-9.09426
▁july	-9.09752
▁bush	-9.09762
▁majority	-9.09854
▁bar	-9.09891
▁review	-9.09897
▁18	-9.10055
▁reportedly	-9.10125
ary	-9.10282
▁wrong	-9.10317
▁based	-9.10388
▁vice	-9.10409
▁eight	-9.10497
▁girl	-9.10658
▁...	-9.10675
▁current	-9.10875
▁age	-9.11021
▁This	-9.11524
▁europe	-9.11558
▁couple	-9.11666
▁filed	-9.11666
▁heard	-9.11747
▁daughter	-9.118
▁named	-9.11899
im	-9.11937
▁medical	-9.12018
▁failed	-9.12068
ba	-9.12597
▁threat	-9.12676
▁mike	-9.12785
▁annual	-9.13086
▁site	-9.13169
▁crime	-9.13268
▁reason	-9.13348
▁editor	-9.13568
▁finally	-9.13713
3	-9.13734
8	-9.13776
▁stock	-9.13863
tic	-9.13869
▁budget	-9.13883
▁After	-9.13902
▁field	-9.13979
▁internet	-9.14046
▁sea	-9.1405
▁access	-9.14132
▁island	-9.14155
▁services	-9.14167
▁mayor	-9.14254
▁ground	-9.14301
▁test	-9.14337
▁parents	-9.144
▁share	-9.14453
D	-9.14482
▁stage	-9.14487
▁State	-9.14593
▁education	-9.14622
▁fired	-9.14689
ner	-9.14741
▁television	-9.14743
▁rules	-9.14825
▁living	-9.14839
▁single	-9.14862
▁select	-9.15041
▁lawsuit	-9.15065
▁makes	-9.15248
▁watch	-9.15261
▁source	-9.15273
▁calls	-9.15305
▁someone	-9.15419
▁brought	-9.15448
▁mass	-9.1549
▁career	-9.15652
▁He	-9.15679
▁radio	-9.15757
▁george	-9.15869
ka	-9.15897
ow	-9.15938
▁feel	-9.15952
▁firm	-9.16115
▁cost	-9.16313
▁position	-9.16316
▁results	-9.16358
▁claimed	-9.16388
▁incident	-9.16431
▁White	-9.16434
▁growing	-9.16436
▁claim	-9.16609
▁hold	-9.16784
▁America	-9.16811
ny	-9.16872
▁seems	-9.16877
▁agreement	-9.16937
▁minutes	-9.16938
vi	-9.16956
▁technology	-9.17035
▁points	-9.17702
ci	-9.17839
▁M	-9.17851
▁light	-9.17885
ca	-9.17937
▁boy	-9.18007
va	-9.18384
▁britain	-9.18414
▁rise	-9.18548
▁step	-9.18622
▁inc	-9.18636
▁planned	-9.18649
go	-9.18658
▁revealed	-9.18726
▁iraq	-9.18942
▁everyone	-9.19042
ga	-9.19105
pe	-9.1915
▁french	-9.19478
▁hundreds	-9.19595
▁Over	-9.19648
0	-9.19664
▁class	-9.19665
▁due	-9.19813
▁described	-9.1996
▁spokesman	-9.20006
▁secret	-9.20239
9	-9.20256
▁themselves	-9.20289
ah	-9.2038
6	-9.20563
▁husband	-9.20632
les	-9.20649
▁hearing	-9.20666
▁employees	-9.21083
▁policies	-9.21206
▁visit	-9.21219
▁amid	-9.21276
▁Can	-9.21325
▁station	-9.21328
▁efforts	-9.2168
▁reporter	-9.21681
▁alleged	-9.21706
▁millions	-9.21797
▁anything	-9.219
▁strong	-9.21992
▁emails	-9.22126
▁hope	-9.22166
▁We	-9.22173
ut	-9.22324
▁pick	-9.22373
ver	-9.22387
▁miles	-9.22431
con	-9.22453
▁talking	-9.22481
▁suspect	-9.22539
▁rate	-9.22573
▁speaking	-9.22604
▁means	-9.22618
▁terror	-9.22837
▁account	-9.2287
po	-9.22944
▁2015	-9.22992
▁female	-9.23006
▁decided	-9.23107
▁bid	-9.23144
▁able	-9.23145
▁growth	-9.23205
▁ba	-9.23276
dy	-9.23401
▁polls	-9.23511
▁ohio	-9.23654
▁return	-9.23701
▁immigrants	-9.23857
▁victims	-9.23935
ally	-9.23959
president	-9.24123
▁everything	-9.24136
In	-9.24146
▁low	-9.24221
▁trip	-9.24228
▁club	-9.24247
▁stand	-9.24247
ak	-9.24292
▁allegedly	-9.24396
▁al	-9.24562
▁passed	-9.2458
▁40	-9.24666
’","	-9.24743
▁signed	-9.24814
▁protesters	-9.24888
▁land	-9.25078
▁blocking	-9.25179
▁manager	-9.25251
▁chicago	-9.25282
▁channel	-9.25318
O	-9.25339
ber	-9.2534
▁pro	-9.25513
▁t	-9.25547
▁coast	-9.2574
▁sure	-9.25793
my	-9.25813
donald	-9.25937
▁airport	-9.25985
▁break	-9.26117
▁spending	-9.26353
▁na	-9.26419
▁buy	-9.26477
▁From	-9.26649
▁No	-9.26726
▁friend	-9.26763
▁lawmakers	-9.26796
▁fund	-9.26805
▁1,	-9.26875
▁rival	-9.26911
▁tech	-9.26923
▁energy	-9.2695
▁repeal	-9.27011
▁r	-9.27066
lu	-9.27122
▁probably	-9.27131
▁O	-9.27295
▁voted	-9.27331
▁spoke	-9.27423
▁iowa	-9.27443
ex	-9.27508
ster	-9.27633
▁longer	-9.27654
▁hall	-9.27865
▁attention	-9.2793
▁rather	-9.27935
▁project	-9.27961
▁france	-9.28057
▁flight	-9.28107
▁massive	-9.28124
▁leaving	-9.28302
!”	-9.28358
▁website	-9.28378
▁trial	-9.28384
▁israel	-9.28396
▁rock	-9.28403
▁further	-9.28487
ize	-9.28577
▁southern	-9.2861
ig	-9.28648
▁church	-9.2878
▁mean	-9.28824
▁voting	-9.28924
▁author	-9.28948
▁mo	-9.29051
▁events	-9.29105
▁fans	-9.29139
▁cities	-9.29324
▁serious	-9.29379
▁article	-9.29404
▁itself	-9.29407
▁council	-9.29481
▁13	-9.2976
▁Russia	-9.29947
▁About	-9.30046
ho	-9.30082
nd	-9.30098
▁science	-9.3013
▁concerns	-9.30297
▁meet	-9.303
▁comment	-9.30373
▁extension	-9.30424
▁risk	-9.30551
▁foundation	-9.30604
ler	-9.30609
▁issued	-9.30641
▁offer	-9.30907
▁true	-9.30928
▁february	-9.30993
em	-9.31137
▁army	-9.31264
▁ma	-9.31582
▁rest	-9.31671
▁choice	-9.31677
▁You	-9.31738
▁2017	-9.31774
▁virginia	-9.31794
▁reality	-9.31816
io	-9.31926
▁scene	-9.32419
▁coverage	-9.32542
▁injured	-9.32593
um	-9.32737
▁’’	-9.32739
▁nations	-9.32795
▁level	-9.32862
▁try	-9.32969
▁raised	-9.33016
so	-9.33111
▁Ex	-9.33235
▁investors	-9.33276
▁democrat	-9.33502
ac	-9.33531
▁magazine	-9.33565
▁especially	-9.3376
▁President	-9.33824
▁documents	-9.33848
▁details	-9.3385
▁pence	-9.33871
▁chance	-9.33874
▁king	-9.3389
▁launched	-9.33924
▁gay	-9.34103
line	-9.34185
▁rose	-9.34185
ey	-9.34243
G	-9.3427
▁road	-9.34321
▁That	-9.34355
▁paris	-9.34377
da	-9.34382
▁sports	-9.34399
▁december	-9.34481
▁stay	-9.34496
▁14	-9.34585
ten	-9.34676
by	-9.34707
▁dr	-9.34723
▁paid	-9.34824
ning	-9.34826
▁declared	-9.34863
▁bit	-9.34955
▁reuters	-9.35082
▁Bill	-9.35213
▁billionaire	-9.35325
▁votes	-9.35405
▁N	-9.35601
▁Who	-9.35645
▁shares	-9.35678
▁word	-9.35782
▁helped	-9.35947
▁ho	-9.35991
▁fell	-9.36038
▁h	-9.36101
▁At	-9.36194
▁forward	-9.36274
▁worth	-9.36304
▁term	-9.36315
▁anyone	-9.36351
▁games	-9.36359
all	-9.36406
▁labor	-9.36417
▁answer	-9.36457
▁cash	-9.36633
▁note	-9.36705
▁attempt	-9.36735
▁controversial	-9.36756
▁allow	-9.36791
▁worked	-9.36824
▁sessions	-9.36936
▁region	-9.36978
▁quickly	-9.37013
▁pre	-9.3707
▁manhattan	-9.37078
▁cover	-9.37198
▁immediately	-9.37202
▁H	-9.37259
▁chris	-9.37326
▁art	-9.37382
▁li	-9.37429
▁takes	-9.37446
▁hollywood	-9.37483
▁winning	-9.37579
▁refugees	-9.37647
▁include	-9.37748
▁chinese	-9.3789
min	-9.37917
▁result	-9.37985
▁remain	-9.38105
▁perhaps	-9.38161
▁brown	-9.38368
▁scandal	-9.38376
▁app	-9.38453
▁huge	-9.38485
▁talks	-9.38497
▁performance	-9.38508
▁cause	-9.38543
▁german	-9.38589
▁total	-9.38597
▁Out	-9.38649
▁photo	-9.38683
▁freedom	-9.38775
▁jeff	-9.38925
op	-9.39039
▁goes	-9.39106
▁store	-9.39115
▁mar	-9.3922
▁giant	-9.39268
L	-9.39315
di	-9.39384
▁residents	-9.39462
men	-9.3952
▁jersey	-9.39605
▁Says	-9.39694
▁seem	-9.39728
▁league	-9.39743
▁cast	-9.3988
▁appears	-9.39901
ep	-9.39908
▁elected	-9.39949
▁25	-9.40072
▁kids	-9.40084
▁storm	-9.40125
▁Un	-9.40233
▁build	-9.4024
▁mind	-9.40302
▁base	-9.40404
▁et	-9.40438
hi	-9.40442
▁Man	-9.40443
▁17	-9.40573
▁tweet	-9.40598
▁putin	-9.40661
▁associated	-9.40699
way	-9.40754
▁reach	-9.40758
▁hands	-9.40848
▁ca	-9.41003
▁quarter	-9.41047
▁opposition	-9.41069
▁tells	-9.41162
▁worst	-9.4118
▁created	-9.41205
▁W	-9.41234
ard	-9.41264
▁ended	-9.4127
▁families	-9.4142
▁500	-9.4148
▁birth	-9.41502
▁fear	-9.41621
▁hear	-9.4173
▁fighting	-9.41752
▁ad	-9.41772
▁lower	-9.4182
▁played	-9.41907
ot	-9.41919
▁understand	-9.42021
▁cases	-9.42035
▁looks	-9.42056
new	-9.42069
▁born	-9.42071
▁nbc	-9.42239
ence	-9.42434
▁opened	-9.42624
▁Do	-9.4266
what	-9.42762
▁rule	-9.42769
▁turkey	-9.42806
▁september	-9.42863
▁culture	-9.4297
▁google	-9.43072
▁pressure	-9.43082
▁ra	-9.43238
▁insurance	-9.43294
R	-9.4334
ni	-9.43364
▁North	-9.43422
▁fellow	-9.43495
▁page	-9.43517
▁V	-9.43665
▁common	-9.43711
▁familiar	-9.43774
▁involved	-9.43873
▁hotel	-9.43912
tion	-9.43918
▁professor	-9.43949
over	-9.43971
▁piece	-9.43972
▁ex	-9.4406
▁facing	-9.4421
▁audience	-9.44279
▁en	-9.44303
▁His	-9.44305
▁plane	-9.44319
▁identified	-9.44364
▁learned	-9.44406
ill	-9.44421
▁safety	-9.44508
▁Up	-9.44549
▁continued	-9.44578
▁experience	-9.44583
▁opening	-9.44634
▁charge	-9.4464
▁legislation	-9.44641
▁relationship	-9.44847
▁hill	-9.44983
▁robert	-9.44986
▁nine	-9.45059
▁consider	-9.4506
▁train	-9.45139
▁exchange	-9.45342
mon	-9.45406
▁asking	-9.45467
▁sense	-9.45504
▁hot	-9.45658
▁estate	-9.4568
ha	-9.45916
▁mexican	-9.45999
▁lo	-9.461
▁terrorism	-9.46106
▁ro	-9.46143
▁written	-9.46273
▁voice	-9.46307
▁protect	-9.46349
▁join	-9.46366
▁2016,	-9.46373
▁multiple	-9.46377
▁forced	-9.46399
red	-9.46438
▁pass	-9.46497
▁K	-9.46537
▁push	-9.46567
▁commission	-9.46758
▁giving	-9.46788
▁eastern	-9.46789
▁similar	-9.468
▁protests	-9.46988
ee	-9.47002
well	-9.47017
let	-9.4702
ger	-9.47063
▁powerful	-9.47069
▁offered	-9.47184
▁football	-9.47223
▁16	-9.47234
▁ask	-9.47304
ct	-9.47397
▁decade	-9.47412
▁focus	-9.47506
▁seemed	-9.47593
▁bo	-9.47763
▁1.	-9.47859
▁reform	-9.47875
▁peace	-9.47922
ney	-9.48001
▁previous	-9.48124
▁remains	-9.48158
▁replace	-9.48183
▁weapons	-9.4846
▁else	-9.48512
▁transition	-9.48514
den	-9.48538
▁liberal	-9.48553
ier	-9.48582
mar	-9.48641
▁increase	-9.48677
▁august	-9.48835
▁criticism	-9.48882
▁germany	-9.48943
▁tweeted	-9.49097
lin	-9.49102
▁entire	-9.49109
▁experts	-9.49124
▁gas	-9.49222
▁Cruz	-9.49254
▁launch	-9.49279
▁beat	-9.49301
▁announcement	-9.49345
▁development	-9.4935
▁pa	-9.49352
▁either	-9.49466
▁main	-9.49505
der	-9.4951
om	-9.49539
▁currently	-9.49551
▁western	-9.49606
▁scientists	-9.49607
▁model	-9.49694
▁stephen	-9.497
▁apparently	-9.49752
▁users	-9.49764
▁sell	-9.49827
▁citizens	-9.4987
▁francisco	-9.49877
▁agreed	-9.49981
▁hate	-9.49984
▁discuss	-9.50011
▁prices	-9.50022
▁johnson	-9.50083
▁whole	-9.50126
▁begin	-9.50196
▁bannon	-9.50254
▁cancer	-9.50408
▁inauguration	-9.50484
▁bomb	-9.50524
▁gone	-9.50558
▁gold	-9.50712
▁october	-9.50715
ck	-9.50929
▁allegations	-9.50938
▁joe	-9.50991
▁images	-9.51013
▁problems	-9.511
▁average	-9.51181
▁included	-9.51207
▁title	-9.51264
▁round	-9.51281
▁l	-9.51303
pp	-9.51323
▁version	-9.51414
▁joined	-9.51464
▁showing	-9.51471
"	-9.51473
▁saudi	-9.51493
▁floor	-9.51569
▁pic	-9.51576
▁journal	-9.51605
▁fashion	-9.51608
▁northern	-9.51804
▁ties	-9.51812
▁strike	-9.51838
▁create	-9.51893
▁numbers	-9.51895
▁players	-9.51898
▁surprise	-9.51999
H	-9.52
▁playing	-9.52059
▁probe	-9.524
▁independent	-9.52509
▁drop	-9.52511
▁warned	-9.52542
ious	-9.52567
▁newspaper	-9.52588
▁ruling	-9.52597
▁remarks	-9.52647
they	-9.52698
W	-9.52785
▁search	-9.52834
▁beach	-9.529
▁track	-9.52905
iv	-9.52952
old	-9.53007
▁armed	-9.53008
▁actor	-9.53117
▁brand	-9.53129
ron	-9.53189
ven	-9.53236
▁missile	-9.53311
but	-9.53316
▁broadcast	-9.5333
▁founder	-9.53352
▁needed	-9.53367
▁form	-9.53555
▁certain	-9.53633
▁flynn	-9.53697
▁ben	-9.53726
N	-9.53783
▁St	-9.53831
▁marco	-9.5395
▁J	-9.54034
▁Have	-9.54084
▁disease	-9.5415
▁changed	-9.54179
▁gets	-9.54184
▁provide	-9.54413
that	-9.54537
▁pretty	-9.54557
▁baby	-9.54589
▁knew	-9.54603
▁broke	-9.54639
▁square	-9.54738
▁ambassador	-9.54818
▁century	-9.54818
▁higher	-9.54833
ham	-9.54836
▁affordable	-9.54846
▁exactly	-9.54853
▁Sanders	-9.54969
▁previously	-9.54976
kin	-9.55051
▁period	-9.5506
▁npr	-9.55146
▁driver	-9.55365
lan	-9.55494
▁kill	-9.55567
she	-9.55595
ial	-9.55602
off	-9.55611
▁reached	-9.55621
▁chair	-9.55678
▁pe	-9.55686
▁loss	-9.55862
▁explained	-9.55929
▁cars	-9.55953
▁blue	-9.55971
ud	-9.55976
▁ready	-9.56035
▁24	-9.56062
▁Report	-9.56089
▁2014	-9.56142
▁abortion	-9.56205
vo	-9.56296
▁success	-9.56298
▁Was	-9.56338
▁Court	-9.56443
▁example	-9.56443
▁An	-9.56504
▁Pro	-9.56531
▁lawyer	-9.56638
▁deep	-9.56647
presumptive	-9.56935
▁warning	-9.56961
not	-9.57013
▁felt	-9.5727
▁American	-9.57278
▁needs	-9.57376
▁camp	-9.5751
▁caught	-9.57514
K	-9.5757
▁”[	-9.57574
▁remember	-9.57587
▁protection	-9.57635
▁religious	-9.57652
▁pennsylvania	-9.57694
▁seat	-9.57754
▁leadership	-9.57782
▁campus	-9.57791
▁investment	-9.57852
▁conservatives	-9.57874
▁proposed	-9.57881
▁whom	-9.58034
▁China	-9.58104
▁figure	-9.58152
▁suggested	-9.58194
sh	-9.5826
▁News	-9.58365
▁send	-9.58494
▁Police	-9.58503
▁eu	-9.58506
▁picture	-9.5858
bb	-9.58607
▁caused	-9.58623
▁emergency	-9.58762
▁above	-9.58763
izing	-9.58791
ical	-9.58874
▁vi	-9.58879
▁allowed	-9.58938
▁dozens	-9.59008
▁significant	-9.59052
▁kelly	-9.59182
back	-9.59187
▁apartment	-9.59275
▁feet	-9.59341
▁el	-9.59433
▁So	-9.59444
▁episode	-9.59657
▁hour	-9.59694
▁jail	-9.59789
▁suicide	-9.59829
▁standing	-9.59839
▁subject	-9.59855
▁happen	-9.59925
▁$1	-9.59948
bi	-9.60057
▁seeking	-9.60102
▁platform	-9.60111
▁sheriff	-9.60111
▁suit	-9.60165
▁holding	-9.60287
▁looked	-9.60399
▁More	-9.60468
▁missing	-9.60656
▁parties	-9.60701
▁lack	-9.60761
▁simple	-9.60794
▁dropped	-9.608
▁arrest	-9.60885
▁particularly	-9.609
▁rates	-9.60972
▁ways	-9.61026
▁21	-9.61057
▁request	-9.61068
▁owner	-9.6113
▁survey	-9.61222
▁dangerous	-9.61248
▁brief	-9.61274
▁wake	-9.61404
▁band	-9.61437
uff	-9.61496
▁block	-9.61571
▁uber	-9.61607
▁arrived	-9.61643
mer	-9.61698
▁speak	-9.6172
ward	-9.61728
▁considered	-9.61798
ped	-9.61812
▁situation	-9.61824
▁tower	-9.61872
▁faces	-9.6188
▁Has	-9.61889
▁York	-9.61997
▁victim	-9.62016
▁moving	-9.62175
▁discovered	-9.62179
▁coach	-9.62196
▁scott	-9.6222
▁Here	-9.62256
▁followed	-9.62278
▁abuse	-9.62286
pi	-9.62302
▁activists	-9.62335
▁guilty	-9.62353
▁60	-9.62536
▁quite	-9.6257
que	-9.6259
▁mis	-9.62681
▁earth	-9.62684
▁impact	-9.62692
▁challenge	-9.62743
▁briefing	-9.62752
▁ran	-9.62755
▁girls	-9.62986
▁funding	-9.63095
▁transgender	-9.63129
▁door	-9.63166
▁throughout	-9.63202
▁War	-9.63207
▁target	-9.63211
▁conversation	-9.63288
▁steve	-9.63329
▁appear	-9.63344
▁beginning	-9.6349
▁photos	-9.63511
▁served	-9.63521
▁virus	-9.63569
▁2015,	-9.63576
▁beyond	-9.63776
▁prosecutors	-9.63849
▁di	-9.6386
▁sometimes	-9.64066
▁worse	-9.64097
▁dollars	-9.64167
▁boost	-9.64208
▁responded	-9.64226
▁guy	-9.64299
▁La	-9.64385
▁delegates	-9.6443
▁favorite	-9.64456
▁moved	-9.64473
▁honor	-9.6457
▁violent	-9.64614
trump	-9.64988
▁starting	-9.6502
▁spicer	-9.65073
▁establishment	-9.65079
king	-9.65083
▁agenda	-9.65166
ring	-9.65266
▁easy	-9.65384
▁telling	-9.65403
os	-9.65416
▁grand	-9.65436
▁korean	-9.65522
ab	-9.65538
▁cleveland	-9.65695
▁michigan	-9.657
▁fair	-9.65705
▁famous	-9.65732
▁researchers	-9.6574
ph	-9.65754
▁orlando	-9.65761
▁lose	-9.65832
▁pulled	-9.65876
▁changes	-9.65914
▁tour	-9.6595
▁agencies	-9.65969
▁credit	-9.65975
▁critics	-9.66033
▁sound	-9.66114
▁sale	-9.66134
▁schools	-9.66147
▁wearing	-9.66221
▁agents	-9.66226
▁holiday	-9.6633
▁alone	-9.66361
▁via	-9.66498
mi	-9.66536
▁raise	-9.66552
side	-9.66654
▁relations	-9.66694
▁modern	-9.66755
▁streets	-9.6683
ice	-9.6693
after	-9.66944
▁va	-9.66995
ja	-9.67109
▁fla	-9.67146
gu	-9.67249
▁safe	-9.67388
ti	-9.67504
▁hampshire	-9.67512
end	-9.67579
▁appearance	-9.67672
ru	-9.6769
▁zika	-9.677
▁Republicans	-9.6778
▁album	-9.67879
▁river	-9.67997
▁serve	-9.68078
▁although	-9.68142
▁path	-9.68193
▁blood	-9.68195
▁delivered	-9.68345
▁israeli	-9.6847
▁date	-9.6854
▁guard	-9.68556
▁save	-9.68574
▁migrants	-9.68664
▁maybe	-9.68675
▁deputy	-9.68708
▁believed	-9.6873
▁avoid	-9.68747
▁abc	-9.6878
▁table	-9.68854
▁signs	-9.68898
▁22	-9.6893
▁marine	-9.68963
▁effect	-9.69046
▁simply	-9.69079
com	-9.69214
▁agree	-9.69272
▁dog	-9.69288
▁trail	-9.69337
▁paper	-9.69389
▁conflict	-9.69391
▁laws	-9.69463
▁panel	-9.69558
ell	-9.69573
▁allies	-9.69604
▁player	-9.6962
time	-9.69665
▁Ma	-9.69685
ile	-9.69762
▁institute	-9.69825
▁Day	-9.69942
▁ta	-9.6995
▁jones	-9.6996
▁poor	-9.69969
▁records	-9.70005
▁population	-9.70014
▁deadly	-9.70114
▁critical	-9.70137
bo	-9.7016
▁brain	-9.70171
▁wounded	-9.70287
▁increasingly	-9.70361
▁association	-9.70388
▁customers	-9.7042
▁joint	-9.70437
▁Democrats	-9.70439
▁mostly	-9.70575
▁largely	-9.70594
br	-9.70736
▁provided	-9.70749
▁present	-9.70823
▁truth	-9.70864
▁fourth	-9.70924
ping	-9.70959
▁drive	-9.7098
▁shared	-9.71077
ville	-9.71092
▁sanctions	-9.71134
▁brooklyn	-9.71144
▁da	-9.71203
▁im	-9.71223
▁character	-9.71227
▁condition	-9.7129
▁favor	-9.71316
▁spring	-9.71345
ned	-9.71433
▁ka	-9.71554
▁watching	-9.7166
▁dark	-9.71669
▁struck	-9.71714
▁restaurant	-9.71789
▁rich	-9.71801
▁buzzfeed	-9.7181
▁walk	-9.71899
▁japan	-9.71904
▁richard	-9.71914
▁nfl	-9.72006
▁terms	-9.72141
▁difficult	-9.72146
▁song	-9.72151
ists	-9.72247
▁convicted	-9.72311
▁rape	-9.724
▁mission	-9.72413
▁sun	-9.72436
za	-9.72521
▁sean	-9.72545
▁vehicle	-9.72572
▁rio	-9.72607
▁scheduled	-9.7262
sen	-9.72636
▁People	-9.72638
▁pop	-9.72638
▁male	-9.72761
▁proposal	-9.7278
U	-9.72851
▁communications	-9.72872
▁sold	-9.72919
ick	-9.72933
▁defeat	-9.73086
▁markets	-9.73143
▁spread	-9.7324
▁aren	-9.73252
▁All	-9.73468
▁spend	-9.73534
▁christian	-9.73562
ship	-9.73624
▁anti	-9.7369
▁african	-9.73705
▁related	-9.73746
▁sa	-9.73771
▁mc	-9.73921
▁Syria	-9.74026
▁lady	-9.74058
▁Black	-9.7408
▁singer	-9.74121
▁milo	-9.74156
▁Your	-9.74242
ang	-9.74262
▁crash	-9.74291
▁treatment	-9.74339
cing	-9.74427
▁couldn	-9.7443
▁marriage	-9.74617
▁era	-9.74641
▁Don	-9.74646
ite	-9.74736
▁built	-9.74763
▁Ro	-9.7486
▁politicians	-9.74909
▁losing	-9.74911
▁actions	-9.74938
▁pen	-9.75009
▁original	-9.75073
▁iphone	-9.75152
▁historic	-9.75155
▁jr	-9.75198
▁bus	-9.75236
▁van	-9.75247
▁environmental	-9.75462
▁regard	-9.75494
tra	-9.75553
▁draft	-9.75604
▁expect	-9.75611
▁closed	-9.75672
▁iraqi	-9.75682
▁attacked	-9.75877
▁aid	-9.76047
▁radical	-9.76185
tro	-9.76241
▁fake	-9.76291
▁martin	-9.76299
▁ordered	-9.76306
▁image	-9.76413
▁wisconsin	-9.76428
▁kim	-9.76473
▁tough	-9.76508
▁revenue	-9.76601
ities	-9.76653
▁opportunity	-9.76701
▁strategy	-9.76701
▁2012	-9.76719
▁po	-9.76779
▁suspected	-9.76788
▁prevent	-9.76836
▁ball	-9.76849
▁lu	-9.76966
▁classified	-9.77111
fa	-9.7713
▁mom	-9.77166
ran	-9.77186
▁server	-9.77238
▁measure	-9.77239
▁debt	-9.77406
▁truck	-9.77485
qui	-9.7751
▁eyes	-9.77587
▁god	-9.77599
▁becoming	-9.77646
▁Me	-9.77662
▁failure	-9.77811
▁bowl	-9.77874
▁production	-9.77942
▁dallas	-9.77993
▁traffic	-9.78006
▁uk	-9.78011
▁adding	-9.78019
▁cannot	-9.78024
▁unit	-9.78122
▁bridge	-9.78171
▁carry	-9.78239
▁cops	-9.78285
▁damage	-9.783
▁cl	-9.78432
▁May	-9.78505
▁goal	-9.78549
▁200	-9.78551
▁language	-9.78624
▁One	-9.78627
▁operation	-9.78628
gen	-9.787
wa	-9.78756
▁Ra	-9.78841
ip	-9.78927
▁investigators	-9.79044
▁practice	-9.79082
▁msnbc	-9.7912
▁thanks	-9.79182
▁approach	-9.79245
▁herself	-9.79275
▁publicly	-9.79297
▁arm	-9.79443
▁promised	-9.79463
pro	-9.79466
▁taxes	-9.79478
some	-9.79496
▁First	-9.79521
▁operations	-9.79546
▁hair	-9.79677
▁fuel	-9.79773
gan	-9.79784
han	-9.7987
▁dream	-9.7988
▁$3	-9.79957
▁hu	-9.79986
▁lee	-9.80078
▁businesses	-9.80128
▁reporting	-9.80129
▁smith	-9.80161
▁drugs	-9.80165
▁Anti	-9.80326
▁available	-9.80377
▁argued	-9.80455
▁check	-9.80568
▁olympic	-9.8064
ain	-9.80657
▁peter	-9.80663
▁denied	-9.80691
▁Back	-9.80709
▁planning	-9.80732
▁putting	-9.80756
▁pair	-9.80839
ization	-9.80847
▁range	-9.80852
▁sat	-9.80867
▁promise	-9.80945
▁fed	-9.80972
▁capitol	-9.81003
▁offering	-9.8105
▁repeatedly	-9.81275
▁gender	-9.81279
▁journalists	-9.81285
ki	-9.81287
▁23	-9.81383
▁brother	-9.814
▁dozen	-9.81405
▁controversy	-9.81422
▁amazon	-9.81452
▁valley	-9.81531
▁confirmation	-9.81649
▁jan	-9.81706
▁parts	-9.8174
▁feature	-9.81816
ions	-9.81829
port	-9.81856
▁tom	-9.81999
▁driving	-9.82026
▁yes	-9.82076
▁Korea	-9.82077
▁Lo	-9.8215
▁canada	-9.82204
▁appeal	-9.82206
▁highest	-9.82251
▁domestic	-9.82266
▁ha	-9.82332
▁management	-9.82382
ub	-9.82397
pl	-9.82407
▁rare	-9.82458
▁influence	-9.82463
▁refused	-9.82553
▁z	-9.82591
don	-9.82606
with	-9.82619
▁areas	-9.82653
▁Republican	-9.82717
▁activist	-9.8274
▁Dis	-9.82754
▁Bo	-9.82817
▁tim	-9.8287
▁society	-9.83011
▁straight	-9.83013
▁$5	-9.83013
▁Obamacare	-9.83025
▁stopped	-9.83035
ative	-9.83055
cy	-9.83056
▁flag	-9.83103
▁R	-9.83312
▁screen	-9.83403
▁Co	-9.83508
▁includes	-9.8352
▁FBI	-9.83531
▁england	-9.83654
▁names	-9.83663
▁bl	-9.8372
fe	-9.83722
▁eye	-9.83756
▁accounts	-9.83767
▁shortly	-9.83777
▁village	-9.83789
▁christmas	-9.83869
▁banks	-9.83879
▁lines	-9.83903
▁turns	-9.83923
▁fine	-9.8393
har	-9.83948
▁wave	-9.83984
▁bay	-9.84
▁Women	-9.84141
ft	-9.84158
▁World	-9.84176
▁As	-9.84224
▁eat	-9.84284
▁roll	-9.84299
▁fresh	-9.84348
ag	-9.8438
▁rising	-9.84424
ors	-9.84501
▁cold	-9.84536
▁planet	-9.84626
oc	-9.8465
▁enter	-9.8468
▁demand	-9.84733
▁voter	-9.84793
▁fan	-9.85071
▁Campaign	-9.8517
▁sp	-9.85178
▁fraud	-9.85179
▁alex	-9.85215
▁trust	-9.85251
▁Attack	-9.85298
ual	-9.85331
▁views	-9.85356
▁continues	-9.85399
▁refugee	-9.85481
▁investigating	-9.85498
▁arabia	-9.85522
▁Po	-9.85527
last	-9.85569
▁kasich	-9.85607
▁45	-9.85662
▁racist	-9.85677
ible	-9.85699
▁citing	-9.85735
▁traditional	-9.8577
▁direct	-9.85777
▁veteran	-9.85891
▁gathered	-9.85935
dis	-9.85964
▁du	-9.86011
▁thinking	-9.86026
▁troops	-9.86076
▁ISIS	-9.86126
▁threats	-9.86158
▁amount	-9.86213
house	-9.86213
▁fast	-9.86265
▁agent	-9.8631
pa	-9.86323
▁afghanistan	-9.86377
▁dinner	-9.86489
▁stood	-9.86492
▁wouldn	-9.86524
top	-9.86603
▁individual	-9.8663
▁cbs	-9.8664
▁ten	-9.8671
▁vladimir	-9.86711
▁Russian	-9.86746
▁carried	-9.8676
▁faced	-9.86783
▁supposed	-9.86796
▁row	-9.86842
▁ongoing	-9.86911
▁blow	-9.86983
▁neighborhood	-9.8699
berg	-9.87119
▁books	-9.87227
▁reasons	-9.87333
▁bureau	-9.87376
tu	-9.87451
▁Election	-9.87488
▁color	-9.87512
▁indiana	-9.87515
▁deliver	-9.87624
▁parliament	-9.87626
und	-9.87631
▁match	-9.8769
▁professional	-9.87713
▁products	-9.87788
tor	-9.87802
▁navy	-9.87828
▁sitting	-9.87835
▁contract	-9.87857
▁works	-9.8787
▁amendment	-9.87935
▁cuts	-9.88036
▁electoral	-9.88048
▁georgia	-9.88048
▁exit	-9.88056
▁gu	-9.88089
▁elections	-9.88107
▁hopes	-9.88112
▁Senate	-9.88169
▁actress	-9.88192
▁$1.	-9.88247
▁awards	-9.88276
▁gang	-9.88295
▁roughly	-9.88325
▁Wall	-9.88342
▁meant	-9.88348
▁hurt	-9.88439
▁funds	-9.88524
coming	-9.88543
▁insider	-9.88578
▁drama	-9.88606
▁baseball	-9.88617
▁occurred	-9.88727
▁chemical	-9.88837
▁kept	-9.88837
▁criticized	-9.88902
▁text	-9.88949
▁cat	-9.89001
▁aimed	-9.8905
▁status	-9.89067
▁seek	-9.89108
▁ice	-9.89113
▁philadelphia	-9.89127
▁clean	-9.89416
day	-9.89425
▁claiming	-9.8944
▁turkish	-9.89444
▁wins	-9.89502
▁frontrunner	-9.89634
▁muslims	-9.89661
▁brazil	-9.89684
of	-9.89864
more	-9.89938
▁dollar	-9.90062
▁nor	-9.9007
rk	-9.90106
▁digital	-9.90205
▁caucus	-9.90248
▁tweets	-9.9033
▁compared	-9.90331
▁sought	-9.90364
▁stated	-9.90385
▁..	-9.90399
▁doctors	-9.904
▁cabinet	-9.90552
mb	-9.90557
▁appeals	-9.90641
▁sc	-9.9068
▁militants	-9.90708
▁Law	-9.90719
▁highly	-9.90786
▁L	-9.90804
▁Le	-9.90827
rd	-9.9084
▁blame	-9.90899
▁Texas	-9.90953
▁discussion	-9.91002
▁complex	-9.91011
▁chain	-9.91097
ide	-9.91189
▁winner	-9.91261
▁cop	-9.9133
▁pull	-9.91331
volving	-9.9136
▁2008	-9.91396
▁document	-9.91409
▁35	-9.9148
▁declined	-9.91561
vin	-9.91575
▁potentially	-9.91586
▁writes	-9.91611
▁designed	-9.9164
▁income	-9.91675
▁Against	-9.91713
▁healthcare	-9.91732
▁2013	-9.9178
▁believes	-9.91804
J	-9.9182
▁various	-9.91824
▁90	-9.91903
▁shift	-9.92047
▁trading	-9.92058
▁Congress	-9.92059
ator	-9.92138
▁guns	-9.92171
▁happy	-9.9219
▁lawyers	-9.92262
▁Facebook	-9.92595
▁Car	-9.92612
▁particular	-9.92614
ec	-9.92686
▁computer	-9.9277
pping	-9.92873
▁concern	-9.92918
ina	-9.92966
▁wa	-9.92995
▁reserve	-9.93014
▁edge	-9.93056
nt	-9.93166
hillary	-9.93239
▁linked	-9.93812
▁spot	-9.93821
▁transcript	-9.93826
▁respect	-9.93849
▁command	-9.9392
▁style	-9.93937
how	-9.94043
▁But	-9.94051
▁coalition	-9.94065
▁attempted	-9.94075
▁doctor	-9.94084
▁responsible	-9.94303
▁admitted	-9.94309
▁writer	-9.94313
▁opinion	-9.9437
ture	-9.94389
▁snow	-9.94447
▁returned	-9.94519
▁carrying	-9.94539
▁upcoming	-9.9456
▁ability	-9.94603
▁upon	-9.94657
▁prominent	-9.94783
▁property	-9.94786
▁obtained	-9.94888
▁finance	-9.94906
▁port	-9.94939
▁retired	-9.94968
▁sh	-9.94982
▁emerged	-9.95117
▁minority	-9.95158
▁reaction	-9.95177
▁setting	-9.95208
▁sha	-9.95233
▁Gun	-9.95236
▁ni	-9.95268
▁racial	-9.95293
▁reading	-9.9532
ea	-9.95333
ana	-9.95345
▁South	-9.9535
▁festival	-9.95506
▁Her	-9.95555
ika	-9.95559
▁training	-9.95567
au	-9.95574
ably	-9.95591
▁boston	-9.95603
▁approved	-9.95617
▁doubt	-9.95738
▁complete	-9.95886
▁ne	-9.95895
▁2,	-9.96101
▁brexit	-9.96142
▁focused	-9.96184
▁Now	-9.9619
work	-9.962
car	-9.96383
▁dec	-9.9641
▁shut	-9.9645
▁separate	-9.96495
▁moments	-9.96517
▁homeland	-9.96601
▁jury	-9.9662
▁considering	-9.96664
▁gorsuch	-9.96723
▁regime	-9.96737
▁partner	-9.96929
▁islam	-9.9694
▁stars	-9.96978
▁onto	-9.96985
▁2014,	-9.97015
▁die	-9.97025
her	-9.97084
▁arizona	-9.97091
▁jewish	-9.97091
▁helping	-9.97205
▁senators	-9.97235
▁conducted	-9.97369
▁false	-9.97442
▁moscow	-9.97449
▁avenue	-9.97461
▁turning	-9.97519
▁ceremony	-9.97584
▁Time	-9.97622
▁pushed	-9.97662
▁captured	-9.97728
▁contest	-9.97788
▁certainly	-9.97814
lic	-9.97899
tter	-9.97923
▁sentence	-9.97926
▁scalia	-9.97956
▁Ryan	-9.97956
▁Con	-9.98007
▁card	-9.98227
▁wild	-9.98237
▁follows	-9.98243
▁returns	-9.9829
▁learn	-9.98454
uc	-9.98505
▁ideas	-9.98524
▁sector	-9.9858
▁perfect	-9.98689
▁vehicles	-9.98708
▁trouble	-9.98724
▁stone	-9.98773
▁threatened	-9.9881
▁authority	-9.99001
▁soldiers	-9.99043
head	-9.99046
▁em	-9.99208
▁combat	-9.99244
can	-9.99257
▁miss	-9.99319
▁approval	-9.99329
▁jackson	-9.99335
str	-9.99397
ris	-9.99451
▁Supreme	-9.99581
▁raising	-9.99584
▁mistake	-9.99586
▁Sp	-9.99599
▁rain	-9.99604
▁fa	-9.99726
▁size	-9.99762
▁y	-9.99777
▁prosecutor	-9.99807
▁value	-9.9984
▁By	-9.99851
▁Should	-9.9988
▁ju	-9.99934
▁Health	-9.9996
▁widely	-9.99961
▁explain	-9.99963
▁natural	-9.99992
▁anthony	-10.0009
▁suffered	-10.0011
war	-10.0016
▁sort	-10.002
▁wait	-10.002
▁museum	-10.0021
▁levels	-10.0032
▁progress	-10.0032
▁successful	-10.0034
▁consumer	-10.0034
▁aide	-10.0042
▁homes	-10.0044
▁plant	-10.0046
▁cap	-10.0048
▁selling	-10.005
▁se	-10.0065
▁regulations	-10.007
▁Could	-10.0072
▁waiting	-10.0075
av	-10.0076
▁gunman	-10.0076
former	-10.0078
▁walked	-10.008
▁andrew	-10.0085
▁constitution	-10.0088
ified	-10.0091
▁crew	-10.0091
▁patrol	-10.0098
▁ga	-10.0107
▁canadian	-10.011
▁26	-10.0115
▁dad	-10.0121
ev	-10.0126
▁content	-10.0133
▁thomas	-10.0136
▁Media	-10.0136
▁newly	-10.0138
▁49	-10.0146
▁fun	-10.0147
▁struggling	-10.0149
▁27	-10.0151
▁80	-10.0153
lock	-10.016
▁internal	-10.0163
▁williams	-10.0169
▁journalist	-10.017
▁nov	-10.0181
▁figures	-10.0189
▁fix	-10.0194
du	-10.0194
▁product	-10.0196
▁disaster	-10.02
▁christie	-10.0201
▁facts	-10.0204
▁70	-10.0208
▁behavior	-10.0213
▁identity	-10.0213
ure	-10.0216
▁lived	-10.0225
▁speed	-10.0226
▁grow	-10.023
▁hasn	-10.0231
▁commercial	-10.0239
▁bu	-10.024
▁ruled	-10.0243
▁crimes	-10.0244
▁jo	-10.0259
ay	-10.0262
from	-10.0263
▁winter	-10.0263
▁competition	-10.0265
▁usually	-10.0275
▁ocean	-10.0278
ever	-10.0286
gg	-10.0289
▁democracy	-10.0304
▁weather	-10.0304
▁attend	-10.0306
▁Ban	-10.0315
ze	-10.0315
▁decline	-10.0322
▁2.	-10.0327
▁concerned	-10.0329
▁costs	-10.0334
▁closer	-10.0335
▁comedy	-10.0337
▁teen	-10.0337
rt	-10.0338
▁golf	-10.0339
▁additional	-10.0343
▁fifth	-10.0343
▁corporate	-10.0343
ack	-10.0344
▁Mar	-10.0347
▁committed	-10.0357
▁directly	-10.0361
We	-10.0366
▁expressed	-10.0366
▁greatest	-10.0369
▁referendum	-10.037
▁tonight	-10.0374
low	-10.0381
▁Go	-10.0384
cur	-10.0385
▁longtime	-10.0387
▁stocks	-10.0414
very	-10.0418
▁haven	-10.0422
▁discussed	-10.0429
▁ride	-10.043
▁camera	-10.043
▁analysis	-10.0436
los	-10.0443
▁increased	-10.0449
▁footage	-10.045
▁promises	-10.0454
▁housing	-10.0462
ise	-10.0469
▁cable	-10.047
▁mal	-10.047
▁Al	-10.0473
▁decide	-10.0495
▁removed	-10.0496
▁web	-10.0505
▁prove	-10.0507
▁session	-10.0517
just	-10.0529
▁normal	-10.0529
▁tiny	-10.0529
bs	-10.0542
▁colorado	-10.0542
▁japanese	-10.0542
rant	-10.0545
▁shop	-10.0554
▁pipeline	-10.0555
▁cross	-10.056
▁firing	-10.0569
cent	-10.0571
▁fit	-10.0573
▁California	-10.0576
▁cia	-10.0579
field	-10.058
▁conway	-10.0585
ration	-10.0585
▁analysts	-10.0585
▁Comey	-10.0588
▁champion	-10.0593
▁trend	-10.0601
az	-10.0605
▁deaths	-10.0608
▁anchor	-10.0609
▁treat	-10.0615
▁pain	-10.0618
▁sch	-10.0618
▁quarterback	-10.0624
▁background	-10.0624
ens	-10.0625
▁stuff	-10.0625
▁del	-10.063
▁corner	-10.0634
▁representatives	-10.0636
▁studio	-10.0636
▁sky	-10.0636
▁har	-10.0642
▁officially	-10.0645
▁suspended	-10.0647
che	-10.0657
▁novel	-10.0665
▁golden	-10.0669
▁bro	-10.0681
▁artist	-10.0684
▁nearby	-10.0694
ash	-10.0695
▁sub	-10.0701
▁communities	-10.0704
▁reagan	-10.0704
▁Down	-10.0705
according	-10.0706
▁aides	-10.0711
zz	-10.0716
▁adam	-10.0719
▁Islamic	-10.0732
▁.)	-10.0739
▁boss	-10.0742
▁unusual	-10.0743
▁mosul	-10.0744
▁walking	-10.0747
▁pushing	-10.075
cu	-10.0752
val	-10.0759
▁teacher	-10.0773
▁ring	-10.0776
wood	-10.0777
▁offensive	-10.078
▁John	-10.0783
▁Poll	-10.0799
▁theater	-10.0801
▁filing	-10.0802
▁defend	-10.0803
eg	-10.0805
▁william	-10.0812
here	-10.0812
▁jet	-10.0818
▁measures	-10.0818
right	-10.0822
▁heavy	-10.0826
▁announce	-10.0829
▁sleep	-10.0841
▁dress	-10.0844
▁passengers	-10.0846
▁foot	-10.0851
wi	-10.0852
▁grew	-10.0855
▁endorsement	-10.0855
▁task	-10.0856
▁completely	-10.0857
▁prince	-10.0865
▁sharp	-10.0867
▁testimony	-10.0868
▁corruption	-10.0869
▁wikileaks	-10.0877
▁supporting	-10.0877
down	-10.0877
▁watched	-10.0886
▁mate	-10.0886
▁constitutional	-10.0886
▁iranian	-10.0886
▁programs	-10.0887
▁suggests	-10.0888
act	-10.0894
▁injuries	-10.0895
▁aircraft	-10.0896
now	-10.0897
▁representative	-10.0902
pen	-10.0906
▁broken	-10.0914
zi	-10.0914
▁Ad	-10.0915
▁smart	-10.0924
dge	-10.0934
▁-	-10.0935
▁aleppo	-10.0937
▁academy	-10.0937
▁happens	-10.0943
ations	-10.0949
▁urged	-10.0949
▁revolution	-10.095
▁twice	-10.0951
▁count	-10.0954
▁respond	-10.0969
▁settlement	-10.097
▁sister	-10.0973
▁software	-10.0979
▁rhetoric	-10.0982
▁Twitter	-10.0985
▁sending	-10.0985
▁cuba	-10.0985
▁argument	-10.0997
▁africa	-10.0998
▁ko	-10.0998
▁knows	-10.1004
▁pope	-10.1017
▁resolution	-10.1021
▁siriusxm	-10.1035
▁miami	-10.1036
▁Like	-10.1039
▁Americans	-10.1044
fer	-10.1047
▁finding	-10.1047
▁india	-10.105
▁individuals	-10.1059
▁angry	-10.1063
▁add	-10.1065
▁0	-10.1078
▁design	-10.109
q	-10.1091
▁places	-10.1091
▁lake	-10.1091
▁relative	-10.1099
▁quick	-10.1109
▁celebrate	-10.1111
▁generation	-10.1119
▁stores	-10.112
▁assistant	-10.112
▁conditions	-10.1126
▁https	-10.1126
▁gen	-10.113
▁box	-10.1132
fi	-10.1145
▁targeted	-10.1146
sha	-10.1155
▁swing	-10.1163
▁pointed	-10.1166
▁eric	-10.1169
▁nice	-10.1173
▁fears	-10.1175
during	-10.1176
▁Paul	-10.1177
▁counter	-10.1192
▁TV	-10.1192
▁pat	-10.1198
▁brussels	-10.1213
▁Sa	-10.1213
▁atlantic	-10.1216
press	-10.1217
▁initial	-10.1219
▁construction	-10.1219
▁code	-10.1222
▁$4	-10.1225
state	-10.1229
ker	-10.1232
▁ministry	-10.1233
▁Iran	-10.1234
▁positive	-10.1238
▁classic	-10.1242
▁National	-10.1243
ett	-10.1245
▁louisiana	-10.1248
▁confirm	-10.1249
▁entered	-10.125
▁Show	-10.1253
▁opponent	-10.126
ng	-10.1262
▁standard	-10.1262
▁pledge	-10.1268
▁hacking	-10.127
▁reveal	-10.1272
▁patients	-10.1276
▁Pre	-10.1277
▁native	-10.1279
▁acting	-10.128
fox	-10.1286
town	-10.129
▁pentagon	-10.1291
▁possibility	-10.1291
▁serving	-10.1291
,000	-10.1295
▁ship	-10.13
▁crack	-10.131
▁award	-10.1311
▁killer	-10.1318
▁romney	-10.132
▁$6	-10.1322
▁gain	-10.1323
▁prize	-10.1324
▁messages	-10.133
▁concert	-10.1334
▁heat	-10.1338
▁chuck	-10.1349
▁bought	-10.1349
▁memo	-10.135
ient	-10.1356
▁carson	-10.1356
▁corp	-10.1358
▁Big	-10.1358
row	-10.1365
▁warren	-10.1366
tan	-10.1375
▁Vote	-10.1377
▁nightclub	-10.1377
▁oregon	-10.1377
▁vast	-10.1382
ford	-10.1385
▁paying	-10.1397
▁affairs	-10.1403
▁yesterday	-10.1405
nc	-10.1405
▁employee	-10.1409
▁shi	-10.1409
▁fe	-10.1414
▁english	-10.1421
▁jim	-10.1423
▁28	-10.1424
▁Get	-10.1425
aw	-10.1425
▁double	-10.1427
▁accept	-10.1438
▁connection	-10.1442
▁wide	-10.1444
▁pool	-10.1446
▁palestinian	-10.145
▁responsibility	-10.145
▁choose	-10.1451
▁keeping	-10.1452
▁thank	-10.1459
▁Street	-10.1465
▁benefits	-10.1472
▁listen	-10.1486
▁benefit	-10.1487
▁indian	-10.1488
▁dc	-10.1493
▁weight	-10.1496
▁features	-10.1496
▁wear	-10.1496
▁suddenly	-10.1502
▁apparent	-10.1509
▁medal	-10.1513
▁animal	-10.1515
▁sick	-10.1524
▁headquarters	-10.1524
lar	-10.1524
ach	-10.153
▁sentenced	-10.1536
▁prepared	-10.1536
rie	-10.1544
▁estimated	-10.1547
▁readers	-10.1568
▁tillerson	-10.1568
▁advice	-10.1569
hy	-10.1569
▁weapon	-10.1576
▁terrorists	-10.1577
▁ver	-10.1578
▁happening	-10.1579
▁anger	-10.1585
▁advance	-10.1588
▁seriously	-10.1588
▁legacy	-10.1598
▁memorial	-10.1598
board	-10.1599
▁australia	-10.1604
▁remove	-10.1605
▁possibly	-10.1605
lor	-10.1605
▁cultural	-10.1606
▁welcome	-10.1613
gar	-10.1615
tz	-10.1616
▁stake	-10.1625
▁specific	-10.1626
▁summit	-10.1644
▁Bernie	-10.1652
▁fighters	-10.1652
▁feeling	-10.1656
▁plot	-10.1657
▁bed	-10.1667
▁expectations	-10.1671
▁charles	-10.1671
▁worried	-10.1672
▁nature	-10.1673
▁civilians	-10.1675
ov	-10.1681
▁unlikely	-10.1682
50	-10.1683
▁pregnant	-10.1687
▁sides	-10.1688
▁debut	-10.169
▁dan	-10.1691
▁harassment	-10.1702
▁movies	-10.1703
▁airlines	-10.1705
hood	-10.1711
▁grant	-10.1712
▁entering	-10.1713
like	-10.1716
af	-10.172
▁write	-10.1722
▁challenges	-10.1723
▁marijuana	-10.1732
▁bull	-10.1739
▁counsel	-10.1742
▁pilot	-10.1747
▁danger	-10.1748
▁2010	-10.1754
▁2011	-10.1757
▁map	-10.1762
▁Mo	-10.1764
▁fatal	-10.1768
▁cook	-10.1771
▁arms	-10.1771
▁My	-10.1774
▁polling	-10.1775
▁29	-10.178
▁eventually	-10.178
▁faith	-10.1785
▁dar	-10.1791
▁bombing	-10.1793
ight	-10.1795
▁slow	-10.18
▁diplomatic	-10.1803
▁dakota	-10.1808
▁Their	-10.1809
▁stands	-10.1822
▁castro	-10.1826
▁begins	-10.1827
▁bra	-10.1838
▁breaking	-10.1845
▁hell	-10.1845
▁Woman	-10.1845
year	-10.1856
▁married	-10.1861
▁conduct	-10.1861
ji	-10.1865
▁accident	-10.187
▁bathroom	-10.1873
▁ending	-10.1874
▁activity	-10.1884
,"“	-10.1884
ps	-10.1888
spect	-10.1889
uck	-10.189
ging	-10.1894
▁gives	-10.1898
▁vision	-10.1901
▁farm	-10.1907
len	-10.1923
▁tesla	-10.1929
▁dramatic	-10.193
rn	-10.1931
maker	-10.1933
V	-10.1944
while	-10.1946
▁bob	-10.1953
▁dispute	-10.1953
▁parent	-10.1959
▁alabama	-10.1961
▁instagram	-10.1961
▁photographer	-10.1963
ko	-10.1964
read	-10.1971
▁matt	-10.1971
▁collection	-10.1978
▁organizations	-10.198
▁School	-10.1983
▁videos	-10.199
▁veterans	-10.199
▁allowing	-10.1991
▁massachusetts	-10.1991
▁closing	-10.1992
▁Plan	-10.1997
▁wage	-10.1998
▁cuban	-10.2001
iz	-10.2012
▁orders	-10.2013
▁extra	-10.202
ino	-10.2025
gi	-10.2026
▁houston	-10.2027
▁investor	-10.203
ren	-10.2031
▁catch	-10.2037
▁surveillance	-10.2038
▁politico	-10.2038
▁viewers	-10.2039
▁suggest	-10.204
▁expand	-10.2041
▁treated	-10.2047
▁Apple	-10.2049
▁owners	-10.205
▁introduced	-10.2055
take	-10.2057
▁progressive	-10.2057
air	-10.206
▁larger	-10.2061
▁cha	-10.2067
▁basic	-10.2068
pped	-10.2069
▁regular	-10.207
▁documentary	-10.207
▁ru	-10.2073
▁cu	-10.2073
▁surrounding	-10.2075
▁headed	-10.208
▁unprecedented	-10.2081
▁Ha	-10.2088
ug	-10.2094
▁material	-10.2095
rate	-10.2097
▁je	-10.21
▁edition	-10.2101
▁hack	-10.2112
▁picked	-10.2115
▁creating	-10.2116
▁label	-10.212
▁ticket	-10.2127
wing	-10.2128
▁mobile	-10.2128
▁300	-10.2131
▁explosion	-10.2131
▁nu	-10.2134
▁wonder	-10.2135
▁replacement	-10.2136
ball	-10.2143
▁catholic	-10.2147
▁covered	-10.2148
▁values	-10.2149
▁Just	-10.2152
▁$10	-10.2157
light	-10.2157
▁filled	-10.2159
▁older	-10.216
▁brutal	-10.2161
▁ethics	-10.2163
▁mainstream	-10.2163
▁Rubio	-10.2169
▁reduce	-10.2171
jo	-10.2178
▁nevada	-10.2178
▁nationwide	-10.2179
▁When	-10.219
▁rejected	-10.2191
▁ke	-10.2192
lt	-10.2193
▁sit	-10.2194
▁threatening	-10.2194
mat	-10.2194
▁Debate	-10.2195
▁bigger	-10.2201
▁secure	-10.2205
▁olympics	-10.2217
▁profit	-10.2224
▁Border	-10.2226
▁cyber	-10.2226
republican	-10.223
▁positions	-10.2239
des	-10.2241
▁auto	-10.2242
mm	-10.2249
▁Than	-10.2257
▁territory	-10.2257
▁statements	-10.2261
▁inter	-10.2262
▁nba	-10.2263
▁They	-10.2275
pic	-10.2278
▁colleagues	-10.2278
▁CEO	-10.2289
▁conspiracy	-10.2289
gue	-10.229
▁citizen	-10.2294
▁rick	-10.2295
▁Di	-10.2295
ily	-10.2305
▁mental	-10.2305
ries	-10.2307
▁alongside	-10.2308
ther	-10.2318
▁notice	-10.2319
▁specifically	-10.2322
use	-10.2323
ute	-10.2325
cal	-10.2328
zo	-10.233
▁ali	-10.2333
▁clearly	-10.2334
▁moderate	-10.2334
▁bodies	-10.2337
▁changing	-10.2337
ugh	-10.2339
▁Bu	-10.234
▁banned	-10.234
▁Party	-10.2346
▁correct	-10.2347
▁parenthood	-10.2353
▁hoping	-10.2355
▁bi	-10.2356
▁upset	-10.2359
▁intended	-10.2361
▁stretch	-10.2362
▁shock	-10.2369
▁signature	-10.2369
▁tra	-10.2377
▁investigate	-10.2378
▁rocket	-10.2385
▁kingdom	-10.2386
▁machine	-10.2392
▁michelle	-10.2393
▁offers	-10.2399
par	-10.24
▁2018	-10.2402
▁Ted	-10.2408
▁2017,	-10.2413
▁hedge	-10.2415
▁businessman	-10.2417
▁startup	-10.2424
▁seeing	-10.2425
▁blasio	-10.2433
▁Win	-10.2439
▁miller	-10.2439
ade	-10.2446
▁cool	-10.245
▁drew	-10.2452
▁te	-10.2453
▁noted	-10.2463
▁forecast	-10.2466
▁Home	-10.2473
▁type	-10.2476
▁facility	-10.2482
ability	-10.2485
nk	-10.2486
▁italy	-10.2486
▁leaked	-10.249
▁direction	-10.2492
▁backed	-10.2494
▁eve	-10.2495
▁deeply	-10.2495
▁theory	-10.2495
▁margin	-10.2495
▁Watch	-10.25
▁crude	-10.2502
▁purchase	-10.2508
▁marked	-10.2527
▁Would	-10.2531
▁globe	-10.2531
▁Million	-10.2547
▁finds	-10.255
are	-10.255
▁discussing	-10.2551
▁devices	-10.2554
▁She	-10.2556
cha	-10.2558
▁kennedy	-10.2563
▁negative	-10.2563
▁commander	-10.2567
▁broad	-10.2574
▁device	-10.2575
▁electric	-10.2578
▁immigrant	-10.2583
win	-10.2584
▁custody	-10.2596
▁minnesota	-10.2596
▁Death	-10.2596
▁bell	-10.2598
▁emotional	-10.2602
▁suggesting	-10.2606
▁Muslim	-10.2608
▁anniversary	-10.2613
▁Did	-10.2614
▁36	-10.2618
▁entirely	-10.2628
▁infrastructure	-10.2629
ust	-10.2633
play	-10.2634
van	-10.2634
▁fl	-10.2636
▁beautiful	-10.2637
▁musical	-10.2638
▁spokeswoman	-10.2646
▁31	-10.265
▁stream	-10.2651
▁cell	-10.2652
▁mu	-10.2655
▁initially	-10.2663
▁Won	-10.2675
▁recall	-10.2676
▁francis	-10.2677
▁elite	-10.2678
▁outlets	-10.2679
▁Say	-10.2686
▁failing	-10.2686
▁fully	-10.2687
▁par	-10.2688
▁vowed	-10.2688
▁espn	-10.2689
ung	-10.2691
▁studies	-10.2695
▁stunning	-10.2695
▁illegally	-10.2696
▁gift	-10.2696
▁bur	-10.2697
▁core	-10.2709
▁referring	-10.2712
▁championship	-10.2712
▁fi	-10.2723
▁tape	-10.2723
▁daniel	-10.274
die	-10.2741
▁prior	-10.2742
▁resort	-10.2745
▁basketball	-10.2745
▁bright	-10.2747
ane	-10.2747
▁sexually	-10.2754
▁harm	-10.2763
▁guardian	-10.2765
▁placed	-10.277
ral	-10.2775
ok	-10.2777
▁strategist	-10.2778
▁Washington	-10.2784
▁tradition	-10.2787
gra	-10.2792
▁tens	-10.2803
ric	-10.2806
▁$2	-10.2808
lie	-10.281
▁italian	-10.2812
yn	-10.2812
▁roger	-10.2814
▁master	-10.2822
▁sal	-10.2824
▁Ga	-10.2827
▁province	-10.2829
▁religion	-10.2829
▁2005	-10.2831
▁wind	-10.2832
▁required	-10.2832
▁las	-10.2833
▁coal	-10.2833
▁limit	-10.2834
▁El	-10.2839
▁City	-10.284
ek	-10.2841
ix	-10.2842
▁exercise	-10.2845
▁net	-10.2848
▁republic	-10.2859
!"	-10.286
▁guide	-10.2864
▁$100	-10.2873
▁wish	-10.2881
fully	-10.2893
ib	-10.2896
▁imagine	-10.2897
▁dies	-10.2901
▁mall	-10.2908
▁fo	-10.2913
▁$7	-10.2913
▁advantage	-10.2913
▁celebrity	-10.2919
ked	-10.292
▁End	-10.2928
▁Carolina	-10.293
▁kushner	-10.293
▁maker	-10.2931
▁tank	-10.2934
▁division	-10.2936
▁talked	-10.2936
▁ballot	-10.2936
▁outcome	-10.2937
▁cited	-10.2938
even	-10.2944
▁publisher	-10.2944
▁supporter	-10.2946
▁cycle	-10.2947
▁surprising	-10.2949
▁blog	-10.2959
▁remaining	-10.2962
▁ii	-10.2964
▁sites	-10.2966
▁producer	-10.2975
▁bag	-10.2975
▁Ta	-10.2976
nic	-10.2976
▁yiannopoulos	-10.2981
▁entertainment	-10.2981
▁Into	-10.2991
▁bond	-10.2991
▁todd	-10.2992
▁preparing	-10.2998
▁elizabeth	-10.3004
▁australian	-10.3008
▁finish	-10.3009
ose	-10.301
▁necessary	-10.3021
▁mention	-10.3022
▁ms	-10.3027
▁shooter	-10.3032
▁plenty	-10.3032
▁overall	-10.3034
▁deportation	-10.3035
updated	-10.3035
qu	-10.3037
gn	-10.3038
▁yankees	-10.304
▁rescue	-10.3042
▁Fox	-10.3046
▁primaries	-10.3049
▁youtube	-10.3051
▁leads	-10.3066
▁privacy	-10.3066
▁split	-10.3067
▁arab	-10.3073
ez	-10.3082
▁remained	-10.3084
▁Help	-10.3084
▁executives	-10.3085
▁recorded	-10.309
▁33	-10.3092
▁biden	-10.3093
▁gap	-10.3095
▁interests	-10.3099
▁environment	-10.3108
rick	-10.3111
▁Support	-10.3113
ky	-10.3114
▁shape	-10.3118
gate	-10.3119
▁jason	-10.312
▁passenger	-10.3129
▁column	-10.3132
▁chaos	-10.3136
▁route	-10.3138
▁Case	-10.3141
▁buying	-10.3147
▁worker	-10.3152
▁Under	-10.3154
▁Per	-10.316
▁deals	-10.3162
▁airline	-10.3173
▁sad	-10.3175
care	-10.3176
▁adults	-10.3182
▁moral	-10.3184
▁maryland	-10.3189
▁owned	-10.319
▁contain	-10.3194
ks	-10.3201
▁titled	-10.3204
▁draw	-10.3208
▁zone	-10.3212
▁falling	-10.3213
▁pu	-10.3215
▁kansas	-10.3216
▁initiative	-10.3223
▁string	-10.3227
stone	-10.3228
▁nato	-10.323
▁Comm	-10.323
▁originally	-10.3232
▁strikes	-10.3232
▁escape	-10.3235
▁za	-10.324
▁mccain	-10.324
▁fatally	-10.324
▁knowledge	-10.3241
▁jets	-10.3241
▁32	-10.3242
▁warm	-10.3247
▁immediate	-10.325
aries	-10.3251
▁Two	-10.3256
white	-10.3257
▁Care	-10.3261
▁managed	-10.3274
▁jump	-10.3274
▁cooper	-10.3275
▁stadium	-10.3275
▁centers	-10.3278
▁jack	-10.3278
▁Former	-10.328
▁ivanka	-10.3285
▁Brexit	-10.3287
▁massacre	-10.3293
▁vegas	-10.3293
▁elect	-10.3296
▁weekly	-10.3305
▁greater	-10.3324
under	-10.3324
▁Ho	-10.3328
▁shopping	-10.3329
▁downtown	-10.3335
▁neil	-10.334
20	-10.3341
▁blocked	-10.3345
▁indeed	-10.3348
▁beijing	-10.3349
▁fill	-10.3351
ied	-10.3355
▁animals	-10.3356
▁circuit	-10.3363
▁mogul	-10.3363
▁jerusalem	-10.3369
gle	-10.3372
▁counts	-10.3377
▁garden	-10.3382
▁Know	-10.3382
ign	-10.3385
▁leaves	-10.3387
▁cent	-10.3388
▁addition	-10.3393
▁advocates	-10.3393
▁75	-10.3395
▁ku	-10.3396
▁candidacy	-10.3399
▁partnership	-10.34
▁kick	-10.34
▁tend	-10.34
ology	-10.3406
▁ti	-10.3407
lia	-10.3409
▁giants	-10.3416
▁identify	-10.3417
▁gains	-10.3417
▁sight	-10.3418
▁pictures	-10.342
▁throw	-10.3422
ik	-10.3423
▁gi	-10.3427
▁400	-10.343
▁luxury	-10.3434
▁limited	-10.3435
ita	-10.3436
▁Change	-10.3437
▁defended	-10.3443
▁boys	-10.3451
▁Some	-10.3452
two	-10.3454
▁opponents	-10.3455
▁gathering	-10.3455
chi	-10.3456
▁detained	-10.3461
ving	-10.3468
▁opposed	-10.3471
sc	-10.3474
▁terrible	-10.3479
▁strange	-10.3485
▁feels	-10.3486
▁section	-10.3488
▁sarah	-10.3489
▁3,	-10.3493
▁adult	-10.3494
▁silicon	-10.3496
▁contact	-10.3496
▁supported	-10.3496
▁laid	-10.3497
▁supply	-10.3506
▁none	-10.3506
▁wood	-10.3512
▁bloomberg	-10.3512
▁comedian	-10.3517
▁purpose	-10.3524
▁schumer	-10.3524
▁complaint	-10.3524
▁atlanta	-10.3528
▁Need	-10.3531
cra	-10.3531
tel	-10.3533
▁attended	-10.3535
▁questioned	-10.3537
▁urban	-10.3542
▁commissioner	-10.3546
od	-10.3548
rr	-10.3551
▁calif	-10.3552
▁earnings	-10.3555
▁whatever	-10.3557
▁cup	-10.3557
iest	-10.3558
▁crucial	-10.356
ue	-10.356
▁penn	-10.356
▁viral	-10.3561
▁rent	-10.3568
▁ja	-10.3573
▁Policy	-10.3578
▁Week	-10.3579
▁oklahoma	-10.3583
▁If	-10.3586
bu	-10.3592
▁alternative	-10.3593
▁sue	-10.3594
▁tied	-10.3595
▁presence	-10.3596
▁roof	-10.3597
▁passing	-10.3605
▁attract	-10.3605
▁surge	-10.362
▁migrant	-10.3623
▁Its	-10.3626
▁meaning	-10.3626
▁manchester	-10.3628
▁options	-10.3631
▁mess	-10.3631
▁discrimination	-10.3633
▁designer	-10.3634
▁bin	-10.3638
▁congressman	-10.364
▁effective	-10.3641
▁loud	-10.3652
▁rev	-10.3652
▁retail	-10.3654
▁shown	-10.3655
▁begun	-10.366
▁bat	-10.3663
▁pledged	-10.3669
▁mac	-10.3677
▁physical	-10.368
look	-10.3681
▁athletes	-10.3685
mate	-10.3686
▁destroy	-10.3686
▁racism	-10.3687
▁yemen	-10.3688
▁48	-10.3691
▁mail	-10.3692
▁determined	-10.3696
▁headlines	-10.3717
▁fly	-10.3717
oo	-10.3719
▁affected	-10.3719
▁lies	-10.3725
▁meetings	-10.3727
▁runs	-10.373
De	-10.3732
▁active	-10.3734
▁baltimore	-10.3736
▁window	-10.3738
▁link	-10.3738
rated	-10.3742
▁featured	-10.3745
▁leg	-10.3746
▁reference	-10.3747
▁mad	-10.3751
ory	-10.3757
▁firms	-10.3758
▁Syrian	-10.3758
▁San	-10.3759
▁buildings	-10.3759
▁advertising	-10.3761
mble	-10.3761
▁standards	-10.3764
▁require	-10.3769
ert	-10.3769
▁outrage	-10.3774
▁analyst	-10.3775
▁legislative	-10.3779
▁High	-10.3779
▁assets	-10.3781
▁worldwide	-10.3781
gy	-10.3784
▁quiet	-10.3784
▁islamist	-10.3787
▁wedding	-10.3788
▁targeting	-10.379
▁Year	-10.3794
▁Immigration	-10.3802
▁Ba	-10.3803
▁divided	-10.3812
▁soccer	-10.3816
▁explains	-10.3818
▁Ju	-10.3819
▁joy	-10.3822
▁ham	-10.3824
▁flat	-10.3831
who	-10.3832
▁industrial	-10.3835
▁steven	-10.3836
▁reveals	-10.3837
▁strip	-10.3842
cc	-10.3845
▁jeb	-10.3848
▁joke	-10.385
▁operating	-10.3854
▁iconic	-10.3864
▁hunt	-10.3865
▁rivals	-10.3866
▁Off	-10.3867
hu	-10.387
▁inspired	-10.3872
▁silver	-10.3872
▁alliance	-10.3872
▁ken	-10.3876
▁flying	-10.3877
For	-10.3879
▁ultimately	-10.3879
▁snap	-10.3885
▁pal	-10.3888
▁mon	-10.3889
▁ratings	-10.3889
▁heads	-10.389
▁Turn	-10.3891
▁negotiations	-10.3894
▁alert	-10.3902
▁clip	-10.3903
▁neighbor	-10.3909
▁hurricane	-10.3909
▁highway	-10.3917
▁Im	-10.3918
▁Mexico	-10.392
▁hired	-10.3927
ically	-10.3927
▁myself	-10.393
▁drivers	-10.393
▁asia	-10.3931
▁mountain	-10.3933
people	-10.3934
vent	-10.394
▁cal	-10.394
▁shootings	-10.3946
▁arguing	-10.3947
▁politician	-10.3947
▁ri	-10.3956
zy	-10.3957
▁witness	-10.3962
▁endorsed	-10.3967
▁severe	-10.3969
▁netflix	-10.3972
▁prompted	-10.3975
▁reject	-10.3978
▁ensure	-10.3978
▁option	-10.398
▁improve	-10.398
own	-10.398
▁collapse	-10.398
▁20,	-10.3981
▁sweeping	-10.3983
ification	-10.3983
▁moon	-10.3984
▁consumers	-10.3985
▁khan	-10.3986
▁commitment	-10.3986
▁matthew	-10.3988
▁nasa	-10.3994
▁index	-10.3997
rin	-10.4002
▁Breitbart	-10.4002
▁confidence	-10.4003
▁bottom	-10.4003
▁causing	-10.4004
▁kerry	-10.4006
ju	-10.4008
▁Cr	-10.401
▁Super	-10.4018
uit	-10.4028
▁tensions	-10.4031
▁Top	-10.4034
ong	-10.4034
▁frank	-10.4037
▁44	-10.4038
▁tests	-10.404
▁birthday	-10.4042
▁films	-10.4043
▁resign	-10.4043
▁plays	-10.4051
▁Deal	-10.4052
▁lie	-10.406
▁wi	-10.4066
▁Stop	-10.407
▁Florida	-10.4079
▁mcconnell	-10.4079
▁rallies	-10.4079
▁heavily	-10.4079
▁produced	-10.4081
▁located	-10.4082
▁loved	-10.4086
▁fu	-10.4088
late	-10.4098
sky	-10.41
▁heading	-10.41
most	-10.4101
▁describe	-10.4101
▁shoot	-10.4102
▁Post	-10.4104
sunday	-10.4107
▁donors	-10.4107
▁sport	-10.4113
.)"	-10.4118
▁sept	-10.4118
▁cartel	-10.412
▁2015.	-10.4121
lit	-10.4122
▁carrier	-10.4123
▁non	-10.4124
▁Speech	-10.4136
▁impossible	-10.4136
▁ronald	-10.4136
▁vermont	-10.4137
nes	-10.4138
▁unique	-10.4139
▁Race	-10.414
▁mix	-10.4146
▁louis	-10.4148
ison	-10.4148
▁usa	-10.415
▁headline	-10.4152
▁mets	-10.4156
▁behalf	-10.4159
▁Gra	-10.4161
▁bear	-10.4162
▁shocking	-10.4166
▁celebrated	-10.4167
▁brian	-10.4171
▁Putin	-10.4171
▁populist	-10.4175
▁davis	-10.4175
▁destroyed	-10.4192
dr	-10.4192
▁Fight	-10.4194
▁accusations	-10.4203
▁hosted	-10.4205
▁sounds	-10.4205
bar	-10.4212
▁mosque	-10.4213
▁Years	-10.4219
▁detroit	-10.4225
cr	-10.4226
▁accusing	-10.4233
▁tennessee	-10.4233
▁Judge	-10.4233
long	-10.4238
▁temporary	-10.4239
ich	-10.4245
▁fer	-10.4245
▁moore	-10.4253
ama	-10.4253
▁determine	-10.4261
▁Make	-10.4261
▁Live	-10.4262
▁Left	-10.4272
▁steel	-10.4272
▁barely	-10.4276
ced	-10.4277
▁regional	-10.4281
▁yahoo	-10.4286
▁En	-10.4287
▁coffee	-10.4291
▁resignation	-10.4294
▁rid	-10.4298
▁aggressive	-10.4303
ched	-10.4312
▁settle	-10.4319
▁fate	-10.4319
▁tri	-10.432
▁struggle	-10.4321
▁skin	-10.4324
▁trans	-10.4324
▁unveiled	-10.433
▁plus	-10.4331
▁strength	-10.4334
▁ally	-10.4344
▁col	-10.4344
▁’”	-10.4345
▁license	-10.4349
▁che	-10.435
▁praised	-10.435
▁pages	-10.4352
▁pm	-10.4353
▁coup	-10.4355
▁stein	-10.4356
▁songs	-10.4364
▁Se	-10.4366
▁flow	-10.4368
▁jumped	-10.4368
▁hackers	-10.4368
▁pursue	-10.4369
▁antonin	-10.4369
▁$9	-10.4372
▁Want	-10.4373
▁scale	-10.4374
▁narrow	-10.4374
?","	-10.4374
▁politically	-10.4379
▁matters	-10.438
book	-10.438
▁packed	-10.4382
▁feb	-10.4385
▁capture	-10.4386
▁everybody	-10.4388
▁horror	-10.4388
▁utah	-10.4389
▁systems	-10.4391
▁gotten	-10.4396
ella	-10.4396
uring	-10.4397
▁apart	-10.4398
▁affect	-10.4408
oy	-10.4412
▁seized	-10.4418
▁mor	-10.4418
pet	-10.4424
▁teams	-10.4428
▁striking	-10.4428
▁overhaul	-10.4428
▁profile	-10.4428
▁recount	-10.443
▁pacific	-10.443
▁perform	-10.4435
▁aside	-10.4437
bra	-10.4437
▁willing	-10.4441
▁neither	-10.4448
▁chamber	-10.4448
▁diet	-10.4449
▁These	-10.4453
▁exclusive	-10.4453
▁kid	-10.4457
nna	-10.446
▁carter	-10.4463
▁bashar	-10.4468
ari	-10.447
▁minor	-10.4471
▁pitch	-10.4472
▁Calls	-10.4474
▁Open	-10.4474
▁jon	-10.4476
▁lay	-10.4478
▁touch	-10.4485
▁Exclusive	-10.4485
▁worry	-10.4486
▁hat	-10.4487
▁proud	-10.4489
▁Our	-10.4492
▁There	-10.4495
▁Life	-10.4496
After	-10.45
▁43	-10.4503
▁expensive	-10.4507
reilly	-10.4507
▁click	-10.4509
▁spy	-10.451
▁alive	-10.4512
▁thinks	-10.453
▁deadline	-10.4533
▁Work	-10.4533
tte	-10.4537
▁royal	-10.4539
▁surprised	-10.4545
▁2009	-10.4546
▁kentucky	-10.4547
▁stolen	-10.4551
▁42	-10.4557
▁powers	-10.4557
▁gray	-10.456
▁aim	-10.4561
▁shouldn	-10.4562
▁pr	-10.4563
▁gar	-10.4565
11	-10.4566
▁widespread	-10.4567
▁kaine	-10.4569
▁Democratic	-10.457
▁guest	-10.4571
▁recording	-10.4572
▁goldman	-10.4576
▁symbol	-10.4586
▁blamed	-10.4586
▁missouri	-10.4587
▁slideshow	-10.4587
▁represents	-10.4587
▁targets	-10.459
▁actual	-10.4596
▁beauty	-10.4596
▁rolling	-10.4601
▁advisers	-10.4604
▁visited	-10.4605
▁treasury	-10.4607
▁rural	-10.4607
▁balance	-10.4607
▁conviction	-10.4608
put	-10.4611
mber	-10.4612
▁charlotte	-10.4617
▁consequences	-10.4624
▁Politics	-10.4627
▁Take	-10.4628
▁object	-10.4634
▁quit	-10.4636
▁solar	-10.464
▁fewer	-10.4641
▁update	-10.4641
ify	-10.4646
▁Video	-10.4647
▁speeches	-10.4649
▁Na	-10.4649
▁handle	-10.4651
▁difference	-10.4651
▁developed	-10.4653
▁suburb	-10.4663
No	-10.4663
▁legend	-10.4667
▁independence	-10.4667
▁updated	-10.4674
cl	-10.4675
▁tale	-10.4682
▁formally	-10.4683
▁circle	-10.4687
▁silence	-10.4687
▁surgery	-10.4689
▁spotted	-10.469
▁hacked	-10.4691
▁earned	-10.4694
▁x	-10.4703
▁Bi	-10.4704
▁interesting	-10.4707
▁attempts	-10.4708
▁Justice	-10.4708
▁2012,	-10.4709
▁eating	-10.4709
▁fish	-10.4709
▁healthy	-10.4711
▁staffers	-10.4713
▁Fire	-10.4713
▁wars	-10.4717
bor	-10.4718
ese	-10.4719
▁alcohol	-10.4728
▁judiciary	-10.4728
▁variety	-10.4728
▁1980	-10.4729
▁location	-10.4735
▁CNN	-10.4741
▁express	-10.4748
▁usual	-10.4749
▁hits	-10.475
tch	-10.4753
▁illinois	-10.4768
▁medicine	-10.4769
▁unexpected	-10.4774
▁extend	-10.4775
▁publication	-10.4775
▁cloud	-10.478
▁manufacturing	-10.4789
▁pet	-10.479
▁gary	-10.4791
pon	-10.4793
bil	-10.4795
▁palm	-10.4799
▁crashed	-10.4799
▁dealing	-10.4801
mic	-10.4807
▁min	-10.4809
▁delay	-10.4809
▁seemingly	-10.4809
▁disney	-10.4812
real	-10.4813
▁weak	-10.4815
▁boom	-10.4816
eu	-10.4816
▁customs	-10.4816
▁teachers	-10.4817
▁Y	-10.4819
▁testing	-10.4819
▁crazy	-10.4822
▁2013,	-10.4822
▁sparked	-10.4822
▁demanding	-10.4824
▁rob	-10.4824
▁37	-10.4825
▁interested	-10.4826
▁drove	-10.483
▁backlash	-10.4833
▁promote	-10.4841
▁depend	-10.4847
▁moves	-10.4847
iff	-10.4848
▁closely	-10.4849
▁transportation	-10.4851
▁hero	-10.4852
▁anthem	-10.4852
▁parade	-10.4854
▁conversations	-10.4854
▁dismissed	-10.4854
▁unless	-10.4854
▁granted	-10.4856
▁pi	-10.4859
▁pack	-10.486
▁produce	-10.486
▁resigned	-10.4867
▁su	-10.4869
▁execution	-10.4871
▁liberty	-10.4871
▁numerous	-10.4871
▁departure	-10.4871
▁wildlife	-10.4871
▁characters	-10.4875
▁obvious	-10.4877
▁tight	-10.4878
▁dance	-10.4878
lip	-10.4881
▁engaged	-10.4882
▁caucuses	-10.4884
breitbart	-10.4888
▁guys	-10.4889
▁franchise	-10.4891
▁penalty	-10.4891
providing	-10.4892
▁intense	-10.4892
▁hbo	-10.4895
▁rex	-10.4898
▁34	-10.4899
▁invited	-10.49
▁nominated	-10.4906
▁horse	-10.4914
▁Israel	-10.4917
▁truly	-10.4921
▁beating	-10.4926
▁stra	-10.4929
nce	-10.4932
▁harvard	-10.4933
▁temporarily	-10.4933
▁boat	-10.4935
▁ob	-10.4945
▁glass	-10.4953
▁regret	-10.4954
▁hopeful	-10.4955
▁answers	-10.4957
▁increasing	-10.496
▁columnist	-10.4964
rio	-10.4966
▁structure	-10.4974
▁urging	-10.4975
▁38	-10.4975
▁1990	-10.4975
▁2007	-10.4977
▁items	-10.4979
▁Col	-10.4982
▁mine	-10.4988
qua	-10.4993
▁losses	-10.4994
▁conclusion	-10.4995
▁phrase	-10.4995
▁priebus	-10.4995
▁interference	-10.4995
▁score	-10.4997
▁seats	-10.5
ff	-10.5001
star	-10.5006
▁spark	-10.5006
▁youth	-10.5008
▁expert	-10.501
any	-10.5012
▁pace	-10.5013
▁rebels	-10.5016
sure	-10.5018
▁institutions	-10.5025
▁Meet	-10.5039
▁predicted	-10.5041
▁Pence	-10.5043
▁suffering	-10.5044
▁ge	-10.5048
▁Daily	-10.5058
▁rifle	-10.5058
▁wing	-10.5059
▁diego	-10.506
▁except	-10.506
cher	-10.507
hold	-10.5078
▁relief	-10.5079
istic	-10.5083
▁print	-10.5084
▁Star	-10.5091
▁sam	-10.5091
▁ce	-10.5095
▁mary	-10.5099
▁receiving	-10.51
▁afghan	-10.51
▁orange	-10.5102
je	-10.5102
▁Li	-10.5111
▁pot	-10.5112
▁chelsea	-10.5113
▁effectively	-10.5117
▁landed	-10.5117
▁attempting	-10.5121
▁girlfriend	-10.5122
▁charity	-10.5122
▁jay	-10.5123
▁memory	-10.5124
dent	-10.5127
▁accepted	-10.5129
▁Br	-10.5139
▁boycott	-10.5143
▁Look	-10.5143
▁package	-10.5144
▁literally	-10.5144
▁pounds	-10.5147
▁represent	-10.5149
▁attacking	-10.5152
cle	-10.5156
▁aviv	-10.5156
▁finished	-10.5164
▁rebel	-10.5167
▁bre	-10.5179
▁weren	-10.518
▁covering	-10.5184
▁fisher	-10.5189
▁hang	-10.5193
gr	-10.5196
▁queens	-10.5201
fire	-10.5204
fall	-10.5205
▁interior	-10.5206
▁otherwise	-10.5208
▁smartphone	-10.5208
▁hi	-10.5209
ery	-10.521
▁drone	-10.5212
oh	-10.5212
▁alien	-10.5216
▁ap	-10.5217
▁libya	-10.5219
▁endorse	-10.5224
▁College	-10.5227
▁announcing	-10.5227
▁easily	-10.5227
▁narrative	-10.5227
▁resident	-10.5228
▁subway	-10.5229
▁solution	-10.523
▁fame	-10.5233
ette	-10.5245
▁blast	-10.5245
▁schedule	-10.5247
▁journey	-10.5249
▁busy	-10.5256
good	-10.5257
▁diversity	-10.5262
▁waters	-10.5266
▁scrutiny	-10.527
▁user	-10.527
ook	-10.5273
▁scientific	-10.5279
▁featuring	-10.5292
▁solid	-10.5292
▁slightly	-10.5297
▁gained	-10.53
▁chase	-10.5301
▁Dead	-10.5305
▁plea	-10.531
su	-10.5312
▁Sessions	-10.5313
▁error	-10.5313
▁expansion	-10.5313
▁forum	-10.5314
ium	-10.5316
▁lying	-10.5317
▁desk	-10.5319
▁returning	-10.533
▁icon	-10.5332
▁missed	-10.5332
▁graduate	-10.5333
▁halt	-10.5334
▁drink	-10.5345
▁raid	-10.5351
▁oppose	-10.5355
▁Even	-10.536
▁rush	-10.5365
▁talent	-10.5366
▁extended	-10.5371
▁tea	-10.5375
▁encounter	-10.5387
▁twist	-10.5399
▁joseph	-10.54
▁kevin	-10.54
▁warrant	-10.5405
▁Europe	-10.5405
▁percentage	-10.5408
▁Fed	-10.5412
▁chose	-10.5415
▁traveling	-10.5418
▁lynch	-10.5421
▁unclear	-10.5423
▁lgbt	-10.5427
▁defending	-10.5442
▁noticed	-10.5454
▁hol	-10.5456
▁insisted	-10.5456
▁39	-10.5461
away	-10.5463
▁absolutely	-10.5463
▁cuomo	-10.5465
▁slammed	-10.5465
▁merkel	-10.5465
▁feed	-10.5466
▁resources	-10.5467
▁pakistan	-10.5467
▁neck	-10.5467
▁suspects	-10.5468
▁complicated	-10.5468
▁beck	-10.5469
▁pan	-10.5472
▁younger	-10.5474
▁Uber	-10.5475
amp	-10.5476
eb	-10.5479
▁partial	-10.5482
▁backing	-10.5485
▁venezuela	-10.5486
▁knicks	-10.5487
▁notes	-10.5494
▁outbreak	-10.5496
▁fallen	-10.55
▁grown	-10.5501
▁West	-10.5503
▁babies	-10.5509
▁threw	-10.5509
▁defect	-10.5509
▁handful	-10.5515
▁columbia	-10.5517
▁latino	-10.5519
▁marks	-10.5523
lon	-10.5525
▁jordan	-10.5529
yes	-10.553
▁ancient	-10.5531
▁vacation	-10.5531
▁appointment	-10.5532
▁baker	-10.5533
del	-10.5536
ken	-10.5537
▁drawing	-10.5537
▁nobody	-10.5544
▁addressed	-10.5551
▁asylum	-10.5553
He	-10.5557
▁feminist	-10.5562
▁seattle	-10.5565
▁currency	-10.5575
▁praise	-10.5575
▁sugar	-10.5576
▁stick	-10.5576
▁Sc	-10.5576
▁josh	-10.5577
▁editorial	-10.5578
▁Right	-10.5579
▁withdraw	-10.5582
▁flash	-10.5583
▁Shooting	-10.5585
▁teenager	-10.5594
hand	-10.5597
▁judges	-10.5597
mor	-10.5607
get	-10.5615
▁sweet	-10.5615
▁medicaid	-10.5619
▁zuckerberg	-10.5619
▁directed	-10.5622
▁stance	-10.5628
▁41	-10.5628
▁fat	-10.563
▁concluded	-10.563
▁Turkey	-10.5633
ock	-10.5642
▁rice	-10.5646
▁dressed	-10.5652
▁acknowledged	-10.5653
▁melania	-10.5653
▁oscar	-10.5658
▁bizarre	-10.5664
▁amazing	-10.5664
lum	-10.5664
nie	-10.5665
▁Still	-10.5666
cus	-10.5671
▁cutting	-10.5671
▁gross	-10.5672
uk	-10.5684
▁embassy	-10.5686
▁minimum	-10.5686
▁poverty	-10.5686
▁smoke	-10.5686
▁tu	-10.5686
▁bbc	-10.5687
▁wealth	-10.5695
▁hitting	-10.5698
▁wealthy	-10.5699
▁minute	-10.5703
▁commentator	-10.571
▁yourself	-10.571
▁seeks	-10.5713
▁detailed	-10.5716
▁registered	-10.5716
▁strategic	-10.5717
gged	-10.5723
gger	-10.5723
rich	-10.5729
▁empire	-10.5731
▁trillion	-10.5731
▁injury	-10.5731
▁grave	-10.5739
▁basis	-10.5754
▁referred	-10.5754
▁cor	-10.5756
▁$8	-10.5761
▁starts	-10.5766
▁janeiro	-10.5776
▁graham	-10.5776
▁tone	-10.5777
▁mel	-10.5778
▁Cha	-10.578
▁brothers	-10.578
▁berlin	-10.5782
▁phil	-10.5783
▁streaming	-10.5786
▁unable	-10.5787
ola	-10.5789
Re	-10.5798
▁est	-10.5798
▁curb	-10.5799
▁entry	-10.5799
pan	-10.5799
▁allows	-10.5799
gel	-10.5801
▁shadow	-10.5801
▁file	-10.5805
▁tree	-10.5809
▁unlike	-10.5812
▁remarkable	-10.5822
▁homeless	-10.5823
▁experienced	-10.5824
▁tro	-10.5828
▁Game	-10.5828
iling	-10.5831
▁gra	-10.584
▁visiting	-10.5843
▁lewis	-10.5844
▁formal	-10.5844
▁ph	-10.5845
▁followers	-10.5851
▁bars	-10.5855
▁factory	-10.5855
▁pin	-10.5859
▁3.	-10.5864
▁practices	-10.5864
▁Times	-10.5865
▁motion	-10.5865
▁promising	-10.5866
▁landmark	-10.5867
kh	-10.5876
att	-10.5877
▁log	-10.5881
▁enjoy	-10.5883
▁drinking	-10.5886
▁podesta	-10.5889
▁gulf	-10.5889
gl	-10.5893
▁learning	-10.5894
▁Pa	-10.5901
▁holds	-10.5903
▁topic	-10.5905
ada	-10.5906
▁kicked	-10.591
▁kellyanne	-10.5912
▁macron	-10.5913
ram	-10.5914
▁See	-10.5915
▁extreme	-10.592
▁witnesses	-10.592
▁Men	-10.5921
▁Michael	-10.5923
▁artists	-10.5924
▁dating	-10.5927
▁phones	-10.5932
▁survive	-10.5935
▁parking	-10.5937
▁santa	-10.5938
▁theresa	-10.5939
▁mouth	-10.5939
▁cho	-10.5941
▁dogs	-10.5941
fr	-10.5942
vy	-10.595
pri	-10.5956
▁undocumented	-10.5958
▁fought	-10.5958
▁ok	-10.5958
▁Order	-10.5958
▁musk	-10.5959
▁finger	-10.596
pre	-10.5968
▁sued	-10.597
▁netanyahu	-10.5981
▁tournament	-10.5981
▁archive	-10.5982
▁2000	-10.5983
▁reader	-10.5983
▁2001	-10.5983
tepped	-10.5984
▁Political	-10.5993
▁Ca	-10.5993
ement	-10.5996
▁quietly	-10.5999
▁extremely	-10.6
▁activities	-10.6004
▁Way	-10.6005
▁zoo	-10.6009
ail	-10.6011
▁Lead	-10.6012
▁Google	-10.6015
▁French	-10.6027
▁equity	-10.6027
▁unknown	-10.6028
▁partisan	-10.6028
water	-10.6035
Donald	-10.6036
▁rand	-10.6041
▁visitors	-10.6046
▁pac	-10.605
▁militia	-10.605
▁reputation	-10.605
▁christians	-10.6051
▁meanwhile	-10.6051
met	-10.6054
▁flights	-10.6056
▁refuge	-10.6056
▁developer	-10.6059
▁routine	-10.6059
▁soft	-10.6062
▁towards	-10.6065
▁Good	-10.6069
▁arrival	-10.6073
▁devos	-10.6074
▁generally	-10.6075
▁rating	-10.6075
▁Ka	-10.6078
▁hundred	-10.608
mes	-10.6087
ai	-10.6091
▁explore	-10.6097
▁0.	-10.6097
▁surface	-10.6097
▁highlight	-10.6098
rc	-10.6104
▁prospect	-10.6104
nder	-10.6104
▁leak	-10.6105
net	-10.6106
▁Sex	-10.611
▁harder	-10.6111
▁Su	-10.6115
▁transfer	-10.6119
▁tie	-10.6121
▁everywhere	-10.6121
▁chosen	-10.6129
▁joining	-10.613
▁ch	-10.6134
▁$20	-10.6143
▁overseas	-10.6143
▁soul	-10.6145
▁merger	-10.6147
10	-10.6149
▁equal	-10.6149
▁lit	-10.6154
rri	-10.6159
law	-10.6163
▁audio	-10.6166
table	-10.6166
▁bottle	-10.6167
▁sharing	-10.6168
▁stuck	-10.617
▁oval	-10.617
burg	-10.6171
▁developing	-10.6179
▁typically	-10.6179
▁trigger	-10.6179
▁presented	-10.6181
▁Ch	-10.6184
▁chi	-10.6184
▁op	-10.6186
mark	-10.6187
▁egypt	-10.6188
▁dictator	-10.6189
▁chancellor	-10.619
▁continuing	-10.619
▁Federal	-10.619
▁affiliate	-10.6191
▁effects	-10.6193
▁scores	-10.6196
rid	-10.6196
▁46	-10.6197
▁Call	-10.6201
▁chip	-10.6203
▁tap	-10.6209
▁responding	-10.6211
▁missiles	-10.6211
▁upper	-10.6213
▁nypd	-10.6213
▁ukraine	-10.6213
▁erdogan	-10.6214
▁compete	-10.6214
part	-10.6215
▁meat	-10.6217
▁ends	-10.6231
As	-10.6233
▁explanation	-10.6237
▁podcast	-10.6237
▁scheme	-10.6237
▁desert	-10.6238
▁speculation	-10.6238
▁brazilian	-10.6241
▁gear	-10.6244
▁shell	-10.6245
▁Rep	-10.6256
▁flood	-10.6257
mmer	-10.6258
america	-10.6259
lly	-10.6259
▁remote	-10.6261
▁bipartisan	-10.6261
▁desire	-10.6261
▁ballistic	-10.6261
▁shirt	-10.6261
▁extraordinary	-10.627
▁mitt	-10.6273
▁Voters	-10.6278
▁socialist	-10.6279
ened	-10.6285
▁47	-10.6289
▁restaurants	-10.629
▁trick	-10.6298
▁pleaded	-10.63
mr	-10.6305
▁borders	-10.6306
▁stress	-10.6308
▁species	-10.6308
▁barrel	-10.6309
▁warming	-10.6316
tom	-10.6322
▁militant	-10.6323
▁Most	-10.6329
▁funeral	-10.6332
▁aftermath	-10.6332
▁permit	-10.6332
form	-10.6333
▁ear	-10.6335
▁folks	-10.6337
▁celebrities	-10.6338
▁handling	-10.6341
▁ill	-10.6341
have	-10.6342
▁Pay	-10.6349
dom	-10.6351
▁patriots	-10.6352
ala	-10.6353
▁tear	-10.6354
▁Government	-10.6356
▁marlow	-10.6357
▁EU	-10.6359
▁broker	-10.6363
bol	-10.6367
▁sixth	-10.6373
▁jared	-10.6373
ush	-10.6374
▁istanbul	-10.6376
▁founded	-10.6377
▁Power	-10.638
list	-10.638
▁Saudi	-10.638
▁max	-10.6381
bit	-10.6392
▁exposed	-10.6394
itch	-10.6397
ray	-10.6398
▁dump	-10.6401
▁seal	-10.6409
▁Tell	-10.641
▁$15	-10.6411
▁bitter	-10.6411
▁monitor	-10.6411
oli	-10.6416
▁regulators	-10.6417
▁forget	-10.6421
▁sachs	-10.6429
ou	-10.6434
▁undermine	-10.6435
ani	-10.6436
▁canceled	-10.6438
▁Play	-10.6441
▁Illegal	-10.6452
▁anonymous	-10.6452
▁lunch	-10.6452
▁resist	-10.6452
▁spotlight	-10.6453
▁illness	-10.6453
▁nazi	-10.6455
▁offense	-10.6456
▁nominees	-10.6465
▁questioning	-10.6471
▁des	-10.6475
▁risks	-10.6476
▁replied	-10.6476
▁justin	-10.648
▁sand	-10.6481
ob	-10.6481
▁mateen	-10.6482
▁spirit	-10.6489
▁cancel	-10.649
▁spin	-10.6494
cho	-10.6495
▁demands	-10.6504
▁apply	-10.6513
ches	-10.6515
▁Air	-10.6517
▁easier	-10.6525
▁alaska	-10.6525
▁shelter	-10.6525
▁creator	-10.6525
▁involvement	-10.6525
▁Long	-10.6527
▁recovery	-10.6532
▁totally	-10.6532
▁cr	-10.6532
▁qui	-10.6539
▁craft	-10.654
ef	-10.6546
▁Security	-10.6549
▁restrictions	-10.6549
▁abroad	-10.655
face	-10.6551
▁si	-10.6555
ble	-10.6555
▁rod	-10.6565
ld	-10.6567
▁dam	-10.6567
▁mid	-10.6571
▁knife	-10.6573
▁established	-10.6575
▁brady	-10.6582
▁bow	-10.6586
ency	-10.6589
▁nationalist	-10.6591
fo	-10.6593
▁hawaii	-10.6598
▁broadway	-10.6599
▁taste	-10.6611
▁ross	-10.6613
▁peak	-10.6614
▁producers	-10.6616
▁rein	-10.6616
▁asks	-10.6617
▁decisions	-10.6617
▁$2.	-10.662
▁humans	-10.6622
▁devastating	-10.6622
▁France	-10.6622
▁vox	-10.6624
▁mitch	-10.6626
▁investigations	-10.6627
▁accord	-10.6631
▁pla	-10.6637
ander	-10.6638
▁patient	-10.664
▁harris	-10.6642
▁guests	-10.6645
fight	-10.6645
▁Keep	-10.6647
▁hoped	-10.6647
▁interviews	-10.6651
▁repeated	-10.6651
▁manage	-10.6652
▁arena	-10.6652
▁essentially	-10.6655
▁Girl	-10.666
▁Great	-10.6664
▁han	-10.6666
▁Sea	-10.6672
rap	-10.6674
▁calm	-10.668
▁65	-10.6682
▁hole	-10.6685
▁hire	-10.6686
london	-10.6689
has	-10.6692
▁driven	-10.6693
tail	-10.6693
▁Department	-10.6696
▁mystery	-10.6696
▁searching	-10.6699
rew	-10.6701
life	-10.6702
▁organized	-10.6703
▁microsoft	-10.6706
▁austin	-10.6711
▁occasion	-10.6713
▁mi	-10.6717
▁qu	-10.672
▁4.	-10.6721
▁earthquake	-10.6721
▁wheel	-10.6721
▁ros	-10.6721
▁susan	-10.6723
erson	-10.6724
▁ram	-10.6725
lk	-10.6729
▁segment	-10.6746
ale	-10.6747
▁edward	-10.6747
▁advocate	-10.6754
▁hiring	-10.6771
),"	-10.6771
▁approve	-10.6773
art	-10.6773
▁aired	-10.6779
30	-10.678
bel	-10.6783
It	-10.6788
ple	-10.6793
▁tur	-10.6794
▁puerto	-10.6795
▁chicken	-10.6796
▁United	-10.6796
▁venture	-10.6796
fra	-10.6798
▁Team	-10.6801
▁hike	-10.6811
▁ya	-10.682
▁monument	-10.682
▁universe	-10.682
▁collins	-10.682
▁beloved	-10.6821
▁2004	-10.6824
▁queen	-10.6826
his	-10.6828
▁soldier	-10.6829
▁chances	-10.683
▁chat	-10.6834
▁debates	-10.6836
▁auction	-10.6846
▁conflicts	-10.6846
▁subscribers	-10.6846
▁critic	-10.6848
ean	-10.6849
▁wh	-10.6849
▁52	-10.685
▁Protest	-10.685
ele	-10.6853
▁discovery	-10.6856
▁advisor	-10.6858
▁inmates	-10.686
▁arguments	-10.6864
▁corps	-10.6866
▁oversight	-10.6871
▁East	-10.6872
▁Or	-10.6876
▁handed	-10.6882
▁traveled	-10.6884
lee	-10.6889
▁performed	-10.6889
▁xi	-10.6895
▁bankruptcy	-10.6896
▁Talk	-10.6896
▁struggled	-10.69
aff	-10.6901
▁combined	-10.6906
▁Gu	-10.6906
▁Ne	-10.6912
fu	-10.6918
▁proposals	-10.6918
▁odd	-10.6921
▁University	-10.6921
▁legislature	-10.6921
▁quality	-10.6921
▁posting	-10.6925
▁networks	-10.6928
▁Head	-10.6928
▁links	-10.693
▁Paris	-10.6931
▁Matter	-10.6932
ets	-10.6933
▁forest	-10.6933
▁fled	-10.6937
▁refer	-10.694
▁London	-10.6946
▁Orlando	-10.6946
▁challenging	-10.6946
▁connecticut	-10.6946
▁ci	-10.6949
▁arrive	-10.6949
▁self	-10.6951
▁bold	-10.6954
▁surrounded	-10.6954
ini	-10.6956
▁cro	-10.6959
▁becomes	-10.696
▁Part	-10.6961
▁smaller	-10.6968
▁retirement	-10.6973
dia	-10.6974
▁Mexican	-10.698
▁anymore	-10.6981
▁shots	-10.6985
▁latin	-10.6987
▁complaints	-10.6989
▁concept	-10.6991
▁philippines	-10.6991
▁murdered	-10.6994
▁hispanic	-10.6997
▁causes	-10.7001
▁toll	-10.7002
▁11,	-10.7007
▁household	-10.7008
bin	-10.7012
▁Free	-10.7015
ica	-10.7015
▁disrupt	-10.7016
▁vo	-10.7016
point	-10.7019
char	-10.702
▁Force	-10.7024
▁1970	-10.7024
▁smile	-10.7024
▁cameras	-10.7024
arm	-10.7025
▁papers	-10.7025
▁nick	-10.7027
stand	-10.7029
▁ny	-10.7029
▁evan	-10.7031
▁frequently	-10.7033
lies	-10.7035
▁150	-10.7035
▁asian	-10.7043
will	-10.7046
▁weird	-10.7049
▁harry	-10.7052
▁incidents	-10.706
ifying	-10.706
▁euro	-10.7065
▁crown	-10.7075
▁resistance	-10.7075
▁urge	-10.7077
▁selection	-10.708
",	-10.708
mann	-10.7085
▁51	-10.7085
▁violated	-10.7093
▁clinic	-10.7096
▁detail	-10.7097
nger	-10.7099
▁spokesperson	-10.71
▁inquiry	-10.71
▁boyfriend	-10.71
today	-10.7103
▁demanded	-10.7104
▁kong	-10.7104
big	-10.7104
▁Che	-10.7107
▁approached	-10.7108
mal	-10.711
▁comic	-10.7112
▁register	-10.7117
▁lab	-10.7119
reuters	-10.7122
▁mississippi	-10.7125
▁predecessor	-10.7125
▁fiscal	-10.7125
▁dubbed	-10.7126
▁NYC	-10.7126
▁spanish	-10.7127
▁grim	-10.7129
▁tourists	-10.7131
▁Inside	-10.7143
▁chart	-10.715
▁tall	-10.7151
▁James	-10.7151
▁opioid	-10.7151
▁duterte	-10.7151
▁celebrating	-10.7151
bert	-10.7152
▁infection	-10.7153
▁mandate	-10.7156
zer	-10.7157
▁advanced	-10.7165
▁falls	-10.7168
▁sees	-10.7172
▁aliens	-10.7176
▁Group	-10.7177
▁benjamin	-10.7177
▁2016.	-10.718
elle	-10.7183
▁projects	-10.7183
▁actors	-10.7188
▁Sen	-10.7188
ew	-10.7199
udi	-10.7201
▁kaepernick	-10.7203
▁refusing	-10.7203
▁apologize	-10.7206
▁greg	-10.721
▁ease	-10.7211
chin	-10.7212
▁pulling	-10.7215
ya	-10.7223
▁virtual	-10.7228
▁Christian	-10.7229
▁sweden	-10.7229
ening	-10.7229
▁describing	-10.723
▁collective	-10.7231
▁greet	-10.7232
▁completed	-10.7234
▁locked	-10.7236
▁bombs	-10.7239
▁fighter	-10.724
lton	-10.7241
▁drawn	-10.7242
▁succeed	-10.7247
▁Test	-10.7248
▁earn	-10.7254
▁flint	-10.7255
▁terry	-10.7255
▁midnight	-10.7256
▁harsh	-10.7259
wo	-10.7259
▁payments	-10.726
▁privilege	-10.7266
▁Students	-10.7269
▁4,	-10.7274
▁method	-10.7279
▁Think	-10.7282
▁unemployment	-10.7282
▁jews	-10.7282
▁findings	-10.7282
▁rapper	-10.7283
▁belt	-10.7285
▁shocked	-10.7285
▁veto	-10.7286
▁visa	-10.7286
these	-10.7291
▁Ask	-10.7296
san	-10.7297
nny	-10.7299
▁restrict	-10.73
▁portion	-10.73
itz	-10.7302
▁epidemic	-10.7308
▁oct	-10.731
▁funny	-10.731
▁listed	-10.7318
▁odds	-10.7321
▁strongly	-10.7322
▁tribute	-10.7325
run	-10.7325
▁intention	-10.7333
▁academic	-10.7334
▁acquisition	-10.7334
▁kurdish	-10.7334
▁History	-10.7335
▁appropriate	-10.7335
▁standoff	-10.7337
▁dnc	-10.7339
▁operate	-10.7339
▁doors	-10.7343
mus	-10.7347
▁Th	-10.7347
american	-10.7348
era	-10.7352
ump	-10.7357
every	-10.7359
▁55	-10.7361
▁warner	-10.7362
pass	-10.7364
▁Him	-10.7365
▁rarely	-10.7371
▁tre	-10.7375
▁cheap	-10.7376
▁sentences	-10.7376
▁understanding	-10.7378
▁breach	-10.7382
▁bias	-10.7385
▁manning	-10.7385
▁contrast	-10.7387
ised	-10.7389
▁scar	-10.7392
▁lane	-10.7395
▁spoken	-10.7397
▁tar	-10.7399
cast	-10.7403
▁carl	-10.7413
▁Comp	-10.7413
▁application	-10.7414
night	-10.7415
▁prepare	-10.7418
mu	-10.7422
▁Killed	-10.7426
▁heroin	-10.7428
ban	-10.7429
▁woods	-10.7435
ppy	-10.7436
80	-10.744
▁assembly	-10.744
▁universities	-10.744
▁instance	-10.744
▁clothes	-10.744
▁explosive	-10.7442
▁53	-10.7442
▁fields	-10.7444
▁settled	-10.7445
▁ann	-10.745
▁personally	-10.7452
▁writers	-10.746
▁theme	-10.7461
▁arkansas	-10.7467
▁guess	-10.7467
▁zero	-10.7468
worn	-10.7469
▁celebration	-10.747
▁regulatory	-10.7473
▁develop	-10.7475
▁tool	-10.7476
▁checks	-10.7479
▁keeps	-10.7482
▁liberals	-10.7483
▁yellow	-10.7494
▁patrick	-10.7494
▁gut	-10.7496
test	-10.7496
▁recruit	-10.7504
▁experiment	-10.7513
▁representing	-10.7518
▁dow	-10.7518
▁emissions	-10.752
▁tennis	-10.752
▁pride	-10.7521
▁childhood	-10.7522
▁regulation	-10.7524
▁correspondent	-10.7525
▁degree	-10.7527
▁UK	-10.7529
ston	-10.7532
▁Suspect	-10.7532
▁bound	-10.7539
▁equipment	-10.7547
▁buzz	-10.7549
▁windows	-10.7555
▁thr	-10.7555
To	-10.7561
▁Before	-10.7561
▁honest	-10.7562
oke	-10.7565
▁rage	-10.7565
want	-10.7565
zar	-10.757
▁emerging	-10.7574
▁influential	-10.7574
▁jerry	-10.7574
▁impeachment	-10.7575
▁infant	-10.7577
why	-10.7579
▁metal	-10.7586
▁testify	-10.7587
▁marketing	-10.7592
▁appointed	-10.7598
▁opposite	-10.7601
▁newsletter	-10.7601
hor	-10.7601
▁mcc	-10.7603
▁mcdonald	-10.7604
▁attacker	-10.7606
front	-10.7607
▁stranger	-10.7607
▁delegate	-10.7607
▁maintain	-10.7608
▁omar	-10.7609
▁Mike	-10.7616
bul	-10.7622
▁Again	-10.7627
▁enemy	-10.7628
▁pattern	-10.7628
▁myth	-10.7629
▁puts	-10.7632
▁cruise	-10.7633
▁somebody	-10.7634
▁pad	-10.7636
▁plain	-10.7637
▁tries	-10.764
▁allen	-10.7649
ura	-10.7654
▁kitchen	-10.7655
▁operator	-10.7656
▁picks	-10.766
▁qua	-10.7676
▁lift	-10.7676
▁Dur	-10.7677
▁signing	-10.7679
▁antonio	-10.7683
▁warriors	-10.7683
▁admission	-10.7683
▁loose	-10.7685
▁hardly	-10.7685
▁Hit	-10.7686
▁pink	-10.769
▁confident	-10.7692
▁shake	-10.7697
▁palin	-10.7698
60	-10.7699
▁disturbing	-10.7701
▁describes	-10.7701
▁Dies	-10.7707
▁snapchat	-10.771
▁rouge	-10.771
▁clothing	-10.771
▁nightmare	-10.771
▁uncertainty	-10.7711
▁travelers	-10.7712
▁tan	-10.7725
▁bronx	-10.7737
▁bomber	-10.7739
rag	-10.774
▁indicted	-10.7742
▁30,	-10.7743
▁rat	-10.7743
▁Love	-10.7749
▁millennials	-10.7756
▁promot	-10.776
▁teenage	-10.776
▁bet	-10.7764
▁reacted	-10.7764
▁Climate	-10.7765
▁tears	-10.7767
▁function	-10.7778
▁solve	-10.7781
▁blasted	-10.7781
▁tony	-10.7787
▁99	-10.779
▁Repeal	-10.7792
▁helicopter	-10.7792
ria	-10.7792
▁Jeff	-10.7793
▁Pe	-10.7802
▁Student	-10.7805
wore	-10.7809
▁scenes	-10.7812
▁uniform	-10.782
▁eager	-10.782
▁assessment	-10.7822
$	-10.7825
▁launching	-10.7828
▁assad	-10.7829
got	-10.7831
▁angela	-10.7833
▁signal	-10.7833
You	-10.7833
utter	-10.7835
▁baton	-10.7837
▁spa	-10.7843
▁loyal	-10.7846
▁facilities	-10.7848
▁vietnam	-10.7848
▁innocent	-10.7848
▁mars	-10.7848
▁nancy	-10.7849
▁sharply	-10.785
▁clients	-10.7853
black	-10.7855
atory	-10.7855
trust	-10.7855
dding	-10.7856
▁anderson	-10.7858
▁seconds	-10.7858
▁NFL	-10.7859
▁fierce	-10.7861
▁March	-10.7869
bury	-10.7872
teen	-10.7874
▁samsung	-10.7875
▁premiere	-10.7876
▁connect	-10.7877
ough	-10.7878
▁indicate	-10.7881
▁lock	-10.7889
pot	-10.7893
ique	-10.7899
▁disagree	-10.7901
▁administrator	-10.7903
▁inaugural	-10.7903
▁taylor	-10.7903
▁statue	-10.7903
▁tenure	-10.7905
▁2020	-10.7907
ologist	-10.7916
▁uses	-10.792
▁mer	-10.7922
log	-10.7923
▁ray	-10.7926
ami	-10.793
▁banking	-10.7931
▁requested	-10.7931
▁Family	-10.7931
▁donations	-10.7933
▁jimmy	-10.7933
▁Presidential	-10.7934
▁5,	-10.7936
▁paint	-10.7937
▁aware	-10.7941
▁rapidly	-10.7944
▁wolf	-10.7959
▁disorder	-10.796
clinton	-10.7966
illa	-10.7968
▁thrown	-10.7973
▁Control	-10.7974
rep	-10.7976
▁expanding	-10.7976
▁grab	-10.7981
▁Jo	-10.7982
uch	-10.7982
▁empty	-10.7987
▁inflation	-10.7987
▁disclosure	-10.7987
▁contentious	-10.7989
ara	-10.7996
▁closest	-10.8
▁ski	-10.8003
▁estimates	-10.8004
▁pok	-10.8009
▁wine	-10.8009
▁reflect	-10.8011
▁declaring	-10.8016
▁fundraising	-10.8016
▁breakfast	-10.8016
▁replaced	-10.8016
▁2006	-10.8019
▁arts	-10.8024
pr	-10.8027
▁Give	-10.8034
▁condemned	-10.8037
▁predict	-10.8039
▁fail	-10.8041
▁Steve	-10.8043
▁Murder	-10.8044
▁stabbed	-10.8044
▁personnel	-10.8045
▁$3.	-10.8047
▁historical	-10.8048
▁mattis	-10.8053
▁personality	-10.8058
▁realize	-10.8059
▁posed	-10.8065
▁colin	-10.8065
▁tackle	-10.8069
set	-10.8071
▁premier	-10.8071
▁detention	-10.8072
▁British	-10.8072
▁customer	-10.8072
▁attending	-10.8075
▁Chicago	-10.8081
▁Real	-10.8083
▁fargo	-10.8086
▁discussions	-10.8086
▁abu	-10.8091
▁Does	-10.8092
▁porn	-10.8095
▁mysterious	-10.8101
▁saved	-10.8103
▁declare	-10.8106
first	-10.8108
▁roman	-10.811
▁renewed	-10.8113
▁dominated	-10.8116
▁takeover	-10.8116
▁weigh	-10.8123
▁landing	-10.8124
▁acts	-10.8133
▁fleeing	-10.8135
▁requires	-10.8135
▁connected	-10.8136
▁jose	-10.8142
▁warns	-10.815
▁Ru	-10.8154
▁contained	-10.8157
▁neighbors	-10.8157
▁commerce	-10.8158
▁suspension	-10.8158
▁cosby	-10.8158
aging	-10.8159
▁buck	-10.816
▁realized	-10.8165
▁typical	-10.8165
▁swift	-10.8171
▁Attacks	-10.8181
cat	-10.8182
oz	-10.8184
arian	-10.8185
▁ambitious	-10.8186
ku	-10.8188
▁communist	-10.8188
▁maria	-10.8192
▁accuse	-10.8192
▁enormous	-10.8197
▁forever	-10.8198
▁Act	-10.8199
▁rushed	-10.8203
▁threatens	-10.8204
▁orbit	-10.8204
▁pile	-10.8204
▁crowded	-10.8208
▁fees	-10.821
▁rap	-10.8213
▁libertarian	-10.8215
▁petition	-10.8215
▁switch	-10.8215
▁dying	-10.8218
hol	-10.822
▁hide	-10.8225
▁10,	-10.8229
▁David	-10.823
▁Global	-10.823
▁57	-10.823
▁jean	-10.8231
▁Iraq	-10.8231
▁firearms	-10.8231
▁trailer	-10.8237
▁apologized	-10.824
tar	-10.8242
▁basically	-10.8246
▁meddling	-10.8246
On	-10.8247
rad	-10.826
▁waste	-10.8271
▁extensive	-10.8273
▁hidden	-10.8273
▁tragedy	-10.8273
▁sits	-10.8273
▁importance	-10.8274
▁1960	-10.8274
▁feud	-10.8274
▁recession	-10.8275
▁encourage	-10.8279
▁photograph	-10.8281
▁organizers	-10.8284
▁proved	-10.8293
▁troubled	-10.8297
▁outlet	-10.8297
▁riot	-10.8298
▁propaganda	-10.8302
▁recalled	-10.8304
▁Claims	-10.8312
▁banner	-10.8312
▁Har	-10.832
▁flooding	-10.8322
▁artificial	-10.8331
▁kremlin	-10.8331
▁detective	-10.8332
▁legendary	-10.8332
▁Bush	-10.8334
▁successfully	-10.8337
▁prevention	-10.8339
nut	-10.8342
ional	-10.8346
▁Fi	-10.8348
▁dismiss	-10.8349
vic	-10.8349
▁briefly	-10.8352
▁significantly	-10.8353
▁badly	-10.8356
▁thoughts	-10.8357
cap	-10.8358
▁Flynn	-10.836
▁berkeley	-10.836
▁chapter	-10.836
▁tehran	-10.836
▁captain	-10.836
▁poison	-10.8361
▁shame	-10.8365
▁divide	-10.8365
▁ignore	-10.8366
▁associates	-10.8367
▁obviously	-10.8372
▁Lives	-10.8372
▁Brazil	-10.8373
▁Being	-10.8375
▁maine	-10.8382
▁mixed	-10.8383
▁walker	-10.8387
▁slogan	-10.8389
▁fortune	-10.8389
▁2014.	-10.8399
▁Hollywood	-10.84
▁permanent	-10.8404
▁prompting	-10.8407
▁leaks	-10.8408
eng	-10.8413
▁Candidate	-10.8418
▁Iowa	-10.8419
▁migration	-10.8419
▁22,	-10.8419
▁Fast	-10.842
ius	-10.842
▁revolutionary	-10.8421
▁$50	-10.8421
var	-10.8422
iness	-10.8424
▁emerge	-10.8425
▁embrace	-10.8425
▁Come	-10.843
▁judicial	-10.8435
▁anyway	-10.8436
▁deny	-10.8439
▁branch	-10.8441
▁fruit	-10.8448
▁essay	-10.8448
▁bernardino	-10.8448
▁sentiment	-10.8448
▁furious	-10.8448
▁Night	-10.8449
▁hook	-10.8451
▁nunes	-10.8452
rg	-10.8456
▁clock	-10.8457
▁lowest	-10.8457
▁vs	-10.8458
▁reverse	-10.8458
▁sudden	-10.8463
ato	-10.8466
▁Du	-10.8468
▁hy	-10.8469
▁ignored	-10.8471
▁unity	-10.8473
▁principal	-10.8477
▁clue	-10.8479
dor	-10.8479
▁flew	-10.8479
ord	-10.8481
▁“[	-10.8483
▁Teen	-10.8484
▁banning	-10.8486
▁assaulted	-10.8487
card	-10.8488
▁tested	-10.8489
dale	-10.8492
▁strengthen	-10.85
▁Rio	-10.8506
▁infamous	-10.8507
▁tomorrow	-10.8507
▁plastic	-10.8507
▁performing	-10.8509
▁bru	-10.8509
▁Use	-10.8509
▁expanded	-10.8513
▁affair	-10.8515
▁felony	-10.8515
▁shore	-10.852
police	-10.8522
▁gro	-10.8524
▁aboard	-10.8525
▁bri	-10.8526
▁confront	-10.853
▁afford	-10.8535
▁pill	-10.8535
▁profits	-10.8536
▁perspective	-10.8537
▁distance	-10.8537
▁douglas	-10.8537
▁steady	-10.8537
▁battleground	-10.8537
▁dropping	-10.8539
▁Last	-10.8543
▁electronic	-10.8546
▁panic	-10.855
▁8,	-10.8552
▁overnight	-10.8552
▁Mark	-10.856
nan	-10.856
▁commit	-10.8564
▁Britain	-10.8566
▁residence	-10.8566
▁jake	-10.8569
▁Te	-10.857
▁Going	-10.857
▁passage	-10.8572
▁momentum	-10.8573
▁grip	-10.8573
▁fence	-10.8575
nda	-10.8575
▁suffer	-10.8582
▁oldest	-10.8582
room	-10.8582
▁evil	-10.8584
▁engineer	-10.8585
▁loans	-10.8587
▁cards	-10.8589
▁coat	-10.859
▁Found	-10.8592
eth	-10.8593
▁sensitive	-10.8594
lay	-10.8594
▁howard	-10.8597
▁diagnosed	-10.86
▁managing	-10.8602
▁recognize	-10.8603
▁bills	-10.8604
▁6,	-10.8604
▁campaigning	-10.8605
verse	-10.8606
▁Hand	-10.8606
▁engine	-10.8609
▁beyonc	-10.8609
▁hospitals	-10.8612
▁strict	-10.8614
▁rail	-10.8618
▁listening	-10.862
cut	-10.8622
▁arrests	-10.8624
▁venue	-10.8626
▁landscape	-10.8626
▁blind	-10.8626
▁mentioned	-10.8626
▁duty	-10.863
▁throwing	-10.8634
▁statistics	-10.8635
▁cameron	-10.8637
▁shareholders	-10.8645
▁""	-10.8647
▁lincoln	-10.8656
▁crossing	-10.8657
▁Too	-10.8657
▁retailer	-10.8659
▁hadn	-10.8662
▁Terror	-10.8664
rim	-10.8666
cker	-10.8667
▁punch	-10.8675
▁script	-10.8676
▁argue	-10.8677
▁reads	-10.868
▁existing	-10.8688
▁spill	-10.8692
▁viewed	-10.8699
▁painting	-10.8703
▁twin	-10.8705
▁somehow	-10.8708
▁broader	-10.871
▁punish	-10.871
▁Em	-10.8713
▁contractor	-10.8716
▁prisoners	-10.8716
▁exploit	-10.8717
▁Foreign	-10.8717
▁satellite	-10.8717
▁heritage	-10.8717
▁silent	-10.8717
▁spike	-10.8717
▁abandoned	-10.8719
▁rico	-10.8723
rock	-10.8725
▁Chris	-10.8725
rest	-10.8729
▁desperate	-10.8732
25	-10.8733
give	-10.8737
▁mood	-10.8739
▁ty	-10.874
▁Sha	-10.8744
▁Sh	-10.8745
▁homicide	-10.8747
▁fault	-10.8747
▁Another	-10.8747
▁madison	-10.8747
using	-10.8749
▁factor	-10.875
▁models	-10.8756
rus	-10.8758
▁laugh	-10.8765
wn	-10.877
far	-10.8774
ties	-10.8775
▁Public	-10.8777
▁excited	-10.8777
▁Release	-10.8777
▁Social	-10.8777
▁battery	-10.8777
▁shield	-10.8777
▁breast	-10.8777
▁Where	-10.8779
▁explaining	-10.8783
▁bunch	-10.8787
▁motor	-10.879
▁definitely	-10.879
▁suggestion	-10.8794
▁steal	-10.8798
▁lawmaker	-10.8802
▁temperatures	-10.8802
▁Tax	-10.8807
▁graphic	-10.8808
▁creative	-10.8808
▁garland	-10.881
▁ze	-10.8812
▁provides	-10.8814
▁divorce	-10.8815
▁dig	-10.8817
▁mask	-10.8819
▁ron	-10.8819
▁aims	-10.8819
▁Fall	-10.882
Clinton	-10.8824
hl	-10.8827
▁Pat	-10.8827
▁grace	-10.8827
▁dean	-10.8837
VIDEO	-10.8838
▁moderator	-10.8838
▁Battle	-10.8838
▁Fear	-10.8838
▁barrier	-10.8838
hop	-10.884
▁punishment	-10.884
▁somewhat	-10.8845
▁centre	-10.8846
ski	-10.8847
▁institution	-10.8852
▁math	-10.8858
▁informed	-10.8859
▁flu	-10.8859
lp	-10.8862
▁prefer	-10.8867
▁context	-10.8869
▁deficit	-10.8869
▁nonprofit	-10.8869
▁indication	-10.8869
▁Mosul	-10.8869
poised	-10.8869
▁automaker	-10.887
▁sweat	-10.887
▁southwest	-10.8872
▁swedish	-10.8874
▁Sign	-10.8875
▁goals	-10.8875
▁pointing	-10.8877
▁lifetime	-10.888
▁grounds	-10.8881
east	-10.8882
▁airstrikes	-10.8882
▁boot	-10.8885
▁boo	-10.8896
▁bal	-10.8898
▁proceed	-10.8898
▁awkward	-10.89
▁preliminary	-10.89
▁afraid	-10.89
▁jonathan	-10.89
▁alleging	-10.89
▁resume	-10.89
▁apology	-10.89
▁creation	-10.8902
▁lord	-10.8904
roll	-10.8905
▁bump	-10.8905
▁violate	-10.8908
tim	-10.891
cor	-10.8912
▁blocks	-10.8917
▁colleague	-10.8921
▁publishing	-10.8923
▁regularly	-10.8929
▁demonstrators	-10.8931
▁pulse	-10.8931
▁robot	-10.8935
▁Pick	-10.8936
▁entrepreneur	-10.8936
”)	-10.8937
▁metro	-10.8937
try	-10.8937
▁burning	-10.8941
▁milk	-10.8952
▁flags	-10.8953
▁incredible	-10.8955
▁recommend	-10.8956
▁fundamental	-10.8959
▁28,	-10.8959
▁chef	-10.8961
ending	-10.8961
▁evangelical	-10.8962
▁nixon	-10.8962
▁jacob	-10.8962
▁ugly	-10.8962
▁reince	-10.8964
▁modest	-10.8967
▁sum	-10.897
▁lt	-10.8975
▁protecting	-10.8975
dra	-10.8976
▁reduced	-10.8977
ole	-10.898
▁59	-10.8981
▁sorry	-10.8984
▁indicated	-10.8987
▁Convention	-10.8993
▁opportunities	-10.8993
▁stanford	-10.8993
▁comparison	-10.8993
▁elementary	-10.8993
▁associate	-10.8994
▁911	-10.8996
lyn	-10.8996
▁Defend	-10.8997
▁hosts	-10.8999
▁tactics	-10.9
▁mrs	-10.9007
▁Dem	-10.9008
▁discover	-10.9009
▁perry	-10.9009
▁mount	-10.9015
did	-10.9021
▁hanging	-10.9021
▁adopted	-10.9022
▁criticiz	-10.9024
gal	-10.9024
▁charlie	-10.9024
▁permission	-10.9025
▁lots	-10.9029
▁stronger	-10.9031
▁jong	-10.9033
▁George	-10.9034
▁employment	-10.9037
hel	-10.904
world	-10.9043
▁exist	-10.9047
▁Officer	-10.9047
▁stark	-10.9054
▁remind	-10.9054
▁sink	-10.9054
▁echo	-10.9054
▁Leave	-10.9055
▁elsewhere	-10.9056
▁scrap	-10.9059
▁staying	-10.9059
▁Chief	-10.9066
▁hamilton	-10.9067
▁Pass	-10.9068
wear	-10.9071
▁challenged	-10.9074
▁openly	-10.9077
▁pieces	-10.9078
▁aaron	-10.9081
At	-10.9084
▁taiwan	-10.9086
▁iPhone	-10.9086
▁indictment	-10.9087
▁denver	-10.9087
▁posts	-10.909
▁anybody	-10.909
▁hub	-10.9091
▁diplomats	-10.9091
▁civilian	-10.9093
▁bone	-10.9101
Obama	-10.9106
many	-10.9108
▁roads	-10.9109
▁Bank	-10.9114
▁abandon	-10.9115
▁Bannon	-10.9118
▁shark	-10.9119
▁delivery	-10.9122
▁Amazon	-10.9127
▁id	-10.9127
mel	-10.9142
lex	-10.9145
▁ethnic	-10.9149
▁squad	-10.9149
▁dutch	-10.915
▁diverse	-10.9153
▁hearings	-10.9156
▁root	-10.9156
▁2011,	-10.9164
Be	-10.9167
gro	-10.9172
news	-10.9177
stein	-10.9178
eh	-10.9179
▁grade	-10.918
▁terminal	-10.9181
▁achievement	-10.9183
▁Drug	-10.9184
▁restore	-10.9193
▁relatives	-10.9196
▁fidel	-10.9197
▁Cu	-10.9199
▁resolve	-10.92
▁raped	-10.9203
▁output	-10.9203
▁yo	-10.9204
▁clash	-10.9207
tting	-10.9213
ye	-10.9224
▁rely	-10.9226
▁multi	-10.9226
power	-10.9234
▁fiction	-10.9238
▁boast	-10.9242
▁raises	-10.9243
▁Record	-10.9245
▁verdict	-10.9245
▁tribe	-10.9246
▁2003	-10.9248
make	-10.925
▁dev	-10.9254
▁sanctuary	-10.9255
▁rough	-10.9264
grad	-10.9271
▁val	-10.9273
bble	-10.9276
▁luck	-10.9276
▁suing	-10.9277
▁micro	-10.9277
▁proof	-10.9279
▁priority	-10.9281
▁faster	-10.9285
▁bullet	-10.9285
▁ford	-10.9286
▁cry	-10.9292
▁sar	-10.9294
bl	-10.9298
▁origin	-10.93
▁alarm	-10.93
ero	-10.9302
▁establish	-10.9304
▁dur	-10.9306
▁anxiety	-10.9309
▁hum	-10.9309
▁reid	-10.9309
▁violation	-10.9311
▁Stand	-10.9315
▁gall	-10.9316
rb	-10.9319
▁rapid	-10.9328
▁25,	-10.9328
▁christopher	-10.9341
▁dispatch	-10.9341
▁harbor	-10.9341
▁tapper	-10.9343
▁Push	-10.9343
▁circumstances	-10.9343
▁Briefing	-10.9346
▁troll	-10.9348
▁nominate	-10.935
▁hitler	-10.9351
▁burn	-10.9353
▁mile	-10.9355
fl	-10.9357
▁lion	-10.9358
▁universal	-10.9358
▁topics	-10.9359
▁virtually	-10.9359
▁brings	-10.9364
▁revealing	-10.9366
American	-10.9367
▁computers	-10.9371
▁opt	-10.9371
graph	-10.9372
realdonaldtrump	-10.9373
▁ordinary	-10.9373
▁taliban	-10.9373
▁cartoon	-10.9373
▁”[“	-10.9374
▁Book	-10.9376
▁dylan	-10.938
vice	-10.9389
▁prayer	-10.939
▁differences	-10.9398
▁Own	-10.9405
wan	-10.9407
▁stronghold	-10.9407
aunt	-10.9407
▁Other	-10.9407
▁southeast	-10.9408
range	-10.9408
▁confrontation	-10.941
▁roundup	-10.9411
▁vol	-10.9418
▁patriot	-10.9419
▁jill	-10.9421
fake	-10.9428
▁bon	-10.9435
▁54	-10.9435
▁slowly	-10.9437
ene	-10.9437
▁tayyi	-10.9438
▁Return	-10.944
ado	-10.944
▁charleston	-10.9442
▁para	-10.9449
place	-10.9452
▁awarded	-10.9454
▁refuse	-10.9456
▁appearing	-10.9457
▁gr	-10.9458
▁colombia	-10.9462
▁21,	-10.9462
▁ren	-10.9465
▁requests	-10.9465
▁cheer	-10.9467
▁leftist	-10.9469
▁burst	-10.9469
▁spell	-10.9472
uous	-10.9473
boy	-10.9473
▁Block	-10.9474
▁membership	-10.9475
▁ranks	-10.9475
▁spreading	-10.9476
▁Dr	-10.9479
▁crowds	-10.9481
▁winners	-10.9482
▁Class	-10.9489
▁represented	-10.9491
▁limits	-10.9491
▁salt	-10.9492
▁glenn	-10.9495
mir	-10.9495
▁recovered	-10.9496
bed	-10.95
▁jam	-10.9502
▁recep	-10.9502
▁Chinese	-10.9503
▁fundraiser	-10.9503
▁thanksgiving	-10.9503
▁Problem	-10.9505
▁66	-10.9505
▁tru	-10.9506
▁thousand	-10.9512
▁Lu	-10.9513
▁interviewed	-10.9514
ense	-10.9517
▁Rights	-10.9517
(	-10.953
▁orleans	-10.9536
▁phase	-10.9536
ali	-10.9538
▁haley	-10.954
meet	-10.954
▁tickets	-10.9545
▁prop	-10.9547
▁bloody	-10.9549
▁successor	-10.9554
▁brands	-10.9555
▁intent	-10.9561
since	-10.9563
▁thin	-10.9567
▁Set	-10.9568
▁Investigation	-10.9569
▁Aleppo	-10.9569
▁Because	-10.9569
▁gingrich	-10.9569
▁keith	-10.9569
▁Ben	-10.9569
▁morgan	-10.957
▁assistance	-10.957
▁retreat	-10.957
▁islands	-10.9574
▁occur	-10.9574
ano	-10.9575
▁suburban	-10.9576
▁trees	-10.958
▁selected	-10.958
▁$12	-10.958
sec	-10.9581
▁erupted	-10.9585
oe	-10.9585
▁shoes	-10.9594
democratic	-10.9595
▁slip	-10.9595
▁Start	-10.9597
▁survived	-10.9602
▁lewandowski	-10.9602
▁yield	-10.9602
▁Water	-10.9602
▁deported	-10.9603
▁Human	-10.9607
▁collect	-10.9608
▁yu	-10.961
▁hint	-10.9615
▁tired	-10.9616
▁Japan	-10.9618
▁complained	-10.9622
▁Run	-10.9623
col	-10.963
This	-10.9632
▁19,	-10.9633
▁winds	-10.9634
▁pelosi	-10.9635
▁tunnel	-10.9635
▁tiger	-10.9637
▁vital	-10.9639
▁deport	-10.9641
▁lifted	-10.9644
▁participate	-10.9645
▁scientist	-10.9648
▁span	-10.965
▁notorious	-10.9653
▁Us	-10.9655
▁125	-10.9657
▁ranking	-10.9659
wait	-10.9668
▁judgment	-10.9668
▁library	-10.9668
▁nervous	-10.9668
▁substance	-10.9668
▁cellphone	-10.9668
▁ripped	-10.9669
▁Cor	-10.9671
hard	-10.9674
▁dust	-10.9675
▁legally	-10.9676
▁Office	-10.9677
▁newest	-10.9678
▁warn	-10.9679
▁controlled	-10.9682
▁bio	-10.9683
mine	-10.9691
▁Hu	-10.9698
▁comfort	-10.9699
▁Secret	-10.97
▁Migrants	-10.9701
▁vulnerable	-10.9701
▁bombings	-10.9707
▁epic	-10.9707
▁epa	-10.9707
▁comeback	-10.9712
pac	-10.9715
▁Tom	-10.9721
def	-10.9723
anger	-10.9729
▁chronicle	-10.973
▁tools	-10.9731
▁600	-10.9733
▁pyongyang	-10.9735
▁hashtag	-10.9735
▁sterling	-10.9735
▁resulted	-10.9736
▁labour	-10.9736
▁lawsuits	-10.9738
▁northeast	-10.9738
▁beast	-10.9739
▁pit	-10.9741
break	-10.9744
▁tune	-10.9746
▁gate	-10.9753
fil	-10.9755
▁conventional	-10.9756
▁hip	-10.9758
▁condo	-10.9758
▁ideal	-10.9759
▁triumph	-10.9767
▁Bomb	-10.9768
▁DNC	-10.9768
▁alexander	-10.9769
▁toxic	-10.977
▁copy	-10.9772
▁marking	-10.9772
▁magic	-10.9773
▁wire	-10.9779
▁investigated	-10.9783
▁pittsburgh	-10.9783
turn	-10.9784
▁flee	-10.9784
mis	-10.9787
▁oh	-10.9793
chen	-10.9795
ico	-10.9795
45	-10.9795
▁23,	-10.9798
▁unveil	-10.9802
▁dedicated	-10.9802
▁humanitarian	-10.9802
▁manafort	-10.9802
▁larry	-10.9802
▁blaze	-10.9803
▁dramatically	-10.9804
▁700	-10.9808
▁gig	-10.9811
▁insight	-10.9813
▁correction	-10.9818
▁juan	-10.9821
With	-10.9831
▁Behind	-10.9836
▁suspicion	-10.9836
▁Cut	-10.9838
▁bench	-10.9839
▁marshall	-10.9839
▁Story	-10.984
▁maher	-10.9844
come	-10.9845
▁phoenix	-10.9847
▁lights	-10.9849
▁rome	-10.9852
▁disclose	-10.9852
▁"‘	-10.9852
leg	-10.9852
editor	-10.9853
gh	-10.9856
▁Arrested	-10.9857
▁Takes	-10.9864
▁degrees	-10.9865
▁kills	-10.9868
▁brilliant	-10.987
▁destruction	-10.987
▁vessel	-10.987
▁Spicer	-10.987
▁murray	-10.987
▁cream	-10.9872
▁knee	-10.9872
▁assist	-10.9873
▁manner	-10.9876
ington	-10.9877
▁abedin	-10.9878
▁executed	-10.9879
▁dun	-10.9883
▁prediction	-10.9884
▁tip	-10.9891
berry	-10.9891
▁Am	-10.9894
▁Trans	-10.9895
▁thompson	-10.9904
▁Next	-10.9904
▁Food	-10.9905
▁56	-10.9906
▁7,	-10.9906
▁waves	-10.9908
▁addressing	-10.9909
▁alter	-10.9915
▁","	-10.9917
▁mob	-10.9917
vision	-10.9918
▁teens	-10.9918
dell	-10.9922
▁eliminate	-10.9922
▁heels	-10.9923
▁chan	-10.9925
▁transform	-10.9926
▁Facts	-10.9929
▁29,	-10.9933
▁Gets	-10.9933
Year	-10.9934
xi	-10.9936
nate	-10.9936
▁accomplish	-10.9938
▁category	-10.9938
▁intervention	-10.9938
▁excuse	-10.9938
▁boeing	-10.9938
▁restrain	-10.9939
▁Park	-10.994
used	-10.9942
▁collapsed	-10.9945
▁Leader	-10.9946
▁chest	-10.9947
▁choices	-10.9948
afp	-10.9953
▁consideration	-10.9953
▁Mon	-10.9954
▁Move	-10.9954
sey	-10.9954
▁foods	-10.9958
▁historically	-10.9959
▁hong	-10.996
▁thus	-10.9961
gs	-10.9967
▁bash	-10.997
▁States	-10.9971
▁Child	-10.9972
▁fantasy	-10.9972
▁intellectual	-10.9972
▁unarmed	-10.9972
▁unnamed	-10.9972
▁Travel	-10.9973
▁portland	-10.9976
▁gene	-10.9978
▁heated	-10.9983
""	-10.9983
gress	-10.9984
▁substantial	-10.9988
call	-10.9991
▁protected	-10.9994
▁underway	-10.9994
▁gla	-10.9999
▁rip	-11.0006
▁minds	-11.0007
▁marathon	-11.0007
▁pocket	-11.0007
▁laptop	-11.0007
▁bedroom	-11.0007
▁minorities	-11.0008
▁repair	-11.001
▁mansion	-11.0012
▁fet	-11.0012
▁rolled	-11.0012
▁define	-11.0018
mad	-11.0021
▁fran	-11.0022
▁delivering	-11.0027
▁eli	-11.003
▁humanity	-11.0031
▁pastor	-11.0032
▁Let	-11.0032
▁exception	-11.0033
▁billions	-11.0036
▁cont	-11.0041
hr	-11.0041
▁Administration	-11.0041
▁phenomenon	-11.0041
▁nominating	-11.0041
▁jokes	-11.0042
▁priorities	-11.0042
▁tracking	-11.0044
▁genetic	-11.0046
▁react	-11.0051
▁impose	-11.0053
nell	-11.0053
La	-11.0055
post	-11.0061
▁increases	-11.0063
▁bail	-11.0066
bon	-11.007
▁disclosed	-11.0072
▁expense	-11.0076
▁jennifer	-11.0077
▁Wants	-11.0077
▁frame	-11.0077
▁cooperation	-11.008
▁Protesters	-11.0082
▁approximately	-11.0083
too	-11.0087
▁sir	-11.0087
nu	-11.0088
▁expression	-11.009
▁(“	-11.0094
edic	-11.01
▁Gay	-11.0104
▁ailes	-11.0104
▁exact	-11.0105
▁gather	-11.0106
▁Been	-11.0107
▁prescription	-11.011
▁applied	-11.011
▁prosecution	-11.011
ibility	-11.0111
▁naked	-11.0112
rating	-11.0113
▁Face	-11.0114
ude	-11.0115
making	-11.0115
rian	-11.0117
▁reign	-11.0118
pat	-11.0118
‘	-11.012
▁seventh	-11.012
▁Nation	-11.012
▁gunmen	-11.012
▁UN	-11.0123
pul	-11.0125
▁payment	-11.0129
▁2010,	-11.0133
▁pose	-11.0136
▁governing	-11.0138
burn	-11.0139
▁arch	-11.0142
▁Kelly	-11.0145
▁Atlantic	-11.0145
▁competitive	-11.0145
▁misconduct	-11.0145
▁Bowl	-11.0146
▁dawn	-11.0146
▁Country	-11.0147
▁egyptian	-11.0148
vol	-11.0149
▁trash	-11.0149
▁burned	-11.0149
▁getty	-11.0156
▁tourist	-11.0159
▁russians	-11.0163
pho	-11.0165
▁imposed	-11.0168
ira	-11.0169
If	-11.0176
▁q	-11.0177
▁Ohio	-11.018
▁scenario	-11.018
▁gym	-11.0181
▁securities	-11.0181
▁addiction	-11.0183
about	-11.0184
▁mut	-11.0185
▁lengthy	-11.0193
▁holder	-11.0194
▁crossed	-11.02
▁pressed	-11.0201
▁plate	-11.0202
▁stamp	-11.0207
kel	-11.0209
Co	-11.0215
▁Bad	-11.0215
▁worries	-11.0215
▁killings	-11.0216
▁random	-11.0217
ease	-11.022
▁bird	-11.0221
▁shoulder	-11.0221
found	-11.0222
▁merely	-11.0229
▁revelations	-11.0229
Le	-11.0231
▁hunting	-11.0232
▁types	-11.024
▁screening	-11.0242
▁Mor	-11.0242
▁peaceful	-11.0242
▁17,	-11.0246
▁Gorsuch	-11.025
▁depression	-11.025
▁enemies	-11.025
▁impressive	-11.025
▁stabbing	-11.025
▁eagle	-11.0251
▁sudan	-11.0251
▁henry	-11.0251
▁reforms	-11.0253
▁fool	-11.0253
▁scored	-11.0254
avi	-11.0258
wl	-11.0265
▁hills	-11.0268
▁sets	-11.0269
riz	-11.0274
▁deployed	-11.0275
▁bloc	-11.0282
▁architect	-11.0285
▁lecture	-11.0286
▁watchdog	-11.0286
▁victories	-11.0287
▁attorneys	-11.0288
▁economists	-11.0289
▁pump	-11.0293
▁breath	-11.0295
▁mag	-11.0296
anna	-11.0298
▁Venezuela	-11.0298
▁ger	-11.03
▁slash	-11.0303
▁legs	-11.0306
▁fairly	-11.0309
▁selfie	-11.0316
▁consensus	-11.0321
▁Civil	-11.0321
▁pension	-11.0322
▁foster	-11.0323
▁tapped	-11.0324
▁haiti	-11.0324
▁anticipated	-11.0326
▁2002	-11.0326
▁files	-11.0326
▁Mean	-11.0328
▁Rock	-11.0333
▁episodes	-11.0334
action	-11.0335
▁spur	-11.0337
▁megyn	-11.0338
dar	-11.0341
▁den	-11.0342
▁Land	-11.0351
count	-11.0354
▁compound	-11.0357
▁creature	-11.0357
▁enterprise	-11.0357
▁muhammad	-11.0357
▁admit	-11.0357
▁dear	-11.0359
ancy	-11.0359
▁wallace	-11.0359
▁dave	-11.036
▁answered	-11.036
▁27,	-11.0365
bus	-11.0365
▁beer	-11.037
▁hor	-11.037
ei	-11.0373
ros	-11.0373
▁King	-11.0373
▁famously	-11.038
▁aged	-11.0381
▁letters	-11.0382
▁$4.	-11.0387
clusive	-11.0391
▁implement	-11.0392
▁frustration	-11.0393
▁competing	-11.0393
▁fulfill	-11.0393
▁inspector	-11.0393
▁tragic	-11.0393
▁weiner	-11.0394
cover	-11.04
▁Terrorist	-11.0404
ological	-11.041
▁singing	-11.0413
bad	-11.0423
▁protections	-11.0427
▁filibuster	-11.0428
▁qatar	-11.0429
▁palace	-11.0429
▁shutdown	-11.043
thursday	-11.043
Old	-11.0431
▁escaped	-11.0439
70	-11.0441
▁beaten	-11.0442
▁monthly	-11.0448
where	-11.0449
▁contested	-11.0456
▁App	-11.0463
▁Trade	-11.0463
pal	-11.0464
▁pregnancy	-11.0464
▁Break	-11.0464
▁cohen	-11.0464
▁jeffrey	-11.0464
▁workplace	-11.0468
▁transit	-11.0471
▁weighed	-11.0472
een	-11.0472
▁Them	-11.0472
▁corrupt	-11.0476
kar	-11.048
▁mat	-11.0482
▁ballots	-11.049
national	-11.0492
app	-11.0493
▁bathrooms	-11.0494
▁stole	-11.0494
▁alt	-11.0495
▁charter	-11.0498
▁reminder	-11.0498
▁Prison	-11.05
▁declaration	-11.05
▁investigative	-11.05
▁swept	-11.05
▁valuable	-11.05
▁mirror	-11.05
tory	-11.0502
▁expecting	-11.0502
▁stepping	-11.0504
▁anywhere	-11.0505
was	-11.0506
▁roles	-11.0506
formation	-11.0507
▁angel	-11.0507
▁walls	-11.0508
▁signaled	-11.0509
▁duke	-11.051
onic	-11.0514
▁locations	-11.0524
cid	-11.0529
ching	-11.0534
▁Assault	-11.0537
▁benghazi	-11.0537
▁combination	-11.0537
▁concrete	-11.0537
▁holocaust	-11.0537
▁visual	-11.0537
▁jesus	-11.0537
▁knowing	-11.0537
▁Grow	-11.054
▁airports	-11.0541
▁Fake	-11.0541
▁marc	-11.0545
▁Supporters	-11.0547
▁Germany	-11.0548
▁Never	-11.0549
▁Were	-11.0549
▁sustained	-11.0551
▁Art	-11.0558
▁length	-11.056
▁Vet	-11.0561
▁districts	-11.0564
▁audit	-11.0564
▁strain	-11.0565
▁protester	-11.0568
▁attackers	-11.0569
lying	-11.057
ising	-11.0571
▁Many	-11.0573
▁Target	-11.0573
▁assess	-11.0573
▁overdose	-11.0574
▁superhero	-11.0574
▁priest	-11.0574
▁26,	-11.0576
▁possession	-11.0576
▁counties	-11.0577
▁Hold	-11.0577
▁hostile	-11.0582
▁deter	-11.0584
▁remark	-11.0585
▁shouted	-11.0592
cation	-11.0593
▁pollster	-11.0596
▁pundits	-11.0597
hur	-11.0599
▁Pope	-11.0601
▁Best	-11.0605
▁violations	-11.0607
▁cher	-11.0608
▁Crime	-11.061
▁Red	-11.061
▁employers	-11.061
▁pray	-11.061
▁confusion	-11.061
▁wilson	-11.0611
▁consultant	-11.0611
▁monster	-11.0612
▁starring	-11.062
▁Doesn	-11.062
▁extremist	-11.0621
▁hello	-11.0625
▁scan	-11.0625
ink	-11.0631
▁prospects	-11.0633
mun	-11.0637
Un	-11.0641
▁campuses	-11.0641
▁nose	-11.0644
▁24,	-11.0644
▁entitled	-11.0646
▁surrogate	-11.0646
▁vaccine	-11.0646
▁Business	-11.0646
▁Sexual	-11.0647
▁citizenship	-11.0648
▁underground	-11.065
▁volunteer	-11.0658
poli	-11.066
▁Fan	-11.0661
dem	-11.0666
▁hannity	-11.0671
▁hosting	-11.0672
▁800	-11.0675
▁feared	-11.0677
▁loan	-11.0678
▁74	-11.0678
▁bags	-11.0681
▁description	-11.0683
▁divisive	-11.0683
▁swimming	-11.0683
▁soviet	-11.0683
▁swimmer	-11.0683
▁Put	-11.0684
box	-11.0687
saturday	-11.0687
key	-11.0688
▁Bur	-11.0689
▁solo	-11.0689
▁perfectly	-11.069
▁Five	-11.0691
▁journalism	-11.0691
▁voices	-11.0696
▁teenagers	-11.0698
▁gil	-11.0699
iver	-11.0709
▁pizza	-11.071
tty	-11.0713
▁pause	-11.0714
▁consecutive	-11.072
▁defensive	-11.072
▁Alleged	-11.072
▁Tweet	-11.072
▁attendees	-11.072
▁Sla	-11.072
▁painful	-11.0722
Elect	-11.0722
▁hammer	-11.0722
▁robbery	-11.0726
▁31,	-11.0728
▁michel	-11.073
▁Olympics	-11.0733
▁belong	-11.0735
▁fires	-11.0736
▁speaks	-11.0741
▁Conservative	-11.0745
▁challenger	-11.0748
▁cre	-11.0749
had	-11.0751
▁adopt	-11.0756
▁overwhelming	-11.0757
▁Violence	-11.0757
▁advocacy	-11.0757
▁portrait	-11.0757
▁pioneer	-11.0757
▁saint	-11.0757
▁Shot	-11.0758
▁tpm	-11.0758
▁garner	-11.0759
▁ultimate	-11.0762
load	-11.0765
game	-11.0765
▁wound	-11.0773
▁triggered	-11.0774
emi	-11.0774
▁governments	-11.0776
▁technical	-11.0779
▁survivors	-11.0782
▁skills	-11.0784
ua	-11.0789
▁Less	-11.0789
stead	-11.079
▁kar	-11.079
▁hawk	-11.0791
▁knock	-11.0794
▁galaxy	-11.0794
▁gawker	-11.0794
▁ideological	-11.0794
▁Transgender	-11.0794
▁sidewalk	-11.0795
▁grocery	-11.0797
▁comfortable	-11.0797
▁carbon	-11.0797
▁devoted	-11.0801
▁plants	-11.0803
▁achieve	-11.0807
▁defeated	-11.0815
▁62	-11.0816
fit	-11.0821
nick	-11.0823
▁colbert	-11.0832
▁Space	-11.0832
▁bruce	-11.0833
ridge	-11.0836
▁capable	-11.0838
▁courtroom	-11.0839
▁84	-11.084
▁Threat	-11.0843
▁hometown	-11.0843
▁Rape	-11.0844
▁Abortion	-11.0846
▁brave	-11.0849
bid	-11.085
feld	-11.0851
▁lap	-11.0851
▁mol	-11.0852
Y	-11.0856
▁planes	-11.0856
zing	-11.0857
▁Arm	-11.0863
▁Got	-11.0866
▁Shows	-11.0868
▁elon	-11.0869
▁contributor	-11.0869
▁blunt	-11.0869
▁attitude	-11.0869
▁nurse	-11.0869
▁trapped	-11.087
▁enforce	-11.0871
▁filmmaker	-11.0873
brook	-11.0873
morning	-11.0877
▁rumors	-11.0881
▁engineering	-11.0882
free	-11.0887
▁cru	-11.0893
pm	-11.0896
▁adds	-11.09
▁surprisingly	-11.0902
▁Lose	-11.0903
▁photographs	-11.0905
yer	-11.0906
▁emmanuel	-11.0906
rog	-11.0907
Pro	-11.0911
▁Marco	-11.0912
▁sec	-11.0912
atlantic	-11.0913
great	-11.0913
▁struggles	-11.0917
talk	-11.092
breaking	-11.092
▁guarantee	-11.0921
love	-11.0923
▁mud	-11.0924
▁farmers	-11.0924
▁neighborhoods	-11.0925
▁popularity	-11.0926
40	-11.0928
▁$14	-11.0938
▁entrance	-11.0944
▁fossil	-11.0944
▁unpopular	-11.0944
▁Milo	-11.0944
▁properties	-11.0944
▁rachel	-11.0945
▁riding	-11.0945
▁blew	-11.0947
▁guards	-11.095
bill	-11.0952
▁classes	-11.0954
▁Only	-11.0956
eff	-11.0966
mont	-11.0966
▁belief	-11.0967
matic	-11.0968
▁outlook	-11.0973
▁cri	-11.0979
▁Prince	-11.0982
▁beneath	-11.0982
▁invitation	-11.0982
▁mccarthy	-11.0982
▁technologies	-11.0982
▁exceed	-11.0982
▁oath	-11.0982
▁Internet	-11.0982
deadliest	-11.0984
friend	-11.0987
▁contains	-11.099
▁turnout	-11.0991
▁warnings	-11.0998
▁tracks	-11.0998
▁forms	-11.1
▁lobby	-11.1004
▁deeper	-11.1004
▁frequent	-11.1005
▁stations	-11.1007
▁genre	-11.1014
▁notion	-11.1016
▁continent	-11.1019
▁picking	-11.1019
▁metropolitan	-11.102
▁turmoil	-11.102
requiring	-11.102
▁marvel	-11.102
▁damaging	-11.102
▁consent	-11.1021
▁derail	-11.1022
▁bible	-11.1026
erie	-11.103
▁15,	-11.103
▁exploded	-11.1031
lew	-11.1038
▁Bar	-11.1043
▁bust	-11.1045
▁delayed	-11.1046
▁justices	-11.1047
▁encouraged	-11.105
▁Par	-11.105
▁cave	-11.1052
▁rack	-11.1053
▁submit	-11.1058
▁worship	-11.1058
▁grabbed	-11.1059
▁buried	-11.1059
▁confidential	-11.1059
▁appoint	-11.106
▁cleared	-11.1062
▁barred	-11.1065
▁awful	-11.1066
▁serves	-11.1074
▁opens	-11.1074
▁pound	-11.1074
▁highlights	-11.1083
▁Press	-11.1085
▁jihadist	-11.1087
▁saving	-11.1091
13	-11.1092
▁faction	-11.1094
▁absurd	-11.1097
▁huffington	-11.1097
▁necessarily	-11.1097
▁telephone	-11.1097
▁borrow	-11.1097
▁sample	-11.1098
▁climb	-11.1099
ware	-11.11
▁testified	-11.11
▁visas	-11.1103
ova	-11.1103
▁Mu	-11.1104
▁disappointing	-11.1105
▁motivated	-11.1105
▁damaged	-11.1106
Russia	-11.1106
iro	-11.1107
▁spain	-11.1111
▁demonstrations	-11.1117
aud	-11.112
▁58	-11.1123
▁Find	-11.1127
▁drag	-11.1127
▁refusal	-11.1135
▁Senator	-11.1136
▁engagement	-11.1137
▁earnest	-11.1138
▁Foundation	-11.1138
▁kate	-11.1143
▁infected	-11.1144
mbi	-11.115
▁abortions	-11.116
ace	-11.1161
▁secrets	-11.1163
▁iron	-11.1172
▁kiss	-11.1173
▁Blasio	-11.1174
▁embattled	-11.1174
▁supremacist	-11.1174
▁Blame	-11.1174
▁battling	-11.1174
▁guidelines	-11.1174
▁Tesla	-11.1174
▁principles	-11.1174
▁existence	-11.1175
▁collected	-11.1175
▁trafficking	-11.1176
▁stem	-11.1177
▁transport	-11.1177
▁Pen	-11.1177
▁Tim	-11.1183
▁wages	-11.1187
high	-11.1193
▁dick	-11.1199
lash	-11.12
▁mega	-11.1202
▁1996	-11.1212
▁1999	-11.1212
▁encouraging	-11.1212
▁horrific	-11.1212
▁Kasich	-11.1212
▁ninth	-11.1212
▁volume	-11.1213
▁hiding	-11.1213
▁vocal	-11.1213
▁crackdown	-11.1214
▁2017.	-11.1214
▁destination	-11.1214
▁Close	-11.1215
▁Phil	-11.1216
eo	-11.1217
▁18,	-11.1219
ille	-11.1228
▁fleet	-11.123
▁69	-11.1234
▁argues	-11.1234
▁constant	-11.1237
▁ruin	-11.1237
▁intercept	-11.1241
▁disappeared	-11.1243
wall	-11.1243
▁Hard	-11.1244
▁mainly	-11.1249
▁briefed	-11.1251
▁motive	-11.1251
▁superior	-11.1251
▁retain	-11.1251
▁smooth	-11.1251
▁betsy	-11.1252
lent	-11.1253
▁Planned	-11.1253
▁equality	-11.1255
mail	-11.1259
▁elderly	-11.1259
john	-11.1263
▁diplomat	-11.1264
ular	-11.1264
▁Hope	-11.1265
▁Four	-11.1268
▁sur	-11.1272
ati	-11.1273
rac	-11.1277
▁staffer	-11.1279
▁sing	-11.128
▁Korean	-11.1282
▁impression	-11.129
▁bears	-11.1291
▁slam	-11.1292
▁obtain	-11.1295
iel	-11.1296
▁confronted	-11.1297
Th	-11.1298
body	-11.1299
bn	-11.1301
▁robots	-11.1302
▁careful	-11.1302
▁setback	-11.1304
uestions	-11.1304
▁wells	-11.1304
ien	-11.1315
▁elements	-11.1316
miss	-11.1318
▁$25	-11.1323
▁outsider	-11.1325
woman	-11.1326
▁consult	-11.1327
▁abe	-11.1329
▁hernandez	-11.133
▁horrible	-11.133
▁Crisis	-11.133
▁cult	-11.133
▁airplane	-11.1331
▁Fail	-11.1333
force	-11.1335
▁cincinnati	-11.1338
lux	-11.1338
hill	-11.1342
cade	-11.1346
▁friendly	-11.1346
▁privately	-11.1347
hn	-11.1347
▁List	-11.1348
▁horn	-11.1354
▁ridiculous	-11.1355
▁Threaten	-11.1357
shot	-11.1358
live	-11.1359
▁Any	-11.1359
▁casting	-11.1362
▁prepares	-11.1368
rain	-11.1368
▁Christmas	-11.1369
▁mueller	-11.1369
▁removal	-11.1369
▁General	-11.1369
▁nickname	-11.1369
▁Photo	-11.1369
▁Middle	-11.137
▁Bring	-11.137
ore	-11.1373
til	-11.1373
▁Scientists	-11.1376
▁quoted	-11.1376
▁Hate	-11.1377
▁Without	-11.138
▁mounting	-11.1381
▁shortage	-11.1382
▁materials	-11.1382
▁Joe	-11.1385
▁Name	-11.1385
▁convince	-11.1386
▁85	-11.1396
▁holy	-11.1399
▁Really	-11.1402
Mo	-11.1405
▁inequality	-11.1408
▁invasion	-11.1408
▁wisdom	-11.1409
▁urgent	-11.1409
▁famed	-11.1411
▁depart	-11.1412
▁memoir	-11.1413
▁Rally	-11.1413
▁cow	-11.1416
▁fur	-11.1417
▁nobel	-11.142
friday	-11.1421
espite	-11.1424
▁bor	-11.1426
▁tag	-11.1434
ilateral	-11.1436
Lo	-11.1436
▁mourn	-11.1448
▁coulter	-11.1448
▁violating	-11.1448
▁convert	-11.1448
▁offender	-11.1448
▁jazz	-11.1449
▁handgun	-11.1449
▁burden	-11.145
▁naval	-11.1451
▁import	-11.1455
▁units	-11.1458
▁principle	-11.1458
▁hospitalized	-11.1458
▁flip	-11.1461
▁pig	-11.1465
keeper	-11.147
▁revive	-11.1472
▁touched	-11.1478
▁mountains	-11.1478
▁Yankees	-11.1488
▁capacity	-11.1488
▁forgotten	-11.1488
▁Three	-11.1488
▁preserve	-11.1489
▁Migrant	-11.1489
aving	-11.149
▁pam	-11.1493
▁insurers	-11.1495
▁thick	-11.1495
▁reward	-11.1505
▁bou	-11.1506
▁Mad	-11.1509
▁brooks	-11.151
▁dreams	-11.1511
▁mode	-11.1513
▁accepting	-11.1518
▁expects	-11.1522
ena	-11.1524
▁midst	-11.1525
▁CIA	-11.1528
▁industries	-11.1528
▁pharmaceutical	-11.1528
▁harvey	-11.1528
▁revised	-11.1529
▁quarterly	-11.1532
▁humor	-11.1533
▁2009,	-11.1533
▁Refugees	-11.1535
▁breaks	-11.1537
▁participants	-11.1539
fin	-11.154
▁rescued	-11.1541
▁lucky	-11.1544
▁Had	-11.1546
▁Goes	-11.155
pec	-11.1552
▁mere	-11.1556
kov	-11.156
▁12,	-11.156
▁crop	-11.1567
▁anonymity	-11.1568
▁guidance	-11.1568
▁welfare	-11.1568
▁Service	-11.1568
▁steam	-11.1568
▁prohibit	-11.1569
▁injuring	-11.1569
▁bel	-11.1569
▁bee	-11.1572
asse	-11.1572
▁assertion	-11.1574
▁Town	-11.1577
▁lou	-11.1582
▁musician	-11.1587
▁convinced	-11.1591
▁Save	-11.1594
▁charm	-11.1597
▁mil	-11.1598
▁dry	-11.1603
▁colon	-11.1605
▁explosives	-11.1606
▁tattoo	-11.1608
▁assange	-11.1609
▁corn	-11.1609
▁rhode	-11.1609
▁profound	-11.161
▁Green	-11.161
watch	-11.1611
▁northwest	-11.1611
▁busted	-11.1612
▁gunfire	-11.1612
▁lease	-11.1615
▁cells	-11.1619
▁outfit	-11.1624
▁protesting	-11.1627
guard	-11.1627
▁quest	-11.1628
▁duck	-11.1629
▁expose	-11.163
▁relat	-11.163
▁wounds	-11.1631
▁wondering	-11.1632
▁consistent	-11.1635
▁undergo	-11.164
▁unfortunately	-11.164
▁pav	-11.1643
▁retailers	-11.1643
▁exhibit	-11.1645
▁Ever	-11.1645
▁beside	-11.1648
▁Wrong	-11.1649
▁bolster	-11.1649
▁dragged	-11.1649
▁aug	-11.165
▁Young	-11.165
▁mitchell	-11.165
▁classroom	-11.165
▁elites	-11.1657
▁deleted	-11.1657
▁lesson	-11.1659
▁showdown	-11.1664
three	-11.1665
▁qualified	-11.1665
Con	-11.1669
▁secretly	-11.1673
▁tense	-11.1677
▁wrap	-11.1682
“	-11.1683
yo	-11.1687
▁$	-11.1689
▁swiss	-11.169
▁maduro	-11.169
▁Children	-11.169
▁ash	-11.169
▁Director	-11.1691
▁Secretary	-11.1691
▁luther	-11.1692
▁replacing	-11.1692
▁redstone	-11.1692
cia	-11.1693
▁jacket	-11.1697
▁leap	-11.1703
▁apps	-11.1704
bound	-11.1705
tress	-11.1706
▁disappointed	-11.1709
lim	-11.1714
▁sexist	-11.1715
▁German	-11.1718
▁quote	-11.1725
nation	-11.1726
▁trauma	-11.1729
▁scholar	-11.173
▁physician	-11.173
▁releasing	-11.173
▁removing	-11.173
▁sprawling	-11.173
▁greece	-11.173
▁extent	-11.173
▁declining	-11.1731
▁teeth	-11.1731
▁Key	-11.1735
Ro	-11.1736
mple	-11.1741
▁73	-11.1749
▁assume	-11.1749
▁surely	-11.1749
▁highlighted	-11.175
▁contests	-11.1754
▁repealing	-11.1755
▁sisters	-11.1761
▁exclusively	-11.1761
▁14,	-11.1761
▁bike	-11.1762
▁founding	-11.1762
▁Well	-11.1763
▁stable	-11.1763
▁listing	-11.1764
▁launches	-11.1768
▁admits	-11.1769
▁Military	-11.1771
▁evacuation	-11.1771
▁technique	-11.1771
▁Virginia	-11.1771
▁alphabet	-11.1771
▁streak	-11.1771
▁deemed	-11.1772
▁rampage	-11.1773
▁Music	-11.1776
▁Tra	-11.1781
▁Sub	-11.1787
▁managers	-11.179
▁doubled	-11.1796
peak	-11.1796
▁capt	-11.1798
▁gru	-11.1799
▁barn	-11.1801
▁tweeting	-11.1801
▁mnuchin	-11.1813
▁registration	-11.1813
▁verizon	-11.1813
▁ceasefire	-11.1813
▁cheese	-11.1813
▁cinema	-11.1814
fec	-11.1814
▁Canada	-11.1814
▁Offer	-11.1816
▁ages	-11.1816
▁button	-11.1816
▁pending	-11.1818
▁nasty	-11.1818
▁denounced	-11.1823
▁trucks	-11.1824
▁Whi	-11.1829
▁baghdad	-11.183
Hillary	-11.183
▁enjoyed	-11.1834
▁Cont	-11.1835
▁Seek	-11.1837
lena	-11.1843
▁observers	-11.1843
▁wade	-11.1844
▁providers	-11.1847
▁Rules	-11.1848
▁16,	-11.185
▁acted	-11.1851
▁astronaut	-11.1854
▁exhaust	-11.1854
▁electorate	-11.1854
▁giuliani	-11.1854
▁glimpse	-11.1854
▁stump	-11.1854
▁charging	-11.1854
▁messaging	-11.1854
▁Navy	-11.1854
▁denies	-11.1856
▁inches	-11.1857
taking	-11.1857
▁bread	-11.1861
▁skeptical	-11.1863
▁hal	-11.1864
uber	-11.1866
▁focusing	-11.187
▁rigged	-11.1873
▁suv	-11.1877
▁pew	-11.1878
bla	-11.1884
▁dodge	-11.1885
thank	-11.1885
ouch	-11.1886
CLUSIVE	-11.1895
▁Ivanka	-11.1895
▁bangladesh	-11.1895
▁decisive	-11.1895
▁supplies	-11.1895
▁freak	-11.1895
▁Reveal	-11.1895
▁misleading	-11.1896
▁midtown	-11.1896
cca	-11.1897
▁smell	-11.1898
▁Bra	-11.1898
▁siege	-11.1899
▁95	-11.1899
▁recommended	-11.19
eries	-11.1901
see	-11.1902
▁suspend	-11.1904
▁72	-11.1906
!’	-11.1906
▁trace	-11.1907
▁meme	-11.1908
letting	-11.191
welcome	-11.1914
tuesday	-11.1914
▁dominate	-11.1914
enberg	-11.1916
▁Mis	-11.1917
▁incredibly	-11.192
▁cab	-11.192
ask	-11.1921
bag	-11.1922
▁hunter	-11.1928
fla	-11.1933
▁hostage	-11.1933
▁Tillerson	-11.1937
▁belgian	-11.1937
▁caribbean	-11.1937
▁demographic	-11.1937
▁unidentified	-11.1937
▁disabled	-11.1937
▁colleges	-11.1939
▁Point	-11.194
▁perez	-11.1941
▁burger	-11.1945
▁mill	-11.1946
▁Host	-11.1947
ista	-11.1949
▁experiences	-11.1949
▁strongest	-11.195
▁poster	-11.1952
▁shareholder	-11.1954
▁engage	-11.1954
▁milwaukee	-11.1955
▁wonderful	-11.1956
bal	-11.1957
▁advisory	-11.1958
▁teach	-11.196
▁projected	-11.196
▁machines	-11.1961
▁13,	-11.1963
▁funded	-11.1963
▁sk	-11.1968
sburg	-11.1968
▁height	-11.1969
▁sounded	-11.197
nar	-11.1971
▁Cuba	-11.1972
gree	-11.1972
▁estimate	-11.1973
eem	-11.1978
▁chaotic	-11.1979
▁stewart	-11.1979
▁surrender	-11.1979
▁greek	-11.1979
▁baldwin	-11.1979
▁transaction	-11.1979
▁gunshot	-11.1981
▁assassination	-11.1981
▁fitness	-11.1984
▁somalia	-11.1985
▁spray	-11.1986
aid	-11.1989
▁Boy	-11.1989
human	-11.1993
Not	-11.2002
▁export	-11.2005
gin	-11.2009
▁battles	-11.201
▁freeze	-11.201
▁turner	-11.201
▁recognized	-11.2011
▁daughters	-11.2013
▁tam	-11.2014
▁christ	-11.202
▁rig	-11.2021
▁diamond	-11.2021
▁innovation	-11.2021
▁casino	-11.2021
▁Confirm	-11.2021
▁visible	-11.2021
▁taxpayers	-11.2022
▁flames	-11.2022
▁Tech	-11.2025
15	-11.2025
▁relationships	-11.2029
▁77	-11.2031
▁finale	-11.2032
rip	-11.2032
owski	-11.2037
▁inappropriate	-11.2044
▁welcomed	-11.2044
▁lan	-11.2046
▁chant	-11.2048
▁insult	-11.2049
source	-11.205
Ex	-11.2058
▁76	-11.2062
Mar	-11.2062
▁surfaced	-11.2062
▁Dallas	-11.2063
▁collusion	-11.2063
▁insurgent	-11.2063
▁Christie	-11.2063
▁rebuke	-11.2063
▁sneak	-11.2063
▁serial	-11.2064
▁haunt	-11.2064
▁sgt	-11.2065
▁salary	-11.2066
keep	-11.2066
och	-11.2067
How	-11.2067
▁agriculture	-11.2067
▁essential	-11.2069
▁afterward	-11.2071
▁stayed	-11.2072
▁threaten	-11.2073
▁seasons	-11.2073
▁gal	-11.2074
▁retire	-11.2081
▁sailors	-11.2083
▁torture	-11.2083
▁demonstration	-11.2083
▁involves	-11.2088
▁slim	-11.2089
nam	-11.2092
▁Wins	-11.2092
▁electronics	-11.2093
▁heights	-11.2093
▁waited	-11.2094
▁Far	-11.21
▁Oregon	-11.2105
▁persuade	-11.2105
▁Valley	-11.2105
▁arriving	-11.2105
▁choosing	-11.2105
▁Strike	-11.2106
▁Wild	-11.2106
▁taught	-11.2106
▁bubble	-11.2106
▁Issue	-11.2107
▁Percent	-11.2107
▁$500	-11.2108
mie	-11.2108
▁toddler	-11.2108
▁diver	-11.2109
▁acceptance	-11.2109
▁wondered	-11.2114
▁oscars	-11.2117
▁Muslims	-11.212
▁Def	-11.2122
▁char	-11.2123
,’”	-11.2125
wednesday	-11.2127
What	-11.2127
▁Killing	-11.213
▁shouting	-11.2132
▁defined	-11.2134
kill	-11.2134
[	-11.2135
▁acquire	-11.2137
word	-11.2141
▁meal	-11.2143
▁roots	-11.2144
▁frustrated	-11.2148
▁schultz	-11.2148
▁Promise	-11.2148
▁costume	-11.215
▁Conway	-11.2151
▁Money	-11.2151
▁loves	-11.2155
mond	-11.2157
▁easter	-11.2158
▁kit	-11.2164
nne	-11.2167
New	-11.2172
monday	-11.2173
▁contacts	-11.2177
storm	-11.2177
▁clark	-11.2181
▁introduce	-11.2186
▁lessons	-11.2188
▁passes	-11.2189
born	-11.2189
▁Happen	-11.2191
▁Nuclear	-11.2191
▁misdemeanor	-11.2191
▁opposing	-11.2191
▁preparation	-11.2191
▁ideology	-11.2191
▁steep	-11.2191
▁sin	-11.2191
▁falcon	-11.2191
▁rodrig	-11.2192
▁Rise	-11.2193
▁Making	-11.2194
▁countless	-11.2196
▁Read	-11.2197
▁64	-11.2197
,"‘	-11.22
An	-11.2204
bot	-11.2208
▁generations	-11.2208
▁oakland	-11.221
orn	-11.2214
hil	-11.2214
▁broadcaster	-11.2214
riv	-11.2215
▁towns	-11.2216
▁roy	-11.2218
▁WATCH	-11.222
aron	-11.2222
unconstitutional	-11.2222
▁2008,	-11.2224
▁screaming	-11.2228
▁Activist	-11.2234
▁eligible	-11.2234
▁cousin	-11.2234
▁stunned	-11.2234
▁Doctor	-11.2234
▁78	-11.2234
▁pra	-11.2235
▁Warren	-11.2236
▁defender	-11.2236
▁simon	-11.2237
cross	-11.2238
▁defendant	-11.2239
▁Drop	-11.2239
▁pact	-11.2239
▁parker	-11.2245
▁Son	-11.225
spiring	-11.2251
▁contributed	-11.2252
gie	-11.2255
▁pole	-11.2257
special	-11.2257
speaking	-11.2258
▁trends	-11.226
▁revelation	-11.2261
week	-11.2267
▁2012.	-11.2269
bby	-11.2273
▁corporations	-11.2274
▁drunk	-11.2274
cies	-11.2276
▁drones	-11.2277
▁Scalia	-11.2277
▁inevitable	-11.2277
▁blockbuster	-11.2277
▁clinch	-11.2277
▁alleges	-11.2278
pop	-11.2278
▁Scott	-11.228
▁der	-11.228
35	-11.2284
▁Kim	-11.2284
pin	-11.2287
politic	-11.2287
▁runway	-11.2289
illo	-11.2295
lick	-11.2296
▁feelings	-11.2298
▁Cop	-11.2301
▁assaulting	-11.2303
sign	-11.2303
▁Claim	-11.2305
▁mocked	-11.2305
▁Olympic	-11.2305
mitt	-11.2306
▁Mets	-11.2309
cco	-11.2319
▁Second	-11.232
▁aviation	-11.232
▁pretend	-11.2321
ida	-11.2321
▁Mother	-11.2322
▁medication	-11.2323
▁herald	-11.2324
▁soil	-11.2327
▁somewhere	-11.2331
▁yorker	-11.2334
apple	-11.2334
▁purchased	-11.2337
lot	-11.234
▁tremendous	-11.234
▁acknowledge	-11.2341
▁signals	-11.2343
▁dash	-11.2346
▁61	-11.2346
▁covers	-11.2347
▁spots	-11.2347
▁Cost	-11.2348
▁invest	-11.2349
▁mur	-11.2349
bat	-11.2352
▁unfair	-11.2352
▁hailed	-11.2352
▁250	-11.2354
▁formed	-11.2355
▁yorkers	-11.2362
▁legitimate	-11.2363
▁Future	-11.2364
▁Visit	-11.2364
▁russell	-11.2364
▁absence	-11.2364
▁ireland	-11.2364
▁ceiling	-11.2364
▁bang	-11.2364
▁theories	-11.2366
▁82	-11.2366
▁rebuild	-11.2367
▁sweep	-11.2367
▁pants	-11.2368
▁ditch	-11.2372
▁beef	-11.2372
▁ref	-11.2372
walk	-11.2378
▁pronounced	-11.2384
rum	-11.2388
rank	-11.239
rine	-11.2393
▁extremists	-11.2394
weight	-11.2401
tv	-11.2401
▁pruitt	-11.2407
▁understood	-11.2407
▁stroke	-11.2407
▁irish	-11.2408
▁stanley	-11.2408
▁longest	-11.2408
▁recover	-11.2412
▁disappear	-11.2416
▁purported	-11.2419
▁enable	-11.2421
▁egg	-11.2421
▁lobbyist	-11.2424
▁beliefs	-11.2425
▁rooms	-11.2426
▁tokyo	-11.243
▁connections	-11.2438
Ho	-11.244
▁procedure	-11.244
▁Wi	-11.2441
oma	-11.2442
▁iii	-11.245
▁Between	-11.2451
▁dismantle	-11.2451
▁terrifying	-11.2451
▁curious	-11.2451
bank	-11.2451
▁cleric	-11.2452
▁huma	-11.2455
ata	-11.2456
▁normally	-11.2456
despite	-11.2458
▁sniper	-11.2461
▁comprehensive	-11.2462
osh	-11.2464
lift	-11.2467
▁lover	-11.2472
▁interrupted	-11.2473
▁Dems	-11.2476
bro	-11.2477
heart	-11.2485
▁Count	-11.2494
▁performer	-11.2494
▁belgium	-11.2495
▁mediterranean	-11.2495
▁optimism	-11.2495
▁peninsula	-11.2495
▁pollution	-11.2495
▁spectacular	-11.2495
▁tribune	-11.2495
▁sketch	-11.2495
▁embarrassing	-11.2495
▁genius	-11.2496
▁habit	-11.2497
▁slavery	-11.2497
▁thrones	-11.2497
▁Become	-11.2498
▁Must	-11.2503
▁dates	-11.2504
▁fin	-11.2504
▁Jobs	-11.2506
▁promotion	-11.2508
▁stealing	-11.2509
▁lone	-11.2526
▁amy	-11.2528
inter	-11.2528
▁kirk	-11.2529
▁client	-11.2532
beat	-11.2537
ulation	-11.2537
▁Track	-11.2538
▁implications	-11.2539
▁thunder	-11.254
▁wrapped	-11.254
▁ghost	-11.2541
▁intervene	-11.2541
▁romantic	-11.2543
▁temple	-11.2547
▁regardless	-11.2547
▁plunged	-11.2557
worth	-11.2558
▁gm	-11.2563
▁tick	-11.2566
▁walter	-11.2567
une	-11.2569
▁nigeria	-11.2575
▁corey	-11.2576
▁knocked	-11.258
▁endless	-11.2581
▁Egypt	-11.2584
▁recipe	-11.2584
▁suspicious	-11.2584
▁jinping	-11.2584
▁deciding	-11.2584
▁klein	-11.2584
▁Old	-11.2584
uz	-11.2586
▁accidentally	-11.2587
▁nationally	-11.2591
▁88	-11.2605
▁loses	-11.2606
because	-11.2612
▁rant	-11.2613
▁monitoring	-11.2614
▁settlements	-11.2616
12	-11.2619
▁Email	-11.2625
▁Israeli	-11.2625
▁Executive	-11.2628
▁Michigan	-11.2628
▁athletic	-11.2628
▁jessica	-11.2628
▁predominantly	-11.2628
▁Study	-11.2628
▁affirm	-11.2628
▁assigned	-11.2629
▁drought	-11.263
▁vet	-11.2631
elect	-11.2632
▁hogan	-11.2632
▁meets	-11.2633
▁camps	-11.2633
▁touted	-11.2635
▁Things	-11.2642
▁supposedly	-11.2643
▁Shi	-11.2645
Do	-11.2646
▁Made	-11.2646
▁conclude	-11.2651
▁mcg	-11.2655
▁reviewed	-11.2657
▁insisting	-11.2661
elli	-11.2663
▁economist	-11.2669
say	-11.267
▁discipline	-11.2673
▁hudson	-11.2673
▁sensation	-11.2675
▁exec	-11.2676
▁commentary	-11.2681
due	-11.2684
▁timeline	-11.2689
▁repeat	-11.2689
▁frozen	-11.269
▁eighth	-11.2695
▁julian	-11.2703
host	-11.271
▁taxi	-11.2712
▁shower	-11.2715
▁sleeping	-11.2715
▁Miss	-11.2715
▁communication	-11.2715
▁investments	-11.2716
▁extremism	-11.2718
▁ourselves	-11.2718
▁primarily	-11.2718
▁troubling	-11.2718
▁trudeau	-11.2718
▁melissa	-11.2719
▁Demand	-11.2721
▁reopen	-11.2722
90	-11.2722
▁improvement	-11.2724
▁koch	-11.2724
vid	-11.2725
▁articles	-11.2729
▁Mc	-11.2729
▁columbus	-11.2733
▁stakes	-11.2733
▁grande	-11.2735
▁68	-11.2736
▁brit	-11.2737
▁criminals	-11.2745
each	-11.2749
▁websites	-11.2752
ann	-11.2756
▁cake	-11.2756
▁unite	-11.2763
▁Parenthood	-11.2764
▁Science	-11.2764
▁definition	-11.2764
▁sequel	-11.2764
▁zealand	-11.2764
▁blaming	-11.2764
▁historian	-11.2764
▁bun	-11.2764
▁montana	-11.2764
ois	-11.2766
▁lifestyle	-11.2766
▁laying	-11.2767
lio	-11.2768
▁barring	-11.277
▁examiner	-11.2772
▁detect	-11.2773
nov	-11.2773
▁contender	-11.2773
▁flowers	-11.2777
▁jihadists	-11.2778
▁diseases	-11.278
▁motors	-11.2782
versus	-11.2783
tech	-11.2789
▁eva	-11.2789
nel	-11.2789
mbo	-11.2791
justice	-11.2796
jack	-11.2799
▁temp	-11.2799
▁67	-11.2804
▁lands	-11.2806
worthy	-11.2808
▁Scandal	-11.2809
▁jenner	-11.281
▁bundy	-11.281
▁discount	-11.2811
▁tel	-11.2811
▁marketplace	-11.2812
▁rebound	-11.2813
▁polar	-11.2813
▁carlson	-11.2815
▁contestant	-11.2815
▁Arabia	-11.2817
▁donor	-11.2818
▁tighten	-11.282
▁condemn	-11.2822
▁Join	-11.2825
▁barry	-11.2827
▁overwhelmingly	-11.2827
political	-11.2828
phe	-11.2836
▁ramp	-11.2838
▁acquired	-11.2843
▁2013.	-11.2845
▁Mom	-11.2847
▁Officials	-11.2848
lc	-11.285
lier	-11.2851
▁asset	-11.2851
▁treaty	-11.2853
▁teaching	-11.2853
▁Georgia	-11.2855
▁scotland	-11.2855
▁Robert	-11.2856
▁submitted	-11.2857
dan	-11.2867
▁victoria	-11.2873
▁pur	-11.2877
▁noah	-11.2878
mme	-11.288
▁plagu	-11.2884
▁Check	-11.2884
▁Ten	-11.2885
▁hikes	-11.2888
▁brad	-11.2897
ben	-11.29
▁Announce	-11.2901
▁atmosphere	-11.2901
▁simpson	-11.2901
▁kidnapping	-11.2901
▁slipped	-11.2902
▁okay	-11.2902
▁obstruction	-11.2902
▁corporation	-11.2904
▁caption	-11.2908
▁yale	-11.2908
▁sons	-11.2909
▁stopping	-11.291
hal	-11.2913
▁holdings	-11.2915
▁opinions	-11.2921
▁Makes	-11.2922
▁buyers	-11.2926
▁rounds	-11.2927
▁nominations	-11.293
▁Sean	-11.2931
writer	-11.2932
facebook	-11.2933
▁Billion	-11.2934
▁locker	-11.2935
▁princess	-11.2935
▁mobil	-11.2937
▁timing	-11.2938
▁inner	-11.2942
chu	-11.2945
▁Primary	-11.2947
▁arguably	-11.2947
▁unconscious	-11.2947
▁Kids	-11.2947
▁milestone	-11.2947
▁--	-11.2948
▁residential	-11.2948
▁debbie	-11.2949
▁doubts	-11.2951
▁Leak	-11.2951
▁pure	-11.2951
▁athlete	-11.2951
▁patent	-11.2952
▁poland	-11.2954
▁fever	-11.2956
▁jane	-11.2958
▁ought	-11.296
▁sideline	-11.296
▁victor	-11.296
▁advised	-11.2962
going	-11.2969
rod	-11.2972
▁7.	-11.2973
path	-11.2973
▁Critic	-11.2974
though	-11.2977
phone	-11.2978
▁slide	-11.2981
cop	-11.2984
▁approaching	-11.2989
▁kl	-11.2989
▁slaughter	-11.2993
▁toronto	-11.2994
▁9,	-11.2995
▁castile	-11.2997
▁proven	-11.2999
▁Official	-11.2999
anne	-11.3
▁recalls	-11.3001
▁pitt	-11.3002
▁animated	-11.3002
▁barb	-11.3003
▁120	-11.3005
▁runner	-11.3009
▁dim	-11.3015
▁courtesy	-11.3016
never	-11.3016
▁smartphones	-11.3035
▁scare	-11.3036
▁roberts	-11.3037
▁equivalent	-11.3039
▁ferguson	-11.3039
▁vigil	-11.304
▁balloon	-11.304
▁medicare	-11.304
▁looming	-11.304
▁pepper	-11.304
▁vetting	-11.3041
▁hatred	-11.3041
▁proceedings	-11.3041
ima	-11.3042
▁weakness	-11.3043
▁friendship	-11.3044
▁sporting	-11.3045
start	-11.3045
▁Johnson	-11.3045
▁clashes	-11.305
▁unfold	-11.3052
▁dil	-11.3054
▁counselor	-11.3057
▁patch	-11.306
▁dana	-11.3064
▁lorett	-11.3065
bach	-11.3073
▁Ann	-11.3073
▁$400	-11.3074
▁Beat	-11.3075
▁stunt	-11.3076
▁helps	-11.3077
▁requirements	-11.308
▁andrea	-11.3081
▁rookie	-11.3086
▁swamp	-11.3086
▁comply	-11.3086
▁interfere	-11.3087
▁reckless	-11.3087
▁hottest	-11.3088
▁clown	-11.3088
▁lethal	-11.3088
▁African	-11.3091
▁scream	-11.3093
▁Better	-11.3093
▁Alien	-11.3094
▁hail	-11.3095
ello	-11.3101
▁dynamic	-11.3107
sex	-11.3107
▁Walk	-11.3112
▁$18	-11.3115
birth	-11.3121
▁gaining	-11.3123
▁generated	-11.3126
▁Dog	-11.3128
▁amnesty	-11.3133
▁cocaine	-11.3133
▁exploring	-11.3133
▁negotiating	-11.3133
▁vatican	-11.3133
▁muscle	-11.3133
▁ships	-11.3133
▁nieto	-11.3133
▁uncertain	-11.3134
▁wildfire	-11.3134
▁lauren	-11.3134
▁franklin	-11.3135
continental	-11.3135
paul	-11.3135
uzz	-11.3135
▁rocky	-11.3137
▁89	-11.3143
▁oliver	-11.3143
blo	-11.3144
▁burns	-11.3149
▁Every	-11.3151
▁playoff	-11.3152
▁raw	-11.3154
oul	-11.3161
▁accurate	-11.3166
▁drinks	-11.3166
▁mir	-11.3167
direct	-11.3169
▁Jet	-11.317
▁malaysia	-11.3172
▁nowhere	-11.3172
▁cam	-11.3173
▁Iraqi	-11.3173
▁rub	-11.318
▁elaborate	-11.318
▁griffin	-11.318
▁integrity	-11.318
▁mortgage	-11.318
▁optimistic	-11.318
▁staple	-11.318
▁Brown	-11.3181
▁denial	-11.3181
▁Castro	-11.3181
▁sheet	-11.3184
▁kenya	-11.3186
▁abruptly	-11.3188
▁everyday	-11.3191
▁lied	-11.3193
▁delight	-11.3193
▁Sta	-11.3194
▁shu	-11.3198
lb	-11.3199
▁ol	-11.3201
▁carefully	-11.3206
▁Va	-11.3208
▁relevant	-11.3211
▁Union	-11.3213
▁Op	-11.3216
▁pier	-11.3218
▁coin	-11.3221
▁83	-11.3221
▁India	-11.3226
▁Sur	-11.3226
check	-11.3227
▁Nominee	-11.3228
▁exclud	-11.3228
▁outspoken	-11.3228
▁pursuit	-11.3228
▁scarborough	-11.3228
▁barbara	-11.3228
▁secured	-11.3233
▁confused	-11.3234
▁79	-11.3243
▁provision	-11.3243
rise	-11.3245
▁weighing	-11.3247
▁notable	-11.3248
▁2016,"	-11.3249
▁intel	-11.3253
lov	-11.3256
▁overturn	-11.326
▁Fact	-11.3264
correct	-11.3266
▁sandy	-11.3268
ws	-11.3268
cum	-11.3269
lou	-11.327
▁Isn	-11.3271
▁stating	-11.3273
▁grammy	-11.3275
▁monetary	-11.3275
▁televised	-11.3275
▁liquid	-11.3275
active	-11.3277
▁mich	-11.3284
▁Charged	-11.3287
▁drill	-11.3288
▁skip	-11.3288
▁$13	-11.3289
▁Raise	-11.3293
▁rental	-11.3293
▁venezuelan	-11.3294
▁Line	-11.3295
▁concealed	-11.3295
▁gates	-11.3297
▁$11	-11.3299
▁conducting	-11.3306
▁offices	-11.3307
▁trained	-11.3308
▁Pop	-11.3312
▁6.	-11.3314
▁matthews	-11.3315
tern	-11.3323
▁deputies	-11.3323
▁elephant	-11.3323
▁premise	-11.3323
sergey	-11.3323
▁slump	-11.3324
▁preventing	-11.3324
▁titan	-11.3324
▁ownership	-11.3327
▁belonging	-11.3327
▁brush	-11.3331
▁noon	-11.3332
▁fallout	-11.3334
▁lineup	-11.3341
vil	-11.3343
▁exchanges	-11.3344
▁ky	-11.3345
ggle	-11.3349
view	-11.3352
▁cy	-11.3364
mouth	-11.3365
bur	-11.3371
▁chocolate	-11.3371
▁inspiration	-11.3371
▁kidnapped	-11.3372
▁Freedom	-11.3372
▁Member	-11.3373
▁radar	-11.3373
▁wireless	-11.3374
▁Victory	-11.3375
▁woke	-11.3375
▁stability	-11.3377
does	-11.3377
▁pickup	-11.3382
▁whip	-11.3383
jan	-11.3384
▁commute	-11.3389
ila	-11.3391
wick	-11.3391
▁norms	-11.3394
▁soda	-11.3395
▁demonstrate	-11.3397
▁partly	-11.34
▁volunteers	-11.3403
leigh	-11.3404
▁Days	-11.3404
▁levin	-11.341
serve	-11.341
rib	-11.341
▁pol	-11.3411
cott	-11.3412
▁Ed	-11.3412
▁scared	-11.3413
▁shed	-11.3414
add	-11.3414
▁resulting	-11.3414
TMs	-11.3419
▁Education	-11.342
▁sentencing	-11.342
▁smoking	-11.342
▁warehouse	-11.342
▁qaeda	-11.342
▁preview	-11.342
▁aisle	-11.3423
▁bite	-11.3426
▁premiums	-11.3434
lian	-11.3435
▁Review	-11.3435
▁Today	-11.3438
▁surf	-11.3438
▁firearm	-11.3444
hole	-11.3444
▁filmed	-11.3445
▁grill	-11.3449
▁noise	-11.3453
▁Final	-11.3454
▁tha	-11.3459
before	-11.3459
rop	-11.346
▁adventure	-11.3468
▁kardashian	-11.3468
▁manslaughter	-11.3468
▁Sentence	-11.3468
▁podium	-11.3468
flat	-11.3469
▁brent	-11.347
raw	-11.3471
▁opec	-11.3472
▁albert	-11.3472
chy	-11.3475
▁haul	-11.3477
▁interaction	-11.3478
▁Fo	-11.3481
lson	-11.3484
▁examine	-11.3487
▁Inter	-11.349
▁stupid	-11.349
▁exports	-11.3491
▁unleashed	-11.3491
▁94	-11.3494
greg	-11.3496
▁cafe	-11.3497
▁dirty	-11.3501
gop	-11.3502
▁leaking	-11.3504
▁alike	-11.3505
gor	-11.3515
▁wreck	-11.3517
▁Chelsea	-11.3517
▁Kushner	-11.3517
▁Little	-11.3517
▁appreciate	-11.3517
▁fascinating	-11.3517
▁netherlands	-11.3517
▁walmart	-11.3517
▁arctic	-11.3517
▁buffett	-11.3517
▁landslide	-11.3517
▁outright	-11.3517
▁restroom	-11.3518
▁admire	-11.352
▁1950	-11.3521
▁carol	-11.3521
▁lung	-11.3521
▁deserve	-11.3522
▁posing	-11.3523
▁mosquitoes	-11.3524
▁churches	-11.3524
▁Carson	-11.3524
▁download	-11.3525
▁properly	-11.3529
counterterrorism	-11.3529
▁theft	-11.3535
ryan	-11.3536
▁concerning	-11.3537
▁Intel	-11.3542
▁Came	-11.3543
▁NY	-11.3544
eur	-11.3545
▁bonds	-11.3548
▁felon	-11.3554
▁forth	-11.3558
▁compare	-11.3558
▁boxing	-11.3559
women	-11.3561
▁Islam	-11.3562
▁Boo	-11.3565
▁1994	-11.3566
▁assailant	-11.3566
▁disastrous	-11.3566
▁maximum	-11.3566
▁spencer	-11.3566
▁subpoena	-11.3566
▁jurors	-11.3566
▁sandwich	-11.3566
▁federation	-11.3566
▁nerve	-11.3567
▁reduction	-11.3568
▁riots	-11.3572
▁remembered	-11.3573
▁toilet	-11.3573
▁Marine	-11.3575
▁spare	-11.3576
lace	-11.3578
▁Low	-11.3578
▁Add	-11.358
▁Oil	-11.3581
▁hatch	-11.3582
▁Accused	-11.3582
▁ag	-11.3585
▁outlined	-11.3586
▁deepen	-11.3588
▁formula	-11.359
▁suck	-11.359
▁operatives	-11.3595
▁delta	-11.3596
24	-11.3599
▁reviews	-11.36
Go	-11.3607
▁races	-11.3607
▁legislators	-11.3615
▁calendar	-11.3615
▁revenge	-11.3615
▁authoritarian	-11.3615
▁database	-11.3615
▁escort	-11.3615
▁Church	-11.3615
▁gorka	-11.3615
▁bounce	-11.3616
▁pitcher	-11.3617
reducing	-11.3617
wash	-11.3618
▁donated	-11.362
▁Cash	-11.3624
","(	-11.3626
▁rangers	-11.3626
▁mau	-11.3627
▁plum	-11.3628
▁deploy	-11.3628
▁wider	-11.3629
▁outgoing	-11.3631
▁heroes	-11.3634
▁traditionally	-11.3635
▁$200	-11.3635
▁wayne	-11.3638
▁airstrike	-11.3643
ucci	-11.3645
▁ranging	-11.3645
▁engineers	-11.3647
▁bug	-11.3649
▁dna	-11.365
▁tension	-11.3652
rah	-11.3652
▁mocking	-11.3653
▁distract	-11.3657
▁sham	-11.3657
▁honored	-11.3658
▁clo	-11.366
tell	-11.3661
cam	-11.3662
▁Challenge	-11.3665
▁Immigrants	-11.3665
▁chaffetz	-11.3665
▁delaware	-11.3665
▁engaging	-11.3665
▁switzerland	-11.3665
▁Lawsuit	-11.3665
▁isolated	-11.3665
▁fireworks	-11.3665
▁philip	-11.3665
▁jeremy	-11.3665
▁lisa	-11.3665
▁Legal	-11.3666
▁memories	-11.3666
▁offshore	-11.3667
assi	-11.367
▁viacom	-11.3672
▁Workers	-11.3677
▁custom	-11.368
▁MILO	-11.368
paris	-11.3683
▁Victims	-11.3686
▁traders	-11.369
▁Leaders	-11.369
▁mick	-11.3702
▁doping	-11.3702
core	-11.3705
▁Manchester	-11.3714
▁Melania	-11.3714
▁Wisconsin	-11.3714
▁mohammed	-11.3714
▁contemporary	-11.3715
ground	-11.3716
▁distress	-11.3716
super	-11.3717
▁Grand	-11.3718
▁devin	-11.3723
▁labeled	-11.3724
vie	-11.3724
▁bacteria	-11.3726
▁assert	-11.3729
▁Hall	-11.3733
▁Gar	-11.3734
▁splash	-11.3735
ility	-11.3735
itude	-11.3746
tti	-11.3749
chan	-11.3751
▁passion	-11.3754
▁fri	-11.3758
▁lind	-11.3762
▁1995	-11.3764
▁Special	-11.3764
▁categories	-11.3764
▁compensation	-11.3764
▁junior	-11.3764
▁pedestrian	-11.3764
▁widow	-11.3764
▁qualify	-11.3764
▁Self	-11.3765
▁benchmark	-11.3765
▁lindsey	-11.3765
▁duo	-11.3765
▁advertisers	-11.3766
▁preferred	-11.3766
▁polish	-11.3766
▁passionate	-11.3766
▁superstar	-11.3768
▁Might	-11.3768
▁thiel	-11.3769
▁Tour	-11.3772
lessness	-11.3774
▁bombers	-11.3776
▁unanimously	-11.3776
aya	-11.3779
▁evacuated	-11.3779
▁$40	-11.3785
▁avoided	-11.38
▁assassin	-11.3812
▁sail	-11.3814
▁accompanied	-11.3815
▁participating	-11.3815
▁View	-11.3815
▁diplomacy	-11.3815
▁grandmother	-11.3815
▁govern	-11.3817
▁rnc	-11.382
▁carpet	-11.3822
hey	-11.3824
oun	-11.3825
▁portray	-11.3825
▁lately	-11.3832
▁Rap	-11.3835
ddling	-11.3835
ught	-11.3844
▁premium	-11.385
▁fee	-11.3854
girl	-11.386
which	-11.3861
▁quo	-11.3862
▁addict	-11.3862
▁speculat	-11.3862
▁prayers	-11.3864
▁casual	-11.3864
▁brace	-11.3864
▁ingredient	-11.3865
▁murphy	-11.3865
▁treasure	-11.3865
▁Film	-11.3865
▁Price	-11.3865
▁bombshell	-11.3865
▁moines	-11.3866
▁Biden	-11.3869
▁passport	-11.3869
▁makeup	-11.3869
Star	-11.387
▁reminded	-11.387
▁sting	-11.387
▁carrie	-11.3873
reach	-11.3874
▁nude	-11.3875
ryl	-11.3879
▁unrest	-11.388
▁Gov	-11.3885
▁vows	-11.3885
▁virgin	-11.3887
▁Cops	-11.3892
▁yards	-11.3894
▁dining	-11.3899
▁correspondents	-11.3908
▁LGBT	-11.3909
▁63	-11.3915
▁Governor	-11.3916
▁Liberal	-11.3916
▁administrative	-11.3916
▁bargain	-11.3916
▁reynolds	-11.3916
▁suppress	-11.3916
▁underscore	-11.3916
▁merrick	-11.3917
▁consist	-11.3917
went	-11.3917
▁tyler	-11.3918
▁helm	-11.3921
west	-11.3921
▁ye	-11.3922
▁fare	-11.3923
▁electricity	-11.3923
16	-11.3925
▁joked	-11.3929
▁surged	-11.3929
▁traded	-11.3932
ux	-11.3935
▁specialist	-11.3938
▁sim	-11.394
uestion	-11.3943
▁contributions	-11.3945
dging	-11.3946
▁lean	-11.3949
▁vest	-11.3949
▁Past	-11.3952
▁unexpectedly	-11.3953
▁sid	-11.396
▁Job	-11.3964
▁RNC	-11.3967
▁centuries	-11.3967
▁recognition	-11.3967
▁farewell	-11.3968
▁plaza	-11.3968
17	-11.3969
▁shootout	-11.397
▁lobbying	-11.397
▁sends	-11.397
▁confirms	-11.3971
▁Much	-11.3972
▁advances	-11.3974
▁meyer	-11.3978
▁drum	-11.3982
▁consistently	-11.3986
▁boats	-11.3987
▁$1,	-11.3989
▁programme	-11.3992
citing	-11.3992
▁cox	-11.3993
▁whit	-11.3994
▁stall	-11.3999
▁approaches	-11.4002
▁amounts	-11.4003
▁embraced	-11.4007
▁intern	-11.4016
▁scam	-11.4017
▁1992	-11.4018
▁Silicon	-11.4018
▁Tuesday	-11.4018
▁nebraska	-11.4018
▁occupation	-11.4018
▁ESPN	-11.4018
▁nikki	-11.4018
▁closure	-11.4019
▁assured	-11.4019
▁slain	-11.4019
▁manuel	-11.4019
▁spacecraft	-11.4019
▁commonly	-11.4021
▁verge	-11.4022
▁workforce	-11.4023
▁deck	-11.4025
▁latter	-11.4025
ception	-11.4027
▁habits	-11.4029
gun	-11.403
▁billboard	-11.4033
▁inmate	-11.4037
print	-11.404
▁supports	-11.4045
▁risen	-11.4046
▁rocked	-11.4046
▁propose	-11.4048
▁Die	-11.4052
▁narrowly	-11.4057
eck	-11.4059
▁mosquito	-11.4063
▁Reporter	-11.4063
▁climbed	-11.4064
conservative	-11.4067
would	-11.4067
▁murders	-11.4069
urg	-11.407
▁Pentagon	-11.407
▁Romney	-11.407
▁starbucks	-11.407
▁swirl	-11.407
▁gabriel	-11.407
▁Learn	-11.407
▁array	-11.407
▁panther	-11.4071
▁flagship	-11.4073
▁promoted	-11.4089
▁counted	-11.4094
▁owns	-11.4098
▁Conservatives	-11.4101
▁sab	-11.4101
▁favored	-11.4101
▁alan	-11.4105
▁farage	-11.4106
▁contracts	-11.4108
▁slate	-11.4114
aq	-11.4114
▁colorful	-11.4116
public	-11.4116
:15	-11.4116
▁Lie	-11.4119
complete	-11.412
▁Thousands	-11.4122
▁graduation	-11.4122
▁municipal	-11.4122
▁populism	-11.4122
▁portfolio	-11.4122
▁precinct	-11.4122
▁rousseff	-11.4122
▁transparency	-11.4122
▁uncomfortable	-11.4122
▁Father	-11.4122
▁vicious	-11.4122
▁absent	-11.4122
▁$17	-11.4122
think	-11.4124
▁laura	-11.4125
▁Chair	-11.4126
mur	-11.4132
dig	-11.4132
osa	-11.4132
▁Refugee	-11.4134
▁ser	-11.4135
▁poet	-11.4135
▁maintained	-11.4136
▁Finds	-11.4136
zu	-11.4139
▁Army	-11.4139
▁useful	-11.4148
ota	-11.4148
▁parks	-11.4156
fair	-11.4162
▁nar	-11.4167
izer	-11.4167
hab	-11.417
▁autonomous	-11.4174
▁conservatism	-11.4174
▁literature	-11.4174
▁rosenstein	-11.4174
▁empower	-11.4174
hara	-11.4175
rou	-11.4176
▁relax	-11.4176
▁scout	-11.4179
▁steer	-11.4181
▁diesel	-11.4182
nik	-11.4183
100	-11.4184
▁fade	-11.4185
▁alarming	-11.4187
▁unlock	-11.4189
▁indianapolis	-11.4193
▁hotels	-11.4199
▁carries	-11.4199
▁Fund	-11.4203
ctively	-11.4205
▁firefighters	-11.4206
▁87	-11.4207
▁youngest	-11.4209
▁complaining	-11.4211
▁playoffs	-11.4214
▁mothers	-11.4217
▁secur	-11.4224
▁NBA	-11.4226
▁Yahoo	-11.4226
▁genuine	-11.4226
▁lesbian	-11.4226
▁stomach	-11.4226
▁Earth	-11.4226
▁therefore	-11.4226
▁opera	-11.4226
▁mining	-11.4227
▁Crash	-11.4227
▁seoul	-11.4229
class	-11.4229
▁unusually	-11.4231
▁Hill	-11.4231
▁chronic	-11.4234
▁karen	-11.4235
▁attached	-11.4241
▁organ	-11.4243
▁freshman	-11.4245
still	-11.4245
▁mull	-11.4245
▁denying	-11.4246
▁occupied	-11.4246
▁seekers	-11.4249
▁divisions	-11.4262
▁jihad	-11.4266
▁fights	-11.4272
▁tips	-11.4272
▁springs	-11.4275
dec	-11.4278
▁triple	-11.4278
▁Through	-11.4279
▁fiorina	-11.4279
▁pneumonia	-11.4279
▁provocative	-11.4279
▁uncovered	-11.4279
▁detainee	-11.4279
▁ranch	-11.428
▁dancing	-11.4281
▁cubs	-11.4281
So	-11.4282
ood	-11.4284
▁Emails	-11.4285
ula	-11.4291
▁criticize	-11.4293
rome	-11.4294
▁appearances	-11.4299
▁sexism	-11.43
▁insults	-11.43
trial	-11.4304
version	-11.4305
zen	-11.4319
▁hung	-11.4319
open	-11.432
▁witnessed	-11.4323
▁musicians	-11.4327
▁Meeting	-11.4328
aca	-11.4328
▁expressing	-11.4331
▁Criminal	-11.4332
▁nutrition	-11.4332
▁spectacle	-11.4332
▁bestsell	-11.4332
fur	-11.4332
▁whale	-11.4335
report	-11.4337
▁Step	-11.434
▁generate	-11.4342
▁occasionally	-11.4344
▁visits	-11.4344
▁observed	-11.4344
▁educational	-11.4345
iya	-11.4348
nor	-11.435
fest	-11.4354
▁disputed	-11.4357
▁delays	-11.4358
osi	-11.436
▁weaken	-11.4361
hang	-11.4362
shire	-11.4364
omb	-11.4364
▁equally	-11.4365
▁plead	-11.4366
▁factors	-11.4367
▁abused	-11.4368
▁bret	-11.4371
▁aggressively	-11.4372
▁physically	-11.4375
▁Democrat	-11.4377
▁scandals	-11.4378
▁flaw	-11.4379
▁inform	-11.4383
▁aggravate	-11.4385
▁arsenal	-11.4385
▁gesture	-11.4385
▁exciting	-11.4386
▁shook	-11.4386
▁broadcasting	-11.4389
▁trademark	-11.4389
▁correctness	-11.439
raf	-11.4391
’,"’	-11.4393
▁racially	-11.4397
▁VP	-11.4397
▁crying	-11.4399
▁sole	-11.4399
▁laughing	-11.4402
▁handled	-11.4406
▁poured	-11.4407
▁twins	-11.4413
▁jar	-11.4413
▁invite	-11.4416
▁critically	-11.4418
▁breed	-11.4418
▁$30	-11.4426
gard	-11.443
▁ruth	-11.4434
pu	-11.4438
▁Dakota	-11.4438
▁havana	-11.4438
▁psychological	-11.4438
▁ritual	-11.4438
▁Voting	-11.4438
▁Refus	-11.4439
▁acres	-11.4439
▁betray	-11.4439
▁powell	-11.4442
▁studying	-11.4443
▁brick	-11.4445
▁mock	-11.4446
bc	-11.4449
▁stag	-11.4456
▁Stay	-11.4456
▁Staff	-11.4458
▁overcome	-11.446
▁competitors	-11.4469
▁contribute	-11.447
▁Protests	-11.4474
▁vowing	-11.4476
▁refuses	-11.4479
olog	-11.448
▁Then	-11.4483
▁contend	-11.4488
▁tsa	-11.4489
build	-11.449
▁instrument	-11.4492
▁regain	-11.4492
▁Risk	-11.4492
▁chill	-11.4494
cular	-11.4494
green	-11.4494
step	-11.4495
▁blogger	-11.4495
▁wil	-11.4495
▁wounding	-11.4497
▁mun	-11.4497
▁attendance	-11.4497
lves	-11.4497
self	-11.4498
▁wright	-11.4499
▁saga	-11.4501
▁outdoor	-11.4504
▁nest	-11.4511
▁caution	-11.4512
note	-11.4513
▁bath	-11.4514
other	-11.4514
▁liked	-11.4516
▁intends	-11.4516
may	-11.4518
▁karl	-11.4519
▁hearts	-11.452
▁designat	-11.4522
▁researcher	-11.4534
21	-11.4537
flo	-11.4538
▁commun	-11.4542
Me	-11.4543
▁sponsor	-11.4545
▁1997	-11.4546
▁Michelle	-11.4546
▁incumbent	-11.4546
▁philosophy	-11.4546
▁prestigious	-11.4546
▁vegetable	-11.4546
▁centrist	-11.4546
▁travis	-11.4546
▁brawl	-11.4547
▁Event	-11.4549
▁allegation	-11.4553
▁dumb	-11.4553
▁compar	-11.4555
▁euros	-11.4556
▁champions	-11.4556
▁cord	-11.4559
▁publish	-11.4565
praising	-11.4566
tig	-11.4566
▁symptoms	-11.457
round	-11.4571
wind	-11.4573
▁startling	-11.4574
▁clause	-11.4578
plan	-11.4579
▁meals	-11.4584
▁overturned	-11.4585
▁valued	-11.459
▁upend	-11.459
lib	-11.4592
▁mont	-11.4595
▁janet	-11.4596
▁adapt	-11.4598
▁Nomination	-11.46
▁allegiance	-11.46
▁recipient	-11.46
▁reservation	-11.46
▁roosevelt	-11.46
▁storage	-11.46
▁Blue	-11.4601
▁excellent	-11.4601
▁robbed	-11.4601
▁Guard	-11.4602
▁vague	-11.4603
cleveland	-11.4603
▁Kaine	-11.4604
▁crow	-11.4604
▁birds	-11.4604
▁knight	-11.4605
▁slave	-11.4608
▁Agree	-11.4609
▁falsely	-11.4611
▁procedures	-11.4614
▁Arrest	-11.4621
▁yard	-11.4621
▁progressives	-11.4622
Com	-11.4623
▁jab	-11.4624
▁stressed	-11.4625
▁sever	-11.4627
▁Heart	-11.4641
lich	-11.4641
phil	-11.4642
▁teammates	-11.4645
▁180	-11.4646
▁skill	-11.4647
▁slight	-11.4647
▁pressing	-11.4653
▁EPA	-11.4655
▁Yemen	-11.4655
▁emirates	-11.4655
▁escalating	-11.4655
▁faculty	-11.4655
▁producing	-11.4655
▁anxious	-11.4655
▁ncaa	-11.4655
▁casualties	-11.4655
▁defy	-11.4655
▁dishonest	-11.4656
▁excessive	-11.4656
▁uphold	-11.4658
White	-11.4658
▁Lost	-11.4662
▁130	-11.4662
▁stack	-11.4663
▁wooden	-11.4664
▁Cuban	-11.4666
▁retake	-11.4668
▁recommendation	-11.4669
▁hiv	-11.4669
▁eggs	-11.467
▁filling	-11.4671
▁withdrawal	-11.4672
placing	-11.4673
▁smash	-11.4676
▁Roll	-11.4676
▁Mayor	-11.4677
▁tent	-11.4685
▁scary	-11.4687
erra	-11.4691
▁valid	-11.4697
▁cemetery	-11.471
▁credibility	-11.471
▁enthusiasm	-11.471
▁envoy	-11.471
▁lawrence	-11.471
▁elliman	-11.471
▁dissent	-11.4711
▁translate	-11.4711
▁defends	-11.4716
actor	-11.4716
▁billy	-11.4718
▁authorized	-11.472
▁poses	-11.4721
▁improving	-11.4721
▁prisoner	-11.4724
▁fabric	-11.473
▁beard	-11.4731
▁caller	-11.4732
▁yen	-11.4734
▁sells	-11.4738
▁Plane	-11.4742
Al	-11.4746
▁slowing	-11.4747
▁seize	-11.4747
▁uc	-11.4747
▁reversed	-11.4753
▁counting	-11.4759
▁seth	-11.476
▁dish	-11.4761
▁Afghanistan	-11.4765
▁Economic	-11.4765
▁Stephen	-11.4765
▁reboot	-11.4765
▁bishop	-11.4765
▁martha	-11.4765
▁hijack	-11.4766
▁gallery	-11.4766
quin	-11.4767
▁ellison	-11.4768
▁summon	-11.477
▁undercover	-11.4772
▁couch	-11.4773
yeah	-11.4774
▁86	-11.4776
▁cough	-11.4778
▁marry	-11.4781
▁manufacturers	-11.4784
▁boil	-11.4789
▁desperately	-11.4792
▁boxes	-11.4793
aki	-11.4794
▁stern	-11.4795
▁assumed	-11.4796
▁kay	-11.4798
▁Hack	-11.4802
construct	-11.4809
▁blasts	-11.4812
▁Shut	-11.4813
came	-11.4816
media	-11.4819
▁genocide	-11.4821
▁rodriguez	-11.4821
▁scrambling	-11.4821
▁trophy	-11.4821
▁gorilla	-11.4821
▁obscure	-11.4821
▁shoppers	-11.4821
▁Interest	-11.4823
▁deployment	-11.4823
▁Resign	-11.4823
▁elevator	-11.4824
▁wings	-11.4825
ctor	-11.4827
foot	-11.4828
style	-11.483
▁insists	-11.4832
▁cement	-11.4835
▁Side	-11.4836
▁marched	-11.4837
▁painted	-11.484
▁tele	-11.4842
▁undo	-11.4842
▁vent	-11.4848
cb	-11.4849
▁crushed	-11.4851
lining	-11.4854
▁Cho	-11.4857
ripping	-11.486
▁banker	-11.4864
▁cliff	-11.4865
▁Gene	-11.4866
▁imports	-11.4867
hall	-11.4869
cock	-11.4874
▁sorts	-11.4874
▁bot	-11.4874
▁Female	-11.4877
▁immunity	-11.4877
▁schweizer	-11.4877
▁wrestling	-11.4877
▁hurdle	-11.4877
▁wasserman	-11.4877
▁breakthrough	-11.4877
▁rabbi	-11.4878
▁Word	-11.4878
▁hollande	-11.4882
▁battlefield	-11.4882
▁precisely	-11.4885
Why	-11.4885
▁European	-11.4887
rude	-11.4887
auer	-11.4894
stock	-11.4894
▁wise	-11.4894
▁survivor	-11.4895
sexual	-11.4899
Man	-11.4903
▁demonstrated	-11.4903
▁permanently	-11.4905
▁ranked	-11.491
▁flor	-11.491
north	-11.4911
anti	-11.4911
▁parliamentar	-11.492
","“	-11.492
▁nsa	-11.4923
mental	-11.4929
▁Friend	-11.4933
▁cigarette	-11.4933
▁component	-11.4933
▁perceived	-11.4933
▁resemble	-11.4933
▁horizon	-11.4933
▁spectrum	-11.4933
▁filter	-11.4933
▁katie	-11.4933
▁Birth	-11.4933
Opinion	-11.4933
▁scope	-11.4934
▁bankers	-11.4934
▁Data	-11.4935
▁dive	-11.4935
▁loyalty	-11.4936
Exclusive	-11.4939
▁trek	-11.494
▁dread	-11.4942
▁sav	-11.4944
▁WikiLeaks	-11.4945
▁hacker	-11.4946
▁stemm	-11.4948
▁makers	-11.4949
▁km	-11.495
▁liar	-11.4951
▁org	-11.4954
▁element	-11.4954
▁improved	-11.4954
▁trooper	-11.4957
▁addresses	-11.4957
▁anne	-11.4959
▁comics	-11.4962
▁villain	-11.4962
▁compromise	-11.4966
▁plunge	-11.4967
▁hostages	-11.497
wide	-11.497
once	-11.4975
▁peers	-11.4975
eau	-11.4982
▁confederate	-11.4989
▁hampton	-11.4989
▁retaliation	-11.4989
▁debris	-11.4989
▁dennis	-11.4989
▁mutual	-11.499
▁precedent	-11.499
▁bloom	-11.499
▁fiery	-11.499
▁ambush	-11.499
▁employ	-11.4991
▁chapo	-11.4993
▁cannon	-11.4993
▁racing	-11.4995
▁attendant	-11.4996
writing	-11.4997
▁realtor	-11.5001
mission	-11.5005
corn	-11.5006
name	-11.501
obama	-11.5012
▁deserves	-11.5019
▁routinely	-11.5026
▁cheating	-11.5028
ode	-11.5028
▁outline	-11.503
pur	-11.5033
Fac	-11.5037
▁Voter	-11.5038
▁indonesia	-11.5038
▁staged	-11.5038
▁recovering	-11.5042
▁insist	-11.5042
▁edit	-11.5044
▁involve	-11.5045
▁complain	-11.5046
▁slot	-11.5046
▁Hampshire	-11.5046
▁accelerate	-11.5046
▁arrangement	-11.5046
▁census	-11.5046
▁memorable	-11.5046
▁prevail	-11.5046
▁doomed	-11.5046
▁generous	-11.5047
▁monica	-11.5047
▁jefferson	-11.5048
wal	-11.5055
▁bowie	-11.5057
▁kha	-11.5057
▁fold	-11.5061
▁conn	-11.5066
▁operative	-11.507
▁signaling	-11.5073
▁presentation	-11.5073
▁Mid	-11.5081
▁safely	-11.5082
ruct	-11.5083
igh	-11.5092
▁respected	-11.5097
▁introduc	-11.5101
▁hart	-11.5102
▁retweet	-11.5103
▁collision	-11.5103
▁credentials	-11.5103
▁liberties	-11.5103
▁obligation	-11.5103
▁pursuing	-11.5103
▁zillow	-11.5103
▁convoy	-11.5103
▁policing	-11.5103
▁abolish	-11.5103
▁curry	-11.5103
▁provok	-11.5104
▁nelson	-11.5104
▁savage	-11.5105
▁reasonable	-11.5106
▁jailed	-11.5106
▁backers	-11.5111
▁Faces	-11.5111
▁wildly	-11.5114
▁roster	-11.5115
▁regulator	-11.5117
▁goods	-11.5124
▁pap	-11.5126
▁Feel	-11.5127
resa	-11.5129
▁140	-11.5129
▁freed	-11.5134
▁contradict	-11.5148
▁condemning	-11.5154
▁cooperate	-11.5155
Don	-11.5155
▁pipe	-11.5155
▁comb	-11.5157
▁trending	-11.516
▁imminent	-11.5161
▁plaintiff	-11.5161
▁reassure	-11.5161
▁subsidies	-11.5161
▁communicate	-11.5161
▁ahmad	-11.5161
▁transformed	-11.5161
▁Italy	-11.5161
▁predator	-11.5162
▁absolute	-11.5163
▁admitting	-11.5163
▁morris	-11.5163
▁Begin	-11.5163
▁heck	-11.5164
▁cure	-11.5164
▁glad	-11.5166
▁millionaire	-11.5166
▁Jones	-11.5168
▁boring	-11.5168
▁foul	-11.5169
▁flock	-11.517
▁draws	-11.517
▁render	-11.5171
▁Said	-11.5172
chel	-11.5173
▁losers	-11.5176
▁hover	-11.5177
▁shy	-11.5178
although	-11.5178
jur	-11.5179
▁Song	-11.518
▁hardline	-11.5185
▁doug	-11.5197
▁fixed	-11.5199
▁menu	-11.5205
▁ears	-11.5208
fan	-11.5208
▁wal	-11.5208
▁quake	-11.521
four	-11.521
▁corr	-11.5214
enko	-11.5215
▁enroll	-11.5218
▁maneuver	-11.5219
▁occupy	-11.5219
▁Brussels	-11.5219
▁kislyak	-11.5219
▁throat	-11.5219
▁enrique	-11.5219
▁clarify	-11.5219
▁crystal	-11.5219
▁smear	-11.5219
▁Parents	-11.5219
▁paragraph	-11.5219
▁richmond	-11.5219
▁subtle	-11.522
▁yellen	-11.522
▁quot	-11.522
▁sitcom	-11.5221
▁cnbc	-11.5222
▁cite	-11.5225
▁potter	-11.5226
▁Moment	-11.5229
▁deliberately	-11.523
▁Action	-11.5233
▁install	-11.5233
▁trove	-11.5234
radical	-11.5234
▁floating	-11.524
yard	-11.5245
tag	-11.5246
▁cargo	-11.5247
▁doll	-11.5256
▁notably	-11.526
▁Protect	-11.5266
▁possess	-11.5271
▁investing	-11.5273
▁lin	-11.5275
▁swim	-11.5276
▁accuser	-11.5276
▁penalties	-11.5277
▁mandatory	-11.5277
▁Knicks	-11.5277
▁endorsing	-11.5277
▁expire	-11.5277
▁goodbye	-11.5277
▁cotton	-11.5277
▁autism	-11.5277
▁telecom	-11.5277
▁Frank	-11.5279
▁disagreement	-11.5281
▁exhibition	-11.5282
▁Getting	-11.5283
▁bolton	-11.5284
▁Month	-11.5286
▁salman	-11.529
▁exam	-11.529
cro	-11.529
▁fails	-11.5291
▁Plans	-11.5291
▁motivation	-11.5291
▁Train	-11.5292
▁Cover	-11.5293
▁surgeon	-11.5296
▁instruction	-11.53
▁PM	-11.5301
▁shifting	-11.5302
▁flooded	-11.5303
hai	-11.5305
▁accusation	-11.5309
▁combine	-11.5314
▁gore	-11.5319
▁rumor	-11.5321
▁mara	-11.533
▁bare	-11.533
▁mild	-11.5331
22	-11.5333
▁exxon	-11.5335
uckerberg	-11.5335
▁Afghan	-11.5335
▁Attorney	-11.5335
▁Inauguration	-11.5335
▁astonishing	-11.5335
▁concession	-11.5335
▁lieutenant	-11.5335
▁relentless	-11.5335
▁staggering	-11.5335
▁supplier	-11.5335
▁bitcoin	-11.5335
▁tmz	-11.5335
▁idaho	-11.5335
▁robinson	-11.5337
hit	-11.5337
▁Warns	-11.5337
▁pardon	-11.5337
▁brink	-11.5337
▁outrageous	-11.5339
▁Peter	-11.534
▁Allow	-11.5343
▁drain	-11.5344
▁displaced	-11.5346
▁basement	-11.5353
▁avoiding	-11.5356
▁spacex	-11.5358
deep	-11.5359
rv	-11.5361
▁Met	-11.5362
▁shine	-11.5362
▁prim	-11.5365
▁loaded	-11.5369
▁holes	-11.5369
▁cooking	-11.5375
▁solutions	-11.5386
▁Away	-11.539
▁Intelligence	-11.5394
▁Kaepernick	-11.5394
▁argentina	-11.5394
▁experiencing	-11.5394
▁ignoring	-11.5394
▁distant	-11.5394
▁jewelry	-11.5396
▁Latest	-11.5396
▁Sue	-11.5399
▁reception	-11.54
motion	-11.54
▁laughed	-11.5402
▁reef	-11.5403
▁93	-11.5405
▁kicking	-11.5409
▁shoe	-11.5411
▁soros	-11.5415
▁savings	-11.5415
▁swap	-11.5415
▁aging	-11.5416
following	-11.5416
▁photography	-11.542
▁lifting	-11.5423
bell	-11.5429
rab	-11.543
▁employed	-11.543
▁vow	-11.5431
▁counterpart	-11.5431
▁tide	-11.5434
▁Mass	-11.5434
▁provisions	-11.5435
▁luis	-11.5438
▁murderer	-11.5443
▁Pur	-11.5445
▁recess	-11.5449
hell	-11.5449
▁Endorse	-11.5451
▁Megyn	-11.5453
▁appropriation	-11.5453
▁cavaliers	-11.5453
▁conservation	-11.5453
▁damascus	-11.5453
▁raqqa	-11.5453
▁survival	-11.5453
▁rahami	-11.5453
▁reversal	-11.5453
▁fishing	-11.5454
russia	-11.5454
▁duties	-11.5454
▁cairo	-11.5455
▁installment	-11.5455
▁symbolic	-11.5456
▁tampa	-11.5456
hart	-11.546
▁jihadi	-11.5463
▁dorm	-11.5466
▁inbox	-11.5468
▁tire	-11.5469
▁pie	-11.5479
▁johnny	-11.5481
viv	-11.5483
▁Gen	-11.5484
safe	-11.5485
▁halted	-11.5491
▁Dan	-11.5492
▁lure	-11.5493
▁instant	-11.5498
hm	-11.5505
▁pivot	-11.5506
election	-11.551
▁lender	-11.5511
▁lebanon	-11.5513
▁minneapolis	-11.5513
▁motorcycle	-11.5513
▁tropical	-11.5513
▁craig	-11.5513
▁Interview	-11.5513
▁McCain	-11.5513
▁Island	-11.5513
Dollar	-11.5513
▁Least	-11.5514
▁Lawyer	-11.5514
▁Place	-11.5515
▁intentionally	-11.5515
▁mason	-11.5531
▁luke	-11.5533
chris	-11.555
US	-11.5558
▁manufacturer	-11.556
your	-11.5562
▁enforc	-11.5567
▁Ver	-11.5568
dear	-11.5569
rgen	-11.5571
▁nail	-11.5572
▁$16	-11.5572
▁Caucus	-11.5573
▁Friday	-11.5573
▁Louisiana	-11.5573
▁grief	-11.5573
▁participation	-11.5573
▁rallied	-11.5573
▁apparel	-11.5573
▁defiant	-11.5573
▁dominant	-11.5573
▁enhance	-11.5573
▁proportion	-11.5573
▁defence	-11.5573
▁genital	-11.5573
▁lopez	-11.5573
▁android	-11.5573
▁citi	-11.5574
▁Camp	-11.5575
▁patron	-11.5576
▁stroll	-11.5576
▁Full	-11.5577
▁goldberg	-11.5577
▁Reality	-11.5578
▁contenders	-11.5579
position	-11.5582
▁Ali	-11.5582
trans	-11.5584
▁Six	-11.5585
▁reflected	-11.5586
michael	-11.5587
▁apprentice	-11.5588
▁exists	-11.5588
▁cole	-11.5589
erous	-11.5589
▁batch	-11.5594
▁Cast	-11.5601
▁oversee	-11.5606
▁mills	-11.5607
37	-11.5614
▁irs	-11.5616
▁enjoying	-11.5619
▁Reform	-11.5619
▁celebrations	-11.5627
▁mentally	-11.5629
▁Major	-11.563
▁1989	-11.5633
▁Cleveland	-11.5633
▁NYPD	-11.5633
▁activism	-11.5633
▁cocktail	-11.5633
▁contrary	-11.5633
▁kassam	-11.5633
▁harlem	-11.5633
▁cardinal	-11.5633
▁bolt	-11.5633
▁slur	-11.5633
▁reaches	-11.5634
▁checkpoint	-11.5634
▁WH	-11.5639
oid	-11.564
▁slams	-11.5641
▁assembled	-11.5644
▁lyrics	-11.5645
issa	-11.5647
▁prep	-11.565
▁constantly	-11.5656
▁prevented	-11.5658
▁courthouse	-11.5664
▁objects	-11.5664
olo	-11.5669
▁achieved	-11.567
slated	-11.5679
▁carr	-11.5683
aire	-11.5683
▁Near	-11.5684
▁rift	-11.5685
▁pakistani	-11.5686
▁operated	-11.5687
wald	-11.5689
▁shifted	-11.5689
▁nationalism	-11.5692
▁God	-11.5692
▁thriller	-11.5693
▁northeastern	-11.5694
▁hoax	-11.5694
▁solicit	-11.5694
▁thread	-11.5694
▁supermarket	-11.5694
▁mourning	-11.5694
▁spotify	-11.5695
▁consulting	-11.5695
▁nicolas	-11.5695
defining	-11.5696
▁blond	-11.5696
▁condemnation	-11.5698
▁Campus	-11.5699
▁plotting	-11.57
▁Oscars	-11.5701
▁tactic	-11.5704
▁naturally	-11.5704
stream	-11.5709
▁Carrie	-11.5709
▁carlos	-11.5709
▁reflects	-11.5709
▁fallon	-11.5709
several	-11.571
▁ambitions	-11.5711
lack	-11.5711
▁proper	-11.5714
▁oak	-11.5715
frey	-11.572
dog	-11.5727
▁$300	-11.5728
mother	-11.5741
made	-11.5742
▁safer	-11.5742
▁slaves	-11.5745
▁contacted	-11.5749
member	-11.5752
▁Continue	-11.5754
▁Jersey	-11.5754
▁Pakistan	-11.5754
▁applause	-11.5754
▁limbaugh	-11.5754
▁obsessed	-11.5754
▁orthodox	-11.5754
▁sacrifice	-11.5754
▁smiling	-11.5755
▁Merkel	-11.5755
▁bureaucrat	-11.5755
▁purple	-11.5755
▁munich	-11.5755
▁disappointment	-11.5755
▁Cartel	-11.5756
▁rogue	-11.5757
▁committing	-11.5758
▁awareness	-11.5758
▁adaptation	-11.5758
▁jen	-11.5766
▁respectively	-11.5766
▁colombian	-11.577
bernie	-11.5773
▁tougher	-11.5774
strong	-11.5776
lav	-11.5777
▁raids	-11.5778
▁pearl	-11.5782
bre	-11.5788
▁detailing	-11.5789
▁Teacher	-11.579
only	-11.5791
▁gala	-11.5809
▁190	-11.581
▁fond	-11.5814
▁kan	-11.5815
▁uncle	-11.5816
▁Presidency	-11.5816
▁DeVos	-11.5816
▁conglomerate	-11.5816
▁financing	-11.5816
▁scratch	-11.5816
▁unauthorized	-11.5816
▁volkswagen	-11.5816
▁complications	-11.5816
▁depth	-11.5816
▁compelling	-11.5816
▁tariff	-11.5816
▁Jewish	-11.5817
▁persistent	-11.5817
dou	-11.5819
▁Surge	-11.5819
▁Reject	-11.5822
▁Amid	-11.5823
▁upgrade	-11.5824
bli	-11.5825
▁Buy	-11.5827
▁organis	-11.5828
mag	-11.5828
▁swath	-11.5832
When	-11.5833
driving	-11.5833
▁fred	-11.5835
▁trio	-11.5836
▁imagined	-11.5838
▁ousted	-11.5838
▁coordinated	-11.584
fund	-11.584
There	-11.5843
▁bachelor	-11.5848
▁taco	-11.5864
▁Ran	-11.5866
▁bullets	-11.5868
▁usher	-11.5871
▁quotes	-11.5872
rne	-11.5874
▁Francis	-11.5876
▁League	-11.5878
▁delegation	-11.5878
▁syndrome	-11.5878
▁spiral	-11.5878
▁upheld	-11.5878
▁exposure	-11.5878
▁Defense	-11.5878
▁Slams	-11.5878
▁Movie	-11.5878
▁Coming	-11.5878
▁accountability	-11.5881
▁quant	-11.5883
▁cope	-11.5885
▁instinct	-11.5886
door	-11.5895
serious	-11.5899
▁fist	-11.5901
▁mph	-11.5904
▁load	-11.5907
▁cheaper	-11.5908
▁fried	-11.5917
▁Oscar	-11.5932
▁betting	-11.5934
▁lined	-11.5935
▁1998	-11.594
▁corcoran	-11.594
▁critique	-11.594
▁dialogue	-11.594
▁emanuel	-11.594
▁nashville	-11.594
▁Budget	-11.594
▁pistol	-11.594
▁reluctant	-11.594
▁penthouse	-11.594
▁microphone	-11.594
▁ladies	-11.594
▁intimate	-11.5941
▁grey	-11.5942
▁showcase	-11.5943
settle	-11.5946
▁Around	-11.5947
▁breathing	-11.5948
▁ward	-11.5952
claim	-11.5954
present	-11.5955
▁Palestinian	-11.5958
▁mini	-11.5959
▁sprint	-11.5961
▁airing	-11.5964
china	-11.5966
▁Giants	-11.5966
▁overtime	-11.5969
characterized	-11.5969
▁Charges	-11.597
▁Beck	-11.5983
▁Culture	-11.5983
▁lawn	-11.5984
▁borough	-11.5986
page	-11.5989
▁Mer	-11.5993
update	-11.5998
▁focuses	-11.5999
▁hay	-11.6
▁Canadian	-11.6002
▁besieged	-11.6002
▁obstacle	-11.6002
▁thwart	-11.6002
▁warfare	-11.6002
▁layoffs	-11.6002
▁Consider	-11.6002
▁Martin	-11.6002
▁lewd	-11.6003
▁yates	-11.6003
▁constituents	-11.6003
▁verbal	-11.6003
▁Working	-11.6004
▁Abuse	-11.6007
▁kris	-11.6008
acious	-11.6008
▁hank	-11.6015
rak	-11.6016
▁collecting	-11.6016
▁explicitly	-11.6016
ache	-11.6016
isation	-11.6017
twitter	-11.6022
▁merit	-11.6023
ider	-11.6025
rig	-11.6032
▁newborn	-11.6033
▁nap	-11.6034
▁raping	-11.6035
▁edited	-11.604
▁keen	-11.6043
mc	-11.6043
isis	-11.6046
,"(	-11.6048
via	-11.6049
▁marches	-11.6051
▁shade	-11.6053
▁kir	-11.6055
igan	-11.6062
▁bharara	-11.6065
▁fragile	-11.6065
▁lochte	-11.6065
▁Believe	-11.6065
▁kanye	-11.6065
▁Driver	-11.6065
▁issuing	-11.6066
▁cheered	-11.6068
▁Cancel	-11.6069
▁shipping	-11.607
▁While	-11.607
▁mounted	-11.6072
▁civilization	-11.6072
▁starter	-11.6073
hate	-11.6077
▁dire	-11.6081
▁hunger	-11.6083
▁Stone	-11.6083
health	-11.6085
absolutely	-11.6088
▁clearance	-11.609
▁rapist	-11.6091
▁defie	-11.6091
▁jamie	-11.6093
▁sang	-11.6094
▁Sell	-11.6099
▁unfolded	-11.6112
▁recommendations	-11.6117
▁dirt	-11.6119
▁enact	-11.612
▁ltd	-11.612
▁sally	-11.612
▁taxpayer	-11.6127
▁Arizona	-11.6128
▁Committee	-11.6128
▁Schumer	-11.6128
▁Williams	-11.6128
▁commencement	-11.6128
▁diabetes	-11.6128
▁ecuador	-11.6128
▁feminism	-11.6128
▁obsession	-11.6128
▁shkreli	-11.6128
▁solidarity	-11.6128
▁timothy	-11.6128
▁ukrainian	-11.6128
▁Patriot	-11.6128
▁Stories	-11.6128
▁culminat	-11.6128
▁literary	-11.6128
▁longstanding	-11.6128
▁mohamed	-11.6128
:00	-11.6128
▁wrongdoing	-11.6128
▁Search	-11.6128
▁clarity	-11.6129
▁lyft	-11.6129
having	-11.6129
▁reinstate	-11.6129
▁blanket	-11.613
▁crush	-11.6131
▁awake	-11.6131
▁distribution	-11.6131
▁temer	-11.6131
▁wander	-11.6134
▁injection	-11.6135
▁glow	-11.6136
▁punched	-11.6137
:20	-11.6137
mini	-11.6142
▁fictional	-11.6142
heim	-11.6145
Brexit	-11.6149
19	-11.6157
store	-11.6161
gov	-11.6168
▁grass	-11.6171
loom	-11.6177
▁austria	-11.6184
▁tightening	-11.6186
▁Matthew	-11.6192
▁System	-11.6192
▁acclaimed	-11.6192
▁deutsche	-11.6192
▁excitement	-11.6192
▁nasdaq	-11.6192
▁unpredictable	-11.6192
▁Weapon	-11.6192
▁inflict	-11.6192
▁Trial	-11.6192
▁revolt	-11.6192
▁snake	-11.6192
▁programming	-11.6193
▁interstate	-11.6194
▁bulk	-11.6194
▁Stock	-11.6194
▁kissing	-11.6195
▁Dept	-11.6198
▁organisation	-11.6198
▁clashed	-11.6201
gene	-11.6202
▁dated	-11.6203
▁directive	-11.6204
▁trap	-11.6212
▁DC	-11.6217
▁counterparts	-11.6217
▁hassan	-11.622
▁anna	-11.6221
▁dock	-11.623
▁controlling	-11.623
▁Plea	-11.6233
▁matches	-11.6233
▁Using	-11.6246
▁chanted	-11.6247
▁rank	-11.6255
Citizen	-11.6256
▁1984	-11.6256
▁collaboration	-11.6256
▁huckabee	-11.6256
▁revival	-11.6256
▁sophisticated	-11.6256
▁backdrop	-11.6256
▁Cosby	-11.6256
▁grandfather	-11.6257
ghan	-11.6257
▁dunham	-11.6258
▁emoji	-11.6258
beirut	-11.6258
ruff	-11.6258
▁Light	-11.6258
▁Jeb	-11.6258
▁risky	-11.6259
▁cancelled	-11.6259
▁Terrorism	-11.626
gold	-11.626
▁shutting	-11.6264
▁enduring	-11.627
▁laden	-11.627
▁outraged	-11.6271
▁layer	-11.6273
▁Prof	-11.628
▁slice	-11.6286
▁mug	-11.6287
▁candy	-11.6293
▁overseeing	-11.63
▁rust	-11.6306
bbie	-11.6306
▁reliable	-11.6307
▁broadly	-11.6315
▁Indian	-11.6315
▁answering	-11.6319
▁Access	-11.6321
▁Brooklyn	-11.6321
▁Netflix	-11.6321
▁margaret	-11.6321
▁Agent	-11.6321
▁password	-11.6322
▁Road	-11.6329
▁defeating	-11.6331
▁shutter	-11.6332
▁kor	-11.6333
▁cabin	-11.6337
▁jumping	-11.634
▁debuted	-11.634
▁employer	-11.634
▁oversees	-11.6342
▁Ties	-11.6344
script	-11.6344
CNN	-11.6344
earlier	-11.6344
david	-11.6346
▁nra	-11.6348
mayor	-11.6349
▁Center	-11.6352
ister	-11.6353
racist	-11.6356
atar	-11.6357
▁sponsored	-11.6362
▁stalled	-11.6364
▁partially	-11.6365
▁figured	-11.6368
▁subsequent	-11.6371
▁unanimous	-11.6371
▁poly	-11.6372
▁holt	-11.6372
▁shout	-11.6382
▁applaud	-11.6386
▁NASA	-11.6386
▁Effort	-11.6386
▁hijab	-11.6386
▁parallel	-11.6386
▁surviving	-11.6386
▁valuation	-11.6386
▁volatile	-11.6386
▁decrease	-11.6386
▁studied	-11.6386
▁tobacco	-11.6386
▁examining	-11.6386
▁ankara	-11.6386
▁Tower	-11.6386
Ne	-11.6386
▁conscience	-11.6387
▁Fargo	-11.6387
▁geneva	-11.6387
▁leon	-11.6389
▁bezos	-11.6389
those	-11.6389
bou	-11.639
▁willingness	-11.6392
change	-11.6395
etti	-11.6396
▁Probe	-11.6399
▁checked	-11.6405
▁proclaimed	-11.6407
▁cowboys	-11.6409
pol	-11.6411
▁jewel	-11.6415
▁sway	-11.6416
racy	-11.6417
▁levi	-11.6421
acher	-11.6421
▁commuter	-11.6427
ech	-11.6429
mac	-11.6435
▁explicit	-11.6436
▁Dam	-11.644
fish	-11.6441
▁distinct	-11.6444
▁foreigners	-11.6445
▁slid	-11.645
▁Minister	-11.6451
▁default	-11.6451
▁identities	-11.6451
▁robust	-11.6452
▁arthur	-11.6453
▁abdul	-11.6453
▁Baby	-11.6454
▁shaking	-11.6454
▁reelection	-11.6455
▁onstage	-11.6456
▁rash	-11.6459
▁Bro	-11.646
▁filming	-11.6463
▁$150	-11.6464
▁Very	-11.6467
▁requirement	-11.6468
▁dose	-11.6475
shock	-11.648
▁descended	-11.6481
▁spit	-11.6486
▁talented	-11.649
Care	-11.649
▁Racist	-11.6493
▁detected	-11.6501
▁reviewing	-11.6503
dicating	-11.6503
▁tab	-11.6505
▁frankly	-11.6507
▁manufacture	-11.6509
▁$35	-11.6509
▁searches	-11.651
▁documented	-11.6513
▁Coulter	-11.6517
▁Number	-11.6517
▁economies	-11.6517
▁vulgar	-11.6517
▁Cabinet	-11.6517
▁alexandria	-11.6517
▁observation	-11.6517
▁Expert	-11.6517
▁Since	-11.6517
▁Reason	-11.6517
▁homeowner	-11.6517
▁otto	-11.6517
▁junk	-11.6519
▁Market	-11.6523
city	-11.6524
▁remake	-11.6524
▁temperature	-11.6528
zan	-11.6534
▁logo	-11.6535
▁newsroom	-11.6539
▁Van	-11.6541
craft	-11.6541
▁julia	-11.6542
▁neuro	-11.6543
▁appealing	-11.6568
uf	-11.6568
▁norman	-11.6578
▁burr	-11.6581
Hamilton	-11.6583
▁advancing	-11.6583
▁microcephaly	-11.6583
▁salvador	-11.6583
▁skull	-11.6583
▁ransom	-11.6583
▁accomplished	-11.6583
▁cyberattack	-11.6583
crooked	-11.6583
▁awesome	-11.6583
▁biological	-11.6584
▁forthcoming	-11.6584
▁screw	-11.6584
▁perception	-11.6585
▁Rule	-11.6585
▁humble	-11.6586
▁joking	-11.6586
▁snowden	-11.6587
▁grasp	-11.6588
▁romance	-11.6589
▁objective	-11.659
▁cage	-11.6591
▁Gang	-11.6592
▁trusted	-11.6593
▁stab	-11.6598
▁endured	-11.6599
▁Online	-11.66
▁sara	-11.6602
▁searched	-11.6605
▁accountable	-11.6608
▁endangered	-11.6608
Yes	-11.661
▁rear	-11.661
▁Trying	-11.6615
▁gaza	-11.6617
▁Kills	-11.6619
▁prompt	-11.6627
▁crashes	-11.6631
▁plug	-11.6637
▁nun	-11.6642
▁geo	-11.6643
▁tang	-11.6644
rose	-11.6645
▁emotions	-11.6647
▁SCOTUS	-11.665
▁shinzo	-11.665
▁Expect	-11.665
▁slamming	-11.665
▁Constitution	-11.665
▁Pull	-11.665
▁mcmaster	-11.665
▁modi	-11.665
▁organizing	-11.665
▁ahmed	-11.6651
▁spurred	-11.6651
ography	-11.6652
▁persist	-11.6652
▁Jail	-11.6652
▁interpret	-11.6652
esh	-11.6652
▁trent	-11.6653
▁loving	-11.6653
▁fal	-11.6655
▁cheat	-11.6656
▁copies	-11.6658
▁feat	-11.6659
space	-11.666
conc	-11.6664
▁harrison	-11.6666
home	-11.6668
▁roar	-11.667
▁97	-11.6671
▁71	-11.6675
umbling	-11.6676
▁illustrated	-11.6676
▁justify	-11.6678
cruz	-11.6678
▁philippine	-11.6688
▁hurting	-11.6688
▁pirate	-11.6692
▁inspire	-11.6694
▁Speak	-11.6694
▁suspending	-11.6715
▁Author	-11.6716
▁Delegate	-11.6717
▁authentic	-11.6717
▁1991	-11.6717
▁Economy	-11.6717
▁NATO	-11.6717
▁blizzard	-11.6717
▁jurisdiction	-11.6717
▁sebastian	-11.6717
▁subscription	-11.6717
▁supervisor	-11.6717
▁dignity	-11.6717
▁Crowd	-11.6717
▁clerk	-11.6717
▁glance	-11.6718
▁inherit	-11.6718
▁Barack	-11.6718
▁appointee	-11.6718
▁hulk	-11.6718
▁Running	-11.6719
▁Palin	-11.6719
▁Taking	-11.6719
▁guzman	-11.672
▁llc	-11.672
moral	-11.6721
▁slap	-11.6722
▁Create	-11.6722
▁Roger	-11.6722
▁flick	-11.6722
▁haram	-11.6727
▁bearing	-11.6728
▁fastest	-11.6728
isa	-11.6731
▁dismissal	-11.6732
▁kyle	-11.6734
▁Indiana	-11.6736
▁cruel	-11.6737
▁Used	-11.6739
▁observer	-11.674
▁buyer	-11.674
▁secretive	-11.674
peace	-11.6748
Right	-11.6749
▁Age	-11.6752
▁advise	-11.6753
▁beam	-11.6754
rush	-11.6755
gender	-11.6756
▁buff	-11.6758
eering	-11.6759
▁lag	-11.6762
▁hug	-11.6763
▁donation	-11.6765
▁buses	-11.6767
▁Ge	-11.677
▁severely	-11.677
▁swipe	-11.6772
▁bend	-11.6773
advertisement	-11.6776
▁chu	-11.6784
▁grain	-11.6784
▁1979	-11.6784
▁1993	-11.6784
▁Adviser	-11.6784
▁Document	-11.6784
▁certificate	-11.6784
▁currencies	-11.6784
▁devastated	-11.6784
▁furniture	-11.6784
▁harassed	-11.6784
▁wield	-11.6784
▁differently	-11.6785
▁taunt	-11.6787
▁Movement	-11.6789
▁jackie	-11.679
▁Ball	-11.6792
fuck	-11.6792
▁Iranian	-11.6793
hum	-11.6793
▁(1	-11.6794
rink	-11.6798
18	-11.6803
▁Told	-11.6809
philadelphia	-11.6814
▁Aide	-11.6814
flower	-11.6821
hack	-11.6823
▁Accuse	-11.6829
▁millennial	-11.6832
▁cookie	-11.6836
▁Hero	-11.684
▁coaches	-11.684
▁earning	-11.6842
▁checking	-11.6843
holder	-11.6845
▁Eye	-11.6848
▁Hospital	-11.6852
▁Turkish	-11.6852
▁altogether	-11.6852
▁cautious	-11.6852
▁circus	-11.6852
▁cologne	-11.6852
▁controversies	-11.6852
▁protocol	-11.6852
▁sacramento	-11.6852
▁probation	-11.6852
▁garbage	-11.6853
▁rubble	-11.6853
▁Smith	-11.6854
▁kabul	-11.6854
▁emily	-11.6855
▁northwestern	-11.6856
▁jesse	-11.6856
▁raging	-11.686
▁hamas	-11.6865
▁aiming	-11.6866
▁disruption	-11.6871
western	-11.6876
▁fillon	-11.6876
▁distributed	-11.6881
cultural	-11.6883
▁Ahead	-11.6888
▁info	-11.689
▁Memo	-11.6893
maybe	-11.6894
▁smashed	-11.6895
▁wit	-11.6895
mass	-11.6898
help	-11.6899
▁stat	-11.6902
▁organic	-11.6906
▁luna	-11.6907
▁rum	-11.6912
ER	-11.6914
▁vel	-11.6917
▁Writing	-11.6921
▁Anthony	-11.6921
▁Hurricane	-11.6921
▁Nevada	-11.6921
▁autopsy	-11.6921
▁buffalo	-11.6921
▁convincing	-11.6921
▁kalanick	-11.6921
▁lucrative	-11.6921
▁prosperity	-11.6921
▁raheem	-11.6921
▁retiring	-11.6921
▁sacred	-11.6921
▁spree	-11.6921
▁Macron	-11.6922
▁thanked	-11.6922
▁ethical	-11.6922
▁louisville	-11.6923
▁pornography	-11.6924
▁freezing	-11.6924
▁touching	-11.6925
▁compiled	-11.6927
▁sunny	-11.6929
master	-11.6933
▁provider	-11.6933
▁sunni	-11.6933
zel	-11.6935
▁Establishment	-11.6936
▁measured	-11.6938
fusion	-11.6942
▁villa	-11.6944
▁wilders	-11.6948
▁160	-11.6954
nbc	-11.6961
▁encountered	-11.6961
▁grind	-11.6969
senate	-11.6972
pack	-11.6972
▁referenc	-11.6975
fact	-11.6988
▁Alabama	-11.699
▁DOJ	-11.699
▁ammunition	-11.699
▁berkshire	-11.699
▁consumption	-11.699
▁definitive	-11.699
▁mulvaney	-11.699
▁seizure	-11.699
▁sergeant	-11.699
▁Message	-11.699
▁bleeding	-11.699
▁stranded	-11.699
▁chunk	-11.699
▁panama	-11.6991
▁initiat	-11.6992
▁Jack	-11.6992
▁worn	-11.6992
▁shiite	-11.6993
▁manhunt	-11.6993
▁Disney	-11.6995
▁cape	-11.6996
▁advertise	-11.6996
bate	-11.7004
▁Tro	-11.7005
uro	-11.7005
god	-11.7009
▁choke	-11.7012
▁shaped	-11.7016
▁92	-11.7019
▁Barr	-11.7022
▁interrupt	-11.7025
▁cute	-11.7025
▁credible	-11.7027
▁greatly	-11.7038
▁lang	-11.704
▁98	-11.7045
anni	-11.7046
▁rosen	-11.7046
▁hurl	-11.7046
▁Bay	-11.7047
▁correspond	-11.7057
Reilly	-11.7059
caliphate	-11.7059
▁Concern	-11.7059
▁antibiotic	-11.7059
▁sullivan	-11.7059
▁threshold	-11.7059
▁jamaica	-11.7059
▁Dream	-11.7059
▁vanished	-11.7059
▁dossier	-11.7059
▁Flint	-11.7059
▁puzzle	-11.7059
▁outstanding	-11.7059
▁therapy	-11.7061
▁schiff	-11.7061
▁nathan	-11.7061
▁Reagan	-11.7061
▁Program	-11.7062
▁boko	-11.7063
▁dug	-11.7063
▁interim	-11.7065
▁loft	-11.7065
▁kil	-11.7067
▁pivotal	-11.7067
true	-11.7071
▁underwater	-11.7073
▁wy	-11.7075
▁walt	-11.7084
▁detain	-11.7094
▁enacted	-11.7097
iq	-11.7103
empt	-11.7109
▁jaw	-11.7109
?’,"	-11.7113
▁joel	-11.7119
▁pushes	-11.7126
gio	-11.7126
▁Colorado	-11.7129
▁Puerto	-11.7129
▁confusing	-11.7129
▁diagnosis	-11.7129
▁dinosaur	-11.7129
▁earliest	-11.7129
▁flurry	-11.7129
▁hockey	-11.7129
▁jupiter	-11.7129
▁carnage	-11.7129
SNL	-11.7129
▁Cross	-11.7129
▁transmission	-11.713
▁Peace	-11.713
▁reinforce	-11.713
▁Choice	-11.713
▁pleasure	-11.713
▁grassley	-11.7131
▁revere	-11.7131
▁subscribe	-11.7132
▁Kill	-11.7133
▁Goldman	-11.7133
▁Season	-11.7134
code	-11.7135
▁leaf	-11.7136
▁crashing	-11.7137
quest	-11.7139
▁sony	-11.7142
▁unacceptable	-11.7155
▁mario	-11.7157
▁flown	-11.716
hong	-11.7162
rica	-11.7165
▁asserted	-11.7178
aux	-11.7181
▁91	-11.7181
▁’90	-11.7182
▁dip	-11.7186
hale	-11.7195
▁implemented	-11.7197
▁nicole	-11.7198
▁sexy	-11.7199
▁1968	-11.72
▁baptist	-11.72
▁excerpt	-11.72
▁fugitive	-11.72
▁injunction	-11.72
▁nonetheless	-11.72
▁grateful	-11.72
▁gordon	-11.72
▁tornado	-11.72
▁ufc	-11.72
▁tolerance	-11.72
▁Coast	-11.72
▁reddit	-11.72
▁Sports	-11.72
▁phillip	-11.72
▁skirt	-11.7201
▁Model	-11.7201
▁bidding	-11.7202
▁invented	-11.7202
▁yoga	-11.7202
▁pleased	-11.7203
▁Rob	-11.7204
▁instructor	-11.7204
▁rudy	-11.7204
▁pine	-11.7204
▁bobby	-11.7205
▁emmy	-11.7205
▁prospective	-11.7206
▁preside	-11.7206
▁Pain	-11.7208
▁Bat	-11.721
▁tossed	-11.7212
▁outreach	-11.7218
▁confessed	-11.7219
▁shattered	-11.722
▁Brain	-11.722
▁succeeded	-11.7222
▁warship	-11.7224
▁decent	-11.723
lashed	-11.7233
▁gab	-11.7234
please	-11.7238
final	-11.7238
▁installed	-11.7242
Resist	-11.7245
▁evolution	-11.7247
▁Burn	-11.725
▁accounting	-11.7259
logy	-11.7263
▁upstate	-11.7264
bridge	-11.7267
▁hyper	-11.7268
▁Cent	-11.7269
▁courage	-11.7269
▁accompany	-11.727
▁neglect	-11.727
pocalypse	-11.7271
▁Kansas	-11.7271
▁Suggest	-11.7271
▁companion	-11.7271
▁samuel	-11.7271
▁ossoff	-11.7271
▁southeastern	-11.7271
▁Kerry	-11.7271
▁lavish	-11.7271
▁watson	-11.7271
ghostbusters	-11.7271
▁displayed	-11.7271
▁heavyweight	-11.7271
▁remarkably	-11.7271
▁introduction	-11.7272
▁naming	-11.7272
▁Philippines	-11.7272
▁preference	-11.7272
▁slowdown	-11.7272
▁sharia	-11.7273
▁hardware	-11.7274
▁attribut	-11.7274
14	-11.7276
▁juice	-11.7276
bie	-11.7277
▁brock	-11.7278
▁matchup	-11.7279
▁darkness	-11.7282
▁statewide	-11.7284
boro	-11.7287
▁gaga	-11.7288
raymond	-11.7289
▁escalated	-11.7289
▁kra	-11.7293
▁mum	-11.7296
▁yelling	-11.7297
goers	-11.7297
evil	-11.7302
▁shrinking	-11.7304
https	-11.7307
Black	-11.7309
▁sooner	-11.7314
band	-11.732
▁pete	-11.7326
▁meaningful	-11.7329
easy	-11.7336
▁simulat	-11.7336
train	-11.7337
▁guitar	-11.7338
▁surveyed	-11.7341
▁constitute	-11.7342
▁contributing	-11.7342
▁efficient	-11.7342
▁painkiller	-11.7342
▁practically	-11.7342
▁sydney	-11.7342
▁tamaulipas	-11.7342
▁tissue	-11.7342
▁vacancy	-11.7342
▁caddell	-11.7342
▁uproar	-11.7342
▁Musk	-11.7342
▁Address	-11.7342
▁Assad	-11.7342
▁tribal	-11.7342
▁Explain	-11.7342
▁nigel	-11.7343
▁snapped	-11.7345
▁headache	-11.7345
▁proving	-11.7346
worm	-11.7346
▁hughes	-11.7348
▁attractive	-11.735
▁intend	-11.7351
▁fitting	-11.7351
▁brutality	-11.7353
▁butter	-11.7354
▁arabic	-11.7356
▁marcus	-11.7367
▁finishing	-11.7367
▁linda	-11.7369
23	-11.7376
▁hype	-11.7377
▁erupt	-11.738
democrats	-11.738
▁Victim	-11.7383
▁fianc	-11.739
dded	-11.739
▁firmly	-11.7392
▁stir	-11.7395
▁blend	-11.7395
33	-11.7395
reck	-11.7396
▁invested	-11.7399
▁sticking	-11.7402
ffer	-11.7404
▁sox	-11.7405
▁900	-11.7407
▁81	-11.7407
▁descend	-11.7409
▁Trip	-11.7412
▁Bathroom	-11.7414
▁Elizabeth	-11.7414
▁Journalist	-11.7414
▁Samsung	-11.7414
▁defamation	-11.7414
▁indigenous	-11.7414
▁metaphor	-11.7414
▁singapore	-11.7414
▁sioux	-11.7414
▁distinguish	-11.7414
▁evident	-11.7414
▁transplant	-11.7414
▁bronze	-11.7414
▁dairy	-11.7414
▁garcia	-11.7414
▁Honor	-11.7414
▁accent	-11.7415
▁heaven	-11.7415
▁Company	-11.7415
▁Brother	-11.7415
▁Francisco	-11.7416
rol	-11.7417
▁affecting	-11.7417
▁Gold	-11.7418
▁payroll	-11.7418
▁Remov	-11.7419
ribe	-11.742
▁veil	-11.7421
▁grin	-11.7425
▁nigerian	-11.7427
heur	-11.7429
Up	-11.743
bow	-11.7431
▁detonated	-11.7433
jon	-11.7441
▁Player	-11.7451
▁pouring	-11.7451
▁decor	-11.7452
2016	-11.7453
racial	-11.7454
▁poorly	-11.7456
▁catching	-11.7458
▁workout	-11.7462
▁portrayed	-11.7463
▁destroyer	-11.7465
invest	-11.7465
bear	-11.7467
▁Hear	-11.7473
▁boyle	-11.7475
▁Tea	-11.7481
▁lamb	-11.7481
▁basket	-11.7482
gul	-11.7484
▁gentle	-11.7485
▁Account	-11.7486
▁airbnb	-11.7486
▁brennan	-11.7486
▁cathedral	-11.7486
▁raucous	-11.7486
▁Appeal	-11.7486
▁streep	-11.7486
▁isolation	-11.7487
▁Short	-11.7487
▁monkey	-11.7487
▁automatically	-11.7487
▁unravel	-11.7489
▁simultaneously	-11.749
▁obstruct	-11.7492
▁relay	-11.7496
▁clinical	-11.7497
▁tenant	-11.7497
▁globalization	-11.7499
▁cheering	-11.7503
▁dancer	-11.7515
ody	-11.7518
▁dumped	-11.7518
▁Suicide	-11.7521
piece	-11.7523
▁ponder	-11.7524
cape	-11.7525
▁unleash	-11.7525
▁Lot	-11.7528
▁exceptional	-11.7531
▁demon	-11.7532
▁crushing	-11.7533
▁participated	-11.7537
▁allied	-11.7539
▁96	-11.754
▁rang	-11.7545
▁Bull	-11.755
▁Reach	-11.7554
▁whenever	-11.7556
▁neutral	-11.7557
▁1986	-11.7559
▁abducted	-11.7559
▁ambulance	-11.7559
▁convenience	-11.7559
▁estranged	-11.7559
▁mccrory	-11.7559
▁ramadan	-11.7559
▁stereotype	-11.7559
▁manifest	-11.7559
▁Kellyanne	-11.756
▁Libya	-11.756
▁utterly	-11.756
▁parole	-11.7561
▁Ground	-11.7561
▁laboratory	-11.7562
▁ipo	-11.7564
▁garage	-11.7565
▁recuse	-11.7566
▁LA	-11.7574
▁Bombing	-11.7575
▁instantly	-11.7578
▁glasses	-11.7584
clear	-11.7591
▁lending	-11.7591
▁NBC	-11.7598
▁entertainer	-11.7606
stay	-11.7618
plane	-11.763
▁bankrupt	-11.7632
▁juvenile	-11.7633
▁murdoch	-11.7633
▁offseason	-11.7633
▁smuggling	-11.7633
▁stockholm	-11.7633
▁beverage	-11.7633
▁Elector	-11.7633
▁rotation	-11.7633
▁joshua	-11.7633
▁thailand	-11.7634
▁linger	-11.7634
▁holmes	-11.7634
▁sovereignty	-11.7634
▁determination	-11.7634
▁Airport	-11.7635
▁disappearance	-11.7635
▁Remember	-11.7635
▁drift	-11.7635
▁bailout	-11.7635
pinning	-11.7636
▁interpretation	-11.7638
▁Edge	-11.7641
▁invok	-11.7643
▁straw	-11.7644
▁malaysian	-11.7646
pay	-11.7652
▁commemorat	-11.7654
▁unfairly	-11.7658
angled	-11.7662
ume	-11.7664
America	-11.7666
▁receiver	-11.7673
connect	-11.7675
definitely	-11.7676
▁sometime	-11.7677
rigged	-11.7679
▁robotic	-11.768
▁flawed	-11.7681
▁Deadly	-11.7684
▁negotiate	-11.7684
▁divorced	-11.7688
▁deliberate	-11.7695
▁Australia	-11.7699
▁tally	-11.7706
crimination	-11.7706
phobic	-11.7707
▁Cuomo	-11.7707
▁despair	-11.7707
▁examination	-11.7707
▁imagination	-11.7707
▁lloyd	-11.7707
▁melbourne	-11.7707
▁supplement	-11.7707
▁gasoline	-11.7707
▁Clear	-11.7707
▁incentive	-11.7707
▁wiretapping	-11.7707
▁dashboard	-11.7708
▁Organ	-11.7709
▁bigotry	-11.7709
▁regulate	-11.7712
▁Cal	-11.7713
▁greenhouse	-11.7715
▁Mock	-11.7716
▁slashed	-11.7723
▁slowed	-11.7727
▁invade	-11.7735
▁klan	-11.7735
▁fantastic	-11.7735
▁predicting	-11.7739
tomic	-11.7742
ternal	-11.7743
▁archivebot	-11.7743
▁institutional	-11.7744
▁Guy	-11.7745
natural	-11.775
Life	-11.7753
▁roe	-11.7756
ndez	-11.7763
rik	-11.7763
▁booker	-11.7764
:[	-11.7771
▁orchestra	-11.778
▁Conflict	-11.7782
▁Evidence	-11.7782
▁Fraud	-11.7782
▁Religious	-11.7782
▁Thrones	-11.7782
▁assumption	-11.7782
▁broncos	-11.7782
▁brzezinski	-11.7782
▁manipulate	-11.7782
▁significance	-11.7782
▁strategies	-11.7782
▁terrified	-11.7782
▁snack	-11.7782
▁heightened	-11.7782
▁valentine	-11.7782
▁patriarch	-11.7782
▁petersburg	-11.7783
▁soaring	-11.7783
▁chairwoman	-11.7783
▁julie	-11.7785
▁boasted	-11.7787
▁dislike	-11.7787
▁Flight	-11.7791
▁meters	-11.7794
▁mainland	-11.7794
▁Outside	-11.7794
▁Jon	-11.7795
▁theatre	-11.7795
▁richest	-11.7796
▁Thing	-11.78
▁motorist	-11.7802
▁negotiated	-11.7805
▁qa	-11.7807
▁Cup	-11.7808
▁Following	-11.7812
▁$250	-11.7812
▁robin	-11.7817
0,000	-11.7817
▁Send	-11.7818
▁Hearing	-11.7824
school	-11.7825
screen	-11.7826
could	-11.7826
qualified	-11.7826
▁breathe	-11.7828
▁beau	-11.7833
▁globally	-11.7833
▁publicity	-11.7835
▁Share	-11.7836
▁thi	-11.7838
▁navigate	-11.7846
▁somali	-11.7846
▁lining	-11.7846
▁separated	-11.7846
▁tons	-11.7847
My	-11.7849
▁damn	-11.785
All	-11.785
owitz	-11.7854
▁censor	-11.7856
▁diminish	-11.7857
▁Netanyahu	-11.7857
▁abbott	-11.7857
▁capabilities	-11.7857
▁catastrophe	-11.7857
▁montgomery	-11.7857
▁oxford	-11.7857
▁shakespeare	-11.7857
▁Answer	-11.7857
▁thrilled	-11.7857
▁glory	-11.7857
▁Radical	-11.7857
▁spouse	-11.7857
▁leslie	-11.7857
▁fraternity	-11.7858
▁surging	-11.7858
▁glut	-11.7858
pool	-11.7859
▁wives	-11.7859
▁hungry	-11.786
▁Port	-11.7863
▁pale	-11.7873
▁scrambled	-11.7878
▁listened	-11.7888
▁Role	-11.7888
▁reflecting	-11.7889
mou	-11.7895
Thank	-11.7896
rl	-11.79
▁fringe	-11.7901
imagine	-11.7902
chicago	-11.7902
▁notified	-11.7904
donnell	-11.7908
logging	-11.7912
▁chilling	-11.7914
▁rivera	-11.7918
▁folk	-11.7918
▁interact	-11.7919
▁rushing	-11.7923
▁robber	-11.7924
▁din	-11.7931
Sanctuary	-11.7933
▁Catholic	-11.7933
▁charitable	-11.7933
▁magnitude	-11.7933
▁warmbier	-11.7933
▁Colombia	-11.7933
▁flavor	-11.7933
▁tumultuous	-11.7933
▁uprising	-11.7933
▁reeling	-11.7933
▁skepticism	-11.7934
▁wreckage	-11.7935
▁shaping	-11.7936
▁torch	-11.7941
▁spies	-11.7942
▁cease	-11.7944
▁Fired	-11.7945
▁distraction	-11.7945
▁halfway	-11.7947
▁chic	-11.7947
mean	-11.7949
▁lamar	-11.7949
▁reflection	-11.7952
▁curse	-11.7954
▁bully	-11.7958
▁elevated	-11.7959
full	-11.7965
▁container	-11.7967
▁sufficient	-11.7976
iddle	-11.7977
stage	-11.7979
▁Bridge	-11.7988
▁macy	-11.7993
▁magical	-11.7996
▁insurer	-11.7996
▁belonged	-11.8003
deplorable	-11.8005
▁Flag	-11.8007
▁Success	-11.8009
▁imposing	-11.8009
▁negotiator	-11.8009
▁disrespect	-11.8009
▁miranda	-11.8009
▁jungle	-11.8009
▁snatch	-11.8009
▁Defeat	-11.8009
▁cybersecurity	-11.8009
▁respondents	-11.8009
▁circulating	-11.8009
▁Cause	-11.8009
▁Jew	-11.801
▁Monday	-11.801
▁Jackson	-11.8011
▁bradley	-11.8011
▁descent	-11.8011
▁firestorm	-11.8012
▁Rice	-11.8014
▁waving	-11.8014
▁alarmed	-11.8014
▁Manning	-11.8019
▁influenced	-11.802
▁tube	-11.8021
▁tourism	-11.8024
▁donate	-11.8025
▁gown	-11.8025
▁Deep	-11.8025
▁pageant	-11.8026
One	-11.8028
pathetic	-11.8028
join	-11.8028
▁Alex	-11.803
▁refine	-11.8035
total	-11.8037
visibl	-11.8039
▁wishes	-11.8041
▁Page	-11.8046
▁bryan	-11.8048
close	-11.805
lander	-11.8054
hamilton	-11.8056
should	-11.8057
shoot	-11.8058
▁swan	-11.806
nobody	-11.806
▁unfortunate	-11.8071
▁Jr	-11.8076
▁transported	-11.8077
▁beaches	-11.8079
wire	-11.8079
▁similarly	-11.8085
▁chanting	-11.8085
▁homosexual	-11.8086
▁Flood	-11.8086
▁exploration	-11.8086
▁stephanopoulos	-11.8086
▁lebron	-11.8086
▁caesar	-11.8086
▁Remain	-11.8086
▁Small	-11.8086
▁Beyonc	-11.8086
▁brazen	-11.8086
▁Praise	-11.8087
▁Wood	-11.8087
▁dismay	-11.8087
▁Boston	-11.8088
▁Massive	-11.8088
▁aerial	-11.8088
▁worrying	-11.8089
▁watergate	-11.8094
▁unfit	-11.8094
▁emma	-11.8096
▁etc	-11.8097
▁lightning	-11.8098
▁devil	-11.8099
▁conceded	-11.8101
pla	-11.8102
▁batman	-11.8103
▁worthy	-11.8103
▁vanity	-11.8105
▁skies	-11.8108
▁joan	-11.8113
▁examined	-11.8122
▁fundamentally	-11.8123
▁penis	-11.8134
social	-11.8135
▁kara	-11.8138
▁brass	-11.8139
46	-11.8142
▁bout	-11.8143
▁rode	-11.8144
▁brandon	-11.8144
▁investigator	-11.8155
▁abd	-11.8156
▁leonard	-11.8159
▁Miami	-11.8163
▁santiago	-11.8163
▁obesity	-11.8163
▁asteroid	-11.8163
▁railroad	-11.8163
▁vault	-11.8164
▁Employee	-11.8164
▁gaming	-11.8164
▁farmer	-11.8164
▁exposing	-11.8164
▁amanda	-11.8164
▁applies	-11.8166
▁transferred	-11.8166
▁truce	-11.8167
▁looms	-11.8168
▁Chance	-11.8168
▁georgetown	-11.8169
▁predictable	-11.8169
▁Letter	-11.8171
▁Rand	-11.8171
▁Hunt	-11.8173
▁270	-11.8174
▁Cities	-11.8176
36	-11.8176
vote	-11.8181
▁elliott	-11.8181
▁soap	-11.8183
hine	-11.8184
▁corpse	-11.8185
▁Lee	-11.8197
▁peer	-11.8197
▁Saying	-11.8197
▁sack	-11.8198
▁hardest	-11.8202
▁swiftly	-11.8204
appear	-11.8212
nothing	-11.8214
Report	-11.8215
▁disgusting	-11.822
▁leaning	-11.8226
▁enthusiastic	-11.8229
▁boxer	-11.8229
▁elder	-11.8235
▁reserved	-11.8236
▁unify	-11.8238
▁eliminated	-11.8241
▁Voice	-11.8241
▁applicants	-11.8241
▁imprisoned	-11.8241
▁pediatric	-11.8241
▁psychologist	-11.8241
▁psychology	-11.8241
▁squeeze	-11.8241
▁alligator	-11.8241
▁meltdown	-11.8241
▁gossip	-11.8241
▁Everything	-11.8241
▁nursing	-11.8241
▁kathy	-11.8241
▁drake	-11.8242
▁Airlines	-11.8242
▁medium	-11.8242
▁Fisher	-11.8242
▁Thought	-11.8242
▁dubai	-11.8242
▁wiretapped	-11.8242
▁ipad	-11.8242
▁civic	-11.8242
▁brewer	-11.8242
▁soared	-11.8243
▁awaiting	-11.8243
▁tease	-11.8244
▁Inc	-11.8244
▁subjected	-11.8244
charge	-11.8244
▁arson	-11.8247
▁occasional	-11.8248
▁backpack	-11.8248
▁harper	-11.8249
▁Fighting	-11.8249
▁existed	-11.8249
▁Body	-11.825
▁blur	-11.8254
▁bride	-11.8257
▁disgraced	-11.8258
▁imam	-11.8258
▁wales	-11.8258
▁stoke	-11.8259
▁renew	-11.8266
▁floated	-11.8266
▁bribe	-11.8267
▁catastrophic	-11.827
resolved	-11.8277
28	-11.8288
through	-11.8292
▁sealed	-11.8294
▁Fla	-11.8294
▁bass	-11.8298
nearly	-11.8299
▁Aren	-11.8304
▁$60	-11.8313
▁Berkeley	-11.832
▁Ethics	-11.832
▁algorithm	-11.832
▁clapper	-11.832
▁extradition	-11.832
▁francois	-11.832
▁fraudulent	-11.832
▁outskirts	-11.832
▁philando	-11.832
▁tuition	-11.832
▁unlawful	-11.832
▁nevertheless	-11.832
▁Cancer	-11.832
▁recapture	-11.8321
▁surreal	-11.8321
▁Fidel	-11.8321
▁roast	-11.8321
▁waiver	-11.8321
▁kimmel	-11.8322
▁ascend	-11.8322
▁Chapo	-11.8324
▁eleven	-11.8324
both	-11.8325
▁foxnews	-11.8326
▁hallway	-11.8331
▁rejection	-11.8333
ucker	-11.8335
agging	-11.8335
▁Aim	-11.8341
▁insane	-11.8346
▁offset	-11.8349
▁compromised	-11.8352
▁Rein	-11.8359
intentional	-11.8361
▁guaranteed	-11.8368
science	-11.8372
rov	-11.8375
odd	-11.8376
▁evacuate	-11.8377
▁Dad	-11.8381
▁sour	-11.8389
▁feeding	-11.8389
▁creep	-11.8389
▁celeb	-11.8398
▁1972	-11.84
▁Appear	-11.84
▁Priebus	-11.84
▁blitzer	-11.84
▁dysfunction	-11.84
▁happiness	-11.84
▁kellogg	-11.84
▁miracle	-11.84
▁tabloid	-11.84
▁impending	-11.84
▁staunch	-11.84
▁Blood	-11.84
▁Half	-11.84
▁phony	-11.84
▁Storm	-11.84
▁erect	-11.84
▁embarrassed	-11.84
▁Himself	-11.84
▁withdrew	-11.84
▁infectious	-11.84
▁alternate	-11.84
▁campbell	-11.84
▁Option	-11.8401
▁renewable	-11.8402
▁beckham	-11.8402
▁Few	-11.8405
▁parish	-11.8407
▁nike	-11.8416
▁consumed	-11.8417
stick	-11.8418
quez	-11.8419
▁yelled	-11.8425
▁stan	-11.8426
▁listeners	-11.8426
▁Mac	-11.8427
rought	-11.8428
▁Aid	-11.8432
gnos	-11.8433
▁upward	-11.8436
hra	-11.844
▁propell	-11.8442
chief	-11.8443
race	-11.8452
sometimes	-11.8453
Free	-11.8454
▁backward	-11.8454
little	-11.8454
▁mast	-11.8455
▁explode	-11.8457
▁albe	-11.8458
▁inject	-11.8464
▁severed	-11.8467
▁badge	-11.8468
AR	-11.847
▁blasting	-11.847
AN	-11.8476
▁respective	-11.8478
▁woo	-11.8479
alkingpointsmemo	-11.848
▁Benghazi	-11.848
▁Declare	-11.848
▁Destroy	-11.848
▁Private	-11.848
▁Violent	-11.848
▁jpmorgan	-11.848
▁scathing	-11.848
▁Network	-11.848
▁Predict	-11.848
▁dominance	-11.848
▁adolf	-11.848
▁policymakers	-11.848
▁tentative	-11.848
▁barrage	-11.8481
▁heidi	-11.8481
▁Rick	-11.8484
▁divest	-11.8485
▁witch	-11.8487
▁creepy	-11.8492
▁guru	-11.8493
▁emphasis	-11.8506
▁diner	-11.8508
ovich	-11.8508
▁ID	-11.851
▁Bob	-11.8512
forming	-11.8514
▁recruiting	-11.852
▁bullying	-11.8523
TM	-11.8527
sanctuary	-11.8534
jerusalem	-11.8535
california	-11.8535
liberal	-11.8535
▁Hol	-11.8536
▁emotion	-11.8537
▁dj	-11.8552
▁repeating	-11.8552
▁thorn	-11.8554
▁1976	-11.856
▁Celebrate	-11.856
▁Editor	-11.856
▁Families	-11.856
▁Prosecutor	-11.856
▁confidant	-11.856
▁grassroots	-11.856
▁hopkins	-11.856
▁immune	-11.856
▁observatory	-11.856
▁bennett	-11.856
▁scalise	-11.856
▁Glenn	-11.856
▁acosta	-11.856
▁Patrol	-11.8561
▁discredit	-11.8561
:40	-11.8561
▁Failure	-11.8561
▁revamp	-11.8561
▁gallup	-11.8563
▁playlist	-11.8565
▁knocking	-11.8567
▁scour	-11.857
▁Farm	-11.8575
▁frantic	-11.8575
racking	-11.8576
▁powerhouse	-11.8576
▁fetus	-11.8578
▁christianity	-11.858
▁Crack	-11.8581
..’"	-11.8583
▁solely	-11.8584
▁instructed	-11.8584
▁Asia	-11.8589
▁Serve	-11.8589
▁donna	-11.86
witch	-11.8608
▁dense	-11.861
▁soften	-11.861
▁grapple	-11.8611
houston	-11.8617
fidel	-11.8619
group	-11.862
▁palmer	-11.8626
Car	-11.8628
▁Missing	-11.8635
solve	-11.8637
▁hated	-11.8641
▁IPO	-11.8641
▁hussein	-11.8641
▁intrigue	-11.8641
▁kilometers	-11.8641
▁krauthammer	-11.8641
▁premature	-11.8641
▁pulitzer	-11.8641
▁ridicule	-11.8641
▁riyadh	-11.8641
▁technological	-11.8641
▁undisclosed	-11.8641
▁chapman	-11.8641
▁steadily	-11.8641
▁gymnastics	-11.8642
▁influx	-11.8642
▁utility	-11.8642
▁Strong	-11.8642
▁contempt	-11.8642
▁midwest	-11.8642
▁telegraph	-11.8642
▁Research	-11.8642
▁thrust	-11.8643
▁madrid	-11.8643
▁cornell	-11.8643
▁Rich	-11.8643
▁playground	-11.8644
▁reconsider	-11.8644
▁surpass	-11.8644
wig	-11.8649
psycho	-11.865
▁rattled	-11.8653
▁mono	-11.8654
▁favorable	-11.8661
▁booth	-11.8662
▁conceal	-11.8689
▁dial	-11.8691
▁Rex	-11.8694
father	-11.8702
▁vp	-11.8716
▁halting	-11.8716
hou	-11.8721
▁affiliated	-11.8721
▁1988	-11.8723
▁Snapchat	-11.8723
▁hilarious	-11.8723
▁incarceration	-11.8723
▁neighbour	-11.8723
▁presumably	-11.8723
▁scattered	-11.8723
▁swallow	-11.8723
▁tsunami	-11.8723
▁Phone	-11.8723
▁battered	-11.8723
▁gaffe	-11.8724
▁domain	-11.8724
▁Central	-11.8724
▁Focus	-11.8724
▁crises	-11.8724
▁creek	-11.8724
▁bystander	-11.8724
▁songwriter	-11.8725
▁Hurt	-11.8725
▁gamble	-11.8726
▁unofficial	-11.8727
▁factories	-11.8728
▁friedman	-11.8729
▁playbook	-11.8729
▁punished	-11.8735
berlin	-11.8735
▁engulfed	-11.8735
▁$22	-11.8738
▁runoff	-11.8743
▁decree	-11.8744
▁biased	-11.8748
38	-11.8751
▁stun	-11.8753
▁nerd	-11.8753
▁Speaker	-11.8757
best	-11.8758
▁USA	-11.876
▁Eric	-11.8764
▁forbes	-11.8765
▁bosses	-11.8766
▁bryant	-11.8767
▁swear	-11.877
▁Nazi	-11.8772
joy	-11.8772
▁grid	-11.8773
treat	-11.8773
▁dub	-11.8774
▁pledg	-11.8775
iran	-11.878
ueen	-11.8782
amazon	-11.8783
Review	-11.8783
▁scramble	-11.8783
child	-11.8784
another	-11.8792
bject	-11.8793
void	-11.8795
▁gill	-11.88
▁distribut	-11.8803
Bill	-11.8804
▁pour	-11.8805
▁rescind	-11.8806
▁skyrocket	-11.8806
▁Decision	-11.8806
▁Pipeline	-11.8806
▁acknowledging	-11.8806
▁legitimacy	-11.8806
▁puzder	-11.8806
▁reproductive	-11.8806
▁skyscraper	-11.8806
▁sympathy	-11.8806
▁harvest	-11.8806
▁Early	-11.8806
▁demise	-11.8806
▁reshape	-11.8806
▁cheryl	-11.8807
▁ignite	-11.8807
▁hefty	-11.8807
▁chorus	-11.8807
▁Sachs	-11.8807
Wire	-11.8807
▁vogue	-11.8807
▁mah	-11.8807
▁pitching	-11.8809
▁stripped	-11.8809
▁implementation	-11.8811
▁Paper	-11.8811
▁disability	-11.8812
▁Evan	-11.8813
▁harmful	-11.8813
▁bucket	-11.8813
▁mtv	-11.8814
▁projections	-11.8815
▁backyard	-11.8815
▁boris	-11.8817
▁maj	-11.8818
▁railed	-11.8819
▁photographed	-11.8821
▁scottish	-11.8821
▁facto	-11.8822
▁recreational	-11.8823
▁clarke	-11.8826
▁gaze	-11.8829
▁lil	-11.8835
bee	-11.8839
▁coral	-11.884
▁Wal	-11.8841
▁nj	-11.8842
hour	-11.8846
▁maintaining	-11.8847
▁thu	-11.8848
▁Hot	-11.8848
▁hb	-11.8856
pod	-11.8863
▁spra	-11.8866
actress	-11.8868
parent	-11.8878
mike	-11.8882
▁1964	-11.8889
▁Attempt	-11.8889
▁Politician	-11.8889
▁arranged	-11.8889
▁clooney	-11.8889
▁renowned	-11.8889
▁stimulus	-11.8889
▁twenty	-11.8889
▁corbyn	-11.8889
▁icahn	-11.8889
▁orientation	-11.8889
▁False	-11.8889
▁simmons	-11.8889
▁stockpile	-11.8889
▁debating	-11.8889
▁arnold	-11.8889
▁swarm	-11.889
▁scoring	-11.889
▁Hours	-11.889
▁touchdown	-11.8891
▁Labor	-11.8892
▁brotherhood	-11.8892
▁hinted	-11.8892
▁unhappy	-11.8893
▁denton	-11.8894
▁reclaim	-11.8894
▁neo	-11.8894
▁petty	-11.8897
▁danny	-11.8897
▁Same	-11.8897
▁fancy	-11.8898
▁samantha	-11.8898
▁Riot	-11.8899
Brit	-11.8916
▁teammate	-11.8919
▁indexes	-11.8921
▁technically	-11.8923
▁vary	-11.8927
▁bigot	-11.8929
▁sensor	-11.8939
gunned	-11.8939
▁generat	-11.8945
google	-11.8951
secretary	-11.8952
broken	-11.8953
▁Funding	-11.8954
prof	-11.8959
▁ivy	-11.8962
▁insulting	-11.8969
▁Matt	-11.8969
▁Charlotte	-11.8973
▁Pennsylvania	-11.8973
▁Possible	-11.8973
▁Response	-11.8973
▁Third	-11.8973
▁antarctic	-11.8973
▁boehner	-11.8973
▁cancellation	-11.8973
▁chipotle	-11.8973
▁ethiopia	-11.8973
▁graffiti	-11.8973
▁guantanamo	-11.8973
▁intersection	-11.8973
▁litigation	-11.8973
▁nicholas	-11.8973
▁subcommittee	-11.8973
▁tulsa	-11.8973
▁undecided	-11.8973
▁Sunday	-11.8973
▁drowned	-11.8973
▁ginsburg	-11.8973
▁huddle	-11.8973
▁mastermind	-11.8973
▁assignment	-11.8973
▁warplanes	-11.8974
▁pricing	-11.8974
▁Try	-11.8975
▁digging	-11.8975
▁Rico	-11.8975
▁spiritual	-11.8975
rob	-11.8975
▁bribery	-11.8976
▁dilma	-11.8976
▁clever	-11.8977
▁dismal	-11.8977
▁defund	-11.8979
▁abusing	-11.898
▁poem	-11.898
▁Jong	-11.8981
▁transformation	-11.8982
▁Australian	-11.8983
▁lucie	-11.8985
▁navigat	-11.8986
▁colo	-11.8989
▁analyzed	-11.899
▁reiterated	-11.8991
▁shelves	-11.8996
▁dare	-11.8998
▁erin	-11.9001
lapped	-11.9003
▁anytime	-11.9011
▁Cap	-11.9014
▁plummet	-11.9024
▁watt	-11.9025
▁Late	-11.9032
▁novelist	-11.9034
▁execute	-11.9036
written	-11.9037
Just	-11.904
▁toast	-11.9051
▁Launch	-11.9051
ennifer	-11.9056
▁excess	-11.9056
▁Helped	-11.9058
▁accumulat	-11.9058
▁1973	-11.9058
▁Duterte	-11.9058
▁Professor	-11.9058
▁Sheriff	-11.9058
▁aggression	-11.9058
▁alzheimer	-11.9058
▁defiance	-11.9058
▁horrifying	-11.9058
▁sanchez	-11.9058
▁fraction	-11.9058
▁leather	-11.9058
▁welcoming	-11.9058
▁Jared	-11.9058
▁reckon	-11.9058
▁cambridge	-11.9058
▁marlins	-11.9058
▁distort	-11.9059
▁inspection	-11.9059
▁Wife	-11.9059
▁decorated	-11.906
▁$24	-11.906
▁Auto	-11.9064
▁pillar	-11.9064
▁helmet	-11.9065
▁stiff	-11.9066
▁Cook	-11.9067
▁Carry	-11.9072
▁lifelong	-11.9074
▁Fix	-11.9074
▁lament	-11.9076
▁extract	-11.9077
rez	-11.9083
▁finalized	-11.9091
▁daylight	-11.9094
▁fury	-11.9095
▁replica	-11.9096
▁prescribe	-11.9103
▁sustain	-11.9107
▁pitched	-11.9121
brexit	-11.9123
historic	-11.9123
shift	-11.9124
▁visitor	-11.9127
senator	-11.9128
everyone	-11.9128
sandra	-11.9131
▁Instagram	-11.9144
▁embracing	-11.9144
▁enclave	-11.9144
▁frenzy	-11.9144
▁identification	-11.9144
▁perpetrator	-11.9144
▁restructuring	-11.9144
▁impressed	-11.9144
▁Capital	-11.9144
▁Source	-11.9144
▁Sweden	-11.9144
▁texan	-11.9144
▁vacant	-11.9144
▁disdain	-11.9144
▁monarch	-11.9144
▁International	-11.9144
▁refrain	-11.9144
▁fallows	-11.9144
▁beverly	-11.9144
▁circulated	-11.9144
▁curve	-11.9144
▁Sarah	-11.9144
▁thumb	-11.9145
▁Robot	-11.9146
▁rodham	-11.9146
▁objections	-11.9146
▁Owner	-11.9147
▁widening	-11.9149
▁rethink	-11.915
▁Wear	-11.915
▁creditors	-11.915
ledge	-11.9151
rammed	-11.9152
▁Trail	-11.9152
▁booed	-11.9153
almost	-11.9153
▁Clar	-11.9157
▁spate	-11.9164
▁handout	-11.9165
luck	-11.9165
▁wiped	-11.9169
▁Shoot	-11.9171
▁farc	-11.9172
▁disrupted	-11.9173
▁deduct	-11.9174
bomb	-11.9174
▁upside	-11.9181
▁shrink	-11.919
▁sank	-11.9195
▁Died	-11.9195
▁temper	-11.9198
▁shall	-11.92
certain	-11.9206
▁escalate	-11.9207
dangerous	-11.921
▁lemon	-11.9223
▁tun	-11.9224
▁Guilty	-11.923
▁straightforward	-11.923
▁1983	-11.923
▁Baltimore	-11.923
▁Biggest	-11.923
▁acquitted	-11.923
▁discourse	-11.923
▁hazard	-11.923
▁integration	-11.923
▁patience	-11.923
▁pompeo	-11.923
▁shapiro	-11.923
▁unsuccessful	-11.923
▁wyoming	-11.923
▁Square	-11.923
▁manziel	-11.923
▁proposing	-11.923
▁martial	-11.923
▁intensify	-11.923
▁slaying	-11.923
▁lucas	-11.923
▁transparent	-11.923
▁armstrong	-11.9231
▁crawl	-11.9231
▁polite	-11.9231
▁Replace	-11.9233
▁climbing	-11.9234
Betsy	-11.9235
▁Idea	-11.9235
▁digest	-11.9235
▁Golden	-11.9236
max	-11.9236
▁biles	-11.9237
▁kal	-11.9237
lax	-11.924
▁collided	-11.9244
▁specialize	-11.9245
▁frontier	-11.9248
moonlight	-11.925
▁branches	-11.9251
▁mentor	-11.9255
▁Eat	-11.9256
▁unified	-11.9256
▁shaken	-11.9258
▁trainer	-11.9259
▁shack	-11.9261
▁adjusted	-11.9263
▁impeach	-11.928
!!	-11.9291
▁tal	-11.9292
▁denounce	-11.9294
▁ensur	-11.9295
▁questionable	-11.9297
▁blown	-11.9298
atlanta	-11.9298
significant	-11.9298
major	-11.9298
▁110	-11.93
neill	-11.9304
▁helpful	-11.9307
▁ruined	-11.9307
▁Path	-11.9308
▁cried	-11.9312
design	-11.9314
▁differ	-11.9315
▁coincide	-11.9317
▁debunk	-11.9317
Saturday	-11.9317
phobia	-11.9317
thomson	-11.9317
▁1985	-11.9317
▁Companies	-11.9317
▁Industry	-11.9317
▁Jordan	-11.9317
▁encrypted	-11.9317
▁monologue	-11.9317
▁precious	-11.9317
▁servant	-11.9317
▁Truth	-11.9317
▁Worst	-11.9317
▁coveted	-11.9317
▁bleak	-11.9317
▁abraham	-11.9317
▁steak	-11.9317
▁Front	-11.9317
▁headphones	-11.9317
▁entities	-11.9317
▁sheikh	-11.9317
▁newark	-11.9317
▁statute	-11.9317
▁McDonald	-11.9317
▁censorship	-11.9318
▁Mind	-11.9318
▁architecture	-11.9318
▁cheek	-11.9319
▁enlist	-11.932
▁delhi	-11.9322
▁Winner	-11.9323
▁roommate	-11.9323
▁distinction	-11.9323
▁gunpoint	-11.9324
▁Avoid	-11.9324
▁crisp	-11.9326
▁princeton	-11.9328
▁clay	-11.9329
leave	-11.9332
▁congo	-11.9338
▁Nearly	-11.9339
lemonade	-11.934
▁considerable	-11.9344
▁pundit	-11.9348
wise	-11.9352
▁$19	-11.9359
▁Neil	-11.9365
▁marie	-11.9367
▁damning	-11.9367
▁bald	-11.9368
hren	-11.9378
known	-11.9382
dress	-11.9383
beijing	-11.9386
▁Rid	-11.9386
▁Ken	-11.9388
blue	-11.9388
▁drilling	-11.9391
▁McConnell	-11.9405
▁Welcome	-11.9405
▁appetite	-11.9405
▁batteries	-11.9405
▁gorgeous	-11.9405
▁hysteria	-11.9405
▁intensified	-11.9405
▁malcolm	-11.9405
▁reaffirm	-11.9405
▁resettlement	-11.9405
▁rouhani	-11.9405
▁tycoon	-11.9405
▁gadget	-11.9405
▁sculpture	-11.9405
▁woes	-11.9405
▁Gender	-11.9406
▁rubber	-11.9406
▁Coverage	-11.9407
▁Ku	-11.9408
▁($1	-11.9409
▁1930	-11.9409
▁joaquin	-11.941
▁breakdown	-11.9411
▁Launches	-11.9412
▁touting	-11.9417
▁katy	-11.9418
▁Islamist	-11.942
▁toughest	-11.9421
▁carmel	-11.9422
▁monte	-11.9425
▁candid	-11.9435
▁aligned	-11.9437
▁firefighter	-11.9439
▁pc	-11.9448
▁Rate	-11.9453
▁$70	-11.9453
▁Hacking	-11.9467
gone	-11.9469
▁justified	-11.947
author	-11.9475
Game	-11.9477
29	-11.9484
▁Africa	-11.9485
ladimir	-11.9492
▁Football	-11.9493
▁Istanbul	-11.9493
▁Microsoft	-11.9493
▁Thursday	-11.9493
▁corridor	-11.9493
▁disabilities	-11.9493
▁espionage	-11.9493
▁gianforte	-11.9493
▁jeopardy	-11.9493
▁nintendo	-11.9493
▁believing	-11.9493
▁temperament	-11.9493
▁Trust	-11.9493
▁scoop	-11.9493
▁concentrate	-11.9493
▁automobile	-11.9493
▁ultra	-11.9493
▁Attend	-11.9494
▁minimal	-11.9494
▁compris	-11.9494
▁summary	-11.9494
▁consciousness	-11.9494
▁flipped	-11.9495
▁hungary	-11.9495
▁eddie	-11.9495
▁dictatorship	-11.9495
▁rampant	-11.9496
▁Graham	-11.9496
▁electors	-11.9496
▁echoed	-11.9502
▁publicist	-11.9504
▁austrian	-11.9505
▁hayes	-11.9505
▁acceptable	-11.9507
south	-11.9509
▁illustrate	-11.9509
▁takeaway	-11.9509
▁Vice	-11.951
▁101	-11.9517
tax	-11.9518
▁hugh	-11.9519
▁difficulty	-11.9523
five	-11.9525
▁erase	-11.9526
▁libyan	-11.9528
▁competitor	-11.9531
▁Terr	-11.9531
▁contribution	-11.9532
▁rout	-11.9538
▁wipe	-11.9539
El	-11.9547
hero	-11.9551
▁Tale	-11.956
leader	-11.9566
▁marshal	-11.9576
▁nyc	-11.9578
roy	-11.9578
soft	-11.9578
▁bern	-11.9578
extremely	-11.9578
honor	-11.9582
▁compliance	-11.9582
▁disavow	-11.9582
▁lavrov	-11.9582
▁leverage	-11.9582
▁reconciliation	-11.9582
▁siblings	-11.9582
▁twelve	-11.9582
▁delicate	-11.9582
▁intensive	-11.9582
▁catalog	-11.9582
▁cluster	-11.9582
▁innovative	-11.9582
▁Angeles	-11.9582
▁vendor	-11.9582
▁Truck	-11.9582
NPR	-11.9582
▁Revolution	-11.9583
▁freddie	-11.9583
▁Moore	-11.9583
▁Enough	-11.9583
▁Fatal	-11.9584
▁extinction	-11.9585
▁Write	-11.9585
▁salute	-11.9585
▁santos	-11.9585
▁Urges	-11.9587
▁spoilers	-11.9588
enstein	-11.9589
▁faint	-11.9591
▁Enter	-11.9591
▁halftime	-11.9595
▁townhouse	-11.9596
congratulations	-11.9601
▁mook	-11.9602
▁roam	-11.9604
▁watches	-11.9609
▁Finally	-11.961
▁Safe	-11.9614
▁doj	-11.9626
▁lens	-11.9636
▁endanger	-11.9644
▁astronomer	-11.9649
million	-11.9657
authorities	-11.9657
giving	-11.9658
interest	-11.9661
annon	-11.9661
bird	-11.9662
pamkeynen	-11.9672
▁Amendment	-11.9672
▁Soldier	-11.9672
▁Struggle	-11.9672
▁Suspend	-11.9672
▁advising	-11.9672
▁boulevard	-11.9672
▁delicious	-11.9672
▁dilemma	-11.9672
▁gruesome	-11.9672
▁halloween	-11.9672
▁telescope	-11.9672
▁trevor	-11.9672
▁whistleblower	-11.9672
▁ebola	-11.9672
▁YouTube	-11.9672
▁grabbing	-11.9672
▁Medical	-11.9672
▁Limit	-11.9672
▁identical	-11.9672
[...]
