<unk>	0
<s>	0
</s>	0
▁the	-3.2304
s	-3.25218
,	-3.41921
.	-3.59724
▁a	-3.87717
▁to	-3.96735
▁of	-4.01718
’	-4.0746
▁in	-4.17266
▁and	-4.24017
▁	-4.53397
▁on	-4.84887
▁that	-4.90751
."	-4.93003
▁for	-4.94838
▁is	-5.13523
ing	-5.181
,"	-5.23401
ed	-5.24201
▁trump	-5.31939
t	-5.32095
▁“	-5.34146
▁with	-5.38032
▁was	-5.39611
▁it	-5.4208
▁at	-5.55386
▁he	-5.56607
▁his	-5.5844
:	-5.63836
▁from	-5.67315
d	-5.67897
▁as	-5.68548
—	-5.69642
▁by	-5.72067
▁an	-5.77316
▁has	-5.78086
▁”	-5.78535
▁be	-5.85889
▁said	-5.8628
▁’	-5.9105
”	-5.92588
▁new	-5.93506
▁are	-6.00771
▁have	-6.01329
▁who	-6.08837
▁but	-6.09765
ly	-6.11881
▁this	-6.13333
▁i	-6.15251
▁not	-6.15273
a	-6.15518
,”	-6.16811
▁(	-6.17802
▁about	-6.2233
▁after	-6.2346
er	-6.26587
▁president	-6.27662
y	-6.27835
▁her	-6.29905
▁will	-6.33166
▁s	-6.33493
i	-6.35319
▁donald	-6.36436
)	-6.36647
▁they	-6.39011
▁their	-6.39942
▁one	-6.41146
▁"	-6.45274
▁you	-6.46161
the	-6.48243
▁had	-6.49932
re	-6.50154
▁been	-6.50267
n	-6.51381
","	-6.53207
▁out	-6.5342
▁more	-6.54168
▁over	-6.54685
▁she	-6.55014
e	-6.57256
▁were	-6.5732
▁u	-6.57973
▁clinton	-6.5862
▁up	-6.59644
▁we	-6.60164
▁or	-6.60579
▁people	-6.63529
▁its	-6.64113
in	-6.65087
▁-	-6.65446
m	-6.66892
▁when	-6.69512
▁which	-6.727
▁would	-6.74821
▁what	-6.75236
▁first	-6.76984
al	-6.78068
▁state	-6.78437
▁than	-6.78662
▁into	-6.80713
▁all	-6.82297
-	-6.84282
▁breitbart	-6.84536
es	-6.85968
▁york	-6.8776
▁two	-6.88079
▁so	-6.8838
▁can	-6.91451
▁no	-6.93082
▁house	-6.93895
▁last	-6.96115
▁just	-6.96838
▁news	-6.98389
▁[	-6.99622
c	-7.01118
▁year	-7.01693
▁time	-7.03172
▁obama	-7.03699
r	-7.03796
▁years	-7.04125
▁campaign	-7.05072
▁us	-7.05465
▁some	-7.06469
▁like	-7.07052
▁week	-7.07433
it	-7.08098
▁police	-7.08662
▁there	-7.08992
p	-7.09018
▁how	-7.11051
o	-7.11418
▁now	-7.11751
▁republican	-7.12329
▁do	-7.12954
▁if	-7.14368
▁presidential	-7.14479
▁him	-7.14819
?	-7.16149
▁could	-7.16765
▁hillary	-7.17346
▁most	-7.17372
on	-7.19752
▁times	-7.19952
▁white	-7.19999
▁according	-7.20487
▁other	-7.21886
▁told	-7.23549
▁against	-7.23936
▁world	-7.24638
▁day	-7.26004
▁before	-7.27371
le	-7.27708
▁national	-7.28033
ve	-7.29225
or	-7.31164
▁during	-7.31289
▁tuesday	-7.32603
▁back	-7.32606
▁friday	-7.32672
▁former	-7.32851
▁man	-7.32896
▁says	-7.33408
▁‘	-7.3425
▁election	-7.34528
▁may	-7.34602
g	-7.3484
b	-7.34999
▁american	-7.35019
▁also	-7.36173
▁thursday	-7.37288
cnn	-7.3757
▁re	-7.37594
▁un	-7.38345
▁court	-7.38731
▁city	-7.39077
ers	-7.39319
▁down	-7.39361
th	-7.39511
▁them	-7.41859
▁states	-7.42272
▁monday	-7.42572
▁our	-7.42685
▁my	-7.45232
▁while	-7.45844
▁government	-7.46721
▁wednesday	-7.46821
▁united	-7.47043
▁country	-7.48046
▁many	-7.48954
▁even	-7.50222
▁me	-7.50319
▁where	-7.51111
▁made	-7.515
▁night	-7.51884
en	-7.5211
ic	-7.52282
▁get	-7.53456
▁c	-7.53622
▁percent	-7.53862
an	-7.53963
▁off	-7.53981
l	-7.54328
▁here	-7.54489
▁show	-7.54735
▁million	-7.56169
u	-7.56873
▁media	-7.57026
▁your	-7.57427
▁de	-7.58108
▁because	-7.58212
▁say	-7.58485
▁party	-7.5897
▁bill	-7.59048
▁since	-7.59696
f	-7.60179
▁being	-7.60857
▁under	-7.61002
▁women	-7.62874
▁only	-7.63287
▁make	-7.63577
el	-7.6379
▁federal	-7.6415
▁america	-7.65748
▁three	-7.65946
▁way	-7.6667
▁sunday	-7.67041
▁home	-7.6708
▁p	-7.67144
h	-7.67545
ll	-7.68565
man	-7.68608
▁group	-7.69337
▁company	-7.69555
▁don	-7.69756
▁political	-7.70364
▁post	-7.71939
▁administration	-7.7269
we	-7.72691
▁democratic	-7.73413
▁should	-7.74035
k	-7.74153
▁between	-7.74763
▁washington	-7.74945
▁law	-7.75034
il	-7.75413
▁go	-7.75703
ion	-7.76529
▁public	-7.76566
w	-7.7722
▁report	-7.7728
▁found	-7.77473
▁saturday	-7.77561
▁officials	-7.77627
▁those	-7.77829
▁m	-7.77834
▁want	-7.7799
▁through	-7.77999
▁know	-7.78167
ation	-7.78781
▁take	-7.79204
▁did	-7.79694
▁security	-7.80201
▁office	-7.80958
▁department	-7.81039
▁around	-7.81351
▁black	-7.82563
▁part	-7.82564
▁much	-7.82607
▁attack	-7.82645
▁health	-7.83102
▁north	-7.83234
▁any	-7.83368
▁called	-7.83905
▁going	-7.8452
▁f	-7.85133
is	-7.8652
▁still	-7.86752
▁war	-7.8687
▁000	-7.86929
▁nominee	-7.87895
▁days	-7.88008
▁why	-7.88484
able	-7.88529
▁right	-7.89241
▁think	-7.89858
▁school	-7.90193
▁k	-7.90841
▁end	-7.90922
▁st	-7.90944
ne	-7.91258
as	-7.91672
▁2016	-7.91756
est	-7.91794
▁life	-7.91921
ur	-7.92722
no	-7.93047
▁next	-7.93662
▁team	-7.93819
▁press	-7.93864
ist	-7.93916
▁work	-7.94453
la	-7.94567
▁deal	-7.94776
▁vote	-7.95458
▁good	-7.9562
▁reported	-7.95697
ive	-7.95916
▁another	-7.96473
▁gop	-7.96583
ro	-7.96741
ma	-7.9704
ra	-7.97253
▁long	-7.97401
▁month	-7.97646
▁)	-7.97729
ta	-7.97795
▁car	-7.98288
▁both	-7.98545
▁including	-7.98761
▁big	-7.98821
▁support	-7.98997
at	-7.9962
▁killed	-7.9963
▁own	-7.9993
ting	-8.00379
ar	-8.00456
▁debate	-8.00816
▁see	-8.01112
ch	-8.01352
▁death	-8.0137
▁candidate	-8.01725
▁need	-8.01736
▁well	-8.01972
▁twitter	-8.02195
▁senate	-8.02295
▁russia	-8.02572
▁woman	-8.02898
▁top	-8.02939
▁family	-8.03065
▁left	-8.03788
▁policy	-8.03843
▁video	-8.04145
▁very	-8.0432
▁la	-8.04952
x	-8.05035
▁these	-8.05143
▁o	-8.05648
▁great	-8.05689
ity	-8.0581
▁set	-8.06328
▁university	-8.06407
▁won	-8.06504
▁then	-8.06683
he	-8.06688
de	-8.06882
▁men	-8.0694
▁g	-8.07143
▁interview	-8.0723
▁secretary	-8.07818
se	-8.0805
▁morning	-8.08116
.”	-8.08157
us	-8.08313
to	-8.08518
▁south	-8.08569
▁sanders	-8.08653
ment	-8.08779
▁help	-8.09117
▁cruz	-8.09213
ce	-8.09255
▁took	-8.09603
▁republicans	-8.09606
▁statement	-8.09941
▁russian	-8.1006
▁use	-8.10271
▁four	-8.10412
na	-8.10431
▁least	-8.10898
ent	-8.11042
▁ago	-8.11121
▁d	-8.11131
▁announced	-8.11136
▁case	-8.11211
co	-8.12496
▁asked	-8.12528
▁care	-8.12554
li	-8.1259
ri	-8.13223
0	-8.13328
▁chief	-8.13533
▁business	-8.13851
▁con	-8.14009
et	-8.14456
▁second	-8.14649
▁10	-8.14917
▁few	-8.14935
▁john	-8.15508
▁billion	-8.15711
▁plan	-8.15735
ton	-8.15775
▁far	-8.15789
▁released	-8.1582
▁director	-8.16036
▁high	-8.16088
▁past	-8.16534
▁come	-8.1728
ter	-8.17477
am	-8.17676
▁win	-8.17791
▁months	-8.18433
ul	-8.18511
▁executive	-8.18659
▁recent	-8.19004
▁order	-8.19081
▁general	-8.19118
▁came	-8.19118
▁might	-8.19401
ir	-8.1969
un	-8.20635
me	-8.21104
▁democrats	-8.21376
▁investigation	-8.21542
▁wall	-8.21618
▁major	-8.21744
▁judge	-8.21846
▁americans	-8.21953
▁race	-8.2197
id	-8.21974
▁cnn	-8.22046
▁committee	-8.2205
▁justice	-8.22245
▁dis	-8.22351
▁speech	-8.22409
▁never	-8.22482
z	-8.2251
▁change	-8.22561
▁voters	-8.22783
▁such	-8.22944
te	-8.23322
son	-8.23479
▁put	-8.23507
be	-8.23587
▁e	-8.2381
▁whether	-8.24064
▁place	-8.24134
▁got	-8.2444
▁across	-8.24442
▁power	-8.24506
▁star	-8.24513
▁best	-8.24887
▁history	-8.25049
v	-8.25069
ant	-8.25364
▁early	-8.25458
▁every	-8.25932
▁become	-8.25999
ry	-8.26186
ha	-8.26309
▁reports	-8.26403
▁co	-8.26452
▁fbi	-8.26682
▁story	-8.27028
▁sen	-8.27269
▁used	-8.27543
▁decision	-8.28466
▁among	-8.28536
▁live	-8.28582
▁street	-8.28927
▁china	-8.29017
▁five	-8.29111
▁act	-8.29358
▁military	-8.29713
▁shot	-8.29789
▁host	-8.30007
▁call	-8.30518
▁look	-8.30521
▁mr	-8.30566
▁leader	-8.30719
▁fox	-8.31013
1	-8.31065
▁social	-8.316
ge	-8.3167
▁texas	-8.31789
▁today	-8.31884
po	-8.31918
▁air	-8.32128
ca	-8.32202
▁congress	-8.323
▁fire	-8.32561
ia	-8.32608
▁email	-8.3264
▁foreign	-8.32951
▁too	-8.32961
▁several	-8.3311
▁california	-8.33135
▁gun	-8.33326
▁children	-8.33369
ated	-8.33582
▁known	-8.33728
do	-8.33774
ke	-8.33999
▁facebook	-8.34076
▁away	-8.34114
▁lot	-8.34154
▁same	-8.34227
▁immigration	-8.34371
ck	-8.34427
▁j	-8.34631
▁19	-8.34755
ling	-8.34803
▁march	-8.34901
▁5	-8.34954
▁nearly	-8.35264
▁system	-8.35287
▁little	-8.35383
▁saying	-8.35553
▁le	-8.35582
2	-8.35942
▁latest	-8.36112
▁again	-8.36124
▁head	-8.36214
▁members	-8.36467
▁didn	-8.36468
▁without	-8.36488
▁nation	-8.36919
▁real	-8.37145
▁border	-8.37205
▁young	-8.37988
5	-8.38257
▁ever	-8.38352
ies	-8.38438
ian	-8.39247
mo	-8.39379
▁season	-8.39619
▁game	-8.39918
ism	-8.40035
ol	-8.40045
▁official	-8.40171
ted	-8.40183
▁really	-8.40204
ci	-8.40239
▁pro	-8.40304
▁islamic	-8.40444
▁number	-8.40708
▁please	-8.40866
3	-8.41065
ate	-8.41083
▁yet	-8.41092
▁w	-8.41296
▁daily	-8.41344
▁supreme	-8.41663
▁6	-8.41687
▁per	-8.42029
▁behind	-8.4221
▁center	-8.4241
▁face	-8.42686
▁died	-8.43033
▁8	-8.43207
▁9	-8.43229
▁making	-8.43235
▁things	-8.43512
ous	-8.43642
▁start	-8.43928
▁late	-8.44127
▁market	-8.44169
▁water	-8.44216
▁name	-8.44232
▁minister	-8.44352
▁ban	-8.44701
▁control	-8.44804
lo	-8.44833
▁open	-8.44857
▁dead	-8.45212
▁already	-8.45298
▁7	-8.45336
▁pay	-8.45477
▁trade	-8.45572
▁syria	-8.45692
▁international	-8.45763
▁n	-8.45953
im	-8.46029
▁near	-8.46119
if	-8.46454
▁ex	-8.46468
▁move	-8.46629
▁tax	-8.46773
▁run	-8.4696
▁final	-8.47054
▁point	-8.47065
▁conservative	-8.47147
▁question	-8.47245
▁clear	-8.47315
▁stop	-8.47432
▁money	-8.4744
▁series	-8.47459
▁global	-8.47497
▁meeting	-8.47723
▁something	-8.47836
▁v	-8.47931
▁later	-8.48113
up	-8.48154
pe	-8.48196
▁attorney	-8.4822
ish	-8.48376
ty	-8.48409
▁keep	-8.48418
▁intelligence	-8.48422
7	-8.48583
▁hit	-8.48669
▁20	-8.48716
▁2	-8.4887
▁hours	-8.49588
ff	-8.49903
▁went	-8.49978
▁officer	-8.49982
this	-8.49992
▁college	-8.50118
▁san	-8.50135
sh	-8.50381
▁less	-8.50392
▁politics	-8.50473
▁3	-8.50523
▁town	-8.50871
▁human	-8.51219
▁free	-8.51227
▁does	-8.51389
4	-8.51592
▁barack	-8.51619
▁florida	-8.51721
▁service	-8.5213
▁union	-8.52267
▁love	-8.52291
▁james	-8.52341
▁1	-8.52409
6	-8.5243
▁lead	-8.52626
▁paul	-8.52793
▁conference	-8.52825
▁west	-8.52939
▁shooting	-8.5306
▁local	-8.53133
di	-8.53166
▁following	-8.53407
▁fight	-8.53648
,"’	-8.53883
▁close	-8.54266
▁4	-8.5427
▁job	-8.54294
▁li	-8.54386
ness	-8.54483
▁com	-8.54714
▁agency	-8.54728
▁likely	-8.54925
?,"	-8.55064
▁poll	-8.55304
▁attacks	-8.55617
▁rights	-8.55793
▁six	-8.55804
▁seen	-8.55826
▁special	-8.55853
mp	-8.5625
▁students	-8.56513
▁book	-8.5661
washington	-8.56688
▁ryan	-8.56726
led	-8.56829
▁legal	-8.57757
▁di	-8.5798
less	-8.58065
▁ads	-8.5808
da	-8.58128
mi	-8.58203
▁event	-8.5835
ny	-8.58418
▁economic	-8.58613
▁earlier	-8.58813
▁private	-8.58852
▁ro	-8.58901
▁information	-8.5897
▁ma	-8.59093
▁once	-8.59316
▁leaders	-8.59358
▁korea	-8.59418
▁himself	-8.59828
▁taking	-8.59881
▁doesn	-8.59927
▁carolina	-8.59947
’,"	-8.60031
▁film	-8.60116
▁line	-8.60151
age	-8.60204
▁mark	-8.60385
ful	-8.60595
ie	-8.60668
go	-8.61137
▁authorities	-8.61241
▁began	-8.61414
▁trying	-8.61518
▁thing	-8.61567
▁obamacare	-8.61682
rs	-8.61728
▁stories	-8.6178
▁primary	-8.61901
▁continue	-8.61941
▁hard	-8.61948
ine	-8.61988
▁bank	-8.6205
▁officers	-8.62053
▁park	-8.62166
▁record	-8.62268
▁each	-8.62288
▁better	-8.62552
▁shows	-8.62769
▁bar	-8.62845
▁weekend	-8.63134
trump	-8.63136
▁comey	-8.63155
vi	-8.63334
ap	-8.63632
▁tv	-8.63665
ah	-8.63988
▁comes	-8.64216
▁convention	-8.64232
out	-8.64427
▁key	-8.64732
▁future	-8.64889
▁expected	-8.64964
▁b	-8.65006
per	-8.65061
▁companies	-8.6514
▁find	-8.65154
and	-8.65222
▁weeks	-8.65371
▁european	-8.6562
▁thought	-8.6573
▁working	-8.65807
▁let	-8.66395
ster	-8.66426
▁county	-8.66472
▁al	-8.66576
▁bernie	-8.66606
▁ted	-8.66615
▁arrested	-8.66717
▁food	-8.67037
▁ra	-8.67116
▁almost	-8.67204
▁play	-8.67282
▁son	-8.67387
▁matter	-8.67434
▁outside	-8.67438
▁program	-8.67897
▁small	-8.68009
▁mother	-8.68075
j	-8.68414
▁11	-8.68427
▁old	-8.68517
ad	-8.68557
our	-8.68756
▁am	-8.6889
ver	-8.6893
ho	-8.68999
▁wrote	-8.69007
bo	-8.69019
▁sex	-8.69522
▁countries	-8.69532
▁ho	-8.69624
▁until	-8.69743
▁network	-8.69794
tic	-8.69824
▁getting	-8.69874
con	-8.70062
ba	-8.70184
▁though	-8.70328
mon	-8.70344
▁side	-8.70448
▁supporters	-8.70529
▁running	-8.70602
▁victory	-8.70665
▁ba	-8.70769
8	-8.7088
▁bad	-8.71166
▁receive	-8.71208
ance	-8.71261
▁data	-8.71349
▁assault	-8.7135
ct	-8.71506
tion	-8.71529
va	-8.71558
▁talk	-8.71653
▁plans	-8.71829
▁murder	-8.71895
▁force	-8.7209
▁role	-8.7215
▁mar	-8.72312
▁different	-8.72356
ex	-8.72431
▁isis	-8.72458
▁fact	-8.72471
▁battle	-8.72657
ber	-8.72702
ni	-8.72803
▁bring	-8.72879
▁michael	-8.72904
▁issue	-8.72932
▁person	-8.73217
▁questions	-8.73232
▁fall	-8.73387
one	-8.73447
▁capital	-8.73473
▁lives	-8.73721
▁pre	-8.73992
▁mexico	-8.74037
▁taken	-8.74153
ka	-8.74187
▁list	-8.74268
▁rep	-8.74543
▁drug	-8.74569
▁nomination	-8.74638
▁having	-8.74645
▁accused	-8.74898
for	-8.7499
▁believe	-8.75156
▁financial	-8.75191
▁thousands	-8.75348
▁sources	-8.75562
▁biggest	-8.75608
▁na	-8.75795
▁governor	-8.76279
▁protest	-8.76294
▁enough	-8.76316
▁syrian	-8.76332
▁follow	-8.76352
▁address	-8.76379
▁prison	-8.76484
▁along	-8.76523
▁give	-8.76598
▁hand	-8.76676
▁prime	-8.76695
▁using	-8.76768
▁east	-8.76853
▁super	-8.76976
▁read	-8.76981
▁front	-8.77082
▁father	-8.77084
▁student	-8.77135
▁en	-8.77207
bi	-8.77236
ley	-8.77391
▁held	-8.77546
▁t	-8.77565
▁leave	-8.77596
ary	-8.77682
▁district	-8.77719
▁senior	-8.77861
▁defense	-8.77933
▁lu	-8.78002
▁release	-8.78163
▁whose	-8.78204
▁crowd	-8.78748
▁mo	-8.78867
▁lost	-8.78959
▁senator	-8.79052
▁led	-8.79174
▁apple	-8.79334
▁online	-8.7965
▁rubio	-8.79696
▁full	-8.79924
▁rally	-8.80217
▁review	-8.80434
▁watch	-8.80898
▁killing	-8.80944
▁despite	-8.80945
▁secret	-8.81233
▁often	-8.81293
red	-8.81367
▁coming	-8.81482
▁claims	-8.81659
▁view	-8.81784
▁recently	-8.81786
▁room	-8.81871
▁[“	-8.81982
les	-8.82129
▁half	-8.8216
▁12	-8.82206
▁met	-8.82223
ti	-8.82344
▁staff	-8.82348
▁david	-8.82421
dy	-8.82619
▁study	-8.82638
▁iran	-8.8276
min	-8.82802
ut	-8.82815
9	-8.82827
nd	-8.82899
▁pick	-8.83049
▁wife	-8.83056
ure	-8.83276
ized	-8.83365
▁problem	-8.83453
▁hospital	-8.83486
▁muslim	-8.8351
▁always	-8.83841
▁test	-8.83906
▁process	-8.83916
▁turn	-8.83917
▁sexual	-8.8393
▁published	-8.83954
▁letter	-8.84118
▁inside	-8.84342
▁partners	-8.84377
hi	-8.84383
▁jobs	-8.84388
▁ceo	-8.84456
▁phone	-8.84832
▁must	-8.85118
▁climate	-8.85175
▁po	-8.85417
▁isn	-8.85459
pp	-8.85497
▁started	-8.85667
▁seven	-8.85805
ac	-8.85806
▁actually	-8.85869
▁15	-8.86216
▁sign	-8.86383
▁lo	-8.86387
▁charged	-8.86409
pi	-8.86578
▁forces	-8.86791
▁kind	-8.8684
▁response	-8.87028
▁app	-8.87063
ard	-8.87065
▁heart	-8.87082
▁writing	-8.87182
▁economy	-8.87262
▁moment	-8.87264
▁100	-8.87289
▁british	-8.87316
▁field	-8.87328
land	-8.87425
▁below	-8.87452
you	-8.87524
▁cut	-8.8754
▁action	-8.87574
▁middle	-8.87694
um	-8.87699
▁possible	-8.87772
▁toward	-8.8787
▁charges	-8.87871
▁age	-8.87877
▁looking	-8.8794
▁sent	-8.87983
▁oil	-8.8808
▁turned	-8.88201
ence	-8.88373
em	-8.88414
ru	-8.88475
ga	-8.88552
▁others	-8.88563
▁30	-8.88629
▁green	-8.88805
▁board	-8.88842
▁art	-8.88899
▁course	-8.89038
▁community	-8.89042
▁important	-8.89162
der	-8.89165
ig	-8.89171
cu	-8.89311
▁building	-8.89391
▁london	-8.89707
▁central	-8.89759
"	-8.89768
▁violence	-8.89798
▁sha	-8.90013
▁sh	-8.90047
▁project	-8.9028
▁ahead	-8.90402
▁los	-8.90653
▁child	-8.90689
▁instead	-8.90732
▁travel	-8.90745
▁red	-8.90851
▁vi	-8.91041
ging	-8.91172
▁hold	-8.91212
▁industry	-8.91456
▁workers	-8.91723
▁became	-8.91824
▁civil	-8.92006
▁ground	-8.92023
ey	-8.92048
▁illegal	-8.92149
▁decades	-8.92358
op	-8.92376
▁third	-8.92399
▁updates	-8.92484
there	-8.92692
▁sea	-8.93042
▁criminal	-8.93067
▁research	-8.93323
▁wants	-8.93331
▁january	-8.94102
▁largest	-8.94203
▁gov	-8.94271
my	-8.9431
▁evidence	-8.94353
▁europe	-8.94484
▁chairman	-8.94634
▁light	-8.94646
▁presidency	-8.94774
▁message	-8.94884
▁mu	-8.94949
▁18	-8.95061
▁cl	-8.95236
lu	-8.95481
▁space	-8.95495
▁ca	-8.95607
▁lawsuit	-8.95669
▁music	-8.9579
ning	-8.95918
▁crisis	-8.95963
▁island	-8.96151
▁member	-8.96206
▁personal	-8.96238
▁calling	-8.96238
▁risk	-8.96275
▁soon	-8.96314
▁em	-8.96606
▁tell	-8.96677
▁summer	-8.96737
▁body	-8.9679
▁short	-8.97014
▁calls	-8.97196
▁november	-8.97293
▁issues	-8.97299
▁bo	-8.97475
▁candidates	-8.97513
▁confirmed	-8.97526
▁evening	-8.97704
▁afternoon	-8.97727
▁ta	-8.97929
▁bush	-8.981
▁meet	-8.98209
▁nuclear	-8.98266
ner	-8.98285
▁account	-8.98388
▁george	-8.98476
▁reporters	-8.98479
▁doing	-8.98546
▁mc	-8.98822
▁display	-8.9887
▁enforcement	-8.99219
▁stay	-8.99261
▁mike	-8.99315
▁comments	-8.99457
▁buy	-8.99559
▁incident	-8.99614
▁april	-8.99657
▁education	-8.99701
▁daughter	-8.99789
▁wrong	-8.99834
▁price	-8.99913
▁repeal	-9.00011
▁visit	-9.00038
▁rock	-9.00339
▁select	-9.00594
?”	-9.00628
▁area	-9.00661
▁eight	-9.00821
by	-9.00984
?"	-9.00986
▁given	-9.0114
▁chris	-9.01143
▁popular	-9.01143
▁break	-9.01327
▁june	-9.0152
when	-9.01588
▁access	-9.01624
▁together	-9.01759
▁rise	-9.0194
ving	-9.02006
▁french	-9.02031
▁wa	-9.02061
▁large	-9.02067
▁sa	-9.02155
▁angeles	-9.02279
ell	-9.02333
▁hearing	-9.02379
▁flight	-9.02505
▁50	-9.02571
▁steps	-9.0266
▁girl	-9.02958
▁land	-9.03128
ally	-9.03217
lin	-9.03271
▁terrorist	-9.03324
ger	-9.03349
▁wanted	-9.0345
▁adviser	-9.03462
▁words	-9.03527
ize	-9.03728
▁effort	-9.03762
mb	-9.04119
way	-9.04165
▁sp	-9.04201
▁reason	-9.04347
▁sponsors	-9.04487
▁speaker	-9.05017
▁britain	-9.05262
▁iraq	-9.0529
▁anti	-9.05366
▁internet	-9.05399
tra	-9.05592
▁interest	-9.05593
▁added	-9.05623
▁movie	-9.05711
▁church	-9.05914
bu	-9.05948
▁movement	-9.06017
▁boy	-9.06182
▁friends	-9.06472
▁dr	-9.06546
▁crime	-9.06604
▁gave	-9.06688
▁stage	-9.0677
▁israel	-9.06818
▁appeared	-9.07047
ite	-9.07054
▁station	-9.07097
▁leading	-9.07108
▁done	-9.07113
▁makes	-9.07219
▁threat	-9.07227
▁vice	-9.07236
▁pe	-9.07239
▁idea	-9.07263
▁nothing	-9.07285
▁potential	-9.07406
▁happened	-9.07416
os	-9.07417
donald	-9.07448
▁wasn	-9.07558
▁rules	-9.07622
▁congressional	-9.07674
▁article	-9.07818
ee	-9.07907
▁paris	-9.07942
▁within	-9.07993
▁airport	-9.08069
▁h	-9.0831
▁check	-9.0842
▁posted	-9.08522
▁received	-9.08599
▁firm	-9.08745
▁el	-9.08815
▁organization	-9.08846
▁groups	-9.08894
bb	-9.08918
▁sales	-9.09335
▁terror	-9.09339
▁majority	-9.09395
▁track	-9.09416
▁chance	-9.09485
▁however	-9.09521
▁fear	-9.09598
▁mayor	-9.09689
▁hall	-9.09785
▁planned	-9.0983
com	-9.09946
▁answer	-9.1
▁france	-9.1001
▁budget	-9.10053
▁provide	-9.10056
▁bomb	-9.10079
▁bl	-9.1014
▁result	-9.10141
▁fund	-9.10303
▁allow	-9.1045
pa	-9.10452
▁parents	-9.10493
▁ju	-9.10538
▁tried	-9.10616
▁chicago	-9.1068
line	-9.10692
▁saw	-9.10817
▁claim	-9.10876
▁medical	-9.10893
▁ka	-9.10923
▁friend	-9.10942
▁july	-9.11057
▁pence	-9.11081
▁mass	-9.1119
▁trip	-9.11207
▁couple	-9.11261
▁choice	-9.11344
▁cost	-9.11573
ping	-9.11676
▁road	-9.11817
▁showed	-9.1191
▁spent	-9.11971
▁reportedly	-9.12041
▁failed	-9.12059
▁scene	-9.12088
▁pa	-9.12102
▁inc	-9.12233
▁fe	-9.12249
▁suspect	-9.12267
new	-9.12366
▁editor	-9.12389
▁ohio	-9.1264
▁finally	-9.12709
▁fired	-9.12753
▁du	-9.12757
▁13	-9.12798
▁manager	-9.12826
fa	-9.12952
▁iowa	-9.13048
▁fa	-9.13171
▁site	-9.1318
▁da	-9.13278
▁stock	-9.13334
▁ran	-9.13477
▁based	-9.13522
▁protesters	-9.13741
ab	-9.13799
pl	-9.13826
▁heard	-9.13863
▁hu	-9.13931
▁named	-9.13937
▁sure	-9.14018
▁author	-9.14045
▁putin	-9.14082
▁sessions	-9.14202
▁cause	-9.14242
▁amid	-9.14279
▁current	-9.14612
▁feel	-9.14718
nk	-9.14879
▁single	-9.14975
ph	-9.15127
▁radio	-9.15185
▁share	-9.1519
▁living	-9.15215
▁im	-9.15378
▁filed	-9.15453
▁...	-9.15481
ak	-9.1561
▁14	-9.15642
side	-9.15696
▁annual	-9.15818
▁gu	-9.16037
ud	-9.16047
au	-9.16115
▁source	-9.1612
tu	-9.16145
wa	-9.16151
▁growing	-9.1623
▁r	-9.16354
io	-9.16467
▁l	-9.16609
▁bi	-9.16673
▁protect	-9.16801
▁reporter	-9.16962
▁career	-9.16973
▁robert	-9.16975
time	-9.16998
▁someone	-9.17103
▁hope	-9.17183
▁cast	-9.17269
▁liberal	-9.17315
▁website	-9.17337
▁brought	-9.17389
▁victims	-9.17551
▁mis	-9.17581
▁female	-9.17654
▁immigrants	-9.17655
▁$2	-9.17737
▁position	-9.17737
ities	-9.17742
▁alleged	-9.17754
vo	-9.17767
ier	-9.17806
president	-9.17854
▁scandal	-9.17973
▁agreement	-9.18152
▁hundreds	-9.182
▁television	-9.18293
▁results	-9.18356
▁bid	-9.18416
▁emails	-9.18505
▁minutes	-9.18643
▁gra	-9.1871
▁stand	-9.18805
▁everyone	-9.18816
▁technology	-9.18827
▁king	-9.18848
▁points	-9.18896
▁services	-9.18943
▁turkey	-9.18944
den	-9.19032
▁tech	-9.1904
ft	-9.19277
▁focus	-9.19378
mar	-9.19456
▁block	-9.19494
▁step	-9.19656
old	-9.19763
▁return	-9.1977
▁tweet	-9.19831
▁claimed	-9.19832
▁hill	-9.19925
▁jo	-9.19951
▁due	-9.19991
▁ad	-9.19997
▁revealed	-9.2007
▁seems	-9.20072
▁foundation	-9.20166
▁cover	-9.20199
▁mind	-9.2031
▁policies	-9.20504
▁train	-9.20585
▁class	-9.20649
▁2017	-9.20658
▁kill	-9.20698
▁bit	-9.20698
▁google	-9.20709
▁$3	-9.20798
king	-9.21185
▁hollywood	-9.21236
▁form	-9.21329
▁employees	-9.21342
▁gay	-9.21369
▁low	-9.2138
▁everything	-9.21402
▁science	-9.21435
▁strong	-9.21724
▁husband	-9.21766
▁themselves	-9.21766
▁deep	-9.21851
▁virginia	-9.21906
▁allegedly	-9.21939
▁means	-9.21952
men	-9.21957
▁brand	-9.2209
▁coast	-9.22101
▁voting	-9.22338
fi	-9.22501
▁spokesman	-9.226
fe	-9.22857
▁missile	-9.2288
▁millions	-9.22894
▁reform	-9.22934
▁17	-9.23019
▁talking	-9.23029
ial	-9.23065
▁rate	-9.23072
om	-9.23072
ney	-9.23135
▁jeff	-9.23278
▁expect	-9.23296
over	-9.23309
▁anything	-9.23326
▁club	-9.23334
▁model	-9.23493
▁polls	-9.23507
▁growth	-9.23524
▁trial	-9.23559
▁chinese	-9.23606
▁ni	-9.23629
so	-9.23704
▁rest	-9.23746
▁lawmakers	-9.24003
▁efforts	-9.24065
▁army	-9.2438
▁ne	-9.24444
ice	-9.24477
▁described	-9.24519
▁blocking	-9.24588
lan	-9.24644
que	-9.247
▁massive	-9.24721
▁mexican	-9.24794
▁voice	-9.2486
▁labor	-9.24998
▁abortion	-9.25031
▁energy	-9.25136
▁piece	-9.25145
▁miles	-9.25168
▁mean	-9.25215
▁eu	-9.25227
▁25	-9.2525
und	-9.25301
▁actor	-9.25377
▁plane	-9.25486
her	-9.25548
▁speaking	-9.25553
pro	-9.25588
ring	-9.25783
▁rose	-9.2582
▁democrat	-9.25863
▁push	-9.25885
▁ha	-9.26002
▁cities	-9.26124
▁reality	-9.26248
▁spending	-9.26287
▁se	-9.26325
▁hate	-9.26339
▁main	-9.26374
▁southern	-9.2646
▁common	-9.26494
▁fans	-9.2666
▁reach	-9.26664
ise	-9.26692
▁broadcast	-9.26693
▁refugees	-9.26733
▁channel	-9.26749
▁takes	-9.26962
▁decided	-9.26967
▁search	-9.27003
▁ri	-9.27129
▁send	-9.27336
▁longer	-9.27378
▁council	-9.27389
▁german	-9.27438
▁16	-9.27459
▁saudi	-9.27682
▁passed	-9.27906
▁2015	-9.27924
▁probably	-9.27924
▁base	-9.28077
▁quarter	-9.28085
▁goes	-9.28146
▁leaving	-9.28152
che	-9.28327
▁increase	-9.28401
▁arrest	-9.28453
▁cash	-9.28506
▁rival	-9.28772
▁signed	-9.28777
▁voted	-9.28799
nt	-9.28854
▁experience	-9.28996
▁able	-9.29026
▁hotel	-9.29032
▁paper	-9.2918
kin	-9.29233
▁40	-9.29362
▁brown	-9.29517
ions	-9.2956
▁coverage	-9.29835
▁relationship	-9.29934
▁freedom	-9.3
▁try	-9.30078
▁pass	-9.30108
▁term	-9.30165
▁atlantic	-9.30171
▁va	-9.30203
▁rather	-9.30299
▁attention	-9.30475
▁serious	-9.30494
▁$1	-9.30582
ug	-9.30587
▁zika	-9.30595
end	-9.3061
ki	-9.30611
▁concerns	-9.30665
▁offer	-9.3069
▁itself	-9.30716
▁extension	-9.30777
▁true	-9.30887
▁sports	-9.30909
▁comment	-9.30911
▁consider	-9.31027
▁et	-9.31127
▁spoke	-9.31177
▁birth	-9.31229
▁injured	-9.31323
ham	-9.31413
ough	-9.31496
▁kids	-9.31547
▁further	-9.31626
▁round	-9.31633
▁page	-9.31647
ical	-9.31824
what	-9.31872
▁1,	-9.3192
all	-9.32149
cy	-9.32189
▁exchange	-9.32238
▁ben	-9.3227
▁worth	-9.32535
har	-9.32624
▁february	-9.3273
ron	-9.32769
▁bannon	-9.32792
▁reuters	-9.32867
ten	-9.32901
▁tells	-9.32928
▁safe	-9.32991
▁events	-9.33084
▁uber	-9.33169
after	-9.33182
▁door	-9.3321
▁conflict	-9.33224
▁flynn	-9.33286
▁jersey	-9.33472
▁paid	-9.33507
▁photo	-9.33545
▁joe	-9.3358
▁investors	-9.33643
▁magazine	-9.33658
▁helped	-9.33682
▁league	-9.33721
▁raise	-9.33774
ified	-9.34009
▁billionaire	-9.34022
▁details	-9.34044
▁level	-9.34204
▁camp	-9.34243
▁nations	-9.34276
▁germany	-9.34293
▁sell	-9.34488
▁issued	-9.34598
ven	-9.34669
▁lose	-9.34713
▁defeat	-9.34723
▁’’	-9.34785
ow	-9.34787
▁effect	-9.35001
▁wi	-9.3503
▁documents	-9.3517
izing	-9.35321
▁written	-9.35371
▁word	-9.35414
▁sal	-9.35423
▁2014	-9.35533
▁attempt	-9.35583
▁note	-9.35756
▁hands	-9.35814
▁raised	-9.35833
▁warning	-9.35981
ler	-9.36035
▁avoid	-9.36115
▁sun	-9.36138
▁manhattan	-9.36178
qu	-9.36293
▁forward	-9.36325
tter	-9.36349
▁storm	-9.36368
▁protection	-9.36423
▁controversial	-9.36498
▁votes	-9.36518
cr	-9.36547
▁games	-9.36582
▁scientists	-9.36582
▁pen	-9.36585
▁restaurant	-9.3669
▁culture	-9.36715
mer	-9.36716
▁winning	-9.368
▁december	-9.36947
▁ti	-9.3697
▁speak	-9.36975
▁cha	-9.36985
▁remain	-9.37049
▁request	-9.37064
▁rule	-9.37085
▁remember	-9.37086
▁disease	-9.37149
ship	-9.37187
▁launched	-9.37426
▁especially	-9.37462
▁nbc	-9.37463
▁families	-9.37527
▁total	-9.37573
▁declared	-9.37691
ang	-9.3774
▁huge	-9.37761
▁build	-9.3781
▁worst	-9.37981
▁fighting	-9.3805
▁shares	-9.38067
▁store	-9.3808
▁giant	-9.3813
▁anyone	-9.38321
wi	-9.38553
▁fell	-9.38575
▁talks	-9.38598
par	-9.38639
pped	-9.38805
du	-9.38939
▁images	-9.39221
ren	-9.39263
▁marco	-9.39365
▁episode	-9.3942
▁performance	-9.39428
▁johnson	-9.39455
▁24	-9.39481
▁hear	-9.3949
▁cu	-9.39509
▁terrorism	-9.39516
▁appear	-9.39527
▁residents	-9.39578
▁quickly	-9.39659
▁orlando	-9.39684
▁scott	-9.39862
▁include	-9.39881
▁har	-9.39917
▁21	-9.39989
qui	-9.40034
▁join	-9.40051
▁jail	-9.40111
▁worked	-9.40147
▁abuse	-9.40255
house	-9.40281
▁region	-9.40288
▁pressure	-9.40363
▁protests	-9.40364
▁professor	-9.40413
ja	-9.40439
▁crash	-9.4049
▁chair	-9.40596
▁charge	-9.4071
off	-9.40724
▁sound	-9.40773
▁insurance	-9.40813
▁opposition	-9.40814
▁elected	-9.40815
▁proposal	-9.4088
▁si	-9.40918
▁immediately	-9.41032
▁milo	-9.41145
▁similar	-9.41148
ably	-9.41197
▁stephen	-9.41215
not	-9.41236
▁looks	-9.41384
▁beat	-9.4144
▁fla	-9.41482
iv	-9.41516
nder	-9.41528
ip	-9.41605
▁grand	-9.4187
han	-9.41916
▁understand	-9.41952
▁seem	-9.4206
▁date	-9.42077
▁created	-9.42145
ned	-9.42186
▁gets	-9.42226
▁kelly	-9.42228
▁appears	-9.42242
br	-9.42244
▁dec	-9.42254
▁ask	-9.4233
▁sc	-9.42379
ious	-9.42385
▁perhaps	-9.42433
▁lower	-9.42503
▁beach	-9.42609
▁inauguration	-9.42634
▁honor	-9.42635
▁peace	-9.42697
ward	-9.42944
▁tim	-9.42962
▁september	-9.42975
▁fo	-9.42976
▁born	-9.43013
ag	-9.43108
▁practice	-9.43112
▁guard	-9.43155
▁brief	-9.43296
▁approach	-9.4334
▁hot	-9.43343
▁cases	-9.43385
▁22	-9.43405
▁drop	-9.43461
▁safety	-9.43478
▁bra	-9.43485
▁briefing	-9.43672
▁football	-9.438
ible	-9.43805
▁investment	-9.4381
ists	-9.43829
ator	-9.4386
cent	-9.43916
▁prevent	-9.43975
▁fed	-9.44348
gg	-9.4439
▁francisco	-9.44435
▁strike	-9.44543
▁exclusive	-9.44609
ep	-9.44636
▁favor	-9.44685
▁associated	-9.4472
▁steve	-9.44723
▁ties	-9.44846
well	-9.44853
▁uk	-9.44884
▁learned	-9.45097
▁holding	-9.45099
▁facing	-9.45115
▁played	-9.45209
▁tu	-9.4526
q	-9.45287
▁sense	-9.45325
▁replace	-9.45329
▁ended	-9.45343
▁whole	-9.45441
ade	-9.45455
tro	-9.45544
▁cancer	-9.45607
▁probe	-9.457
▁500	-9.45718
▁nine	-9.45805
▁ga	-9.45852
▁opening	-9.45876
▁defend	-9.45903
▁roll	-9.45933
▁pu	-9.45952
▁spring	-9.45972
▁weapons	-9.45982
▁audience	-9.46025
ization	-9.46055
▁spicer	-9.46096
▁opened	-9.46135
▁forced	-9.46157
▁gold	-9.46255
▁transgender	-9.46307
▁fellow	-9.46317
ric	-9.46322
sen	-9.46349
▁giving	-9.46384
▁serve	-9.46386
▁inter	-9.46448
▁poor	-9.46502
cc	-9.46504
▁involved	-9.4655
ill	-9.46587
▁launch	-9.46597
cor	-9.46673
▁ru	-9.46691
▁multiple	-9.46782
▁familiar	-9.46874
▁powerful	-9.46982
▁contest	-9.46991
▁nfl	-9.47016
▁asking	-9.47023
back	-9.4704
▁brexit	-9.47156
▁legislation	-9.47229
▁transition	-9.47239
▁dem	-9.47276
rn	-9.47336
▁suit	-9.47405
▁blue	-9.47524
▁christian	-9.47622
▁experts	-9.47654
▁flag	-9.47658
▁identified	-9.4768
▁baby	-9.47685
▁western	-9.47728
▁figure	-9.47765
▁eastern	-9.47834
she	-9.4784
▁coach	-9.4789
▁tough	-9.47986
▁estate	-9.48191
▁criticism	-9.4824
▁gas	-9.48477
▁dream	-9.48521
▁commission	-9.48571
▁continued	-9.48621
ever	-9.48656
▁fast	-9.48743
ville	-9.48751
▁decade	-9.4889
ina	-9.48982
hu	-9.48991
▁rio	-9.49016
▁fashion	-9.49027
▁migrants	-9.49034
▁allegations	-9.49057
▁screen	-9.49065
▁conservatives	-9.49183
▁begin	-9.49255
▁23	-9.49269
▁create	-9.49276
▁korean	-9.49452
let	-9.49457
▁remains	-9.49649
▁users	-9.49693
▁august	-9.49755
▁else	-9.49883
gan	-9.49898
▁citizens	-9.50123
▁teen	-9.50136
they	-9.50202
len	-9.50237
▁surprise	-9.50295
▁gone	-9.50333
▁driver	-9.50487
▁square	-9.50489
▁respect	-9.50498
gen	-9.50506
ack	-9.50557
▁entire	-9.50564
▁blood	-9.50601
▁offered	-9.50628
▁$4	-9.50718
▁min	-9.50723
▁playing	-9.50739
ot	-9.50759
▁tour	-9.50761
▁japan	-9.50781
▁discuss	-9.50835
▁problems	-9.50838
▁certain	-9.50852
▁survey	-9.50857
▁arm	-9.50903
▁journal	-9.50917
▁wild	-9.51064
▁ambassador	-9.51079
za	-9.51105
▁truck	-9.51247
▁cop	-9.51252
▁goal	-9.513
▁ruling	-9.51401
▁armed	-9.51466
▁previous	-9.51603
▁players	-9.51682
▁announcement	-9.51768
▁earth	-9.51779
▁religious	-9.51817
▁lawyer	-9.5187
▁either	-9.51897
▁development	-9.51906
▁michigan	-9.51971
▁iphone	-9.51972
▁2016,	-9.52005
▁via	-9.5201
▁y	-9.52077
ked	-9.52083
▁seemed	-9.52138
▁october	-9.52271
▁subject	-9.52271
▁title	-9.52382
▁ten	-9.5242
▁nor	-9.52433
▁prices	-9.52447
but	-9.52479
▁campus	-9.52499
▁ready	-9.52517
▁1.	-9.52557
low	-9.52575
▁newspaper	-9.52646
bar	-9.52744
▁changed	-9.5284
nce	-9.52865
▁northern	-9.52874
▁pennsylvania	-9.52947
▁floor	-9.53023
▁suicide	-9.53035
gged	-9.5312
▁apparently	-9.53215
▁founder	-9.53218
▁numbers	-9.53226
▁remarks	-9.53299
▁shut	-9.53314
▁independent	-9.53325
▁pic	-9.53405
▁tweeted	-9.53455
▁lack	-9.53531
ze	-9.53559
with	-9.53615
30	-9.53713
▁warned	-9.5374
▁version	-9.53783
▁currently	-9.53801
▁credit	-9.53847
▁caught	-9.53933
▁npr	-9.53947
▁van	-9.54012
car	-9.54059
▁tower	-9.54082
▁average	-9.54163
▁agreed	-9.54169
▁israeli	-9.54243
▁appearance	-9.54257
▁success	-9.54301
▁century	-9.54315
▁target	-9.5438
▁loss	-9.54392
▁faces	-9.54452
▁wave	-9.54585
▁victim	-9.54617
▁river	-9.54724
▁needs	-9.54741
▁knew	-9.54831
▁damage	-9.5486
▁song	-9.54868
▁box	-9.54981
▁sheriff	-9.55083
▁shift	-9.55093
▁rape	-9.55159
▁showing	-9.5521
that	-9.55236
▁critical	-9.55245
▁missing	-9.55288
▁joined	-9.55311
▁fake	-9.55355
▁photos	-9.55451
▁included	-9.55479
▁bus	-9.55518
▁dark	-9.55584
▁broke	-9.55658
▁rich	-9.55708
▁dozens	-9.55738
▁pi	-9.55813
▁winner	-9.55988
ov	-9.56068
▁present	-9.56112
▁save	-9.56151
▁activists	-9.56166
▁difficult	-9.56167
▁higher	-9.56228
ran	-9.56279
right	-9.56299
▁marine	-9.563
▁affordable	-9.56334
▁writer	-9.56362
▁girls	-9.56392
▁cleveland	-9.56486
air	-9.56573
pping	-9.56582
▁needed	-9.56607
▁bowl	-9.5663
▁exactly	-9.56686
nc	-9.56705
▁pretty	-9.56714
▁picture	-9.56722
▁leadership	-9.56744
can	-9.56829
▁dangerous	-9.57001
▁hampshire	-9.57028
▁challenge	-9.57072
▁card	-9.57207
▁standing	-9.57222
▁previously	-9.5726
▁amazon	-9.57311
▁provided	-9.57337
▁guilty	-9.57422
▁deliver	-9.57422
▁martin	-9.57424
▁establishment	-9.57429
▁period	-9.57501
▁fan	-9.57565
zz	-9.5767
▁unit	-9.57751
▁emergency	-9.57817
eg	-9.5788
▁happen	-9.57979
▁funding	-9.58006
▁pop	-9.58102
ability	-9.58138
lock	-9.58187
▁sean	-9.58188
▁seat	-9.58351
▁violent	-9.58692
▁ob	-9.58894
▁cross	-9.58931
yn	-9.59006
▁proposed	-9.59077
▁character	-9.59079
▁cat	-9.59095
▁reached	-9.59098
zi	-9.59111
▁explained	-9.59131
▁dog	-9.59161
▁african	-9.59356
▁era	-9.5938
uc	-9.59456
▁jones	-9.59562
▁0	-9.59579
▁match	-9.59678
▁owner	-9.59692
▁allowed	-9.59707
▁example	-9.59736
ez	-9.5974
▁2012	-9.59801
▁moving	-9.59845
pri	-9.59861
▁cho	-9.59882
▁indiana	-9.59882
rk	-9.59992
▁caused	-9.60111
▁felt	-9.60153
▁discussion	-9.60188
▁fair	-9.603
▁worse	-9.60386
▁hour	-9.60393
▁wake	-9.60426
▁dallas	-9.60547
▁beyond	-9.60628
▁guy	-9.60746
ub	-9.60772
▁computer	-9.60791
▁platform	-9.60791
▁virus	-9.60793
▁seeking	-9.60813
▁iraqi	-9.60814
▁brazil	-9.60862
presumptive	-9.60955
gra	-9.61025
▁sat	-9.61117
lic	-9.612
▁delegates	-9.61234
▁rec	-9.6132
▁feet	-9.61411
▁trend	-9.61459
▁above	-9.61532
tri	-9.617
▁mom	-9.61859
▁critics	-9.61873
▁parties	-9.61918
ble	-9.61938
▁brooklyn	-9.6194
▁band	-9.621
▁bur	-9.62183
▁kim	-9.62232
▁cars	-9.6226
▁”[	-9.62282
▁brain	-9.62346
▁suggested	-9.62404
▁apartment	-9.62452
▁camera	-9.62499
▁simple	-9.6252
▁neighborhood	-9.62524
▁ship	-9.62585
▁impact	-9.62603
▁slow	-9.62629
▁whom	-9.62637
▁significant	-9.62662
▁rates	-9.62666
▁wisconsin	-9.62686
▁deadly	-9.6273
ev	-9.62752
▁olympic	-9.62761
▁agenda	-9.62853
▁wonder	-9.62886
▁path	-9.62922
▁seek	-9.62943
▁schools	-9.6302
tch	-9.63097
▁dropped	-9.63103
▁cor	-9.63106
rr	-9.63148
▁fi	-9.63243
▁col	-9.63472
more	-9.63611
board	-9.63614
▁conversation	-9.63724
▁feature	-9.63806
▁boost	-9.6381
▁agree	-9.6382
▁canada	-9.639
▁considered	-9.63915
▁agents	-9.63924
don	-9.63931
▁enter	-9.63961
▁christmas	-9.64026
▁valley	-9.64031
▁favorite	-9.64124
▁brother	-9.64224
▁ice	-9.64233
▁appeal	-9.64332
▁count	-9.64363
▁trust	-9.64458
▁smith	-9.64471
▁trail	-9.64505
▁drive	-9.64514
▁easy	-9.64533
▁prosecutors	-9.64658
▁measure	-9.64686
▁situation	-9.64702
▁modern	-9.64704
jo	-9.64718
▁discovered	-9.64779
▁looked	-9.64847
▁gri	-9.64934
ett	-9.64948
▁truth	-9.64984
▁wins	-9.65011
▁kasich	-9.65042
oc	-9.65096
▁ball	-9.651
▁arrived	-9.6517
▁hi	-9.65192
▁false	-9.65213
▁beginning	-9.65229
▁mer	-9.65371
▁ways	-9.65399
▁particularly	-9.65458
▁fresh	-9.65549
▁signs	-9.65626
▁holiday	-9.6564
▁fl	-9.65707
▁quite	-9.65819
▁researchers	-9.65868
▁argument	-9.65897
▁cops	-9.65947
▁27	-9.66058
▁telling	-9.66071
▁sale	-9.66085
▁abc	-9.66089
war	-9.66122
▁hurt	-9.66252
▁album	-9.66327
▁shi	-9.66333
▁ar	-9.66363
▁walk	-9.66365
▁su	-9.66456
▁dollars	-9.66533
▁followed	-9.66585
▁famous	-9.66627
▁fix	-9.66645
▁agencies	-9.66677
▁tom	-9.66705
▁alone	-9.66727
▁pat	-9.66779
▁sometimes	-9.66806
▁60	-9.66927
▁bay	-9.66957
▁served	-9.67004
▁richard	-9.67036
▁wearing	-9.67045
▁throughout	-9.67223
▁panel	-9.67317
work	-9.67373
ute	-9.67375
▁bridge	-9.67375
▁dan	-9.67394
▁relations	-9.67458
▁ge	-9.67474
▁god	-9.6756
▁image	-9.6758
▁player	-9.67598
▁finding	-9.6763
▁jr	-9.67807
▁dies	-9.67819
▁changes	-9.67825
cur	-9.67848
med	-9.67919
▁2015,	-9.67971
some	-9.67981
▁wait	-9.6799
ker	-9.68027
▁sanctions	-9.68104
▁starting	-9.68123
▁tra	-9.68156
▁arabia	-9.6816
▁fine	-9.68195
▁supposed	-9.68243
▁influence	-9.68243
▁maybe	-9.68263
how	-9.68332
▁radical	-9.68445
▁wo	-9.68453
▁navy	-9.68516
▁ko	-9.68559
▁moved	-9.68599
▁pulled	-9.68695
▁responded	-9.68729
▁allies	-9.68851
▁lady	-9.68852
▁marriage	-9.68949
▁deputy	-9.69126
▁mi	-9.69134
▁accept	-9.69206
▁profit	-9.69305
▁traditional	-9.69309
▁refugee	-9.69421
▁aid	-9.69427
▁table	-9.6951
▁leak	-9.69537
tz	-9.69717
vent	-9.69771
▁peter	-9.69771
▁racial	-9.70176
▁streets	-9.70183
▁plant	-9.70192
▁amount	-9.70196
▁convicted	-9.70196
▁contract	-9.70219
rd	-9.70224
ng	-9.70271
▁traffic	-9.70365
▁spot	-9.70386
▁mal	-9.70403
▁records	-9.70411
▁failure	-9.70564
▁mission	-9.70622
▁wounded	-9.70634
▁surge	-9.70653
▁blow	-9.70663
▁blame	-9.70666
▁laws	-9.70696
▁male	-9.70713
▁georgia	-9.70735
▁direct	-9.70787
▁buzzfeed	-9.70826
▁opinion	-9.70869
▁aren	-9.70886
▁sub	-9.70889
▁joke	-9.71047
▁bri	-9.71183
▁spread	-9.71267
▁voter	-9.71307
▁bombing	-9.7131
▁losing	-9.71327
los	-9.71368
▁gorsuch	-9.71368
▁joint	-9.71406
▁population	-9.71459
▁fourth	-9.71497
▁signal	-9.71559
▁concern	-9.71738
▁cook	-9.7176
▁singer	-9.71794
ana	-9.71816
▁bull	-9.71823
▁treatment	-9.71852
▁cap	-9.71859
of	-9.72018
▁muslims	-9.72067
▁2008	-9.72112
des	-9.7215
▁believed	-9.72261
▁add	-9.72299
▁delivered	-9.7234
▁although	-9.72463
▁watching	-9.72489
▁institute	-9.72554
▁ski	-9.72589
▁afghanistan	-9.72646
▁simply	-9.72646
▁doubt	-9.72647
hillary	-9.72678
like	-9.72764
▁customers	-9.72769
▁bre	-9.72811
▁historic	-9.72832
▁association	-9.72922
▁che	-9.7295
field	-9.72954
▁condition	-9.72957
▁2013	-9.72979
▁lee	-9.73029
▁nu	-9.73032
▁politicians	-9.73084
af	-9.73147
▁suspected	-9.73243
▁draft	-9.73292
▁increasingly	-9.73299
▁msnbc	-9.73384
cl	-9.73527
▁den	-9.73627
gh	-9.73681
▁taxes	-9.73684
▁cr	-9.73792
▁sold	-9.73938
▁debt	-9.74037
▁bathroom	-9.74061
▁26	-9.74085
▁mostly	-9.74088
row	-9.74142
▁alex	-9.74193
▁prince	-9.74256
▁carry	-9.74274
▁document	-9.74288
▁bear	-9.74359
dis	-9.7445
▁touch	-9.74455
ations	-9.74479
▁shared	-9.74498
▁struck	-9.74501
▁gender	-9.74523
ea	-9.74536
▁scar	-9.74542
20	-9.7455
state	-9.74667
▁racist	-9.74717
▁limit	-9.74725
van	-9.74783
▁strategy	-9.74876
▁largely	-9.74954
▁mosul	-9.74973
istic	-9.74981
ok	-9.74981
▁built	-9.75064
▁spend	-9.75183
▁communications	-9.75231
▁original	-9.75362
▁vehicle	-9.75381
▁capitol	-9.7563
pho	-9.75677
▁attacked	-9.75738
▁treat	-9.75872
▁terms	-9.75894
pen	-9.75944
▁environmental	-9.75987
▁promise	-9.76015
ral	-9.76187
▁classified	-9.7631
▁rob	-9.76396
▁facts	-9.76397
▁respond	-9.76451
▁scheduled	-9.76455
vin	-9.76535
down	-9.76744
▁demand	-9.76768
▁relative	-9.76782
▁eyes	-9.76802
▁fraud	-9.76868
▁couldn	-9.76881
▁leg	-9.76936
▁text	-9.76965
▁aim	-9.76985
▁activist	-9.77062
▁scalia	-9.77156
gue	-9.77161
▁server	-9.7717
▁dar	-9.77283
▁sister	-9.7729
▁gang	-9.7731
▁opportunity	-9.77349
▁auto	-9.77516
▁language	-9.77541
▁closed	-9.77551
▁actions	-9.77559
▁double	-9.77639
▁ja	-9.77723
▁thanks	-9.77746
▁ordered	-9.77789
▁related	-9.77843
▁ideas	-9.7785
▁z	-9.77862
▁delay	-9.77862
▁mor	-9.77959
▁producer	-9.77975
▁tri	-9.78044
▁fuel	-9.78069
▁aleppo	-9.78122
▁turkish	-9.78122
▁chi	-9.78125
▁drugs	-9.78127
▁turns	-9.78205
▁normal	-9.78221
▁markets	-9.78226
▁settlement	-9.78236
ative	-9.78251
▁snow	-9.78269
▁becoming	-9.78355
▁cabinet	-9.78413
▁value	-9.78488
▁controversy	-9.78511
▁cannot	-9.78562
list	-9.7858
▁listen	-9.78593
▁welcome	-9.78683
▁operation	-9.78779
▁regard	-9.78789
▁planning	-9.78874
▁names	-9.78913
▁28	-9.78937
▁rare	-9.78969
▁stone	-9.79034
▁england	-9.79097
▁bat	-9.79161
▁confirm	-9.79194
▁rev	-9.7928
char	-9.79296
use	-9.79335
ched	-9.79353
▁reserve	-9.7949
▁hair	-9.79552
▁revenue	-9.79588
▁investigators	-9.79614
bl	-9.79665
▁businesses	-9.79675
▁christie	-9.79687
▁highlight	-9.79814
day	-9.7982
▁$5	-9.79856
▁confirmation	-9.79929
▁contact	-9.79983
▁sleep	-9.79984
▁oscar	-9.79985
light	-9.8003
late	-9.80033
▁eat	-9.80035
▁eye	-9.80051
▁herself	-9.80082
▁dinner	-9.80082
▁mon	-9.80126
mic	-9.8013
▁production	-9.80133
▁attend	-9.80176
▁ticket	-9.80188
ky	-9.80326
here	-9.80358
▁cia	-9.80389
▁plea	-9.80466
▁islam	-9.80481
▁prove	-9.80509
▁sit	-9.80516
▁village	-9.80578
▁awards	-9.80585
▁jan	-9.80662
▁champion	-9.80669
▁complaint	-9.80673
▁putting	-9.8075
▁books	-9.8083
▁amendment	-9.80877
▁electoral	-9.80877
▁caucus	-9.80966
▁troops	-9.80977
▁pitch	-9.80993
▁jackson	-9.80998
▁..	-9.81052
▁rescue	-9.81081
▁wage	-9.81097
▁cold	-9.81114
▁rising	-9.81114
▁range	-9.81122
▁journalists	-9.81126
▁promised	-9.81234
▁planet	-9.81244
▁denied	-9.81279
tel	-9.81364
▁90	-9.81404
ane	-9.81421
▁williams	-9.81451
▁reporting	-9.8146
▁reflect	-9.81477
▁heat	-9.81522
▁domestic	-9.81577
▁generation	-9.81581
berg	-9.81584
▁ver	-9.81718
▁driving	-9.81809
ib	-9.81939
aw	-9.82021
▁contain	-9.82059
▁sad	-9.8206
▁ya	-9.82069
av	-9.8213
▁wide	-9.82135
▁parliament	-9.82153
▁pope	-9.82188
▁gar	-9.8221
▁natural	-9.82255
▁adding	-9.82303
▁sort	-9.8232
▁200	-9.82381
ily	-9.82391
▁frank	-9.82398
▁cuts	-9.82428
▁tre	-9.82439
pol	-9.8245
▁publicly	-9.8258
▁wikileaks	-9.82582
▁operations	-9.82617
▁doctors	-9.82675
▁agent	-9.82759
▁edge	-9.82775
▁stopped	-9.82894
▁conway	-9.82957
▁yes	-9.83002
▁mistake	-9.83003
▁mac	-9.83091
▁straight	-9.83099
▁offering	-9.83143
ries	-9.83149
ek	-9.83169
▁continues	-9.83204
▁2011	-9.83208
▁fill	-9.83224
▁jewish	-9.833
▁separate	-9.833
▁threats	-9.83422
je	-9.83488
▁dozen	-9.83559
▁veteran	-9.83562
cra	-9.83643
▁gain	-9.83713
▁society	-9.83812
▁cbs	-9.83836
▁arizona	-9.83915
▁vladimir	-9.83915
▁exit	-9.83957
▁object	-9.84019
▁pull	-9.84029
▁broad	-9.84056
▁trans	-9.84058
▁wind	-9.84112
▁tweets	-9.8419
▁outrage	-9.8425
ou	-9.84278
▁highest	-9.84312
▁combat	-9.84341
▁repeatedly	-9.84421
▁available	-9.8443
▁baseball	-9.84437
▁pair	-9.84445
head	-9.84475
▁investigating	-9.84534
▁bro	-9.8462
▁extra	-9.84687
▁argued	-9.84751
ec	-9.84792
▁elite	-9.84888
▁philadelphia	-9.84911
▁29	-9.84942
▁ke	-9.84998
▁dollar	-9.85014
▁cal	-9.85058
▁blast	-9.85061
▁row	-9.85091
▁banks	-9.85139
▁cuba	-9.85143
▁connection	-9.852
▁doctor	-9.85216
▁color	-9.8527
▁refused	-9.85271
▁works	-9.85315
▁fit	-9.85318
▁def	-9.85334
▁chemical	-9.85365
▁boston	-9.85576
▁guest	-9.85646
▁del	-9.85655
▁machine	-9.85678
▁views	-9.8578
▁management	-9.85796
▁drama	-9.85872
▁guns	-9.85902
▁citing	-9.86001
▁matt	-9.86131
▁actress	-9.86136
▁hopes	-9.86165
▁stake	-9.86182
▁2010	-9.86212
pec	-9.86273
year	-9.86286
▁reasons	-9.86363
▁feeling	-9.86401
▁window	-9.86423
port	-9.86505
▁golf	-9.86521
▁clean	-9.86528
▁para	-9.86539
ically	-9.86563
lar	-9.86592
▁thinking	-9.86609
▁areas	-9.86713
▁accounts	-9.86818
▁unusual	-9.86836
▁gen	-9.86951
▁lines	-9.86983
tan	-9.87013
▁canadian	-9.87048
▁wouldn	-9.87108
▁sch	-9.87497
▁includes	-9.87675
▁anthony	-9.87794
▁linked	-9.87811
▁plot	-9.87822
▁counsel	-9.87901
▁pal	-9.87945
▁returns	-9.88083
▁shortly	-9.88231
▁digital	-9.8833
▁progressive	-9.88362
▁bob	-9.88385
▁describe	-9.8842
fin	-9.88452
burg	-9.88489
▁miss	-9.88536
▁hack	-9.88571
▁status	-9.88675
▁individual	-9.88699
▁warren	-9.88716
▁boss	-9.88717
▁happy	-9.88841
50	-9.88866
▁45	-9.88879
▁oregon	-9.88977
▁insider	-9.88992
▁india	-9.89005
▁appeals	-9.89018
▁35	-9.89038
▁neighbor	-9.8908
▁cri	-9.89083
▁type	-9.89103
▁advance	-9.89178
▁require	-9.89257
▁funds	-9.8929
▁material	-9.89302
gi	-9.89417
▁te	-9.89424
press	-9.89431
▁professional	-9.89529
▁photograph	-9.89552
▁lay	-9.89579
▁ongoing	-9.89752
ual	-9.89825
iz	-9.89831
▁content	-9.89841
▁tillerson	-9.89846
▁parts	-9.89909
oo	-9.89938
▁meant	-9.89951
▁faced	-9.90064
▁bureau	-9.90173
▁stood	-9.90174
▁tesla	-9.90175
▁novel	-9.90243
▁die	-9.90294
▁vo	-9.90332
▁kept	-9.90393
▁weigh	-9.90394
od	-9.90421
▁gathered	-9.90466
▁heavy	-9.90614
▁healthcare	-9.90652
▁carried	-9.90685
▁organ	-9.90689
rate	-9.90734
lia	-9.90735
▁bag	-9.90752
▁stra	-9.90795
part	-9.90809
▁patrol	-9.90843
real	-9.90944
▁claiming	-9.90978
gr	-9.91012
▁lawyers	-9.91207
mat	-9.91232
▁products	-9.91239
▁product	-9.91253
▁aide	-9.9132
▁ballot	-9.91398
▁$6	-9.914
▁sitting	-9.91426
star	-9.91501
▁dispute	-9.91503
▁andrew	-9.91515
▁cell	-9.91539
▁aimed	-9.91586
▁senators	-9.91622
▁learn	-9.91631
▁announce	-9.9168
▁festival	-9.91718
▁income	-9.91735
arian	-9.91758
▁criticized	-9.91795
▁matthew	-9.91829
▁olympics	-9.9184
▁dad	-9.91911
▁catch	-9.91949
▁31	-9.9195
▁chan	-9.92051
▁carson	-9.92247
▁sought	-9.92277
▁fun	-9.92336
ify	-9.92337
▁fer	-9.92342
▁mental	-9.92413
ration	-9.92504
▁conduct	-9.92533
ps	-9.92574
▁label	-9.92574
▁moscow	-9.92608
▁complex	-9.92611
▁colorado	-9.92611
▁compared	-9.9269
ue	-9.92788
▁x	-9.92804
▁pentagon	-9.92836
▁romney	-9.92836
▁chain	-9.92863
▁transcript	-9.92948
▁occurred	-9.92955
▁rid	-9.92963
ko	-9.92979
▁jury	-9.93007
oli	-9.93011
▁roughly	-9.9303
▁constitution	-9.93047
▁style	-9.93099
▁struggle	-9.93172
▁coalition	-9.93287
▁artist	-9.93316
▁secure	-9.93317
▁dress	-9.93336
▁gunman	-9.93401
▁elections	-9.93507
ick	-9.93559
▁je	-9.93565
▁reagan	-9.9374
▁finance	-9.9374
▁port	-9.93765
▁homeland	-9.93989
▁blasio	-9.9408
▁frontrunner	-9.9408
ban	-9.94084
▁militants	-9.9409
▁$1.	-9.94102
▁brussels	-9.94194
▁non	-9.94239
▁reaction	-9.94252
▁recall	-9.94273
gar	-9.94354
▁highly	-9.94355
▁turning	-9.94397
▁grow	-9.94431
hood	-9.9444
cle	-9.94525
▁promises	-9.94693
lie	-9.94725
▁prosecutor	-9.94825
▁trading	-9.94883
▁iranian	-9.94951
▁castro	-9.94956
▁reading	-9.94986
▁museum	-9.94995
▁helping	-9.95022
▁debut	-9.95077
▁hero	-9.95091
care	-9.95096
▁enjoy	-9.9511
▁pipeline	-9.95112
▁journalist	-9.95155
from	-9.95195
▁command	-9.95222
▁rhetoric	-9.95225
▁trouble	-9.9523
▁believes	-9.95254
▁designed	-9.95281
▁louisiana	-9.95456
▁carrying	-9.95458
▁training	-9.95488
▁declined	-9.95553
▁$7	-9.95585
▁potentially	-9.95638
bling	-9.95654
▁writes	-9.95695
▁sentence	-9.95718
▁prospect	-9.95803
▁purchase	-9.95918
▁setting	-9.95926
▁regime	-9.95931
▁minority	-9.95938
nate	-9.96029
volving	-9.96042
▁ram	-9.96064
▁qu	-9.9615
▁prominent	-9.9615
ory	-9.96152
▁soldiers	-9.96183
▁various	-9.96267
▁tear	-9.96276
get	-9.96308
▁responsible	-9.96383
▁avenue	-9.96383
▁firing	-9.96399
▁considering	-9.96412
az	-9.96418
▁disaster	-9.965
during	-9.96642
▁attempted	-9.9665
▁golden	-9.96689
▁ham	-9.96696
▁design	-9.96758
▁eric	-9.96809
ile	-9.96824
▁retired	-9.96835
▁particular	-9.96865
pre	-9.96941
▁bond	-9.96943
▁identity	-9.96967
▁upcoming	-9.97102
dr	-9.97141
▁explain	-9.97218
▁complete	-9.97326
▁property	-9.97437
▁thank	-9.97461
former	-9.97487
▁dakota	-9.97555
▁faith	-9.97555
▁japanese	-9.97562
▁admitted	-9.97579
gate	-9.97602
fully	-9.97667
▁thomas	-9.97673
▁hy	-9.97705
fo	-9.97728
ach	-9.97728
▁palestinian	-9.97791
▁perfect	-9.9784
▁authority	-9.97865
▁parenthood	-9.97913
▁democracy	-9.98027
▁miami	-9.98028
▁collect	-9.98051
▁stars	-9.98225
▁progress	-9.9824
▁pushed	-9.9828
rated	-9.98308
del	-9.98311
▁upon	-9.98321
▁approved	-9.98331
▁returned	-9.98348
▁ku	-9.98428
▁engineer	-9.98519
▁teacher	-9.98614
▁cyber	-9.98622
▁stated	-9.98657
▁cuban	-9.98675
▁rain	-9.98693
▁approval	-9.9874
▁ocean	-9.98741
▁brutal	-9.98743
▁pet	-9.98747
▁indian	-9.98749
▁moments	-9.98838
▁comedy	-9.9884
▁difference	-9.98862
▁obtained	-9.98907
▁ability	-9.98917
▁yankees	-9.98979
▁emerged	-9.99056
▁partner	-9.99067
,000	-9.99099
▁ceremony	-9.99099
▁ali	-9.99126
▁decline	-9.99138
▁captured	-9.99205
act	-9.99254
▁winter	-9.99294
▁dc	-9.99305
▁gla	-9.9937
▁selling	-9.99456
▁raising	-9.9946
▁corner	-9.99465
▁severe	-9.9956
▁robot	-9.99598
▁threatened	-9.99641
▁laugh	-9.99706
▁africa	-9.99786
▁focused	-9.99792
▁consumer	-9.99866
▁sur	-9.99892
ford	-9.99923
▁wh	-10.0002
▁crew	-10.0003
▁nov	-10.0007
▁2,	-10.0011
coming	-10.0017
▁halt	-10.0018
bor	-10.0021
▁farm	-10.0034
▁draw	-10.0046
▁celebrate	-10.0057
▁hol	-10.0059
▁crimes	-10.0063
load	-10.0066
▁breaking	-10.0074
▁nba	-10.0087
▁onto	-10.0088
▁corporate	-10.0091
▁odd	-10.0093
▁struggling	-10.0103
▁admit	-10.0104
▁foot	-10.0104
▁mock	-10.0107
die	-10.0108
▁waiting	-10.0109
▁mountain	-10.0116
▁adam	-10.0134
▁revolution	-10.0139
form	-10.0142
▁size	-10.0149
▁fatal	-10.0152
▁referendum	-10.0152
▁endorsement	-10.0155
▁tiny	-10.0156
▁conducted	-10.0161
most	-10.0161
▁weather	-10.0164
rio	-10.0165
rant	-10.0166
▁hacking	-10.0167
▁sector	-10.0177
▁sky	-10.019
▁nice	-10.0192
log	-10.0193
▁thr	-10.0195
▁employ	-10.0197
▁certainly	-10.0201
▁motor	-10.0201
▁wood	-10.0204
▁decide	-10.0205
▁successful	-10.0207
▁jet	-10.0211
▁australia	-10.0212
▁regulations	-10.0212
▁ivanka	-10.0214
▁speed	-10.0214
▁mate	-10.0219
rie	-10.0224
▁arab	-10.0224
▁migrant	-10.0225
▁greatest	-10.0227
just	-10.0229
▁suspended	-10.023
▁attract	-10.023
▁division	-10.0239
▁michelle	-10.0241
▁pan	-10.0251
▁pain	-10.0265
▁behavior	-10.0276
▁fifth	-10.0276
▁file	-10.0286
▁housing	-10.0288
▁internal	-10.0288
▁tens	-10.029
▁2014,	-10.029
▁suggests	-10.0292
▁vehicles	-10.0296
▁mess	-10.0296
▁web	-10.0297
▁raid	-10.0299
▁memo	-10.03
▁counter	-10.0312
take	-10.0315
▁follows	-10.0323
▁kid	-10.0324
▁chuck	-10.0325
▁reject	-10.0335
▁commercial	-10.0338
▁cheer	-10.034
▁pac	-10.0341
▁hung	-10.0341
▁espn	-10.035
▁kick	-10.0353
▁levels	-10.0354
▁cooper	-10.0359
▁tro	-10.0362
▁tonight	-10.0365
▁closer	-10.0378
▁killer	-10.0385
▁concerned	-10.0385
▁suffered	-10.0388
▁shop	-10.0389
▁ring	-10.0392
▁alabama	-10.04
▁mount	-10.0401
▁costs	-10.0411
▁kushner	-10.0413
▁prize	-10.042
▁bor	-10.0424
▁cable	-10.0429
hold	-10.043
▁withdraw	-10.0438
ju	-10.0442
▁removed	-10.0445
fer	-10.0453
▁widely	-10.0453
▁italy	-10.0458
nna	-10.0459
▁testimony	-10.0464
▁maker	-10.0465
▁walked	-10.0465
▁sharp	-10.0468
▁airlines	-10.0469
▁longtime	-10.0484
▁shape	-10.0486
hy	-10.0488
▁tree	-10.0492
▁stocks	-10.0495
▁sec	-10.0499
▁legacy	-10.0502
▁pakistan	-10.0502
▁jim	-10.0502
▁committed	-10.0503
▁fame	-10.0504
▁figures	-10.0508
▁competition	-10.0514
▁destroy	-10.0525
▁affect	-10.0525
▁rent	-10.0527
▁corruption	-10.0529
uck	-10.0532
▁ruled	-10.0534
▁finds	-10.0539
▁sport	-10.0552
▁background	-10.0555
▁nevada	-10.0565
▁anchor	-10.0566
▁footage	-10.058
▁happens	-10.0582
tom	-10.0583
▁80	-10.0594
▁49	-10.0595
▁harm	-10.0597
▁pledge	-10.0599
▁analysis	-10.0604
▁stuff	-10.0604
▁directly	-10.0609
▁walking	-10.061
▁lived	-10.0612
▁ride	-10.0623
▁hasn	-10.0626
▁memorial	-10.0629
’","	-10.063
▁location	-10.063
▁smart	-10.0631
▁biden	-10.0632
hal	-10.0633
▁additional	-10.0633
▁jump	-10.0633
▁imagine	-10.0635
oh	-10.0638
amp	-10.0638
▁rap	-10.0642
▁newly	-10.0643
▁wish	-10.0644
▁theater	-10.0644
▁native	-10.0645
▁70	-10.0647
mor	-10.0648
▁william	-10.0659
▁drone	-10.066
town	-10.0661
▁homes	-10.0667
▁par	-10.067
▁session	-10.0671
▁usually	-10.0682
▁constitutional	-10.0683
▁2.	-10.0687
▁academy	-10.0694
▁studio	-10.0694
▁crack	-10.0695
fox	-10.0707
▁topic	-10.0707
▁promote	-10.0707
▁teenager	-10.0708
ef	-10.071
▁aides	-10.0715
▁pushing	-10.0716
▁catholic	-10.072
▁offensive	-10.072
▁increased	-10.073
mm	-10.0732
▁concert	-10.0733
▁francis	-10.0743
▁reveal	-10.0749
ai	-10.0751
▁haven	-10.0752
▁ce	-10.0753
▁handle	-10.0767
ese	-10.0768
▁accident	-10.0771
▁bell	-10.0771
▁instagram	-10.0772
ken	-10.0774
▁rod	-10.0785
▁angry	-10.0785
▁communities	-10.0785
▁lock	-10.0795
▁fears	-10.0797
▁ethics	-10.0798
▁discussed	-10.08
▁perform	-10.0803
▁broken	-10.081
▁officially	-10.081
iest	-10.0818
even	-10.082
▁lake	-10.0823
point	-10.0824
▁elect	-10.0844
▁master	-10.0845
▁expressed	-10.0849
▁resolution	-10.085
cum	-10.0852
▁gene	-10.0861
▁code	-10.0864
▁terrorists	-10.087
book	-10.0875
▁finish	-10.0877
▁fu	-10.0884
aries	-10.0891
▁predict	-10.09
▁quarterback	-10.0905
ette	-10.0905
white	-10.0915
▁patients	-10.0915
▁hell	-10.0917
ik	-10.0917
chi	-10.092
▁supporting	-10.0923
▁flood	-10.0927
▁witness	-10.0932
▁lgbt	-10.0932
▁analysts	-10.0937
▁twice	-10.0943
pr	-10.0947
▁medal	-10.0948
top	-10.0949
▁english	-10.0956
▁harassment	-10.0956
▁silicon	-10.0956
▁rick	-10.0959
▁remove	-10.0962
▁mad	-10.0962
▁swing	-10.0965
▁deaths	-10.0968
▁manchester	-10.0969
▁2009	-10.0971
▁pr	-10.0975
▁charles	-10.0993
▁wear	-10.0995
▁lobby	-10.0996
▁task	-10.1
▁award	-10.1006
▁physical	-10.1009
▁jack	-10.1015
▁roger	-10.1029
cker	-10.1035
▁software	-10.1036
▁louis	-10.1037
fra	-10.1037
▁stick	-10.1043
▁standard	-10.1045
▁dig	-10.1046
▁passengers	-10.1046
▁filing	-10.1054
▁nearby	-10.1056
▁pregnant	-10.1063
lor	-10.1063
▁classic	-10.1067
ium	-10.1071
▁completely	-10.1075
▁targeted	-10.1075
▁construction	-10.1078
▁representatives	-10.108
republican	-10.109
▁roof	-10.1093
▁quick	-10.1093
▁map	-10.11
▁offers	-10.1101
ient	-10.1101
▁gives	-10.1103
maker	-10.1107
▁aircraft	-10.1117
▁injuries	-10.1117
▁pool	-10.1125
▁egypt	-10.1128
▁anger	-10.1129
▁mccain	-10.113
▁grew	-10.1131
att	-10.1131
▁measures	-10.1133
▁weapon	-10.1139
▁animal	-10.1139
▁stretch	-10.1144
▁des	-10.1148
▁sick	-10.115
▁corp	-10.1152
table	-10.1155
▁positive	-10.1158
wood	-10.1158
gn	-10.1159
▁representative	-10.1168
▁employee	-10.1168
▁urged	-10.1169
▁nato	-10.117
according	-10.1172
look	-10.1174
▁nightclub	-10.1185
▁wound	-10.1188
▁sending	-10.1197
▁.)	-10.1199
very	-10.1215
dor	-10.1224
▁narrow	-10.1226
▁margin	-10.1226
val	-10.1227
now	-10.1227
▁programs	-10.1229
▁replacement	-10.1245
▁express	-10.1247
▁benefits	-10.1252
▁choose	-10.1253
▁keeping	-10.1254
▁watched	-10.1258
▁paying	-10.1263
▁immigrant	-10.1266
▁advice	-10.1267
▁politico	-10.1267
▁yemen	-10.1268
▁summit	-10.1268
▁benefit	-10.1281
▁acting	-10.1282
ash	-10.1291
▁stores	-10.1293
▁sentenced	-10.1293
cher	-10.1295
▁assistant	-10.1295
▁shock	-10.1295
▁ny	-10.13
▁conditions	-10.1303
▁begins	-10.1304
▁disrupt	-10.1308
▁elizabeth	-10.1308
▁marijuana	-10.1322
▁mets	-10.1322
▁veterans	-10.1328
▁drink	-10.1335
▁aggressive	-10.1335
ular	-10.1339
stone	-10.1341
atory	-10.135
▁cultural	-10.1359
hor	-10.1371
▁boat	-10.1376
▁siriusxm	-10.1377
ria	-10.1387
▁meaning	-10.1388
▁visa	-10.1403
last	-10.1405
rating	-10.1409
tar	-10.1416
▁libya	-10.1419
boy	-10.142
▁wing	-10.1423
▁weight	-10.1429
▁danger	-10.1432
▁responsibility	-10.1432
▁fish	-10.1435
▁civilians	-10.1438
▁bu	-10.144
pac	-10.1442
zo	-10.1451
▁grant	-10.1456
▁readers	-10.1459
▁schumer	-10.146
▁worried	-10.146
▁ren	-10.1461
▁houston	-10.1466
▁opponent	-10.1468
▁globe	-10.1474
▁kansas	-10.1474
▁possibility	-10.1474
▁smartphone	-10.1474
▁cup	-10.1481
▁minnesota	-10.1488
▁pilot	-10.1489
under	-10.1495
▁individuals	-10.1496
$	-10.1501
til	-10.1503
▁expand	-10.1506
▁prepare	-10.1511
▁giants	-10.1515
▁explosion	-10.1516
▁bought	-10.1516
▁sue	-10.1518
▁upset	-10.1522
▁initial	-10.1523
▁challenges	-10.1527
▁unlikely	-10.153
▁unexpected	-10.153
▁orders	-10.1532
▁feed	-10.1534
▁euro	-10.1545
▁seriously	-10.1554
▁serving	-10.1559
gle	-10.1566
chan	-10.1568
fr	-10.1572
▁yahoo	-10.1573
▁suddenly	-10.1584
▁edition	-10.1587
pul	-10.1589
▁https	-10.1594
▁ministry	-10.1601
▁happening	-10.1602
▁affairs	-10.1607
▁palm	-10.1615
▁conspiracy	-10.1615
▁maintain	-10.1615
▁symbol	-10.1616
▁write	-10.1619
▁vast	-10.1623
▁messages	-10.1623
▁stands	-10.1629
▁heads	-10.1629
fu	-10.1632
▁australian	-10.1632
▁entered	-10.1633
ball	-10.1634
▁usa	-10.1636
▁mag	-10.1639
▁tool	-10.1647
▁italian	-10.1658
▁boo	-10.1659
▁parent	-10.1664
▁arms	-10.1665
▁worry	-10.1672
▁vision	-10.1679
▁apparent	-10.1679
wing	-10.1681
▁nasa	-10.1685
▁jon	-10.1686
ung	-10.1689
▁pointed	-10.1701
▁fighters	-10.1705
▁cru	-10.1709
▁bigger	-10.1712
▁possibly	-10.1715
▁yesterday	-10.1715
▁movies	-10.172
▁jets	-10.1721
▁places	-10.1727
▁eve	-10.1743
▁surveillance	-10.1744
▁yo	-10.1744
▁features	-10.1752
▁pin	-10.1755
▁prop	-10.1756
▁jeb	-10.1757
▁youtube	-10.176
▁leaked	-10.1771
▁headquarters	-10.1773
▁expectations	-10.1775
▁ev	-10.1775
▁burn	-10.1784
▁massachusetts	-10.1787
▁banned	-10.1792
▁venezuela	-10.1797
san	-10.1799
▁changing	-10.1803
▁ending	-10.1804
long	-10.1805
▁deportation	-10.1805
▁prepared	-10.1808
▁snap	-10.1811
▁investigate	-10.1811
▁polling	-10.1811
▁shooter	-10.1827
▁vow	-10.1828
▁za	-10.1835
▁cartel	-10.1836
▁cancel	-10.1837
american	-10.1841
▁prior	-10.1841
▁spa	-10.1841
▁yiannopoulos	-10.1845
ix	-10.1852
▁op	-10.1855
▁nature	-10.186
▁miller	-10.1864
ji	-10.1864
ement	-10.1868
▁associate	-10.1869
▁photographer	-10.187
▁knows	-10.1873
▁netflix	-10.1874
▁suggest	-10.188
▁flow	-10.1885
▁closing	-10.1889
ong	-10.1891
▁values	-10.1894
clinton	-10.1898
▁kennedy	-10.1903
kill	-10.1905
▁guide	-10.1906
▁kaine	-10.1909
▁degree	-10.1921
▁neil	-10.1921
rick	-10.1931
▁hurricane	-10.1933
▁surface	-10.1933
▁documentary	-10.1935
ification	-10.1946
▁moderate	-10.1953
▁ye	-10.1954
▁mainstream	-10.1962
▁dance	-10.1967
▁pm	-10.1968
▁dnc	-10.1969
▁specific	-10.1975
▁chelsea	-10.1977
▁insist	-10.1981
▁breath	-10.1983
▁gi	-10.199
▁estimated	-10.1992
▁entering	-10.2001
▁owners	-10.2002
▁citizen	-10.2005
rri	-10.2005
▁supporter	-10.2007
art	-10.2014
,"“	-10.2017
▁diplomatic	-10.202
▁solution	-10.2021
▁married	-10.2021
▁alarm	-10.2023
▁tend	-10.2041
ency	-10.2044
pass	-10.2046
▁nationwide	-10.205
▁sarah	-10.2052
▁allowing	-10.2055
▁rocket	-10.2057
▁reduce	-10.2061
mark	-10.2063
▁dramatic	-10.2066
▁viewers	-10.2073
▁basic	-10.208
▁monitor	-10.208
▁creating	-10.208
▁mobile	-10.2086
▁pur	-10.2087
▁kerry	-10.2095
▁$8	-10.2097
▁hedge	-10.21
▁coal	-10.2103
▁ken	-10.2105
(	-10.2107
lk	-10.2111
▁chaos	-10.2114
▁rat	-10.2116
▁investor	-10.2119
while	-10.2121
▁factor	-10.2123
▁riot	-10.2125
▁bodies	-10.2125
▁headed	-10.2132
▁gro	-10.2134
▁disappear	-10.214
▁bed	-10.214
▁blog	-10.2142
ino	-10.2144
▁guardian	-10.2145
▁sides	-10.2157
▁attacker	-10.216
▁fri	-10.2182
▁correct	-10.2186
▁cool	-10.2203
▁threatening	-10.2209
▁covered	-10.221
▁tape	-10.2222
▁stein	-10.2227
▁eventually	-10.223
▁daniel	-10.223
roll	-10.2236
▁gap	-10.2244
▁baltimore	-10.2245
▁activity	-10.2245
room	-10.226
are	-10.226
▁core	-10.2261
ology	-10.2266
▁collection	-10.2268
▁older	-10.2273
▁index	-10.2278
▁tea	-10.228
▁loan	-10.2281
▁jerusalem	-10.2282
▁islamist	-10.2286
▁unprecedented	-10.229
▁rejected	-10.2294
▁resign	-10.2297
▁treated	-10.2302
▁bloomberg	-10.2321
▁theory	-10.2324
▁ty	-10.2329
▁leads	-10.2332
▁hike	-10.2333
▁todd	-10.2334
▁rush	-10.2337
▁knock	-10.2351
▁strikes	-10.2355
▁ill	-10.2355
▁leaves	-10.2359
▁cow	-10.2365
▁jordan	-10.2367
▁championship	-10.2368
▁fail	-10.237
▁zone	-10.2373
▁explosive	-10.2382
▁oklahoma	-10.2382
▁melania	-10.2382
▁vegas	-10.2382
▁glass	-10.2387
▁confront	-10.2393
▁moral	-10.2393
▁larger	-10.2397
▁religion	-10.2397
▁gift	-10.2399
▁improve	-10.2401
▁ii	-10.2402
▁reveals	-10.2404
bul	-10.2406
ologist	-10.2408
▁startup	-10.241
fil	-10.2418
▁ear	-10.2421
▁surrounding	-10.2421
▁goldman	-10.2423
▁expert	-10.2429
▁lie	-10.2429
▁regular	-10.2437
▁equal	-10.2441
▁electric	-10.2441
▁kingdom	-10.2444
▁tank	-10.245
water	-10.2453
▁afghan	-10.2459
▁anniversary	-10.2459
▁basketball	-10.2459
reilly	-10.246
▁jason	-10.2464
▁penn	-10.2466
xi	-10.2468
▁republic	-10.2471
▁sexually	-10.2471
▁beautiful	-10.2474
▁commander	-10.2475
two	-10.2479
▁log	-10.2485
cha	-10.2489
every	-10.249
▁solar	-10.249
▁stress	-10.249
iff	-10.2493
put	-10.2497
▁notice	-10.2499
▁failing	-10.25
▁celebrity	-10.2505
▁tradition	-10.252
▁exist	-10.2521
▁infrastructure	-10.2521
lies	-10.2524
cal	-10.2529
▁introduced	-10.2531
▁300	-10.2532
▁emotional	-10.2533
▁territory	-10.2537
▁picked	-10.2537
▁filled	-10.2539
▁split	-10.2552
▁talent	-10.2553
▁maryland	-10.2553
qua	-10.2556
nie	-10.256
▁seeing	-10.2564
▁escape	-10.2565
▁mcconnell	-10.2568
▁$10	-10.2572
▁racism	-10.2583
▁bust	-10.2586
▁videos	-10.2588
▁mall	-10.2592
▁colleagues	-10.2598
▁belong	-10.2599
▁drew	-10.26
▁harris	-10.26
▁hoping	-10.2605
▁organizations	-10.2611
▁direction	-10.2612
▁privacy	-10.2615
▁comic	-10.2617
ari	-10.263
▁seal	-10.263
▁custody	-10.263
▁pot	-10.263
▁resort	-10.263
▁stream	-10.2633
▁net	-10.2633
▁illegally	-10.2636
▁musical	-10.2639
▁condemn	-10.2641
▁pla	-10.2642
▁recruit	-10.2646
▁massacre	-10.2646
▁devices	-10.2649
▁option	-10.266
▁mill	-10.2663
▁alongside	-10.2667
▁clearly	-10.2667
▁businessman	-10.2669
▁bal	-10.2683
▁disney	-10.2685
▁khan	-10.2688
▁encounter	-10.2693
▁signature	-10.2693
▁strategist	-10.2693
▁asia	-10.2699
▁stunning	-10.2709
rin	-10.271
▁positions	-10.2713
▁device	-10.2722
▁negative	-10.2725
▁forecast	-10.2725
will	-10.2729
▁beijing	-10.2729
▁spin	-10.2735
▁congressman	-10.2741
▁mel	-10.2744
▁shoot	-10.2745
▁facility	-10.2757
▁knicks	-10.2757
▁moore	-10.2757
▁correspondent	-10.2758
zer	-10.2761
▁weak	-10.2764
▁crude	-10.2766
▁endorse	-10.2768
▁intended	-10.2769
▁36	-10.277
▁punch	-10.2773
▁merkel	-10.2773
▁specifically	-10.2774
▁bright	-10.2777
▁partial	-10.2787
▁soccer	-10.2789
▁steal	-10.2789
dra	-10.2798
stein	-10.2799
▁deeply	-10.2804
▁lies	-10.2807
▁teach	-10.2807
▁bomber	-10.2811
▁worker	-10.2815
▁joy	-10.2818
gy	-10.2825
vy	-10.2827
▁skin	-10.2828
col	-10.2829
▁strange	-10.2829
who	-10.2836
▁studies	-10.2837
▁throw	-10.2848
▁fat	-10.2854
▁dump	-10.2859
ita	-10.2864
▁2018	-10.2869
▁pack	-10.2874
bert	-10.2875
▁route	-10.288
▁publisher	-10.2885
▁statements	-10.2886
yes	-10.289
▁wars	-10.2896
▁charlotte	-10.2901
▁exercise	-10.2901
▁routine	-10.2901
▁tactic	-10.2901
rag	-10.2905
▁rub	-10.2912
▁violation	-10.2917
pan	-10.2919
▁slam	-10.2919
▁passenger	-10.2921
▁discussing	-10.2927
▁suggesting	-10.2931
▁mid	-10.2935
▁surprising	-10.2944
▁mosque	-10.295
▁diplomat	-10.295
▁abd	-10.2961
▁qui	-10.2964
▁refuse	-10.2965
▁argue	-10.2966
▁primaries	-10.2966
▁utah	-10.2966
▁phil	-10.2971
▁transform	-10.2972
▁hits	-10.2973
▁fully	-10.2974
▁mention	-10.2978
▁fatally	-10.298
▁populist	-10.2982
▁subscribers	-10.2983
born	-10.2988
▁outlets	-10.2995
▁advantage	-10.2998
▁interests	-10.3003
▁atlanta	-10.3003
▁advocates	-10.3005
ised	-10.3005
▁soft	-10.3007
▁tall	-10.3013
▁stat	-10.3014
▁entirely	-10.3014
▁embrace	-10.3015
▁id	-10.3025
▁cycle	-10.3031
▁2017,	-10.3034
▁marked	-10.3043
▁represent	-10.3044
▁spokeswoman	-10.3047
▁required	-10.305
▁buck	-10.3053
▁shake	-10.306
▁zuckerberg	-10.3064
▁preparing	-10.3064
▁airline	-10.3068
▁root	-10.3069
▁initially	-10.3073
▁blocked	-10.3076
▁backed	-10.3076
▁climb	-10.308
▁tan	-10.3087
▁hunt	-10.3095
zy	-10.3097
▁environment	-10.3101
▁tennessee	-10.3113
▁depend	-10.3113
▁referring	-10.3114
▁entertainment	-10.3115
▁strip	-10.3118
uch	-10.3118
▁steven	-10.3119
pat	-10.3119
▁adults	-10.3127
▁priebus	-10.313
▁rex	-10.313
▁viral	-10.3132
lay	-10.3133
▁vowed	-10.314
▁hackers	-10.314
▁colombia	-10.3146
▁discrimination	-10.3146
▁pictures	-10.3161
▁circuit	-10.3163
▁outcome	-10.3163
play	-10.3168
▁placed	-10.3168
▁athletes	-10.3175
▁hole	-10.3177
eo	-10.3182
▁fisher	-10.319
▁sight	-10.32
▁tight	-10.3209
▁province	-10.3213
▁sand	-10.3214
▁retailer	-10.3217
▁moon	-10.322
▁lift	-10.3223
▁lit	-10.3223
▁talked	-10.3224
▁mail	-10.3225
▁estimate	-10.3229
▁cited	-10.323
▁devos	-10.3231
read	-10.3233
▁link	-10.3235
▁falling	-10.3236
▁gains	-10.3236
▁tied	-10.3238
elle	-10.3244
▁bias	-10.3244
▁flu	-10.3245
▁detroit	-10.3246
▁graduate	-10.3246
▁comedian	-10.3246
▁none	-10.3255
▁buying	-10.3257
▁sites	-10.3259
▁tale	-10.326
▁luxury	-10.3263
▁electronic	-10.3263
▁detained	-10.3263
▁ann	-10.3268
ological	-10.3269
▁active	-10.327
hur	-10.3271
▁explains	-10.3273
▁remaining	-10.3274
gl	-10.3278
▁stadium	-10.3279
▁client	-10.3281
▁2005	-10.3283
▁animals	-10.3285
vis	-10.3285
▁warm	-10.3288
▁necessary	-10.3296
▁anthem	-10.3298
▁adult	-10.3299
▁$100	-10.3299
▁column	-10.3308
▁lesson	-10.3311
▁plenty	-10.3313
▁shopping	-10.3315
▁33	-10.3323
people	-10.3323
own	-10.3329
▁airstrike	-10.333
▁initiative	-10.3331
▁boys	-10.3337
▁tam	-10.3339
▁quiet	-10.3345
▁cuomo	-10.3347
▁kentucky	-10.3347
▁silver	-10.3347
place	-10.3347
▁alien	-10.3349
▁recorded	-10.335
▁politician	-10.3351
▁32	-10.3354
lum	-10.3361
▁identify	-10.3364
▁insult	-10.3365
▁davis	-10.3365
▁overall	-10.3371
▁opponents	-10.3371
▁cent	-10.3375
▁nypd	-10.3381
▁commissioner	-10.3386
▁terrible	-10.3397
▁divided	-10.3408
▁string	-10.3409
▁dictator	-10.3414
ide	-10.3421
▁apart	-10.3424
▁ratings	-10.3429
▁collapse	-10.3431
▁ronald	-10.3432
▁cheap	-10.3436
▁recommend	-10.3437
obama	-10.3444
▁carrier	-10.3447
▁rallies	-10.3448
▁macron	-10.345
▁garden	-10.345
▁ms	-10.3453
▁wedding	-10.3458
claim	-10.3461
▁alternative	-10.3464
▁urban	-10.3466
updated	-10.3471
net	-10.3473
ight	-10.3474
▁gary	-10.3485
▁alert	-10.3493
▁greater	-10.3497
▁knowledge	-10.35
▁install	-10.35
▁partnership	-10.3501
▁shareholder	-10.3517
▁newsletter	-10.3517
▁donors	-10.3521
▁quit	-10.3535
▁transfer	-10.3535
▁weekly	-10.3544
illa	-10.3545
▁gray	-10.3545
▁candidacy	-10.3551
▁purpose	-10.3551
▁firearm	-10.3553
▁designer	-10.3562
▁immediate	-10.3564
▁rice	-10.3565
nar	-10.3567
▁treasury	-10.3569
▁silence	-10.3569
▁boycott	-10.3569
▁shootings	-10.3587
▁twin	-10.3589
▁remained	-10.3589
win	-10.3589
▁flying	-10.3592
▁detail	-10.3599
▁hat	-10.3603
▁spirit	-10.3603
▁supply	-10.3603
▁kellyanne	-10.3604
▁spy	-10.3606
graph	-10.3609
▁rail	-10.3613
▁coup	-10.3613
▁moves	-10.3619
▁worldwide	-10.362
▁las	-10.3622
▁musk	-10.3624
law	-10.3624
▁fly	-10.3627
▁gate	-10.364
▁bin	-10.3642
▁feels	-10.3643
▁75	-10.3654
▁celebration	-10.3655
▁tensions	-10.3657
▁pacific	-10.3657
▁owned	-10.3658
▁options	-10.3662
▁titled	-10.3665
▁opposed	-10.3669
▁praise	-10.3674
▁steel	-10.3675
pot	-10.368
▁rein	-10.368
▁laid	-10.3683
▁limited	-10.3683
▁deny	-10.3687
breitbart	-10.3687
▁hacked	-10.3689
▁alliance	-10.369
cho	-10.3693
▁christians	-10.3699
bra	-10.3702
▁retail	-10.3703
▁calif	-10.3704
▁instruct	-10.3708
▁bon	-10.3709
▁targeting	-10.3713
▁originally	-10.3714
▁trick	-10.3715
▁loud	-10.3715
▁downtown	-10.3716
▁mil	-10.372
▁harvard	-10.3725
▁mogul	-10.3725
▁presence	-10.3725
▁roman	-10.3728
▁effective	-10.3732
▁managed	-10.3732
cast	-10.3735
▁whatever	-10.3737
▁settle	-10.374
▁crucial	-10.3743
▁wr	-10.3758
▁netanyahu	-10.376
▁birthday	-10.3762
▁earnings	-10.3762
▁drivers	-10.3765
▁rand	-10.3767
▁addition	-10.3773
▁carter	-10.3775
▁antonin	-10.3778
▁dia	-10.3778
▁section	-10.378
▁han	-10.3782
▁attended	-10.3783
cap	-10.3784
▁indeed	-10.3786
▁backlash	-10.3799
▁mix	-10.3808
▁brian	-10.3809
▁gathering	-10.3809
▁wealth	-10.3812
▁supported	-10.382
▁latino	-10.3828
▁missouri	-10.3831
▁beck	-10.3835
▁executives	-10.3835
▁passing	-10.3837
▁defended	-10.3839
▁iconic	-10.3845
▁paint	-10.3846
hr	-10.3846
▁deter	-10.3849
mu	-10.3851
▁permit	-10.3856
▁tests	-10.3857
▁400	-10.3857
▁centers	-10.3857
▁prayer	-10.3873
▁analyst	-10.3874
▁patriot	-10.3874
▁wil	-10.3877
▁inspired	-10.3877
▁headlines	-10.3877
ray	-10.3881
▁confidence	-10.3884
▁lynch	-10.3884
▁assets	-10.3885
▁self	-10.389
▁pra	-10.3893
▁fate	-10.3894
▁invest	-10.3899
▁medicaid	-10.3902
▁horror	-10.3902
▁tip	-10.3905
▁resignation	-10.3909
▁counts	-10.3909
ery	-10.3919
▁rolling	-10.392
▁clinic	-10.3922
fall	-10.3928
▁highway	-10.3931
▁standards	-10.3931
▁determined	-10.3935
▁hired	-10.3935
america	-10.3935
▁questioned	-10.3937
▁disagree	-10.3938
▁liberty	-10.3938
▁revelation	-10.3938
▁vermont	-10.3938
▁deals	-10.3945
▁reverse	-10.3948
▁begun	-10.3957
▁alter	-10.3957
▁advertising	-10.3974
▁affiliate	-10.3974
▁flat	-10.3975
▁graham	-10.3977
▁diet	-10.3981
▁reference	-10.3984
▁bail	-10.3986
▁execution	-10.3991
▁legend	-10.3992
▁berlin	-10.3992
▁mars	-10.3993
▁pledged	-10.3997
▁shouldn	-10.3998
▁stolen	-10.3999
▁kaepernick	-10.401
teen	-10.4016
away	-10.4016
matic	-10.4019
▁sweeping	-10.4019
▁sam	-10.4025
▁succeed	-10.4028
▁explore	-10.4028
▁permanent	-10.4028
▁featured	-10.4028
▁affected	-10.403
▁capture	-10.4031
good	-10.4032
▁alive	-10.4033
▁boom	-10.4036
▁rivals	-10.4038
▁48	-10.4045
▁coffee	-10.4046
▁independence	-10.4046
▁compete	-10.4047
▁dismiss	-10.4047
▁recount	-10.4048
lou	-10.4057
▁implement	-10.4064
▁loved	-10.407
▁hbo	-10.407
▁greg	-10.4076
▁parade	-10.4077
▁bou	-10.4081
▁legislative	-10.4082
▁ensure	-10.4082
life	-10.4084
▁define	-10.4087
▁songs	-10.4092
▁clash	-10.4094
▁firms	-10.4096
▁industrial	-10.41
▁shocking	-10.4102
▁sept	-10.4102
why	-10.4108
▁negotiations	-10.4114
▁cry	-10.4115
▁operate	-10.4118
▁theresa	-10.4125
ella	-10.4126
▁runs	-10.413
▁3,	-10.4135
▁feminist	-10.4137
▁illinois	-10.4137
▁causing	-10.4137
▁spark	-10.414
▁consumers	-10.4152
▁update	-10.4155
▁conviction	-10.4155
▁swift	-10.4155
▁accusations	-10.4157
▁destroyed	-10.4157
▁earn	-10.416
▁ref	-10.4167
▁shown	-10.417
▁ok	-10.4186
▁q	-10.4191
▁targets	-10.4191
▁desperate	-10.4192
▁myself	-10.4192
▁habit	-10.4193
▁jay	-10.4194
consistent	-10.4197
▁chat	-10.4199
▁teachers	-10.4203
▁impossible	-10.421
▁crazy	-10.421
▁penalty	-10.421
▁puerto	-10.421
▁corps	-10.4211
▁endorsed	-10.4212
▁mary	-10.4221
▁clip	-10.4224
eu	-10.4226
▁temporary	-10.4228
▁bottom	-10.4228
▁operating	-10.423
▁rural	-10.423
ending	-10.4233
▁sum	-10.4238
▁ultimately	-10.424
▁politically	-10.4247
▁arguing	-10.4247
▁license	-10.4247
▁diversity	-10.4247
▁aware	-10.4249
▁sachs	-10.4249
▁commitment	-10.425
▁tur	-10.426
▁staffers	-10.4263
▁heading	-10.4263
▁istanbul	-10.4265
▁principle	-10.4265
▁ph	-10.4274
▁fewer	-10.4282
any	-10.4282
▁asylum	-10.4284
▁philippines	-10.4286
▁strength	-10.4297
▁minor	-10.4297
▁meetings	-10.4298
▁buildings	-10.4299
▁sar	-10.4302
▁overhaul	-10.4302
▁dylan	-10.4302
▁remind	-10.4303
lly	-10.4321
▁plus	-10.4322
▁commit	-10.4325
▁eating	-10.4334
sky	-10.4335
▁headline	-10.434
▁determine	-10.4343
▁noted	-10.4345
▁nazi	-10.4346
▁prompted	-10.4349
▁occasion	-10.4357
▁ukraine	-10.4358
▁jared	-10.4376
▁beauty	-10.4377
▁urge	-10.438
sunday	-10.4382
▁consequences	-10.4388
▁unique	-10.44
▁surgery	-10.4401
▁scale	-10.4404
ich	-10.4412
▁royal	-10.4415
▁everybody	-10.4417
▁jihadist	-10.4421
▁coordinat	-10.4433
▁economist	-10.4433
▁striking	-10.4433
▁chamber	-10.4433
▁kevin	-10.4434
▁marc	-10.4437
black	-10.4442
40	-10.4449
cation	-10.4455
▁diego	-10.4455
▁extend	-10.4456
▁matters	-10.4458
▁44	-10.4463
▁sounds	-10.4464
▁plays	-10.4464
▁circle	-10.4471
▁extremist	-10.4471
▁located	-10.4471
▁deserve	-10.4471
▁crush	-10.4476
▁20,	-10.4477
▁37	-10.4481
▁produced	-10.4484
▁celebrated	-10.4486
▁accusing	-10.449
▁heavily	-10.449
▁flint	-10.449
other	-10.4498
▁judiciary	-10.4509
▁medicine	-10.4509
▁behalf	-10.4509
rap	-10.4511
▁balance	-10.4511
▁subway	-10.4511
ctor	-10.4519
▁ally	-10.4524
hir	-10.4524
▁erdogan	-10.4528
▁pursue	-10.4528
▁barely	-10.4528
▁asks	-10.4542
▁profile	-10.4547
▁2015.	-10.4548
mir	-10.4553
▁proud	-10.4555
‘	-10.4557
.)"	-10.4559
▁pages	-10.4562
▁critic	-10.4563
▁expensive	-10.4566
▁deadline	-10.4574
▁neither	-10.4585
▁seized	-10.4585
▁caucuses	-10.4587
▁click	-10.4587
▁apologize	-10.4589
▁oppose	-10.4589
ease	-10.459
▁horse	-10.4591
lee	-10.4597
▁survivor	-10.4604
▁cloud	-10.4604
▁regret	-10.4604
▁lewis	-10.4604
▁bbc	-10.4604
make	-10.461
▁speeches	-10.4612
▁films	-10.4613
▁praised	-10.4623
▁bashar	-10.4625
▁rebel	-10.4631
▁gotten	-10.4632
wait	-10.4634
▁surprised	-10.4635
▁ancient	-10.4642
wn	-10.4643
▁guys	-10.4645
mmer	-10.465
▁seattle	-10.4662
▁bird	-10.4664
▁recording	-10.4668
▁cro	-10.4673
▁volunteer	-10.4681
▁charity	-10.4681
▁$9	-10.4683
▁regional	-10.4683
run	-10.4684
▁beating	-10.4691
▁warns	-10.4695
▁unveiled	-10.4698
▁manufacturing	-10.47
▁microsoft	-10.47
▁wildlife	-10.4701
▁loom	-10.4705
russia	-10.4712
▁alcohol	-10.4719
lton	-10.472
▁dev	-10.4725
▁blamed	-10.4735
▁hang	-10.4735
▁experiment	-10.4739
▁columnist	-10.4744
▁packed	-10.4746
▁healthy	-10.4747
▁patriots	-10.475
▁gil	-10.4753
▁score	-10.4757
▁hawaii	-10.4758
▁palin	-10.4766
▁43	-10.4774
▁42	-10.4775
▁convince	-10.4778
▁breach	-10.4779
▁feb	-10.478
▁actual	-10.478
▁multi	-10.4789
▁testing	-10.4791
▁suburb	-10.4792
▁capt	-10.4795
▁distribut	-10.4797
▁babies	-10.4797
▁broadway	-10.4799
▁’”	-10.4812
▁hosted	-10.4813
mus	-10.4815
▁dealing	-10.4816
▁widespread	-10.4817
▁rebels	-10.4817
▁seeks	-10.4818
▁prefer	-10.4818
▁$15	-10.4828
▁narrative	-10.4836
▁belief	-10.4836
▁jumped	-10.4838
big	-10.4841
▁lying	-10.4845
▁iron	-10.4852
▁honest	-10.4856
▁brady	-10.4857
var	-10.486
▁attempts	-10.4861
▁forget	-10.4863
▁fur	-10.4864
▁youth	-10.4868
wan	-10.4871
▁expansion	-10.4876
▁aviv	-10.4877
▁orange	-10.4878
▁transportation	-10.4879
▁thinks	-10.4888
▁manning	-10.4889
▁interesting	-10.4893
▁aside	-10.4894
▁restrict	-10.4894
▁embassy	-10.4895
▁answers	-10.4897
▁mitt	-10.4899
▁nick	-10.4907
▁pill	-10.4913
▁demonstration	-10.4915
▁rifle	-10.4915
▁spotted	-10.4921
▁assad	-10.4925
▁homeless	-10.4926
▁lt	-10.4932
▁overwhelming	-10.4932
▁fargo	-10.4934
▁cosby	-10.4935
▁flash	-10.4936
view	-10.4938
▁formally	-10.4939
▁bullet	-10.4941
far	-10.495
▁visited	-10.4951
▁demanding	-10.4951
▁departure	-10.4955
▁duterte	-10.4955
▁mystery	-10.4955
keep	-10.4963
ean	-10.4976
▁outbreak	-10.4982
▁drag	-10.4982
▁represents	-10.4984
▁granted	-10.499
▁earned	-10.4993
▁urging	-10.4994
▁interference	-10.4995
▁lunch	-10.4995
▁nominated	-10.4998
▁updated	-10.4998
▁queens	-10.4998
▁brazilian	-10.5
▁usual	-10.5009
▁icon	-10.5011
▁minimum	-10.5014
▁advisers	-10.5016
▁survive	-10.502
▁shoe	-10.5022
▁hopeful	-10.5024
▁produce	-10.503
▁pose	-10.5032
▁chase	-10.5034
▁switch	-10.5034
▁variety	-10.5034
▁sweden	-10.5034
▁developed	-10.5035
▁nobody	-10.5043
▁print	-10.5043
▁nyc	-10.5053
▁slideshow	-10.5054
▁gulf	-10.5054
▁drove	-10.5054
▁baker	-10.5059
▁conversations	-10.5066
▁losses	-10.5066
▁punish	-10.5071
▁fiction	-10.5074
▁samsung	-10.5074
▁interior	-10.5074
▁complicated	-10.5074
ander	-10.5076
▁qua	-10.5084
▁engaged	-10.5091
▁crashed	-10.5092
▁journey	-10.5094
▁militia	-10.5094
▁scrutiny	-10.5094
▁relief	-10.5094
▁ze	-10.5094
▁mine	-10.5094
▁justin	-10.5095
▁vol	-10.5097
▁height	-10.5098
▁tap	-10.5099
ram	-10.5108
▁unless	-10.5119
▁shadow	-10.512
▁vox	-10.512
▁attacking	-10.5124
bit	-10.5125
▁invited	-10.5131
▁obvious	-10.5133
▁franchise	-10.5135
▁podesta	-10.5135
▁temporarily	-10.5135
▁customs	-10.5137
▁tru	-10.5139
▁harry	-10.5142
▁resigned	-10.5144
▁increasing	-10.5153
stepped	-10.5154
▁predicted	-10.5154
▁error	-10.5155
▁method	-10.5155
▁truly	-10.5156
▁susan	-10.5157
▁desk	-10.5165
▁pace	-10.5166
▁hor	-10.5169
11	-10.5173
▁dismissed	-10.5173
▁defending	-10.5175
▁alaska	-10.5175
▁bound	-10.5176
▁covering	-10.5181
▁schedule	-10.5181
lot	-10.5184
▁publication	-10.519
▁closely	-10.5191
kh	-10.5192
ani	-10.5193
▁demands	-10.5195
providing	-10.5195
▁girlfriend	-10.5196
▁threatens	-10.5196
▁1980	-10.5197
▁interested	-10.5199
▁memory	-10.5199
▁josh	-10.5204
▁seats	-10.5209
▁characters	-10.5209
▁34	-10.5213
▁cre	-10.5213
▁sparked	-10.5213
augh	-10.5213
▁divorce	-10.5216
▁temperature	-10.5216
▁podcast	-10.5216
▁mourn	-10.5216
▁pounds	-10.5221
▁missed	-10.5222
want	-10.5227
▁except	-10.5227
▁recognize	-10.5227
▁empire	-10.5236
▁mississippi	-10.5236
▁scientific	-10.5236
▁twist	-10.5236
▁intense	-10.5236
▁oversee	-10.5239
▁colin	-10.524
▁soul	-10.5242
hand	-10.5251
▁numerous	-10.5256
▁phrase	-10.5256
▁poverty	-10.5256
▁seemingly	-10.5257
▁vacation	-10.5257
▁defect	-10.5258
▁sugar	-10.5259
▁suffering	-10.5259
▁nationalist	-10.5263
rog	-10.5263
▁corn	-10.5274
▁conclusion	-10.5277
▁sweet	-10.5277
rich	-10.5283
▁forum	-10.5297
▁featuring	-10.5297
▁literally	-10.5297
▁snapchat	-10.5297
▁solid	-10.5298
▁items	-10.5306
▁santa	-10.5316
▁taiwan	-10.5318
▁structure	-10.5318
▁package	-10.532
▁est	-10.5321
▁2012,	-10.5322
▁warrant	-10.5324
▁joseph	-10.5339
▁38	-10.5343
ew	-10.5344
▁receiving	-10.5359
▁grave	-10.5364
▁mcdonald	-10.5364
▁returning	-10.5366
▁stance	-10.5382
hl	-10.5382
▁carrie	-10.5391
▁zoo	-10.5398
▁cutting	-10.5399
ada	-10.54
▁echo	-10.5404
▁emerge	-10.5408
▁2013,	-10.541
▁fallen	-10.5412
▁epa	-10.5413
▁columbia	-10.5421
▁institutions	-10.5426
▁gall	-10.5438
▁hail	-10.5443
▁1990	-10.5444
▁2007	-10.5446
▁saving	-10.5448
pon	-10.5449
▁divide	-10.545
▁busy	-10.5452
stand	-10.5458
▁bio	-10.546
▁bizarre	-10.5463
ica	-10.5472
▁resident	-10.5474
▁finished	-10.5484
▁easily	-10.5484
▁amazing	-10.5484
▁suspects	-10.5484
▁learning	-10.5485
got	-10.5489
▁weren	-10.5489
▁xi	-10.5495
▁announcing	-10.5505
▁appointment	-10.5507
▁sentences	-10.5508
▁effectively	-10.551
▁aliens	-10.5521
▁attempting	-10.5522
▁otherwise	-10.5526
▁slightly	-10.5526
▁absolutely	-10.5527
▁hire	-10.553
▁factory	-10.5534
▁dogs	-10.5543
▁curb	-10.5547
▁spotlight	-10.5548
bel	-10.555
▁stem	-10.5551
▁kong	-10.5553
▁institution	-10.5563
▁refuge	-10.5564
▁celebrities	-10.5568
▁earthquake	-10.5568
dom	-10.558
▁queen	-10.5585
▁branch	-10.5589
▁wealthy	-10.559
free	-10.559
▁user	-10.5607
▁accepted	-10.5608
▁witnesses	-10.5627
▁ross	-10.5629
▁lab	-10.5629
▁partisan	-10.5631
▁slammed	-10.5632
rep	-10.5635
▁tries	-10.5638
▁neck	-10.5642
▁porn	-10.5643
▁hint	-10.5645
▁trillion	-10.5652
▁unclear	-10.5652
▁undocumented	-10.5652
▁acquire	-10.5652
▁funeral	-10.5652
sec	-10.5652
▁smoke	-10.5653
▁landed	-10.5666
▁brothers	-10.5666
▁magic	-10.5671
▁berkeley	-10.5674
▁fierce	-10.5674
▁resources	-10.5674
▁max	-10.5676
▁extended	-10.569
▁currency	-10.5695
▁opioid	-10.5695
▁artists	-10.57
▁grown	-10.5701
front	-10.5702
▁extreme	-10.5706
▁musician	-10.5706
bin	-10.5708
▁jane	-10.571
▁sir	-10.5711
▁chose	-10.5711
▁hispanic	-10.5716
▁warner	-10.5729
▁percentage	-10.5734
▁traveling	-10.5734
▁jews	-10.5738
▁gained	-10.5741
▁finger	-10.5744
▁spur	-10.5755
▁fundamental	-10.5759
▁scream	-10.5759
▁warriors	-10.5759
▁threw	-10.576
15	-10.5765
▁rip	-10.5775
▁scores	-10.5775
▁meat	-10.5777
▁younger	-10.5777
▁rouge	-10.5781
▁beyonc	-10.5781
▁boast	-10.5781
▁editorial	-10.5785
body	-10.5788
▁warming	-10.5789
▁backing	-10.5795
▁corporation	-10.5802
▁eli	-10.5804
▁landmark	-10.5804
▁grab	-10.5817
▁strategic	-10.5824
▁injury	-10.5824
▁resistance	-10.5825
mann	-10.5828
▁oval	-10.5829
▁latin	-10.583
ifying	-10.5832
▁41	-10.5834
▁streaming	-10.5836
▁drawing	-10.5837
▁asian	-10.584
▁lind	-10.5846
▁drinking	-10.5847
▁39	-10.5852
▁hitting	-10.5853
▁sued	-10.5857
▁trigger	-10.5858
▁dressed	-10.586
bro	-10.5862
▁accomplish	-10.5867
▁yourself	-10.5867
storm	-10.5869
▁registered	-10.5871
▁sharing	-10.5873
▁stuck	-10.5873
▁noticed	-10.5874
nan	-10.5879
▁slip	-10.588
▁quietly	-10.5895
stop	-10.5899
liberate	-10.5903
▁directed	-10.5907
▁hostage	-10.5907
▁species	-10.5911
box	-10.5912
▁nancy	-10.5913
▁entry	-10.5913
▁gross	-10.5913
▁mouth	-10.5916
▁handful	-10.5922
▁baton	-10.5925
▁dating	-10.5926
?","	-10.5929
▁unknown	-10.5932
▁fought	-10.5932
▁collins	-10.5933
▁aaron	-10.5936
uk	-10.5941
▁fran	-10.5941
▁approve	-10.5942
▁panic	-10.5943
▁minute	-10.5944
fire	-10.5954
▁bipartisan	-10.5954
▁arrival	-10.5954
▁jerry	-10.5954
▁commentator	-10.5957
▁kicked	-10.5959
▁shell	-10.5961
▁notes	-10.5962
utter	-10.5964
▁restore	-10.5965
▁mateen	-10.5966
▁developer	-10.5974
▁scheme	-10.5977
▁kiss	-10.5979
▁export	-10.5981
▁harder	-10.5985
▁insisted	-10.5989
▁import	-10.5996
▁followers	-10.5998
▁knife	-10.5998
▁tournament	-10.5998
▁nigeria	-10.5998
▁tribe	-10.6004
wear	-10.6005
▁audio	-10.6006
mr	-10.6017
▁monument	-10.602
▁participate	-10.602
▁creator	-10.6021
▁basis	-10.6021
▁exec	-10.6026
▁fled	-10.6028
▁tie	-10.6028
▁appoint	-10.6031
▁visiting	-10.6033
▁unlike	-10.6035
▁janeiro	-10.6042
▁overseas	-10.6042
▁mitch	-10.6043
▁egg	-10.6045
gie	-10.6052
▁portray	-10.6065
▁detailed	-10.6065
did	-10.6071
▁motion	-10.6075
▁brad	-10.6075
▁bitter	-10.608
▁rating	-10.6082
▁addressed	-10.6085
▁connecticut	-10.6087
▁bottle	-10.6087
▁megyn	-10.6087
▁inquiry	-10.6087
▁declare	-10.6097
▁rico	-10.6102
▁socialist	-10.6102
▁gear	-10.6104
▁concluded	-10.6104
▁acknowledged	-10.6105
▁soldier	-10.6105
▁arch	-10.6107
▁promising	-10.6109
▁accuse	-10.6109
▁aftermath	-10.6109
▁edward	-10.6111
▁everywhere	-10.6111
▁illness	-10.6112
trust	-10.6113
love	-10.6114
▁millennials	-10.6131
▁universe	-10.6131
▁abroad	-10.6131
▁hiring	-10.6135
▁remarkable	-10.6135
▁exception	-10.6141
▁desert	-10.6155
▁merger	-10.6157
▁upper	-10.6164
▁mattis	-10.6166
▁referred	-10.6177
▁formal	-10.6183
▁arkansas	-10.6198
▁equity	-10.6198
▁element	-10.6199
▁standoff	-10.6202
ura	-10.6205
▁unable	-10.6205
▁joining	-10.6209
vol	-10.6212
▁gut	-10.6216
▁bow	-10.6217
▁militant	-10.6219
▁taxpayer	-10.6221
▁reputation	-10.6221
▁nunes	-10.6221
▁fidel	-10.6222
▁parking	-10.623
▁canceled	-10.6235
▁hundred	-10.6242
▁prohibit	-10.6243
▁restrictions	-10.6244
▁archive	-10.6246
▁rapper	-10.6246
▁peak	-10.6249
▁yu	-10.6259
▁broker	-10.6266
▁privilege	-10.6266
▁folks	-10.6266
▁shirt	-10.6266
▁spanish	-10.6268
▁jimmy	-10.6268
▁reader	-10.627
▁slash	-10.6282
▁chancellor	-10.6288
▁sixth	-10.6292
▁arrive	-10.63
▁mol	-10.6305
▁jong	-10.6306
▁dow	-10.6307
▁achieve	-10.6308
▁activities	-10.6311
▁explanation	-10.6311
▁craft	-10.6311
▁exposed	-10.6312
▁visitors	-10.6312
▁ballistic	-10.6313
▁patient	-10.6314
▁marlow	-10.6316
▁chip	-10.6317
london	-10.6318
▁undermine	-10.6323
▁remark	-10.6325
▁jam	-10.6327
▁experienced	-10.6328
▁apply	-10.6328
▁remote	-10.6334
▁extremely	-10.6335
anne	-10.6344
found	-10.6351
▁exhibit	-10.6357
▁constant	-10.6357
▁easier	-10.6357
▁speculation	-10.6359
▁resist	-10.636
▁taste	-10.636
▁wheel	-10.6363
bol	-10.6388
gger	-10.639
inter	-10.6399
▁tribute	-10.6402
▁meanwhile	-10.6404
▁colon	-10.6405
▁developing	-10.6406
▁accord	-10.6415
▁murdered	-10.6418
▁careful	-10.642
ob	-10.6421
▁woods	-10.6424
▁anonymous	-10.6425
▁austin	-10.6425
▁regulators	-10.6426
▁evan	-10.6434
▁contribute	-10.6448
▁2001	-10.6454
▁2000	-10.6455
try	-10.6461
▁suspend	-10.6465
▁tele	-10.6466
▁chosen	-10.6467
▁terry	-10.6472
▁oversight	-10.6472
give	-10.6477
▁assume	-10.6478
▁totally	-10.6485
▁quote	-10.6486
▁handling	-10.6487
▁recover	-10.6495
▁chicken	-10.6518
▁glenn	-10.6518
▁desire	-10.6519
▁questioning	-10.6523
▁continuing	-10.6524
▁pok	-10.6526
▁recovery	-10.6536
▁rage	-10.6539
▁generally	-10.6542
woman	-10.6554
▁inmates	-10.6561
chu	-10.6561
▁architect	-10.6564
greg	-10.6571
▁vietnam	-10.6587
▁retirement	-10.6589
ridge	-10.6589
▁bun	-10.659
▁46	-10.6591
▁knee	-10.6594
▁veto	-10.6595
▁carl	-10.6597
▁$20	-10.6597
▁discovery	-10.6603
▁typically	-10.6605
▁responding	-10.6607
▁premium	-10.6611
▁malaysia	-10.6611
▁shelter	-10.6611
▁elevat	-10.6611
▁involvement	-10.6614
▁delegate	-10.6625
▁advocate	-10.6625
▁consult	-10.6632
▁extraordinary	-10.6634
▁offense	-10.6634
▁virtual	-10.6636
▁impeachment	-10.6636
▁weird	-10.6636
▁advisor	-10.6639
▁crown	-10.6642
▁overturn	-10.6646
▁myth	-10.6651
▁links	-10.6658
▁47	-10.6662
▁pride	-10.6663
▁simon	-10.6675
▁chart	-10.6678
▁devastating	-10.6681
▁bud	-10.6696
▁mont	-10.6702
▁dust	-10.6703
▁belt	-10.6703
▁depict	-10.6705
▁plunge	-10.6705
▁organized	-10.6708
▁playoff	-10.6711
police	-10.6718
▁calm	-10.6719
▁presented	-10.6722
have	-10.673
▁anymore	-10.674
▁refusing	-10.6752
plan	-10.6752
▁pleaded	-10.6752
▁barrel	-10.6753
▁arena	-10.6753
▁float	-10.6754
step	-10.6757
first	-10.6763
▁tar	-10.677
▁ruin	-10.6771
▁epidemic	-10.6776
▁kurdish	-10.6776
▁taylor	-10.6776
▁celebrating	-10.6776
10	-10.6789
▁adopt	-10.6796
▁notorious	-10.68
▁beloved	-10.68
▁insurer	-10.6801
▁involve	-10.681
▁searching	-10.6815
▁driven	-10.6816
▁mandate	-10.6833
▁dur	-10.6835
watch	-10.6839
▁span	-10.6847
▁auction	-10.6847
▁perry	-10.6848
▁dam	-10.6866
▁triumph	-10.6871
▁venture	-10.6871
▁bankruptcy	-10.6872
fake	-10.6879
▁register	-10.6891
▁angela	-10.6892
▁bernardino	-10.6895
▁patrick	-10.6896
▁zero	-10.69
▁allen	-10.6901
▁procedure	-10.6919
▁yellow	-10.6919
▁hidden	-10.6919
today	-10.6941
▁concept	-10.6944
▁pundit	-10.6944
▁replied	-10.6944
▁manage	-10.6945
▁dun	-10.6945
▁repeated	-10.6948
▁origin	-10.6955
▁donations	-10.6959
▁established	-10.696
▁testify	-10.6963
avi	-10.6963
▁legislature	-10.6968
▁clark	-10.697
bill	-10.6977
▁cab	-10.6977
▁tourists	-10.6978
▁interact	-10.699
▁guarantee	-10.6992
▁payments	-10.6997
▁tighten	-10.7
▁omar	-10.7008
▁fighter	-10.7008
▁indicted	-10.7016
▁migration	-10.7016
▁smile	-10.702
▁ignore	-10.7031
ison	-10.7036
met	-10.7038
▁65	-10.7039
▁enemy	-10.7041
▁violated	-10.7046
▁hoped	-10.7052
▁52	-10.7058
▁smaller	-10.7061
▁challenging	-10.7065
▁segment	-10.7065
▁epic	-10.7069
▁solve	-10.707
wall	-10.7071
▁angel	-10.7078
▁essentially	-10.7079
▁generate	-10.7081
ius	-10.7084
▁refer	-10.7087
ique	-10.7089
▁gingrich	-10.709
▁ease	-10.7093
vision	-10.7094
ola	-10.7096
▁hitler	-10.7098
▁bold	-10.71
▁heroin	-10.7103
dia	-10.7105
▁ron	-10.7106
fight	-10.7114
▁kremlin	-10.7114
▁observer	-10.7114
▁universities	-10.7114
▁infection	-10.7114
these	-10.7118
▁understanding	-10.7122
▁grim	-10.7126
▁benjamin	-10.7139
▁unemployment	-10.7139
▁coulter	-10.7139
▁boyfriend	-10.714
▁funny	-10.7143
gree	-10.7144
▁statue	-10.7146
▁saved	-10.7149
▁combined	-10.7154
live	-10.7157
▁academic	-10.7164
▁inaugural	-10.7164
▁pelosi	-10.7164
▁infant	-10.7165
▁buzz	-10.7165
▁lane	-10.7167
▁dying	-10.7169
▁maine	-10.7174
▁pulling	-10.7175
mag	-10.7177
▁stranger	-10.7179
“	-10.7181
▁illustrat	-10.7188
▁thanksgiving	-10.7188
▁quality	-10.7188
▁tennis	-10.7189
▁garland	-10.7192
▁pink	-10.7195
▁dirt	-10.7196
▁lone	-10.7199
▁quo	-10.721
▁stanford	-10.7213
▁nightmare	-10.7213
▁hawk	-10.7214
▁51	-10.7215
▁premier	-10.7216
face	-10.7219
▁mysterious	-10.7238
▁taliban	-10.7238
▁antonio	-10.7238
▁guess	-10.7241
▁dash	-10.7242
▁haley	-10.7245
▁anderson	-10.7245
▁harsh	-10.7252
▁household	-10.7257
▁benghazi	-10.7263
▁swedish	-10.7263
▁fiscal	-10.7263
▁2004	-10.7268
▁cruise	-10.7276
world	-10.7281
▁complain	-10.7286
▁struggled	-10.7289
▁frame	-10.7292
▁val	-10.7294
brook	-10.7305
▁intention	-10.7308
▁shocked	-10.7309
▁150	-10.7311
▁handed	-10.7312
▁performed	-10.7313
▁evangelical	-10.7313
▁bronx	-10.7313
dding	-10.7315
▁surrounded	-10.7326
▁detect	-10.7335
post	-10.7336
▁spokesperson	-10.7338
▁intel	-10.7341
▁greet	-10.7343
▁curt	-10.7348
sign	-10.7359
▁interrupt	-10.7363
▁childhood	-10.7366
▁reid	-10.7368
▁contender	-10.7382
▁53	-10.7385
▁sanctuary	-10.7385
▁predecessor	-10.7389
▁cher	-10.739
▁wolf	-10.7392
▁teenage	-10.7393
70	-10.7399
▁copy	-10.7402
arm	-10.7403
shot	-10.7407
▁transport	-10.7411
▁slave	-10.7412
▁traveled	-10.7413
▁jose	-10.7414
▁emissions	-10.7414
▁technical	-10.7414
▁locked	-10.7416
▁provision	-10.7416
▁rnc	-10.7419
▁revive	-10.7423
▁cameron	-10.7425
""	-10.7426
▁selection	-10.7426
reuters	-10.7434
▁trailer	-10.7435
▁peaceful	-10.7435
▁kitchen	-10.7439
▁torture	-10.7439
▁innocent	-10.744
▁advanced	-10.7443
▁assembly	-10.7454
▁walker	-10.746
▁repeat	-10.7463
▁ailes	-10.7465
▁clue	-10.7469
lon	-10.7479
▁frequently	-10.748
▁oct	-10.7485
▁application	-10.749
▁operative	-10.749
▁1970	-10.7493
▁unfair	-10.7494
▁tiger	-10.7495
▁lawmaker	-10.7497
▁metal	-10.7501
▁jean	-10.7513
▁demonstrate	-10.7516
▁dubbed	-10.7516
▁aired	-10.7517
▁ray	-10.7522
80	-10.7527
▁confident	-10.7541
▁hide	-10.7541
▁describing	-10.7542
▁blind	-10.7542
ancy	-10.7542
▁uncertainty	-10.7543
▁loose	-10.7544
▁demanded	-10.7554
▁travelers	-10.756
▁clothes	-10.7567
▁midnight	-10.7568
▁cheat	-10.7568
dem	-10.7569
▁maria	-10.7569
▁hook	-10.7572
▁howard	-10.7577
▁settled	-10.7592
elli	-10.7593
▁gru	-10.7593
▁regulation	-10.7596
dale	-10.7597
▁drawn	-10.7598
▁collective	-10.7601
19	-10.7609
▁pad	-10.7614
▁libertarian	-10.7619
▁lincoln	-10.7619
▁tackle	-10.7619
▁portion	-10.7621
▁requirement	-10.7626
▁regulatory	-10.7628
▁eliminate	-10.763
▁approached	-10.7636
▁appropriate	-10.7637
▁graphic	-10.7646
erie	-10.7646
▁elon	-10.7647
▁maher	-10.7653
▁improv	-10.7659
▁wine	-10.766
▁develop	-10.7665
▁strongly	-10.767
▁acquisition	-10.7671
ennial	-10.7671
▁55	-10.7673
▁rarely	-10.7677
▁rot	-10.7683
▁troll	-10.7685
gress	-10.7686
▁stall	-10.7692
▁plain	-10.7692
▁completed	-10.7693
▁contrast	-10.7697
▁influential	-10.7697
▁propaganda	-10.7697
▁tragedy	-10.7697
▁unfold	-10.7697
▁empty	-10.7697
▁commute	-10.7697
▁dutch	-10.77
bla	-10.7704
▁spoken	-10.7706
▁unity	-10.7723
▁commerce	-10.7723
▁stabbed	-10.7723
▁pattern	-10.7723
▁disturbing	-10.7723
▁furious	-10.7724
▁spike	-10.7725
▁connect	-10.7729
▁opt	-10.7749
▁admission	-10.7749
▁clothing	-10.7749
bat	-10.7769
rou	-10.7769
game	-10.7772
▁prisoners	-10.7775
▁emerging	-10.7775
▁silent	-10.7775
▁somebody	-10.7786
▁listed	-10.7786
▁personally	-10.7788
▁suffer	-10.7798
▁gawker	-10.7802
▁holocaust	-10.7802
▁conceal	-10.7802
▁detain	-10.7803
▁feud	-10.7807
▁evil	-10.781
▁react	-10.7811
▁boot	-10.7816
▁breakfast	-10.7828
▁charlie	-10.7828
national	-10.783
iness	-10.7831
▁haiti	-10.7832
mitt	-10.7833
election	-10.7835
def	-10.7835
hate	-10.7849
video	-10.7853
▁equipment	-10.7854
▁uniform	-10.7855
▁keith	-10.7855
▁charleston	-10.786
breaking	-10.7865
▁leftist	-10.7874
▁loyal	-10.7879
▁disclosure	-10.7881
▁helicopter	-10.7881
▁judicial	-10.7881
▁scholar	-10.7881
▁instance	-10.7881
▁poison	-10.7883
▁communist	-10.7885
▁appointed	-10.7891
▁hamilton	-10.7892
▁representing	-10.7892
▁gig	-10.7896
▁advise	-10.79
▁mixed	-10.7907
▁petition	-10.7908
▁weiner	-10.7909
▁renew	-10.7916
meet	-10.7919
▁kar	-10.7922
▁affair	-10.7924
▁brit	-10.794
▁kris	-10.7942
▁jill	-10.7948
▁banning	-10.7949
gene	-10.7954
▁lion	-10.7957
▁thrown	-10.7959
▁suspension	-10.7961
western	-10.7964
weight	-10.7969
▁encourage	-10.7981
▁premiere	-10.7985
▁metro	-10.7986
▁fundraising	-10.7988
bur	-10.7995
▁dean	-10.7999
ault	-10.8
90	-10.8003
▁replaced	-10.8011
▁detention	-10.8015
▁opposite	-10.8015
▁micro	-10.8016
▁jen	-10.8016
[	-10.8017
▁fence	-10.8018
▁jake	-10.8021
▁signing	-10.8026
▁disorder	-10.8042
▁tehran	-10.8042
▁operator	-10.8042
▁captain	-10.8042
▁pulse	-10.8042
▁boeing	-10.8042
▁blasted	-10.8043
▁hardly	-10.8048
▁hong	-10.8049
hop	-10.8057
▁clock	-10.806
▁troubled	-10.8068
▁expanding	-10.8069
▁nixon	-10.8069
▁barrier	-10.8069
▁drunk	-10.8069
▁betsy	-10.8069
▁legendary	-10.8071
rock	-10.8073
▁customer	-10.8074
▁flooding	-10.8075
▁ignored	-10.8079
leg	-10.8085
▁takeover	-10.8089
▁indicate	-10.8089
▁fleeing	-10.8095
▁administrator	-10.8096
▁facilities	-10.8096
▁function	-10.8096
▁lewandowski	-10.8096
▁manafort	-10.8096
▁abedin	-10.8096
▁battleground	-10.8097
▁recession	-10.8098
ride	-10.8098
▁meddling	-10.8099
▁fault	-10.81
▁launching	-10.8121
▁contradict	-10.8123
▁unleash	-10.8123
▁breast	-10.8123
▁apology	-10.8123
▁sorry	-10.8123
▁forever	-10.8124
▁assessment	-10.8125
▁detective	-10.8127
▁eager	-10.815
▁audit	-10.8151
forcing	-10.8158
▁historical	-10.8162
▁sponsor	-10.8163
▁attending	-10.8168
▁vet	-10.8171
▁personality	-10.8171
60	-10.8174
▁deported	-10.8174
▁crossing	-10.8176
▁artificial	-10.8178
▁jacob	-10.8178
▁reacted	-10.8178
▁reince	-10.8183
▁closest	-10.8196
▁douglas	-10.8205
▁principal	-10.8205
▁endanger	-10.8205
▁adapt	-10.8205
▁coat	-10.8209
▁landing	-10.8215
▁99	-10.8218
gun	-10.8219
▁banner	-10.8219
▁sharply	-10.8225
▁muhammad	-10.8232
▁organizers	-10.8232
▁chapter	-10.8232
▁thrones	-10.8233
promoting	-10.8233
▁tenure	-10.8239
▁realize	-10.824
card	-10.8249
▁badly	-10.8249
▁orleans	-10.826
▁qatar	-10.826
▁inflation	-10.826
▁fruit	-10.826
▁harbor	-10.8262
▁milk	-10.8262
▁orbit	-10.8282
▁chef	-10.8282
▁renewed	-10.8287
▁burning	-10.829
▁contentious	-10.829
▁morgan	-10.829
▁discover	-10.8299
▁tha	-10.8302
▁bru	-10.8302
politic	-10.8302
▁rapidly	-10.8307
▁anyway	-10.8312
▁entrepreneur	-10.8315
▁heritage	-10.8315
▁math	-10.8318
▁oldest	-10.8318
▁strengthen	-10.8324
▁lord	-10.8325
▁contractor	-10.8336
▁awkward	-10.8343
▁sworn	-10.8343
▁declaring	-10.8343
▁larry	-10.8343
▁fortune	-10.8343
▁abandon	-10.8346
▁grace	-10.8365
▁perspective	-10.8371
▁plastic	-10.8371
▁importance	-10.8373
▁dropping	-10.8376
▁requested	-10.8376
▁2020	-10.8377
▁condemned	-10.838
▁banker	-10.8381
▁hay	-10.8395
▁murray	-10.8399
▁personnel	-10.8399
▁basically	-10.8401
▁script	-10.8408
▁felony	-10.8411
▁ramp	-10.8411
▁sink	-10.8412
▁launches	-10.8414
▁apologized	-10.8421
▁condo	-10.8422
▁unanimous	-10.8427
▁wreck	-10.8427
▁stump	-10.8427
▁connected	-10.8428
▁tapper	-10.8429
▁revolutionary	-10.843
▁outlet	-10.8438
▁painting	-10.844
▁rushed	-10.844
▁manufacturer	-10.8442
▁lowest	-10.8445
bn	-10.8446
zar	-10.845
mass	-10.8452
mail	-10.8453
▁ugly	-10.8457
▁hum	-10.8457
▁rum	-10.8458
poised	-10.8459
▁spill	-10.846
▁2006	-10.846
▁typical	-10.8461
▁posed	-10.8462
▁deport	-10.8465
▁duty	-10.8467
▁dominated	-10.848
▁ambitious	-10.8483
▁exploit	-10.8483
▁deficit	-10.8483
▁tomorrow	-10.8483
▁afraid	-10.8483
▁essay	-10.8483
▁distinct	-10.8483
▁madison	-10.8484
▁strict	-10.8484
▁shore	-10.8486
▁unveil	-10.8487
▁shark	-10.8488
▁sudden	-10.8489
▁momentum	-10.8493
mili	-10.8507
▁realized	-10.8507
▁smash	-10.8512
▁chill	-10.8519
▁pile	-10.852
▁recommendation	-10.853
▁violate	-10.8534
▁slogan	-10.854
▁distance	-10.854
▁steady	-10.854
▁colbert	-10.8541
▁pier	-10.8547
▁flee	-10.8549
position	-10.8562
▁successfully	-10.8564
▁afford	-10.8565
▁diagnosed	-10.8568
▁enormous	-10.8568
▁homicide	-10.8568
▁satellite	-10.8568
▁squad	-10.8568
▁bump	-10.8573
▁egyptian	-10.8573
▁contained	-10.8574
▁57	-10.8578
▁proved	-10.8581
▁moderator	-10.8597
▁battery	-10.8597
▁flaw	-10.8599
▁hub	-10.8613
▁listening	-10.8618
▁occur	-10.8624
▁sentiment	-10.8625
▁tune	-10.8626
bury	-10.8628
▁bunch	-10.8637
▁protecting	-10.8642
▁prevention	-10.8643
▁centre	-10.8643
▁engine	-10.865
legitimate	-10.8654
▁extensive	-10.8654
▁shield	-10.8654
▁cohen	-10.8654
▁southwest	-10.8656
john	-10.8661
▁passage	-10.8663
▁throwing	-10.8668
▁recalled	-10.8672
▁lifetime	-10.8674
▁assert	-10.8678
▁fundraiser	-10.8683
▁galaxy	-10.8683
▁confess	-10.8683
▁blank	-10.8683
▁briefly	-10.8688
▁civilian	-10.8688
▁creation	-10.8691
▁nobel	-10.8697
▁expanded	-10.8704
▁criticiz	-10.8709
▁sensitive	-10.8711
ridiculous	-10.8711
▁evacuate	-10.8711
▁infamous	-10.8711
▁warn	-10.8712
▁sweat	-10.8712
▁sterling	-10.8712
▁flew	-10.8712
writer	-10.8719
▁lean	-10.8724
▁overnight	-10.8725
▁bike	-10.8726
ku	-10.873
▁abandoned	-10.8737
▁landscape	-10.874
bad	-10.8742
▁1960	-10.8743
▁compar	-10.8744
▁mood	-10.8746
▁mob	-10.8752
▁grill	-10.8756
▁significantly	-10.8759
turn	-10.8759
▁rome	-10.8764
▁library	-10.8769
▁trauma	-10.877
▁portland	-10.8773
▁punishment	-10.8774
▁denver	-10.8775
▁performing	-10.8776
guard	-10.8778
▁prompting	-10.8787
▁lap	-10.8795
▁mask	-10.8797
▁indictment	-10.8798
▁sudan	-10.8798
▁managing	-10.8799
▁resume	-10.8799
▁creative	-10.8799
▁drill	-10.8804
appropriate	-10.8807
▁obviously	-10.8823
▁interpret	-10.8828
▁shame	-10.8829
▁labour	-10.883
▁beast	-10.8832
▁$50	-10.8833
▁delivery	-10.8838
jan	-10.8841
▁examine	-10.8846
▁semi	-10.885
▁nominate	-10.8852
▁jonathan	-10.8857
▁marathon	-10.8857
▁publishing	-10.8857
▁statistics	-10.8857
▁spell	-10.8865
▁diver	-10.887
▁raped	-10.8872
▁scientist	-10.8883
▁proceed	-10.8884
▁venue	-10.8886
feld	-10.8886
▁diverse	-10.8891
▁persist	-10.8918
▁proof	-10.8923
▁existing	-10.8934
▁pig	-10.8934
▁intend	-10.8945
▁luck	-10.8948
▁grade	-10.895
▁juan	-10.8965
▁“[	-10.8968
mine	-10.8974
▁abrupt	-10.8975
▁anxiety	-10.8975
▁residence	-10.8975
▁universal	-10.8975
▁cartoon	-10.8975
▁comparison	-10.8975
▁mentioned	-10.8982
25	-10.8985
▁stronger	-10.8987
▁pastor	-10.8988
▁stark	-10.899
ncies	-10.8993
▁resolve	-10.8997
▁suggestion	-10.9
▁hannity	-10.9004
▁austria	-10.9004
▁automaker	-10.9005
▁colleague	-10.9006
▁trash	-10.902
▁bone	-10.9026
▁broader	-10.9029
▁incredible	-10.9034
▁anybody	-10.904
range	-10.9043
▁comeback	-10.9046
▁barb	-10.9048
▁hip	-10.905
▁dept	-10.9055
where	-10.9058
▁duke	-10.9059
▁scrap	-10.9062
▁context	-10.9064
▁jennifer	-10.9064
▁nonprofit	-10.9064
▁censor	-10.9064
▁excited	-10.9064
▁assange	-10.9064
▁eagle	-10.9064
▁pivot	-10.9064
▁southeast	-10.9066
▁denies	-10.9072
▁suing	-10.9079
▁jar	-10.908
▁demonstrators	-10.9094
▁hernandez	-10.9094
▁dear	-10.9094
▁alleging	-10.9094
making	-10.9095
▁elementary	-10.9096
▁polar	-10.9099
power	-10.9106
▁explaining	-10.9117
▁compromise	-10.9124
▁verdict	-10.9124
▁vulnerable	-10.9124
▁descend	-10.9124
▁firefighter	-10.9124
▁rough	-10.9138
beat	-10.9145
▁entertain	-10.9151
▁hanging	-10.9153
▁christopher	-10.9154
▁protester	-10.9166
▁definitely	-10.917
▁somehow	-10.9184
▁indonesia	-10.9184
▁terminal	-10.9185
▁""	-10.9185
▁informed	-10.9186
▁modest	-10.9191
▁employment	-10.9192
great	-10.9198
flo	-10.9199
too	-10.9201
space	-10.9207
▁mile	-10.9208
▁permission	-10.9214
▁jesus	-10.9215
▁poet	-10.9216
▁challenged	-10.9224
▁burst	-10.9231
▁faster	-10.9243
▁counterpart	-10.9246
▁achievement	-10.9249
▁adopted	-10.9251
▁bash	-10.9253
▁bloody	-10.9261
spiring	-10.9264
berry	-10.9266
taking	-10.9267
▁ethnic	-10.9275
▁preliminary	-10.9275
▁tunnel	-10.9275
▁reduced	-10.9284
▁somewhat	-10.9288
source	-10.9291
▁openly	-10.9292
▁ranch	-10.9295
▁introduc	-10.9304
▁giuliani	-10.9306
▁opportunities	-10.9306
▁phoenix	-10.9306
▁stabbing	-10.9306
▁indication	-10.9306
▁elsewhere	-10.9307
▁addiction	-10.931
▁helm	-10.9322
think	-10.9323
▁marshall	-10.9337
▁ordinary	-10.9337
▁toxic	-10.9339
▁shutdown	-10.9339
▁spreading	-10.9342
▁prediction	-10.9345
tech	-10.9348
▁rapid	-10.9352
▁filibuster	-10.9367
▁judgment	-10.9367
▁mccarthy	-10.9367
▁ruth	-10.9368
▁alexander	-10.9368
▁redstone	-10.937
▁priority	-10.9374
bank	-10.9385
▁genetic	-10.9386
▁accurate	-10.9398
▁worries	-10.9398
▁phase	-10.9399
▁ranks	-10.94
▁bruce	-10.9402
▁59	-10.9403
▁stamp	-10.9407
uous	-10.9411
▁regularly	-10.9411
each	-10.9426
report	-10.9428
▁cult	-10.9428
▁destruction	-10.9429
▁fantasy	-10.9429
▁marvel	-10.9429
▁reg	-10.9429
▁flor	-10.9437
▁indicated	-10.9437
▁wire	-10.9441
night	-10.9444
tivity	-10.945
▁successor	-10.9456
▁explicit	-10.946
▁bangladesh	-10.946
▁stronghold	-10.9463
▁northeast	-10.9464
▁911	-10.9464
▁membership	-10.9466
▁tired	-10.9468
▁whit	-10.9489
▁cellphone	-10.9491
▁pittsburgh	-10.9491
▁restrain	-10.9491
▁philip	-10.9493
▁awarded	-10.9495
say	-10.9495
▁roundup	-10.9502
▁investigated	-10.9502
▁gunmen	-10.9505
▁tourist	-10.9509
child	-10.9509
▁thin	-10.9514
▁comfort	-10.9519
aya	-10.9521
▁retreat	-10.9523
▁mueller	-10.9523
▁henry	-10.9523
▁thompson	-10.9554
▁dispatch	-10.9554
▁excuse	-10.9554
▁wallace	-10.9554
▁thousand	-10.9579
▁$25	-10.9582
▁output	-10.9584
▁disclose	-10.9584
▁nervous	-10.9585
▁harvey	-10.9585
▁instant	-10.9586
▁minorities	-10.9587
▁establish	-10.9593
▁revealing	-10.9595
▁confrontation	-10.9598
▁slowly	-10.9606
▁selfie	-10.9606
▁dave	-10.9608
▁mobil	-10.961
▁holder	-10.9612
▁payment	-10.9616
▁yield	-10.9617
▁watchdog	-10.9617
▁inject	-10.9617
▁humanity	-10.9622
▁hunting	-10.963
suit	-10.9633
▁gather	-10.9635
▁solo	-10.9636
democratic	-10.9636
▁$12	-10.964
▁ranking	-10.9655
high	-10.9662
▁survived	-10.9671
▁correction	-10.9674
▁brilliant	-10.968
▁lecture	-10.968
▁portrait	-10.968
▁teammate	-10.9681
▁intent	-10.9686
▁recovered	-10.9689
▁bible	-10.9693
lash	-10.9699
strong	-10.9702
▁virtually	-10.971
▁contribution	-10.9712
▁unarmed	-10.9712
▁laptop	-10.9713
▁chronicle	-10.9715
▁2003	-10.9719
▁naked	-10.9719
▁huma	-10.9724
▁farmers	-10.9731
▁govern	-10.9743
▁humanitarian	-10.9744
▁priest	-10.9746
▁blaze	-10.9746
▁cream	-10.9749
▁lifted	-10.975
▁mansion	-10.9754
cott	-10.9757
▁54	-10.9757
▁wrap	-10.9761
▁salt	-10.9769
owitz	-10.9771
since	-10.9776
▁depression	-10.9776
▁tayyi	-10.9776
▁hashtag	-10.9776
▁adjust	-10.9781
▁foster	-10.9785
flat	-10.9787
▁fool	-10.9787
▁enact	-10.9789
▁campuses	-10.9791
▁bench	-10.9792
▁66	-10.9799
▁burned	-10.9801
▁competitor	-10.9808
realdonaldtrump	-10.9808
▁substance	-10.9808
▁caution	-10.9808
▁rachel	-10.9808
▁charter	-10.9817
▁insight	-10.9819
▁mcg	-10.982
▁intellectual	-10.9841
▁verizon	-10.9841
▁executed	-10.9841
▁”[“	-10.9841
▁recep	-10.9842
chris	-10.9849
▁haram	-10.9856
▁controlled	-10.9866
▁enemies	-10.9873
▁intervention	-10.9873
▁pyongyang	-10.9873
▁robbery	-10.9873
▁citizenship	-10.9875
▁priorities	-10.9875
▁underway	-10.9875
▁manner	-10.9894
▁prosecution	-10.9905
▁superhero	-10.9905
▁reign	-10.9906
▁vp	-10.9908
▁vital	-10.9909
▁repair	-10.9912
▁workplace	-10.9912
▁weaken	-10.9917
despite	-10.9928
▁historically	-10.9936
▁vaccine	-10.9938
▁suspicion	-10.9938
▁easter	-10.9938
▁assistance	-10.994
▁complained	-10.9942
▁represented	-10.9945
▁suburban	-10.9947
▁scan	-10.9949
▁assembl	-10.9952
kov	-10.9966
▁erupted	-10.9967
kel	-10.9968
▁mirror	-10.9971
▁vessel	-10.9971
▁crackdown	-10.9972
▁ripped	-10.9976
burn	-10.998
▁ideal	-10.9991
▁corrupt	-10.9999
▁category	-11.0003
▁stewart	-11.0003
▁dish	-11.0005
▁dramatically	-11.0006
▁monster	-11.001
paul	-11.0014
saturday	-11.0028
▁spain	-11.0032
▁expose	-11.0035
▁baghdad	-11.0036
▁pizza	-11.0036
▁conventional	-11.004
▁wilson	-11.0042
▁heels	-11.0046
▁chapo	-11.0049
▁assist	-11.0062
▁greece	-11.0069
▁journalism	-11.0079
▁peer	-11.0083
girl	-11.0095
▁skip	-11.0095
safe	-11.0095
fec	-11.01
▁impose	-11.0102
▁misconduct	-11.0102
▁pregnancy	-11.0102
▁prescription	-11.0102
▁scenario	-11.0102
▁pocket	-11.0102
▁125	-11.0103
about	-11.0107
bach	-11.011
▁600	-11.0113
▁kate	-11.013
▁beaten	-11.013
▁jeffrey	-11.0136
▁gym	-11.0136
▁tragic	-11.0138
▁jazz	-11.0138
▁underground	-11.014
▁pump	-11.0145
heart	-11.0146
aunt	-11.0159
▁governing	-11.0161
evolution	-11.0168
▁declaration	-11.0169
▁dedicated	-11.0169
▁soviet	-11.0169
▁greek	-11.0169
▁rig	-11.0169
▁getty	-11.0173
▁plate	-11.0173
▁hammer	-11.0174
riv	-11.0177
▁turnout	-11.0185
▁consideration	-11.02
editor	-11.0202
▁emmanuel	-11.0202
▁huffington	-11.0202
▁expense	-11.0202
▁whip	-11.0203
▁thus	-11.0204
▁random	-11.0206
▁mega	-11.0207
▁cooperation	-11.0214
wind	-11.0214
▁56	-11.0227
▁pray	-11.0233
▁rack	-11.0234
▁belgian	-11.0236
▁trudeau	-11.0236
▁bedroom	-11.0237
▁dawn	-11.0238
▁700	-11.0244
fact	-11.0248
class	-11.0248
▁showdown	-11.0255
▁hype	-11.0259
▁transit	-11.0259
▁surrogate	-11.027
▁pioneer	-11.027
▁collapsed	-11.027
▁saint	-11.027
▁overdose	-11.0271
▁rangers	-11.0278
call	-11.0293
▁enterprise	-11.0303
▁nominating	-11.0303
▁oakland	-11.0303
▁palace	-11.0304
▁swimming	-11.0304
▁pension	-11.0306
▁emotion	-11.0311
▁chest	-11.0322
▁stole	-11.0324
▁"‘	-11.0331
▁confusion	-11.0337
▁phenomenon	-11.0337
▁schultz	-11.0337
▁unnamed	-11.0337
▁michel	-11.0341
▁garner	-11.0342
▁pause	-11.0351
▁seventh	-11.0358
▁expression	-11.0363
▁cave	-11.0366
piece	-11.0366
▁passes	-11.0366
▁competitive	-11.0371
▁applied	-11.0372
▁singing	-11.0381
▁challenger	-11.0384
▁flip	-11.0394
worthy	-11.0404
▁koch	-11.0404
▁ambition	-11.0406
▁consensus	-11.0406
▁substantial	-11.0406
▁turmoil	-11.0406
▁elderly	-11.0406
▁julian	-11.0406
▁rumors	-11.0406
▁swimmer	-11.0406
▁imposed	-11.0406
media	-11.0407
▁escaped	-11.0412
▁strain	-11.0414
▁commentary	-11.0414
▁meme	-11.0418
afp	-11.0428
▁exact	-11.0435
▁reminder	-11.0439
▁fulfill	-11.044
▁baldwin	-11.044
▁divisive	-11.044
▁frustration	-11.044
▁inequality	-11.044
▁tapped	-11.0447
wl	-11.0453
▁temp	-11.0472
morning	-11.0474
▁inspector	-11.0474
▁securities	-11.0474
▁competing	-11.0474
▁victories	-11.0476
▁disclosed	-11.0477
▁deployed	-11.0482
▁dick	-11.0482
▁cafe	-11.0483
thank	-11.0485
▁wade	-11.05
▁bloc	-11.0506
▁approximately	-11.0509
▁hogan	-11.0517
▁enforce	-11.0519
▁triggered	-11.0524
▁dodge	-11.0528
▁relat	-11.0537
deplorable	-11.0543
▁compound	-11.0543
▁creature	-11.0543
▁mnuchin	-11.0543
▁forgotten	-11.0543
▁nurse	-11.0544
▁enroll	-11.0547
▁equality	-11.055
▁hostile	-11.0551
apple	-11.0557
▁milwaukee	-11.056
▁lengthy	-11.0561
▁(“	-11.0572
▁nsa	-11.0576
▁duck	-11.0578
▁supremacist	-11.0578
▁welfare	-11.0578
▁fossil	-11.0578
▁undergo	-11.0579
▁trapped	-11.0581
▁anywhere	-11.0583
▁suv	-11.0587
▁brave	-11.059
▁barred	-11.0596
▁threaten	-11.0611
▁buffett	-11.0613
▁tpm	-11.0613
▁casual	-11.0613
▁carbon	-11.0613
▁hiding	-11.0614
▁merely	-11.0614
▁jenner	-11.0615
▁painful	-11.0616
▁trafficking	-11.0617
▁brooks	-11.0619
▁sexist	-11.0622
▁scored	-11.064
▁impressive	-11.0648
▁visual	-11.0648
▁offender	-11.0648
▁bryan	-11.0649
▁midtown	-11.0649
▁assess	-11.065
▁grip	-11.0651
▁pollster	-11.0656
▁counties	-11.0658
▁sail	-11.0659
▁fairly	-11.0673
▁prompt	-11.068
three	-11.0682
north	-11.0682
▁stanley	-11.0683
▁blunt	-11.0683
▁attendees	-11.0683
▁oath	-11.0683
▁quest	-11.0689
▁stepping	-11.069
▁hometown	-11.0696
▁ultimate	-11.0696
▁anticipated	-11.0718
▁negotiate	-11.0718
▁pruitt	-11.0718
▁swept	-11.0718
▁griffin	-11.0718
▁valuable	-11.0718
▁maduro	-11.0718
▁shrink	-11.0718
▁freak	-11.0718
▁creep	-11.072
▁mick	-11.0748
never	-11.0749
▁zealand	-11.0753
▁montana	-11.0754
▁mitchell	-11.0755
▁consultant	-11.0757
▁barn	-11.0767
▁length	-11.077
▁hello	-11.0779
▁scramble	-11.0789
▁precise	-11.0789
bachelor	-11.0789
▁aspect	-11.079
sexual	-11.0796
▁2002	-11.0797
▁famously	-11.0808
thursday	-11.0824
▁contributor	-11.0824
▁investigative	-11.0824
▁shouted	-11.0825
owski	-11.0828
deadliest	-11.0828
▁comfortable	-11.0829
▁starring	-11.0842
▁amnesty	-11.086
▁concrete	-11.086
▁legislator	-11.086
▁buried	-11.0861
▁filmmaker	-11.0865
human	-11.0877
▁somalia	-11.0878
gop	-11.0884
▁62	-11.0885
▁advocacy	-11.0896
▁belgium	-11.0896
▁cincinnati	-11.0896
▁combination	-11.0896
▁defensive	-11.0896
▁unpopular	-11.0896
▁escalate	-11.0896
▁grammy	-11.0896
▁klein	-11.0896
▁classes	-11.0897
▁bundy	-11.0898
▁possession	-11.0901
▁grocery	-11.0904
▁awful	-11.0911
▁popularity	-11.0922
▁gab	-11.0928
▁walmart	-11.0932
▁ideological	-11.0932
▁invasion	-11.0932
▁guidelines	-11.0932
▁swiss	-11.0932
▁sustained	-11.0937
chen	-11.0941
▁entitled	-11.0968
▁evacuation	-11.0968
▁derail	-11.0968
▁ireland	-11.0968
brexit	-11.0969
▁haunt	-11.097
▁fleet	-11.097
▁outlook	-11.0971
▁guzm	-11.0978
▁surprisingly	-11.0981
▁sweep	-11.0984
china	-11.0985
▁consecutive	-11.1004
▁description	-11.1004
▁melissa	-11.1004
▁invitation	-11.1004
▁gorka	-11.1004
▁blew	-11.1007
▁burger	-11.1012
▁outsider	-11.102
▁removal	-11.1041
▁worship	-11.1041
▁rhode	-11.1041
▁attitude	-11.1041
atlantic	-11.1042
▁assassination	-11.1045
▁memoir	-11.1049
islam	-11.1049
▁74	-11.1055
▁shortage	-11.1057
week	-11.1058
▁$14	-11.1067
▁perfectly	-11.1072
▁swim	-11.1076
▁farage	-11.1077
▁embattled	-11.1077
▁kardashian	-11.1077
▁refusal	-11.1077
▁damaging	-11.1077
▁oliver	-11.1077
▁motive	-11.1077
▁navigat	-11.1077
▁toddler	-11.1079
▁consent	-11.108
▁carlson	-11.1082
super	-11.1093
itude	-11.1095
east	-11.1109
▁absurd	-11.1114
▁encouraging	-11.1114
▁motivated	-11.1114
▁sidewalk	-11.1115
▁classroom	-11.1116
▁engagement	-11.1117
▁replacing	-11.1118
▁viacom	-11.1119
▁800	-11.1122
▁courtroom	-11.1129
▁capable	-11.1129
▁introduce	-11.1129
▁quoted	-11.1135
friend	-11.115
▁alphabet	-11.1151
▁ghost	-11.1151
▁russell	-11.1151
▁devoted	-11.1151
▁ninth	-11.1151
▁exceed	-11.1151
▁confidential	-11.1152
school	-11.1154
facebook	-11.1154
▁naval	-11.1155
▁humor	-11.1162
▁stag	-11.118
note	-11.1181
▁astronaut	-11.1187
▁intercept	-11.1187
▁necessarily	-11.1187
▁properties	-11.1187
▁technologies	-11.1187
requiring	-11.1188
▁irish	-11.1188
▁castile	-11.1191
▁earnest	-11.1195
stead	-11.1196
▁perez	-11.1198
▁iii	-11.1198
▁84	-11.1221
▁reward	-11.1222
▁entrance	-11.1224
▁sample	-11.1225
▁existence	-11.1228
▁pound	-11.1232
jur	-11.1235
▁continent	-11.1237
▁frequent	-11.124
▁recogniz	-11.124
▁exploded	-11.1244
elect	-11.1244
▁damn	-11.1249
talk	-11.1258
uber	-11.126
▁beneath	-11.1262
▁disappointing	-11.1262
▁violating	-11.1262
▁debbie	-11.1262
▁cheese	-11.1264
▁rampage	-11.1264
▁faction	-11.1269
▁genre	-11.128
▁hunter	-11.1294
▁submit	-11.1299
enberg	-11.1299
▁caribbean	-11.1299
▁impression	-11.1299
▁bubble	-11.1299
▁infected	-11.1299
▁wisdom	-11.1299
▁luther	-11.1302
▁burden	-11.1304
▁destination	-11.1305
justice	-11.1307
▁freeze	-11.1308
check	-11.1314
▁setback	-11.1316
▁registration	-11.1336
▁diamond	-11.1336
▁tattoo	-11.1336
▁rebuke	-11.1337
▁borrow	-11.1338
▁panama	-11.1342
▁kenya	-11.1342
▁horn	-11.1348
political	-11.1354
▁horrible	-11.1374
▁simpson	-11.1374
▁preserve	-11.1374
▁airplane	-11.1374
▁battling	-11.1374
▁sneak	-11.1374
▁grabbed	-11.1374
▁sailors	-11.1374
▁tag	-11.1377
▁gunfire	-11.1378
▁soros	-11.1384
▁hospitalized	-11.1389
▁obtain	-11.1397
▁lucky	-11.1398
▁trace	-11.1403
▁grande	-11.1409
▁glimpse	-11.1412
▁horrific	-11.1412
▁qualified	-11.1412
▁surrender	-11.1412
▁arctic	-11.1412
▁falcon	-11.1412
▁steam	-11.1413
▁revised	-11.1413
▁vocal	-11.1413
▁handgun	-11.1414
friday	-11.1418
fun	-11.143
▁timeline	-11.1442
▁collusion	-11.145
▁metropolitan	-11.145
▁vatican	-11.145
▁bolster	-11.145
▁superior	-11.145
▁smooth	-11.145
▁58	-11.145
▁convert	-11.1451
▁unite	-11.1451
verse	-11.1452
▁charm	-11.1453
▁slavery	-11.1454
▁encouraged	-11.146
▁bread	-11.1461
▁opec	-11.1463
▁midst	-11.1466
▁yale	-11.1475
▁leap	-11.1481
▁mode	-11.1487
unconstitutional	-11.1488
▁ferguson	-11.1488
▁removing	-11.1488
▁thiel	-11.1488
▁teeth	-11.1488
▁retain	-11.1488
▁serial	-11.1488
▁nasty	-11.1489
▁dominate	-11.1492
▁hiv	-11.1501
▁subsequent	-11.1526
▁ideology	-11.1526
▁volume	-11.1526
▁nickname	-11.1526
▁dragged	-11.1526
▁lorett	-11.1526
▁thick	-11.1526
▁spray	-11.1529
▁testified	-11.1535
▁ditch	-11.1537
break	-11.154
▁lease	-11.1542
▁dna	-11.1559
▁nikki	-11.1564
▁telephone	-11.1564
▁choosing	-11.1564
▁leonard	-11.1564
▁sniper	-11.1564
▁disabled	-11.1564
▁pav	-11.1578
▁deleted	-11.158
member	-11.1588
▁tense	-11.1588
snl	-11.1592
ground	-11.1598
▁releasing	-11.1603
▁ncaa	-11.1603
▁siege	-11.1603
▁poland	-11.1617
walk	-11.1617
13	-11.1618
▁compare	-11.1619
▁industries	-11.1641
▁hudson	-11.1641
▁northwest	-11.165
▁pew	-11.1654
▁cruel	-11.1666
▁venezuelan	-11.168
▁1999	-11.168
▁guidance	-11.168
▁starbucks	-11.168
▁1996	-11.168
▁pollution	-11.168
▁thunder	-11.168
▁vandal	-11.168
▁misleading	-11.1681
▁urgent	-11.1682
▁69	-11.1694
▁85	-11.1702
▁skeptical	-11.1706
▁delta	-11.1709
▁fiorina	-11.1719
▁scotland	-11.1719
▁injuring	-11.172
▁retire	-11.1721
welcome	-11.1728
before	-11.1729
security	-11.1729
▁levin	-11.1732
ello	-11.1734
▁slim	-11.1742
wore	-11.1755
▁qaeda	-11.1758
▁kirk	-11.1758
▁cleric	-11.1759
▁wildfire	-11.1759
▁rodrig	-11.176
▁agriculture	-11.1764
happy	-11.1768
▁awake	-11.1776
▁impeach	-11.1794
▁ceasefire	-11.1797
▁drought	-11.1797
▁streak	-11.1797
▁inches	-11.1803
▁theories	-11.1803
path	-11.1807
exclusive	-11.1807
health	-11.1808
▁princess	-11.1822
▁pole	-11.1825
▁anonymity	-11.1837
▁disappointed	-11.1837
▁jessica	-11.1837
▁pharmaceutical	-11.1837
▁chaotic	-11.1837
▁craig	-11.1837
▁deemed	-11.1837
▁outfit	-11.1839
▁cubs	-11.1839
▁cinema	-11.184
▁profound	-11.184
▁jacket	-11.1845
women	-11.1848
terror	-11.1848
stream	-11.1849
bound	-11.1853
▁72	-11.1864
▁linger	-11.1869
nick	-11.1871
▁disgrace	-11.1873
▁capacity	-11.1876
▁opposing	-11.1876
▁walter	-11.1876
▁cousin	-11.1876
▁costume	-11.1878
▁denial	-11.1881
▁rebuild	-11.1881
▁bang	-11.1886
▁pending	-11.1888
▁mau	-11.1892
▁essential	-11.1894
▁commun	-11.1906
▁chaffetz	-11.1916
▁participants	-11.1916
▁messaging	-11.1916
▁charging	-11.1916
▁smell	-11.1917
▁andrea	-11.193
▁corey	-11.1932
philippine	-11.1952
▁mediterranean	-11.1956
▁physician	-11.1956
▁taught	-11.1956
▁jinping	-11.1956
▁tokyo	-11.1956
▁accidentally	-11.1959
▁gunshot	-11.1959
▁salary	-11.1966
▁advisory	-11.1987
▁blockbuster	-11.1996
▁demographic	-11.1996
▁frustrated	-11.1996
▁kidnapping	-11.1996
▁scarborough	-11.1996
▁casino	-11.1996
▁extent	-11.1996
▁toronto	-11.1997
▁obstruction	-11.1998
▁fitness	-11.2003
▁temple	-11.2008
▁assertion	-11.201
▁victoria	-11.2018
▁wonderful	-11.2019
▁sandy	-11.2024
▁confederate	-11.2036
▁innovation	-11.2036
▁slain	-11.2036
▁pretend	-11.2037
action	-11.2039
▁engage	-11.2039
▁unfortunately	-11.2048
▁electorate	-11.2076
▁terrifying	-11.2076
▁tribune	-11.2076
▁affirm	-11.2076
▁decisive	-11.2076
▁hampton	-11.2076
▁declining	-11.2076
▁flames	-11.2077
acious	-11.2077
ography	-11.208
vir	-11.2097
▁eligible	-11.2117
▁medicare	-11.2117
▁smuggle	-11.2117
▁sprawling	-11.2117
▁technique	-11.2117
▁thorough	-11.2117
▁absence	-11.2117
▁recipe	-11.2117
▁clinch	-11.2117
▁genius	-11.2118
▁nra	-11.2134
▁extremism	-11.2157
▁sovereign	-11.2157
▁supplies	-11.2157
▁guitar	-11.2157
▁grappl	-11.2162
▁enable	-11.2162
hill	-11.2173
word	-11.2173
▁denounced	-11.2178
▁crop	-11.2178
▁strongest	-11.2184
▁temper	-11.219
▁johnny	-11.2197
▁frozen	-11.2198
▁incredibly	-11.2198
▁fabric	-11.2198
▁swamp	-11.2198
▁blaming	-11.2198
basket	-11.2198
▁vetting	-11.2203
▁embarrassing	-11.2239
▁inevitable	-11.2239
▁insurgent	-11.2239
▁persuade	-11.2239
▁rousseff	-11.2239
▁jihad	-11.224
▁acceptance	-11.2247
▁defendant	-11.2254
tuesday	-11.2255
special	-11.2256
▁tick	-11.2272
▁commemorat	-11.228
▁bacteria	-11.228
▁optimism	-11.228
▁pepper	-11.228
▁concede	-11.2281
▁cake	-11.2285
▁fallout	-11.2302
▁unidentified	-11.2321
▁reopen	-11.2322
▁steep	-11.2322
▁panther	-11.2322
▁transaction	-11.2322
▁acknowledge	-11.2329
▁95	-11.233
▁mosquitoes	-11.2331
▁flowers	-11.2344
▁eliminat	-11.2347
donnell	-11.2355
▁emphasiz	-11.2363
▁ourselves	-11.2363
▁revenge	-11.2363
▁sketch	-11.2363
▁ceiling	-11.2363
▁lindsey	-11.2363
▁powell	-11.2372
▁bolton	-11.2372
official	-11.238
▁runway	-11.2382
▁barry	-11.2398
▁columbus	-11.2405
▁elephant	-11.2405
▁kidnapped	-11.2405
▁populism	-11.2405
▁suspicious	-11.2405
▁curious	-11.2405
▁visible	-11.2405
▁ransom	-11.2405
▁clown	-11.2408
▁lauren	-11.241
▁sgt	-11.241
▁herald	-11.2413
versus	-11.2415
extreme	-11.2423
speaking	-11.2423
cruz	-11.2423
▁devin	-11.2431
fair	-11.2438
▁76	-11.2442
▁discipline	-11.2446
▁misdemeanor	-11.2446
▁kanye	-11.2447
▁friendship	-11.2454
▁77	-11.2454
▁patent	-11.2461
birth	-11.2465
▁zu	-11.2472
▁clashes	-11.2472
vote	-11.2486
▁medication	-11.2489
▁lochte	-11.2489
▁stunned	-11.2489
▁attribut	-11.2489
▁promotion	-11.2489
▁arriving	-11.2489
▁stroke	-11.2489
▁plummet	-11.2489
trans	-11.2492
▁intervene	-11.2492
▁$500	-11.2493
▁propose	-11.2497
because	-11.2508
▁82	-11.252
▁gala	-11.2528
brand	-11.253
▁historian	-11.2531
▁reynolds	-11.2531
▁dismantle	-11.2531
▁jeremy	-11.2531
▁preparation	-11.2531
▁farewell	-11.2531
▁countless	-11.254
▁skeptic	-11.2545
secret	-11.255
▁spacex	-11.2562
▁peninsula	-11.2573
▁barbara	-11.2573
▁okay	-11.2573
▁victor	-11.2573
▁64	-11.2576
▁mull	-11.2584
▁stopping	-11.2592
wednesday	-11.2593
▁runner	-11.2596
monday	-11.26
▁hatred	-11.262
ibility	-11.2658
▁comprehensive	-11.2658
▁sequel	-11.2658
▁slaughter	-11.2658
▁troubling	-11.2658
▁cocaine	-11.2658
▁purported	-11.2658
▁vigil	-11.2658
▁tyler	-11.2661
▁somewhere	-11.2671
▁78	-11.2679
author	-11.268
▁criticize	-11.2682
▁250	-11.2688
▁prosecute	-11.269
▁spectacular	-11.2701
▁understood	-11.2701
▁smoking	-11.2701
▁staple	-11.2701
▁invite	-11.2711
▁barring	-11.2716
▁slide	-11.2722
▁fever	-11.2739
▁tsa	-11.274
▁athletic	-11.2744
▁milestone	-11.2745
▁aviation	-11.2746
▁preview	-11.2748
▁titan	-11.2748
▁contestant	-11.276
▁examiner	-11.2761
▁$11	-11.2762
▁jihadi	-11.277
▁deploy	-11.2775
▁definition	-11.2788
▁implications	-11.2788
▁integrity	-11.2788
▁spencer	-11.2788
▁deciding	-11.2788
▁wrestle	-11.2788
▁stunt	-11.2788
▁merrick	-11.279
▁align	-11.279
▁discount	-11.279
▁bowie	-11.2791
▁franklin	-11.2793
▁weakness	-11.2793
▁conclude	-11.2797
▁scam	-11.2797
▁inmate	-11.2799
▁scout	-11.2799
▁virgin	-11.2808
▁felon	-11.2815
▁patch	-11.2828
▁continu	-11.2829
▁sentencing	-11.2831
▁subpoena	-11.2831
▁pronounced	-11.2831
▁smear	-11.2831
▁lifestyle	-11.2834
▁romantic	-11.284
▁regardless	-11.284
▁everyday	-11.2843
worth	-11.2847
▁brace	-11.2867
▁arsenal	-11.2875
▁widow	-11.2875
▁wrapped	-11.2875
▁wasserman	-11.2875
▁animated	-11.2875
▁sensation	-11.2879
▁communication	-11.2885
▁formula	-11.289
direct	-11.29
▁nebraska	-11.2919
▁schweizer	-11.2919
▁uncertain	-11.2919
▁brent	-11.2924
▁pants	-11.2929
▁athlete	-11.293
jack	-11.2942
▁adventure	-11.2963
▁conservatism	-11.2963
▁landslide	-11.2963
empt	-11.2965
▁marketplace	-11.2968
▁improvement	-11.2972
▁karl	-11.2981
▁potter	-11.2981
▁nude	-11.2982
count	-11.2983
▁delight	-11.2987
▁enthusiast	-11.3003
▁exclud	-11.3007
▁delaware	-11.3007
▁exploring	-11.3007
▁mortgage	-11.3007
▁predominantly	-11.3007
▁unconscious	-11.3007
▁nieto	-11.3007
▁interfere	-11.3008
▁ought	-11.3012
bernie	-11.3038
▁consume	-11.3042
▁addict	-11.3047
▁argentina	-11.3051
▁confused	-11.3051
▁orchestra	-11.3051
▁yellen	-11.3051
▁assigned	-11.3052
▁memories	-11.3053
▁restroom	-11.3054
▁bug	-11.3057
▁rebound	-11.3059
▁88	-11.3064
▁touted	-11.3069
hamilton	-11.3078
lift	-11.3085
▁primarily	-11.3096
▁rookie	-11.3096
▁exxon	-11.3096
▁hottest	-11.3096
▁polish	-11.3096
▁$13	-11.3121
▁courage	-11.3141
▁balloon	-11.3141
▁slipped	-11.3141
▁tumble	-11.3141
▁courtesy	-11.3142
▁albert	-11.315
▁authoritarian	-11.3186
▁bombshell	-11.3186
▁equivalent	-11.3186
▁optimistic	-11.3186
▁curry	-11.3186
▁opera	-11.319
▁lethal	-11.3192
conservative	-11.3214
▁hatch	-11.3221
▁celeb	-11.323
▁manslaughter	-11.3231
▁negotiating	-11.3231
▁netherlands	-11.3231
▁warehouse	-11.3231
▁katie	-11.3231
would	-11.326
▁atmosphere	-11.3277
▁chocolate	-11.3277
▁switzerland	-11.3277
▁suppress	-11.3277
▁ellison	-11.3277
▁nerve	-11.3278
▁advertisers	-11.3278
▁brawl	-11.3279
▁norms	-11.328
angled	-11.3282
▁laura	-11.3283
▁toilet	-11.3285
▁preach	-11.3287
▁seize	-11.3298
▁accuser	-11.3298
▁billboard	-11.3304
▁grandmother	-11.3322
▁reckless	-11.3323
▁gentle	-11.3324
▁submitted	-11.3325
▁proceedings	-11.3326
▁brush	-11.3333
▁trek	-11.3342
▁stability	-11.3344
▁mich	-11.3347
script	-11.3352
counterterrorism	-11.3368
▁arguably	-11.3368
▁limbaugh	-11.3368
▁transparency	-11.3368
▁muscle	-11.3368
▁radar	-11.3368
▁pursuit	-11.3369
▁crow	-11.337
▁residential	-11.337
▁passport	-11.3372
▁surf	-11.3374
▁knight	-11.3374
▁$18	-11.3388
▁caption	-11.339
active	-11.3403
▁sustain	-11.3408
▁calendar	-11.3414
▁deputies	-11.3414
▁murphy	-11.3414
▁rosenstein	-11.3414
▁gorilla	-11.3414
▁liquid	-11.3414
▁comply	-11.3415
▁wireless	-11.3417
▁assassin	-11.3456
▁inspiration	-11.3461
▁outspoken	-11.3461
▁database	-11.3461
sergey	-11.3461
▁hollande	-11.3461
▁pearl	-11.3461
▁manuel	-11.3461
▁plaza	-11.3463
▁bounce	-11.3464
▁whale	-11.3466
▁wright	-11.3475
public	-11.3486
racist	-11.3497
▁elaborate	-11.3507
▁$400	-11.3507
▁sandwich	-11.3507
▁treasure	-11.3507
▁outgoing	-11.3508
▁travis	-11.3509
▁ownership	-11.3512
▁meyer	-11.3514
deep	-11.3517
▁plum	-11.3524
driving	-11.354
▁mosquito	-11.3543
▁assailant	-11.3554
▁disastrous	-11.3554
▁genocide	-11.3554
▁mohammed	-11.3554
▁idaho	-11.3554
▁premise	-11.3554
▁slump	-11.3554
▁fireworks	-11.3554
▁betray	-11.3555
▁lung	-11.3567
▁dumb	-11.3569
▁appreciate	-11.3601
▁diplomacy	-11.3601
▁fascinating	-11.3601
▁monetary	-11.3601
▁volkswagen	-11.3601
▁jurors	-11.3601
▁podium	-11.3601
▁carpet	-11.3601
▁boko	-11.3606
▁valid	-11.3606
▁pickup	-11.3627
complete	-11.3635
michael	-11.3635
▁lisa	-11.3635
letting	-11.3643
▁correspond	-11.3645
▁centuries	-11.3648
▁televised	-11.3648
▁offshore	-11.3648
▁gabriel	-11.3648
▁doomed	-11.3648
▁unrest	-11.3649
▁dunham	-11.365
▁brun	-11.3654
▁correctness	-11.3654
▁admire	-11.3654
▁aisle	-11.3658
radical	-11.3665
▁custom	-11.3665
▁posing	-11.3675
▁saga	-11.3678
▁cavaliers	-11.3695
▁graduation	-11.3695
▁lesbian	-11.3695
▁shkreli	-11.3695
▁bargain	-11.3695
▁dennis	-11.3696
▁moines	-11.3696
▁splash	-11.3697
▁dissent	-11.3699
▁hulk	-11.3699
▁snowden	-11.37
▁verge	-11.3707
▁haul	-11.3719
continental	-11.3727
shadow	-11.3731
mouth	-11.3731
style	-11.3739
▁reduction	-11.3743
▁closure	-11.3743
▁workforce	-11.3743
▁envoy	-11.3743
▁lebron	-11.3743
▁escort	-11.3743
▁hoax	-11.3743
▁properly	-11.3743
▁hijack	-11.3744
▁woke	-11.3746
hack	-11.3759
▁drum	-11.3765
▁engaging	-11.3791
▁perpetrat	-11.3791
▁shootout	-11.3796
leigh	-11.3819
▁bolt	-11.3836
▁pedestrian	-11.3839
▁havana	-11.3839
▁occupation	-11.3839
▁federation	-11.3839
▁lyft	-11.3841
▁superstar	-11.3846
▁coincide	-11.3887
▁recognition	-11.3887
▁spacecraft	-11.3887
▁stumble	-11.3887
▁analyze	-11.3887
▁vicious	-11.3887
▁rahami	-11.3887
▁martha	-11.3888
▁cotton	-11.3888
▁yates	-11.3889
▁empower	-11.3889
▁clay	-11.3903
▁consist	-11.3929
▁administrative	-11.3936
▁caddell	-11.3936
▁categories	-11.3936
▁maximum	-11.3936
▁uncomfortable	-11.3936
▁relax	-11.3936
▁isolated	-11.3936
▁autism	-11.3936
▁trademark	-11.3943
▁gaga	-11.3946
▁reef	-11.3959
wick	-11.3976
▁deutsche	-11.3984
▁raqqa	-11.3984
▁1994	-11.3985
▁junior	-11.3985
▁stomach	-11.3985
▁bishop	-11.3985
▁anxious	-11.3985
▁collide	-11.3985
reducing	-11.3989
stock	-11.3994
▁1950	-11.3996
▁hank	-11.4005
▁allegiance	-11.4034
▁appropriation	-11.4034
▁compensation	-11.4034
▁contemporary	-11.4034
▁damascus	-11.4034
▁distress	-11.4034
▁ecuador	-11.4034
▁immunity	-11.4034
▁participating	-11.4034
▁spectacle	-11.4034
▁ambush	-11.4034
▁credibility	-11.4034
▁passionate	-11.4034
▁munich	-11.4034
▁outlined	-11.4035
▁monica	-11.4035
▁preferred	-11.4037
▁$200	-11.404
which	-11.4074
david	-11.4075
▁bitcoin	-11.4083
▁qualify	-11.4083
▁dancing	-11.4083
▁pardon	-11.4086
▁bezos	-11.4087
▁lang	-11.4099
▁slap	-11.412
▁speculat	-11.4128
▁conscious	-11.4132
▁cemetery	-11.4132
▁dishonest	-11.4132
▁pneumonia	-11.4132
▁lawrence	-11.4132
100	-11.4134
▁blogger	-11.4136
slated	-11.4145
▁karen	-11.4152
▁chronic	-11.4177
▁ingredient	-11.4182
▁literature	-11.4182
▁nutrition	-11.4182
▁swirl	-11.4182
▁ahmad	-11.4182
▁absent	-11.4182
▁benchmark	-11.4183
▁plague	-11.4184
▁rabbi	-11.4184
▁steer	-11.4185
praising	-11.4188
▁electricity	-11.4192
provoke	-11.4201
▁autonomous	-11.4232
▁bharara	-11.4232
▁faculty	-11.4232
▁1995	-11.4232
▁savage	-11.4232
still	-11.4266
israel	-11.4276
twitter	-11.4276
▁colorful	-11.4279
▁accompanied	-11.4282
▁airbnb	-11.4282
▁reboot	-11.4282
▁policing	-11.4282
foot	-11.4331
▁huckabee	-11.4333
▁roosevelt	-11.4333
▁exciting	-11.4333
▁regain	-11.4333
▁assured	-11.4333
▁ufc	-11.4333
▁underscore	-11.4334
▁loyalty	-11.4337
▁genuine	-11.4384
▁precinct	-11.4384
▁trophy	-11.4384
▁goodbye	-11.4384
▁robbed	-11.4384
▁bestsell	-11.4385
▁horizon	-11.4435
▁philosophy	-11.4435
▁provocative	-11.4435
▁villain	-11.4435
▁ritual	-11.4435
▁harlem	-11.4435
▁revolt	-11.4435
▁android	-11.4436
▁array	-11.4437
▁cannon	-11.4437
▁flagship	-11.4441
▁rift	-11.4444
▁dread	-11.4445
▁stern	-11.4459
absolutely	-11.4481
▁municipal	-11.4486
▁portfolio	-11.4486
▁subsidies	-11.4486
▁uncovered	-11.4486
▁1992	-11.4486
▁cardinal	-11.4486
spoiler	-11.4486
▁predator	-11.4489
▁jackie	-11.4493
▁$17	-11.4495
▁brick	-11.4505
cleveland	-11.4533
▁precedent	-11.4537
▁reservation	-11.4537
▁gesture	-11.4537
▁shook	-11.4537
▁jefferson	-11.4537
▁gallery	-11.4538
▁morris	-11.4541
▁kabul	-11.4541
▁couch	-11.4545
▁attendance	-11.4546
▁allegation	-11.4568
democrats	-11.4586
▁cologne	-11.4589
▁enthusiasm	-11.4589
▁psychological	-11.4589
▁territori	-11.4589
▁clause	-11.4589
▁layoffs	-11.4589
▁outdoor	-11.4589
▁brink	-11.4595
▁quake	-11.462
▁cliff	-11.4636
▁collision	-11.4641
▁rodriguez	-11.4641
▁syndrome	-11.4641
▁vegetable	-11.4641
▁emirates	-11.4641
▁hijab	-11.4641
▁casualties	-11.4641
▁hurdle	-11.4641
▁convoy	-11.4641
▁defiant	-11.4641
▁abolish	-11.4641
▁filter	-11.4641
▁spear	-11.4642
▁therefore	-11.4642
▁rational	-11.4643
▁grief	-11.4644
▁acres	-11.4644
▁neuro	-11.4667
lessness	-11.4676
▁census	-11.4694
▁feminism	-11.4694
▁ignoring	-11.4694
▁incumbent	-11.4694
▁tropical	-11.4694
▁wrestling	-11.4694
▁otto	-11.4694
▁drain	-11.4695
▁fiery	-11.4696
▁spotify	-11.4697
▁contend	-11.4709
build	-11.4738
▁bloom	-11.4746
▁recipient	-11.4746
▁gonzal	-11.4746
▁purple	-11.4746
▁kassam	-11.4746
▁reversal	-11.4746
▁excessive	-11.4749
▁temer	-11.4751
▁rogue	-11.4756
disgusting	-11.4799
▁excellent	-11.4799
▁sculpt	-11.4799
▁centrist	-11.4799
▁trooper	-11.4799
▁genital	-11.4799
▁exempt	-11.4802
▁occasionally	-11.4803
▁jamie	-11.4805
▁dhs	-11.4805
▁gaza	-11.4814
▁aggravate	-11.4852
▁cigarette	-11.4852
▁cnbc	-11.4852
▁retaliation	-11.4852
▁obscure	-11.4852
▁endorsing	-11.4852
▁deployment	-11.4856
▁summon	-11.4857
▁vague	-11.4857
unacceptable	-11.4906
▁breakthrough	-11.4906
▁instrument	-11.4906
▁obsession	-11.4906
▁prestigious	-11.4906
▁resemble	-11.4906
▁memorable	-11.4906
fantastic	-11.4906
▁richmond	-11.4906
▁storage	-11.4906
leader	-11.4907
ddling	-11.4909
▁translate	-11.491
▁kurt	-11.4925
▁citi	-11.4929
▁accusation	-11.4952
▁retweet	-11.496
▁escalating	-11.496
▁obligation	-11.496
▁scrambling	-11.496
▁ukrainian	-11.496
▁prevail	-11.496
▁throat	-11.496
▁mandatory	-11.496
▁shoppers	-11.496
▁postpone	-11.4973
▁recess	-11.5012
▁minneapolis	-11.5014
▁producing	-11.5014
▁1997	-11.5014
:45	-11.5014
▁racing	-11.5015
▁reinstate	-11.5016
ghostbusters	-11.5068
▁survival	-11.5068
▁lebanon	-11.5068
▁thailand	-11.5068
▁scope	-11.5068
▁millionaire	-11.5068
▁reddit	-11.5069
crooked	-11.5069
represent	-11.5069
▁slur	-11.5069
▁goldberg	-11.5072
▁sharia	-11.5075
▁regulator	-11.5102
▁pipe	-11.5103
▁destin	-11.5115
▁accelerate	-11.5123
▁activism	-11.5123
▁concession	-11.5123
▁nasdaq	-11.5123
▁valentine	-11.5123
▁robinson	-11.5123
▁streep	-11.5123
▁nafta	-11.5123
▁mutual	-11.5123
▁bureaucrat	-11.5123
▁disturb	-11.5177
▁component	-11.5178
▁sacrifice	-11.5178
▁spectrum	-11.5178
▁apparel	-11.5178
▁debris	-11.5178
▁clarify	-11.5178
▁elliman	-11.5178
serious	-11.5186
▁dorm	-11.5196
▁somali	-11.5205
▁credentials	-11.5233
▁perceived	-11.5233
▁reassure	-11.5233
▁lopez	-11.5233
▁swipe	-11.5233
▁crystal	-11.5233
▁kathy	-11.5233
▁cairo	-11.5233
▁reiterat	-11.5234
▁sitcom	-11.5239
fresh	-11.5258
south	-11.5287
▁commencement	-11.5288
▁kislyak	-11.5288
▁liberties	-11.5288
▁nashville	-11.5288
▁occupy	-11.5288
▁penalties	-11.5288
▁scotus	-11.5288
▁imminent	-11.5288
▁mcmaster	-11.5288
▁thwart	-11.5288
▁tmz	-11.5289
archivebot	-11.529
▁telecom	-11.5291
muslim	-11.5292
california	-11.5292
writing	-11.5292
placing	-11.5296
▁inspire	-11.531
▁complet	-11.5317
▁enrique	-11.5344
▁motivation	-11.5344
▁reluctant	-11.5344
▁sebastian	-11.5344
▁generous	-11.5344
▁nelson	-11.5344
▁sprint	-11.5345
▁realtor	-11.5345
▁plaintiff	-11.54
▁pursuing	-11.54
▁communicate	-11.5401
▁loaded	-11.5403
▁reception	-11.5403
update	-11.5429
leading	-11.5433
▁arrangement	-11.5457
▁cocktail	-11.5457
▁emanuel	-11.5457
▁margaret	-11.5457
▁simultaneous	-11.5457
▁zillow	-11.5457
▁philando	-11.5457
▁critique	-11.5457
▁enhance	-11.5457
▁upgrade	-11.5457
▁expire	-11.5458
▁tariff	-11.5458
▁grey	-11.5458
▁subtle	-11.5459
▁defie	-11.5495
▁construct	-11.5499
▁possess	-11.5506
discriminate	-11.5514
▁astonishing	-11.5514
▁cyberattack	-11.5514
▁jupiter	-11.5514
▁maneuver	-11.5514
▁murdoch	-11.5514
▁supplier	-11.5514
▁distant	-11.5514
▁combine	-11.5537
▁constituents	-11.5571
▁obsessed	-11.5571
▁orthodox	-11.5571
▁contrary	-11.5571
▁revival	-11.5571
▁warfare	-11.5571
ocrac	-11.5572
▁emoji	-11.5573
▁jewelry	-11.5573
▁taunt	-11.5576
▁blond	-11.558
▁chipotle	-11.5628
▁improper	-11.5628
▁kalanick	-11.5628
▁lieutenant	-11.5628
▁nicolas	-11.5628
▁relentless	-11.5628
▁supermarket	-11.5628
▁ramadan	-11.5628
▁thriller	-11.5628
▁grassley	-11.5628
▁spiral	-11.5628
▁nigel	-11.5629
▁classmate	-11.5629
▁ankara	-11.5629
▁ladies	-11.5629
▁paragraph	-11.563
▁intentionally	-11.5631
▁jesse	-11.5633
▁betting	-11.5634
sanctuary	-11.5636
▁parliamentar	-11.5645
▁pirate	-11.566
▁designate	-11.5679
▁scratch	-11.5686
▁staggering	-11.5686
▁lewd	-11.5687
▁jewel	-11.5701
settle	-11.5724
▁diabetes	-11.5744
▁disappointment	-11.5744
▁exposure	-11.5744
▁proportion	-11.5744
▁dossier	-11.5744
▁swap	-11.5746
▁compelling	-11.5746
▁beckham	-11.5747
food	-11.5757
several	-11.5757
▁buffalo	-11.5803
▁fragile	-11.5803
▁motorcycle	-11.5803
▁mulvaney	-11.5803
▁pistol	-11.5803
▁solicit	-11.5803
▁smiling	-11.5803
▁duties	-11.5803
▁thread	-11.5803
fascist	-11.5805
▁antarctic	-11.5862
▁berkshire	-11.5862
▁conservation	-11.5862
▁experiencing	-11.5862
▁ginsburg	-11.5862
▁microcephaly	-11.5862
▁participation	-11.5862
▁unauthorized	-11.5862
▁unpredictable	-11.5862
▁dominant	-11.5862
▁burglar	-11.5862
▁defence	-11.5869
▁salvador	-11.5921
catastrophic	-11.5921
▁freddie	-11.5921
▁kellogg	-11.5921
▁warmbier	-11.5921
▁watson	-11.5921
▁snake	-11.5922
▁schiff	-11.5923
▁instinct	-11.5926
total	-11.5933
▁enforc	-11.5955
ctively	-11.5974
▁besieged	-11.598
▁dialogue	-11.598
▁rallied	-11.598
▁singapore	-11.598
▁literary	-11.598
▁monkey	-11.598
▁northeastern	-11.598
▁regulate	-11.598
▁showcase	-11.5982
▁erupt	-11.5988
nevertrump	-11.6014
▁applause	-11.604
▁obstacle	-11.604
▁vulgar	-11.604
▁shinzo	-11.604
▁stranded	-11.604
▁caesar	-11.604
▁mohamed	-11.604
▁intimate	-11.604
▁password	-11.6042
▁swath	-11.606
▁applaud	-11.61
▁blizzard	-11.61
▁capsule	-11.61
▁circus	-11.61
▁corcoran	-11.61
▁financing	-11.61
▁tobacco	-11.61
▁1989	-11.61
▁skull	-11.61
▁meteor	-11.6101
▁default	-11.6102
should	-11.6114
▁broncos	-11.6161
▁dinosaur	-11.6161
▁grandfather	-11.6161
▁guantanamo	-11.6161
▁solidarity	-11.6161
▁stockholm	-11.6161
▁surviving	-11.6161
▁complications	-11.6161
▁manhunt	-11.6161
▁penthouse	-11.6161
▁leslie	-11.6162
▁ethical	-11.6162
▁cdc	-11.6163
google	-11.6175
peace	-11.6176
racial	-11.6176
million	-11.6176
▁fugitive	-11.6222
▁alexandria	-11.6222
▁microphone	-11.6222
▁shakespeare	-11.6222
▁delegation	-11.6222
▁screw	-11.6222
▁wrongdoing	-11.6222
▁edited	-11.6222
▁ahmed	-11.6223
▁heaven	-11.6223
▁therapy	-11.6225
worm	-11.624
▁antibiotic	-11.6283
▁conglomerate	-11.6283
▁excitement	-11.6283
▁autopsy	-11.6283
▁corbyn	-11.6283
▁manziel	-11.6283
▁tunisia	-11.6283
▁serena	-11.6284
▁tolerance	-11.6284
▁inherit	-11.6285
▁humble	-11.6286
chicago	-11.6299
mayor	-11.63
those	-11.63
true	-11.6339
▁cautious	-11.6345
▁sufficient	-11.6345
▁defamation	-11.6345
▁clarity	-11.6345
▁ossoff	-11.6345
▁outreach	-11.6345
▁homeowner	-11.6345
▁holmes	-11.6346
▁awesome	-11.6346
▁verbal	-11.6347
could	-11.6362
nothing	-11.6363
shire	-11.6364
▁alzheimer	-11.6407
▁clooney	-11.6407
▁fracture	-11.6407
▁identities	-11.6407
▁perception	-11.6407
▁samantha	-11.6407
▁1998	-11.6407
▁garbage	-11.6407
▁inflict	-11.6407
▁parallel	-11.6407
▁dignity	-11.6407
▁jamaica	-11.6407
▁ipad	-11.6409
cultural	-11.6424
natural	-11.6425
▁plug	-11.6441
▁midwest	-11.6447
▁slice	-11.6459
▁examining	-11.647
▁miranda	-11.647
▁timothy	-11.647
▁volatile	-11.647
▁madrid	-11.647
▁gordon	-11.647
▁nathan	-11.647
▁issuing	-11.6471
▁spree	-11.6471
▁wiretapping	-11.6471
▁authentic	-11.6533
▁sophisticated	-11.6533
▁tornado	-11.6533
▁backdrop	-11.6533
▁harassed	-11.6533
▁organisation	-11.6533
▁longstanding	-11.6533
▁robust	-11.6533
▁programming	-11.6534
shoot	-11.6554
chief	-11.6557
▁curse	-11.6577
moonlight	-11.6588
emphasis	-11.6596
▁acclaimed	-11.6596
▁brzezinski	-11.6596
▁meltdown	-11.6596
▁culminat	-11.6596
▁scalise	-11.6596
▁valuation	-11.6596
▁decrease	-11.6596
▁puzzle	-11.6596
:00	-11.6596
▁bulk	-11.66
beirut	-11.6602
maybe	-11.6603
▁unravel	-11.666
▁collaboration	-11.666
▁studied	-11.666
▁hockey	-11.666
▁raheem	-11.666
▁dubai	-11.666
▁sacred	-11.666
▁wield	-11.666
▁slamming	-11.666
▁pornography	-11.666
▁advertise	-11.6664
jeopardy	-11.6724
▁favour	-11.6724
▁sacramento	-11.6724
▁seizure	-11.6724
▁smuggling	-11.6724
▁1984	-11.6724
earlier	-11.6745
characterized	-11.6754
▁controversies	-11.6788
▁definitive	-11.6788
▁economies	-11.6788
▁icahn	-11.6788
▁indigenous	-11.6788
▁calais	-11.6788
▁marlins	-11.6789
social	-11.6811
▁manufacture	-11.6818
▁explode	-11.6819
▁slid	-11.6828
▁diagnosis	-11.6853
▁pulitzer	-11.6853
▁devastated	-11.6853
▁furniture	-11.6853
▁prosperity	-11.6853
▁simmons	-11.6853
▁subscription	-11.6853
▁bigotry	-11.6853
▁chunk	-11.6853
▁probation	-11.6853
▁carnage	-11.6853
▁algorithm	-11.6919
▁observation	-11.6919
▁tebow	-11.6919
▁samuel	-11.6919
▁retiring	-11.6919
▁grateful	-11.6919
▁uproar	-11.6919
▁forthcoming	-11.6919
▁clerk	-11.6919
▁naming	-11.692
terminate	-11.6922
▁overwhelm	-11.6928
philadelphia	-11.6942
dicating	-11.6965
▁bankrupt	-11.6983
▁advancing	-11.6984
▁ammunition	-11.6984
▁elliott	-11.6984
▁lloyd	-11.6984
▁protocol	-11.6984
▁sullivan	-11.6984
▁carmelo	-11.6984
▁credible	-11.6984
▁garcia	-11.6984
▁bronze	-11.6984
▁simulat	-11.6984
▁manifest	-11.6984
▁arnold	-11.6985
▁headache	-11.6985
▁defining	-11.6985
▁denounce	-11.7016
▁hurl	-11.7024
▁subscribe	-11.7048
▁baptist	-11.7051
▁boehner	-11.7051
▁certificate	-11.7051
▁confusing	-11.7051
▁excerpt	-11.7051
▁jpmorgan	-11.7051
▁jurisdiction	-11.7051
▁juvenile	-11.7051
▁sergeant	-11.7051
▁stereotype	-11.7051
▁clapper	-11.7051
▁transplant	-11.7051
complicat	-11.7051
▁madonna	-11.7051
▁schilling	-11.7051
▁kimmel	-11.7051
▁isolation	-11.7051
▁cathedral	-11.7117
▁despair	-11.7117
▁sioux	-11.7117
▁painkiller	-11.7117
▁joshua	-11.7117
▁supervisor	-11.7117
▁embark	-11.7117
▁petersburg	-11.7117
▁reunite	-11.7117
lemonade	-11.7117
▁freezing	-11.7118
▁parole	-11.7118
advertisement	-11.7177
▁reinforce	-11.7184
▁abbott	-11.7184
▁abducted	-11.7184
▁1991	-11.7184
global	-11.7212
amazon	-11.7212
liberal	-11.7214
▁catastrophe	-11.7252
▁brennan	-11.7252
▁currencies	-11.7252
▁mccrory	-11.7252
▁nintendo	-11.7252
▁oxford	-11.7252
▁phelps	-11.7252
▁threshold	-11.7252
▁transmission	-11.7252
▁tulsa	-11.7252
▁1979	-11.7252
▁1993	-11.7252
▁jungle	-11.7252
▁bleeding	-11.7252
▁lavish	-11.7252
▁phillip	-11.7252
▁vanished	-11.7252
▁dairy	-11.7252
▁drake	-11.7252
▁derek	-11.7252
▁referenc	-11.7286
▁pronoun	-11.732
▁altogether	-11.732
▁consumption	-11.732
▁convincing	-11.732
▁lucrative	-11.732
▁neglect	-11.732
▁vacancy	-11.732
▁compiled	-11.732
raymond	-11.7321
▁drift	-11.7321
▁brewer	-11.7322
▁initiat	-11.7324
▁revoke	-11.7325
related	-11.735
▁invade	-11.7385
▁asteroid	-11.7388
▁earliest	-11.7388
▁flurry	-11.7388
▁ebola	-11.7388
▁texan	-11.7388
▁hardware	-11.7388
▁spouse	-11.7389
little	-11.7419
▁fianc	-11.7441
▁epipen	-11.7457
▁injunction	-11.7457
▁lauderdale	-11.7457
▁patriarch	-11.7457
▁puzder	-11.7457
▁sydney	-11.7457
▁tissue	-11.7457
▁alligator	-11.7457
▁glory	-11.7457
▁flavor	-11.7457
▁outstanding	-11.7458
▁accompany	-11.7527
▁calculate	-11.7527
▁distraction	-11.7527
▁melbourne	-11.7527
▁raucous	-11.7527
▁tuition	-11.7527
▁acosta	-11.7527
▁dilma	-11.7527
connect	-11.7559
court	-11.7567
▁companion	-11.7597
▁convenience	-11.7597
▁ethiopia	-11.7597
▁practically	-11.7597
▁gamble	-11.7597
▁snack	-11.7597
▁obstruct	-11.7663
▁distinguish	-11.7667
▁fraternity	-11.7667
▁imagination	-11.7667
▁miracle	-11.7667
▁supplement	-11.7667
▁1968	-11.7667
▁nonetheless	-11.7667
▁naacp	-11.7667
▁chapman	-11.7667
▁southeastern	-11.7667
▁unfit	-11.7668
screen	-11.7701
definitely	-11.7701
mexico	-11.7701
major	-11.7702
▁stoke	-11.7702
▁homosexual	-11.7738
▁ambulance	-11.7738
▁automatically	-11.7738
▁efficient	-11.7738
▁magnitude	-11.7738
▁metaphor	-11.7738
▁terrified	-11.7738
▁amtrak	-11.7738
▁gasoline	-11.7738
▁deduct	-11.7738
▁heightened	-11.7738
▁gymnastics	-11.7738
▁reckon	-11.7738
▁gaffe	-11.7738
▁waiver	-11.7738
▁snapped	-11.7738
https	-11.7773
control	-11.7786
▁constitute	-11.781
▁contributing	-11.781
▁estranged	-11.781
▁extradition	-11.781
▁graffiti	-11.781
▁halloween	-11.781
▁liverpool	-11.781
▁strategies	-11.781
▁tamaulipas	-11.781
▁myanmar	-11.781
▁palmyra	-11.781
▁potato	-11.781
▁kkk	-11.781
▁nursing	-11.781
▁gaming	-11.7811
▁interrogat	-11.7811
▁glut	-11.7812
▁roast	-11.7813
dangerous	-11.7846
▁evident	-11.7881
▁happiness	-11.7881
▁montgomery	-11.7881
▁negotiator	-11.7881
▁skyrocket	-11.7881
▁stephanopoulos	-11.7881
▁wyoming	-11.7881
▁obesity	-11.7881
▁thrilled	-11.7881
▁convene	-11.7915
opinion	-11.7919
▁unfortunate	-11.7932
pathetic	-11.794
atomic	-11.7944
▁charitable	-11.7954
▁hilarious	-11.7954
▁manipulate	-11.7954
▁psychology	-11.7954
▁significance	-11.7954
▁squeeze	-11.7954
▁civic	-11.7954
▁incentive	-11.7955
▁deposit	-11.7981
sometimes	-11.7993
death	-11.7993
system	-11.7995
▁investigator	-11.8008
▁offseason	-11.8027
▁1986	-11.8027
▁debunk	-11.8027
▁contempt	-11.8027
▁hazard	-11.8027
▁jfk	-11.8027
▁beverage	-11.8027
▁compel	-11.8099
▁applicants	-11.81
▁congratulate	-11.81
▁dysfunction	-11.81
▁examination	-11.81
▁pompeo	-11.81
▁railroad	-11.81
▁tabloid	-11.81
▁imposing	-11.81
▁exposing	-11.81
▁sanchez	-11.81
▁snatch	-11.8101
flower	-11.8144
▁assumption	-11.8175
▁capabilities	-11.8175
▁hussein	-11.8175
▁incarceration	-11.8175
▁pediatric	-11.8175
▁rihanna	-11.8175
▁rouhani	-11.8175
▁tumultuous	-11.8175
▁twenty	-11.8175
▁fraudulent	-11.8175
▁reshape	-11.8175
▁trevor	-11.8175
▁brazen	-11.8175
▁kristol	-11.8175
▁wiretapped	-11.8175
▁uprising	-11.8175
▁medium	-11.8175
▁ascend	-11.8178
imagine	-11.8216
▁blitzer	-11.8249
▁gianforte	-11.8249
▁grassroots	-11.8249
▁imprisoned	-11.8249
▁porzingis	-11.8249
▁recapture	-11.8249
▁portugal	-11.8249
▁dominance	-11.8249
▁rafael	-11.8249
▁revisit	-11.8249
▁fetus	-11.8251
fifty	-11.8252
▁replica	-11.8256
▁exploration	-11.8324
▁hysteria	-11.8324
▁influx	-11.8324
▁psychologist	-11.8324
▁sympathy	-11.8324
▁campbell	-11.8324
▁gossip	-11.8324
texas	-11.8369
crypt	-11.8381
▁encryption	-11.84
▁hypocrisy	-11.84
▁immune	-11.84
▁infectious	-11.84
▁mcauliffe	-11.84
▁olympian	-11.84
▁santiago	-11.84
▁bystander	-11.8401
jerusalem	-11.8445
something	-11.8446
▁hopkins	-11.8476
▁legitimacy	-11.8476
▁tsunami	-11.8476
▁cancellation	-11.8476
▁adolf	-11.8477
▁harvest	-11.8477
▁swarm	-11.8477
▁dilemma	-11.8553
▁rescind	-11.8553
▁riyadh	-11.8553
▁francois	-11.8553
▁westminster	-11.8553
▁impending	-11.8553
▁ralph	-11.8553
▁ignite	-11.8554
▁nepal	-11.8554
intentional	-11.8595
historic	-11.8601
hollywood	-11.8601
houston	-11.8601
everything	-11.8601
▁confidant	-11.8631
▁scathing	-11.8631
▁staunch	-11.8631
▁ridicule	-11.8631
▁shapiro	-11.8631
▁withdrew	-11.8631
▁tentative	-11.8631
▁intrigue	-11.8631
▁ivory	-11.8631
▁unlawful	-11.8631
nuclear	-11.868
▁horrifying	-11.8709
▁outskirts	-11.8709
▁swallow	-11.8709
▁undisclosed	-11.8709
▁unilateral	-11.8709
▁bennett	-11.8709
▁mastermind	-11.8709
▁meryl	-11.8709
▁battered	-11.8709
▁erect	-11.8709
▁differ	-11.8784
▁wiretap	-11.8787
▁disavow	-11.8788
▁premature	-11.8788
▁steadily	-11.8788
▁warplanes	-11.8788
▁bieber	-11.8788
▁defiance	-11.8788
▁nevertheless	-11.8788
▁distort	-11.8788
corporat	-11.8788
significant	-11.8839
actress	-11.8839
▁embracing	-11.8867
▁malcolm	-11.8867
▁neighbour	-11.8867
▁nordstrom	-11.8867
▁resettlement	-11.8867
▁whistleblower	-11.8867
▁1972	-11.8867
▁composer	-11.8867
▁shelves	-11.8867
▁orientation	-11.8867
▁stripped	-11.8867
culture	-11.892
