<unk>	0
<s>	0
</s>	0
▁,	-3.22085
▁the	-3.41149
s	-3.53412
▁.	-3.59039
▁’	-3.89535
▁a	-3.99237
▁to	-3.99726
▁of	-4.05124
▁	-4.103
ed	-4.21133
▁in	-4.28399
▁and	-4.33968
ing	-4.49518
▁s	-4.49744
▁"	-4.53665
"	-4.70045
▁on	-4.86395
▁”	-4.9664
▁that	-5.03952
▁for	-5.05364
▁The	-5.09638
.	-5.11397
▁is	-5.21571
▁Trump	-5.23361
y	-5.31881
ly	-5.34992
“	-5.4343
▁with	-5.44035
▁was	-5.47065
▁be	-5.49721
▁at	-5.61262
▁:	-5.62728
▁his	-5.65538
▁—	-5.70452
▁from	-5.72793
▁by	-5.78049
▁as	-5.78311
▁it	-5.78922
▁has	-5.79952
▁he	-5.8515
▁an	-5.88088
d	-5.89921
▁said	-5.99921
▁A	-6.04884
▁I	-6.05958
▁have	-6.11753
e	-6.11914
▁are	-6.11968
▁(	-6.12472
▁)	-6.12918
▁who	-6.13116
▁Donald	-6.16621
en	-6.19559
▁",	-6.25637
▁not	-6.30712
▁about	-6.32064
▁t	-6.32366
▁after	-6.33826
n	-6.35793
▁her	-6.40766
▁S	-6.41613
▁this	-6.44925
▁will	-6.46885
▁U	-6.47465
▁their	-6.47843
▁Clinton	-6.52321
▁President	-6.54108
▁In	-6.56967
▁one	-6.60324
▁had	-6.60565
▁its	-6.61913
-	-6.6519
▁were	-6.66439
[	-6.66923
▁It	-6.67962
▁over	-6.68839
▁more	-6.69059
▁out	-6.69298
▁?	-6.69784
er	-6.7111
▁up	-6.71341
▁but	-6.7223
▁you	-6.73813
▁new	-6.74156
▁New	-6.77936
▁they	-6.78002
▁people	-6.79827
▁or	-6.80736
▁would	-6.83028
▁which	-6.84698
▁into	-6.85421
▁than	-6.85945
▁CNN	-6.87493
▁first	-6.89517
es	-6.92721
▁she	-6.93506
▁when	-6.93558
▁Obama	-6.93848
$	-6.97298
a	-6.99544
▁Hillary	-7.00792
▁House	-7.00846
▁two	-7.01032
▁Republican	-7.02303
▁all	-7.06324
▁last	-7.07259
▁some	-7.08609
▁we	-7.0879
▁years	-7.09116
▁presidential	-7.09232
▁what	-7.10172
▁week	-7.11272
l	-7.11776
▁can	-7.12033
▁But	-7.12071
▁campaign	-7.12265
▁year	-7.14154
‘	-7.15191
▁just	-7.15368
ld	-7.16433
▁could	-7.20011
▁most	-7.20563
▁He	-7.20968
▁Tuesday	-7.21031
▁Friday	-7.21796
▁time	-7.22126
▁like	-7.23825
o	-7.24009
▁man	-7.2509
▁Thursday	-7.25265
▁him	-7.25299
t	-7.27336
▁against	-7.30334
▁Monday	-7.31201
▁American	-7.32054
▁president	-7.33559
▁Wednesday	-7.34747
▁To	-7.35011
▁no	-7.35902
▁according	-7.36037
ies	-7.37194
▁before	-7.37383
▁police	-7.37444
▁other	-7.38789
▁state	-7.39493
▁On	-7.39996
▁former	-7.40427
▁This	-7.41298
▁For	-7.41677
▁White	-7.41743
on	-7.42847
▁there	-7.43973
during	-7.44105
▁now	-7.45104
▁United	-7.4545
▁York	-7.45693
▁back	-7.45744
▁election	-7.46117
▁so	-7.47963
▁world	-7.48645
▁re	-7.4888
▁News	-7.48935
▁State	-7.49227
▁them	-7.49292
▁million	-7.49593
▁US	-7.49843
▁says	-7.50903
▁if	-7.51207
▁And	-7.51407
▁Sunday	-7.51789
▁Washington	-7.52048
▁how	-7.52347
▁C	-7.54947
▁We	-7.55274
▁government	-7.56134
▁country	-7.56231
▁show	-7.57332
▁night	-7.57376
▁down	-7.57717
▁America	-7.58
S	-7.58694
▁made	-7.59496
▁also	-7.61051
r	-7.62435
▁off	-7.63883
▁want	-7.64335
▁Saturday	-7.64605
▁may	-7.64741
▁us	-7.65008
▁m	-7.65481
▁where	-7.65751
▁look	-7.65975
▁our	-7.6655
al	-7.66823
▁do	-7.66902
▁1	-7.67251
in	-7.67616
▁day	-7.68265
▁Democratic	-7.69202
▁while	-7.69391
▁2016	-7.69566
▁percent	-7.70054
▁get	-7.71207
▁even	-7.71307
▁attack	-7.71447
▁States	-7.72795
st	-7.74001
▁through	-7.74117
▁since	-7.74426
▁reported	-7.75144
▁being	-7.75499
▁media	-7.75856
▁say	-7.75987
▁take	-7.76247
▁company	-7.76758
▁near	-7.76833
▁That	-7.78066
▁your	-7.7875
▁three	-7.79114
▁political	-7.79146
▁home	-7.80556
▁National	-7.80808
▁under	-7.81535
▁make	-7.81745
▁because	-7.81778
▁my	-7.81876
between	-7.81942
▁public	-7.82013
▁officials	-7.82214
an	-7.82293
▁vote	-7.82785
▁Is	-7.83326
ther	-7.84173
▁GOP	-7.84488
▁nominee	-7.84561
▁administration	-7.85439
▁news	-7.85871
▁city	-7.86339
▁only	-7.86392
▁way	-7.87246
▁North	-7.87254
▁federal	-7.87515
▁women	-7.87957
▁found	-7.88077
man	-7.88728
▁group	-7.88829
▁includ	-7.89705
th	-7.90252
▁days	-7.90757
▁D	-7.90788
▁around	-7.9145
▁As	-7.91644
▁B	-7.91656
▁What	-7.9325
▁end	-7.93407
▁called	-7.9365
▁After	-7.93696
▁support	-7.93824
▁How	-7.93881
▁should	-7.93976
▁000	-7.9398
▁report	-7.94352
▁need	-7.944
▁Senate	-7.952
▁Russia	-7.95236
ers	-7.95477
▁With	-7.96331
▁law	-7.96483
▁much	-7.97313
▁2	-7.9739
i	-7.97854
▁order	-7.98106
▁death	-7.98287
▁part	-7.99125
▁killed	-7.99425
▁Court	-7.99473
▁Republicans	-7.99629
▁Department	-7.9975
▁next	-8.0045
▁any	-8.00911
▁You	-8.01195
▁month	-8.0132
▁At	-8.01368
▁When	-8.0141
▁own	-8.02399
▁those	-8.02416
able	-8.02593
▁candidate	-8.02678
▁did	-8.02897
▁Cruz	-8.03124
▁un	-8.03676
▁Of	-8.03741
▁announced	-8.0406
▁Sanders	-8.04497
ion	-8.04651
▁case	-8.04675
▁still	-8.04943
▁long	-8.05127
▁!	-8.05156
▁know	-8.05635
se	-8.06015
▁lead	-8.06588
▁party	-8.07062
▁M	-8.07254
▁John	-8.07673
uch	-8.07695
▁does	-8.07825
▁There	-8.08327
▁think	-8.08661
m	-8.0892
▁going	-8.09344
▁deal	-8.09882
▁life	-8.10109
▁Breitbart	-8.10231
▁Russian	-8.10406
▁top	-8.1113
▁call	-8.11146
▁health	-8.11371
▁No	-8.11873
▁great	-8.12184
▁work	-8.1222
▁If	-8.12525
▁ago	-8.12556
▁court	-8.12949
▁took	-8.13092
▁another	-8.13131
▁right	-8.13142
▁Bill	-8.13187
▁released	-8.13512
▁interview	-8.13533
▁me	-8.13742
▁morning	-8.13807
▁few	-8.14106
▁Democrats	-8.14247
ity	-8.14676
▁least	-8.14775
▁national	-8.14853
▁South	-8.14868
▁Americans	-8.14952
▁They	-8.15016
▁d	-8.15027
▁P	-8.15121
▁turn	-8.15585
▁here	-8.15712
▁10	-8.15842
▁Sen	-8.16132
▁J	-8.16788
est	-8.17114
▁FBI	-8.17191
▁team	-8.1728
▁woman	-8.17415
▁ve	-8.17502
▁Fox	-8.1762
▁set	-8.17878
▁move	-8.1853
▁very	-8.1859
▁debate	-8.18857
▁One	-8.19363
▁host	-8.19523
▁She	-8.19613
▁office	-8.19644
▁ad	-8.19663
▁months	-8.20328
▁China	-8.20389
▁family	-8.20618
▁final	-8.20824
▁Twitter	-8.20863
▁won	-8.21005
▁see	-8.2105
▁3	-8.21126
▁left	-8.21544
▁recent	-8.21752
▁University	-8.21785
▁Texas	-8.21902
▁F	-8.22016
▁5	-8.2209
▁billion	-8.22416
▁O	-8.23224
▁appear	-8.23289
▁E	-8.23408
▁number	-8.23436
▁video	-8.23442
▁big	-8.23472
▁security	-8.23774
▁school	-8.23901
▁help	-8.24282
▁An	-8.24419
w	-8.24644
▁California	-8.24682
▁open	-8.24847
▁both	-8.25072
▁past	-8.25107
▁business	-8.25266
▁statement	-8.26194
▁N	-8.26266
▁use	-8.26532
▁go	-8.27185
▁Police	-8.27421
▁point	-8.2763
▁don	-8.2766
▁major	-8.27712
▁Islamic	-8.27878
▁policy	-8.27879
▁four	-8.28153
▁bill	-8.28227
▁Facebook	-8.28323
▁might	-8.28379
▁asked	-8.28823
▁good	-8.28989
▁place	-8.29339
▁Here	-8.2944
▁across	-8.29506
▁20	-8.29593
ic	-8.30138
▁fight	-8.3068
▁dead	-8.30697
▁arrest	-8.30874
▁black	-8.31072
▁Congress	-8.31273
▁try	-8.31311
▁plan	-8.31395
▁came	-8.31502
▁got	-8.31583
▁early	-8.31662
many	-8.32156
▁City	-8.32298
▁Post	-8.32675
▁post	-8.33084
▁follow	-8.33139
▁become	-8.33186
▁investigation	-8.33282
▁charge	-8.3378
▁issue	-8.34102
▁speech	-8.34118
▁race	-8.34352
▁start	-8.34581
▁reports	-8.34688
▁latest	-8.35162
▁whe	-8.35404
▁well	-8.3562
▁come	-8.35642
▁men	-8.35911
▁seem	-8.36085
le	-8.36319
▁military	-8.36589
▁Day	-8.36719
▁war	-8.36919
▁voters	-8.36972
▁shot	-8.3698
▁b	-8.37153
▁T	-8.3755
▁Syria	-8.37599
▁Supreme	-8.37656
▁win	-8.37667
▁used	-8.37962
▁high	-8.38392
▁change	-8.38541
▁executive	-8.38703
▁second	-8.3928
▁press	-8.39347
▁never	-8.3939
▁Barack	-8.39626
▁known	-8.39737
▁May	-8.40203
▁Why	-8.40252
▁died	-8.40542
▁name	-8.41193
▁4	-8.41368
▁block	-8.41596
▁So	-8.41931
▁history	-8.42031
▁meeting	-8.42666
▁James	-8.43075
▁best	-8.43075
gan	-8.43281
▁hit	-8.43468
▁decision	-8.43641
▁Not	-8.44034
▁His	-8.44092
▁away	-8.44322
▁among	-8.44339
▁Florida	-8.44494
▁Be	-8.45108
▁shooting	-8.45775
▁Paul	-8.45868
▁five	-8.46259
▁story	-8.4641
▁live	-8.4665
▁email	-8.46813
▁put	-8.47008
▁official	-8.47015
▁far	-8.47049
▁members	-8.47592
▁saying	-8.47633
▁K	-8.48161
p	-8.48452
▁continue	-8.48547
▁question	-8.48548
▁head	-8.49166
▁same	-8.49413
▁Ryan	-8.49513
▁white	-8.49983
▁run	-8.5024
▁every	-8.50242
▁p	-8.5076
▁Bernie	-8.50867
▁Please	-8.51033
▁remain	-8.51065
▁claim	-8.51642
▁From	-8.51671
ism	-8.5168
▁social	-8.517
▁gun	-8.51744
▁clear	-8.5177
▁Korea	-8.51963
▁severa	-8.52472
▁these	-8.52607
▁car	-8.52786
▁too	-8.52817
▁chief	-8.52918
▁children	-8.53003
▁Justice	-8.53305
c	-8.536
▁system	-8.53656
▁Street	-8.53712
▁Party	-8.53832
▁face	-8.53893
▁why	-8.53936
▁young	-8.54017
▁pay	-8.54038
▁Carolina	-8.54073
▁Times	-8.54078
▁7	-8.54161
▁making	-8.54172
▁behind	-8.54348
▁series	-8.54946
▁again	-8.54959
h	-8.55385
▁keep	-8.55419
▁alleged	-8.55539
▁nation	-8.5557
▁already	-8.55595
▁Ted	-8.5576
▁leader	-8.56191
▁lot	-8.56198
▁season	-8.56356
son	-8.56649
▁ever	-8.56827
▁6	-8.56847
▁close	-8.56858
▁moment	-8.56929
▁accus	-8.56956
▁Comey	-8.57105
▁then	-8.57151
▁Now	-8.57191
▁Will	-8.57255
▁immigration	-8.5785
▁didn	-8.57943
went	-8.58048
▁little	-8.58063
ton	-8.58175
▁late	-8.58198
▁Committee	-8.58278
▁Obamacare	-8.58287
▁Mr	-8.58338
M	-8.58586
▁2015	-8.58601
▁find	-8.58669
▁European	-8.58918
▁World	-8.59077
▁hours	-8.59114
▁H	-8.59308
▁R	-8.59327
▁W	-8.59437
▁bigge	-8.59848
▁launch	-8.60085
▁give	-8.60106
▁star	-8.60156
▁March	-8.60471
ness	-8.61015
▁TV	-8.61036
ment	-8.61041
▁record	-8.61099
▁likely	-8.61108
▁power	-8.61312
▁attempt	-8.61367
▁weekend	-8.6148
▁film	-8.61822
▁something	-8.61961
▁foreign	-8.62069
▁Michael	-8.62108
▁de	-8.62209
▁following	-8.62782
▁San	-8.62989
▁attacks	-8.63351
▁100	-8.63461
ry	-8.63546
▁really	-8.63824
▁weeks	-8.64353
▁market	-8.64387
▁victor	-8.64703
▁private	-8.64745
▁tell	-8.6517
▁update	-8.6535
▁real	-8.65583
▁Syrian	-8.65625
▁money	-8.65627
▁local	-8.65742
▁suspect	-8.65781
▁receive	-8.65986
▁Black	-8.65992
▁leaders	-8.66131
▁West	-8.66226
▁things	-8.66395
▁seen	-8.66515
▁sign	-8.666
▁8	-8.66638
▁less	-8.66654
▁taking	-8.66782
▁small	-8.66984
▁Over	-8.67214
out	-8.67448
▁general	-8.67689
▁ISIS	-8.67807
▁believe	-8.67831
▁old	-8.67967
▁job	-8.68001
▁game	-8.68029
▁shows	-8.68039
▁himself	-8.68059
▁tax	-8.68139
▁stories	-8.68393
▁along	-8.68538
▁states	-8.6861
▁sexual	-8.68619
▁primary	-8.68677
▁Wall	-8.68775
one	-8.68778
▁cut	-8.6883
▁event	-8.69002
▁fire	-8.69011
▁director	-8.69111
▁9	-8.69287
▁talk	-8.69289
▁murder	-8.69303
▁join	-8.69444
ally	-8.69451
▁share	-8.69504
▁publish	-8.69513
▁push	-8.69556
▁Apple	-8.69557
▁today	-8.69572
▁Mexico	-8.69653
ING	-8.70043
▁expected	-8.70066
▁control	-8.70306
▁comes	-8.70412
▁More	-8.70531
▁conservative	-8.70555
TON	-8.70612
▁Are	-8.70617
▁once	-8.70663
▁stop	-8.70671
▁later	-8.70699
▁conference	-8.71373
▁secretary	-8.7146
▁consider	-8.71521
▁Secretary	-8.71539
coming	-8.7156
▁large	-8.71728
▁global	-8.71789
▁hard	-8.71833
▁travel	-8.71985
▁care	-8.72029
ance	-8.72254
▁officers	-8.72272
▁officer	-8.72575
▁six	-8.72626
▁yet	-8.72857
▁plans	-8.72921
k	-8.72985
▁St	-8.73036
▁current	-8.73288
▁students	-8.734
▁trade	-8.73594
us	-8.7363
▁Union	-8.73705
▁Iran	-8.74019
▁companies	-8.7406
▁town	-8.74375
▁full	-8.74494
▁15	-8.74653
▁information	-8.74862
▁outside	-8.75
▁visit	-8.75029
▁First	-8.75071
▁address	-8.75156
▁David	-8.75198
▁British	-8.75837
▁Rubio	-8.76049
▁bank	-8.76281
▁ask	-8.76312
▁Muslim	-8.7634
ation	-8.76366
▁potential	-8.76478
▁rights	-8.76534
▁countries	-8.76564
▁assault	-8.7665
▁authorities	-8.76767
▁running	-8.77083
▁love	-8.77146
▁judge	-8.77205
▁earlier	-8.77429
▁ban	-8.77682
▁ll	-8.77771
▁Security	-8.77826
▁air	-8.7785
▁economic	-8.77992
▁11	-8.78059
▁Act	-8.78104
▁thing	-8.78176
▁threat	-8.78267
without	-8.78321
▁gett	-8.78548
lmost	-8.78596
less	-8.78625
▁CEO	-8.78648
▁politics	-8.78876
▁sources	-8.78931
▁Two	-8.79001
▁War	-8.7938
▁Daily	-8.79574
▁partners	-8.79613
▁future	-8.79662
▁All	-8.79697
▁better	-8.79777
▁border	-8.79802
▁London	-8.79839
▁book	-8.79952
▁role	-8.80284
▁test	-8.80729
▁fall	-8.80808
▁building	-8.80835
▁12	-8.8089
b	-8.8099
▁rate	-8.81031
▁Can	-8.81204
re	-8.81271
▁30	-8.81391
▁Los	-8.81874
▁Man	-8.81955
▁working	-8.82018
▁reach	-8.82643
▁illegal	-8.82813
or	-8.82814
▁thought	-8.83181
▁supporters	-8.83264
▁pick	-8.83412
▁County	-8.83767
▁data	-8.83782
land	-8.83824
▁taken	-8.84101
▁Gov	-8.84251
▁killing	-8.8429
▁line	-8.8452
▁bring	-8.8466
▁below	-8.84712
▁concern	-8.84713
▁writing	-8.84894
▁Some	-8.85073
▁each	-8.85409
▁short	-8.85438
▁rally	-8.8555
▁human	-8.86048
▁Mike	-8.86209
until	-8.8621
ce	-8.86225
▁legal	-8.86285
z	-8.87016
▁questions	-8.87059
▁actual	-8.8745
▁act	-8.87481
▁50	-8.87743
um	-8.87765
▁allow	-8.87862
▁People	-8.87879
▁sponsors	-8.88066
▁intelligence	-8.8809
▁poll	-8.88278
▁having	-8.88362
▁2017	-8.88362
▁G	-8.88536
▁strong	-8.88703
▁enough	-8.88748
▁De	-8.88862
▁water	-8.88908
▁L	-8.88923
▁Who	-8.88929
▁thousands	-8.88973
▁different	-8.88993
▁nomination	-8.88996
▁program	-8.89362
▁About	-8.89382
▁special	-8.89403
▁wrote	-8.89479
▁lost	-8.89577
▁list	-8.89612
▁seek	-8.89644
▁display	-8.89724
▁sex	-8.89752
▁online	-8.89756
▁WASH	-8.89773
ous	-8.89887
▁Europe	-8.89941
▁release	-8.89943
▁network	-8.90117
▁Do	-8.90243
▁prison	-8.90543
▁Health	-8.9058
came	-8.90802
el	-8.91023
▁Former	-8.91078
▁My	-8.91101
▁leave	-8.91271
▁often	-8.91427
▁recently	-8.9161
▁wife	-8.91645
▁person	-8.91824
▁free	-8.91979
ive	-8.92148
▁French	-8.92155
▁half	-8.92506
▁East	-8.92684
▁financial	-8.9286
▁afternoon	-8.92925
▁Center	-8.93045
▁steps	-8.93049
▁Care	-8.93092
▁Rep	-8.93358
▁sent	-8.93396
A	-8.93615
▁process	-8.93672
▁led	-8.93674
▁document	-8.9392
▁key	-8.93943
▁agency	-8.93999
▁senior	-8.94183
▁Britain	-8.94235
▁largest	-8.94292
▁George	-8.94388
age	-8.94408
▁protest	-8.94463
▁claims	-8.94604
▁Federal	-8.94646
▁General	-8.95007
▁January	-8.95421
▁personal	-8.95581
▁2014	-8.95629
▁interest	-8.95753
▁economy	-8.95785
▁site	-8.96263
▁letter	-8.96397
▁drug	-8.96534
g	-8.96626
▁started	-8.96653
▁coming	-8.9667
▁hand	-8.96691
▁toward	-8.96806
▁select	-8.96939
▁service	-8.96941
▁According	-8.96974
▁forces	-8.97339
▁student	-8.97349
▁April	-8.97359
▁deliver	-8.97397
▁bad	-8.974
▁Israel	-8.97487
▁November	-8.97571
▁house	-8.97622
▁decades	-8.97656
▁ahead	-8.97704
▁study	-8.97742
▁Co	-8.97947
▁Her	-8.98211
▁room	-8.98307
▁focus	-8.98343
▁hope	-8.98403
▁possible	-8.9854
▁Minister	-8.98691
▁industry	-8.98798
▁lawsuit	-8.98798
to	-8.98966
▁response	-8.99012
▁By	-8.9906
▁confirmed	-8.99089
▁jobs	-8.99125
▁explain	-8.99439
▁others	-8.99459
▁enter	-8.99933
ch	-9.00032
▁June	-9.00107
▁times	-9.00247
▁though	-9.0038
▁Show	-9.00458
▁seven	-9.00475
▁Iraq	-9.00562
▁increase	-9.00639
▁France	-9.0075
▁presidency	-9.00968
▁battle	-9.01234
▁mother	-9.01236
▁food	-9.01377
lways	-9.01518
▁target	-9.0186
▁problem	-9.01919
u	-9.02177
▁Chicago	-9.02459
▁demand	-9.02626
▁Report	-9.02643
▁calling	-9.02682
▁important	-9.02742
▁course	-9.02792
▁oil	-9.02795
▁college	-9.02849
▁buy	-9.03065
▁son	-9.03236
▁Last	-9.03536
▁Le	-9.03556
▁must	-9.03651
▁age	-9.03821
▁School	-9.03835
▁incident	-9.0386
▁violence	-9.03917
▁Bush	-9.03921
▁wants	-9.0401
▁crisis	-9.04144
▁father	-9.04257
▁Ohio	-9.04484
▁climate	-9.04597
▁offer	-9.04599
▁return	-9.0463
▁international	-9.04768
ful	-9.04815
▁Pence	-9.04955
▁front	-9.05162
▁nuclear	-9.05167
▁candidates	-9.05236
▁evening	-9.0531
▁hold	-9.05426
▁fact	-9.05441
▁member	-9.05514
▁Just	-9.05554
▁Office	-9.05757
▁feel	-9.05897
f	-9.05907
▁soon	-9.06041
▁message	-9.06059
▁Park	-9.06146
6	-9.06378
ie	-9.06474
▁During	-9.06531
▁Press	-9.06748
x	-9.06783
▁kind	-9.0679
espite	-9.06798
While	-9.06799
▁workers	-9.06905
▁third	-9.06956
▁Don	-9.06961
▁Putin	-9.07255
▁capital	-9.07335
▁Iowa	-9.07365
▁evidence	-9.07482
▁senator	-9.07482
▁force	-9.07539
▁Angeles	-9.07753
▁Out	-9.07761
▁La	-9.0789
▁Hollywood	-9.08069
ant	-9.08287
▁community	-9.08306
▁Al	-9.08317
▁activist	-9.08659
▁dozen	-9.08659
▁inside	-9.08862
▁boy	-9.08877
▁rule	-9.09045
▁sell	-9.09371
▁Inc	-9.09689
▁25	-9.09884
▁child	-9.09896
▁include	-9.099
▁Women	-9.10031
▁reporters	-9.10063
▁comments	-9.10072
▁tri	-9.10096
▁effort	-9.10178
▁Reuters	-9.10331
C	-9.10451
▁13	-9.10544
pent	-9.10666
▁charg	-9.10685
▁play	-9.10758
▁hundred	-9.10814
▁body	-9.10828
▁daughter	-9.10846
▁Google	-9.10875
▁repeal	-9.10935
▁lawmaker	-9.10936
▁side	-9.11059
▁Up	-9.1106
▁hearing	-9.11264
▁summer	-9.11264
▁let	-9.1128
▁Sessions	-9.11283
▁Paris	-9.11522
▁received	-9.11534
▁popular	-9.11538
ist	-9.11816
▁issues	-9.1227
▁terrorist	-9.12351
▁matter	-9.12368
▁deep	-9.12381
▁Jeff	-9.12768
▁respond	-9.12942
▁July	-9.13133
▁discuss	-9.13136
▁arm	-9.13172
▁Director	-9.13266
▁18	-9.13391
▁attorney	-9.13513
▁Mark	-9.13539
▁Judge	-9.14099
▁staff	-9.14253
▁gave	-9.14262
▁Super	-9.14264
▁cause	-9.14364
▁Election	-9.14567
is	-9.1465
▁suggest	-9.1472
▁failed	-9.14795
▁firm	-9.14933
▁Virginia	-9.14961
▁AP	-9.15021
B	-9.1509
▁groups	-9.15292
time	-9.15297
▁defend	-9.15359
▁Mexican	-9.15405
▁phone	-9.15484
▁Turkey	-9.15663
▁stay	-9.15845
▁rise	-9.16036
▁adviser	-9.16376
▁direct	-9.16389
▁stage	-9.16457
▁words	-9.16596
▁w	-9.16873
▁met	-9.1689
▁extension	-9.17057
▁Chris	-9.17064
▁lawyer	-9.17066
▁14	-9.17093
▁action	-9.17141
▁doing	-9.1718
▁aim	-9.17297
▁Attorney	-9.17314
▁Chinese	-9.17379
▁search	-9.17543
▁Saudi	-9.17573
▁Zika	-9.17574
▁German	-9.17605
▁40	-9.17673
▁annual	-9.17703
▁Time	-9.17756
▁fired	-9.17829
▁criminal	-9.1783
▁Prime	-9.1823
▁fil	-9.18348
▁convention	-9.18452
▁movie	-9.18504
▁Joe	-9.18518
▁area	-9.18537
ley	-9.18671
▁defense	-9.18745
▁strike	-9.18811
▁read	-9.18813
rought	-9.1887
▁eight	-9.18943
▁elect	-9.19213
7	-9.19254
▁describ	-9.19258
▁together	-9.19271
▁Has	-9.19385
▁discover	-9.19469
▁Chief	-9.19504
5	-9.2026
▁flight	-9.20265
▁enforcement	-9.20266
et	-9.20474
3	-9.20726
▁International	-9.20797
▁lives	-9.209
▁certain	-9.20904
D	-9.20929
▁Media	-9.20949
2	-9.20977
▁Uber	-9.21265
▁crowd	-9.21372
ar	-9.21395
▁creat	-9.21489
▁music	-9.21631
▁Go	-9.21667
▁happened	-9.21669
▁board	-9.21874
▁resident	-9.21982
▁chance	-9.22076
▁idea	-9.2208
▁friend	-9.22114
▁Brexit	-9.22185
▁com	-9.22217
▁field	-9.22274
▁Un	-9.22532
▁revealed	-9.22621
▁project	-9.22845
▁crash	-9.22909
▁amid	-9.22968
ra	-9.22972
▁Says	-9.23224
▁growing	-9.23297
▁result	-9.23333
▁couple	-9.23533
▁wide	-9.23603
▁image	-9.23698
ability	-9.23781
▁terror	-9.23876
ell	-9.23903
▁Re	-9.24246
▁Bannon	-9.24272
▁wrong	-9.24324
▁Democrat	-9.24373
▁manager	-9.2441
▁career	-9.2443
▁wall	-9.24828
▁center	-9.24851
▁break	-9.24962
▁walk	-9.25091
▁sales	-9.25245
▁website	-9.25311
▁Have	-9.25338
▁missile	-9.25381
▁done	-9.25435
▁17	-9.25448
▁makes	-9.25472
▁Good	-9.25667
▁entire	-9.25872
▁source	-9.25983
▁girl	-9.25985
▁particular	-9.26013
▁saw	-9.26026
▁space	-9.26167
▁meet	-9.26196
▁measure	-9.26288
4	-9.26358
▁ground	-9.26446
▁emails	-9.2647
▁parents	-9.26478
▁rules	-9.26514
▁Senator	-9.26586
▁Robert	-9.26686
▁governor	-9.26706
▁Your	-9.26728
▁results	-9.26759
▁rival	-9.26781
▁technolog	-9.26787
▁living	-9.26792
▁stock	-9.26839
▁scandal	-9.26848
▁tie	-9.2714
▁Stephen	-9.27223
▁spoke	-9.27402
▁total	-9.27415
▁19	-9.27767
▁land	-9.27776
ought	-9.27793
▁article	-9.27861
▁Was	-9.27967
▁Marco	-9.27983
▁migrant	-9.28005
▁heart	-9.2803
na	-9.28042
▁single	-9.28095
▁television	-9.28514
O	-9.28551
▁employees	-9.28701
▁Manhattan	-9.28799
ary	-9.28942
▁title	-9.29017
▁Air	-9.29032
▁civil	-9.29149
▁2012	-9.29163
▁Germany	-9.29206
▁feature	-9.29246
▁bid	-9.29273
▁...	-9.29302
▁Like	-9.29343
▁answer	-9.29374
▁Dr	-9.29407
▁NBC	-9.29457
▁Orlando	-9.29526
▁College	-9.2954
▁nothing	-9.29679
be	-9.298
▁heard	-9.29901
▁policies	-9.30044
▁position	-9.30052
▁Big	-9.30075
▁female	-9.30258
▁request	-9.3026
▁wear	-9.30347
▁minister	-9.30351
▁Y	-9.3039
▁review	-9.30491
▁Tom	-9.3059
cy	-9.30597
▁passed	-9.30683
▁hospital	-9.30741
▁account	-9.30826
▁massive	-9.30933
▁probabl	-9.31025
given	-9.31041
▁giant	-9.3107
▁victims	-9.31132
▁husband	-9.31218
▁am	-9.3132
▁16	-9.31376
▁Steve	-9.31506
▁chairman	-9.31536
▁themselves	-9.31669
▁friends	-9.31674
▁Flynn	-9.31739
▁cop	-9.31783
▁efforts	-9.31854
▁movement	-9.31931
▁signed	-9.31973
▁fear	-9.32093
▁500	-9.32104
P	-9.32111
▁EU	-9.32129
▁fund	-9.32143
▁condition	-9.32187
▁trial	-9.32196
▁plane	-9.32211
ia	-9.32299
▁Back	-9.32427
▁immigrants	-9.33082
ten	-9.33202
▁view	-9.33205
▁spending	-9.33374
▁polls	-9.33418
▁protesters	-9.33555
▁Scott	-9.33573
▁Star	-9.33633
▁controversial	-9.33706
▁fee	-9.33745
▁growth	-9.33791
▁appeal	-9.3385
▁price	-9.33906
▁station	-9.34169
▁crime	-9.3419
▁24	-9.34247
▁Get	-9.34323
1	-9.34343
▁Ben	-9.34376
▁leaving	-9.34385
▁remark	-9.34535
▁longer	-9.34598
▁miles	-9.34654
▁provide	-9.34949
▁Every	-9.35068
ur	-9.35362
▁step	-9.35405
▁minutes	-9.35428
▁serious	-9.35452
▁reason	-9.35484
▁Green	-9.35547
▁experience	-9.35567
▁Jersey	-9.35618
▁21	-9.35667
▁decided	-9.35729
▁due	-9.3575
▁agreement	-9.35787
▁Attack	-9.35827
▁main	-9.3609
▁secret	-9.361
9	-9.36389
ez	-9.36406
▁Kelly	-9.36495
▁seat	-9.36504
▁quarter	-9.36538
▁protect	-9.36539
▁justice	-9.36658
▁Live	-9.36734
▁King	-9.36854
▁liberal	-9.36866
▁cost	-9.36889
▁cities	-9.36926
▁journalist	-9.37101
▁injured	-9.37105
▁cast	-9.37109
▁serve	-9.37175
▁committee	-9.37181
▁February	-9.37338
▁bas	-9.37396
▁unit	-9.37466
▁coverage	-9.37508
▁attention	-9.37737
▁fans	-9.37803
▁NFL	-9.37925
▁spokesm	-9.38029
▁Year	-9.38051
▁kill	-9.38091
▁ra	-9.38102
ling	-9.38189
▁attend	-9.38259
▁round	-9.38419
▁increasing	-9.38449
▁Group	-9.3845
▁declared	-9.38465
▁light	-9.3848
side	-9.385
▁Convention	-9.38529
ne	-9.38564
▁access	-9.3872
▁stand	-9.38796
▁budget	-9.3885
▁events	-9.39283
▁talks	-9.39336
▁December	-9.39572
▁Rio	-9.39641
▁Speaker	-9.39677
▁200	-9.39747
▁2013	-9.39816
▁fell	-9.40116
▁voting	-9.4022
▁everything	-9.40222
▁Japan	-9.40299
▁caus	-9.40334
▁research	-9.40398
▁aide	-9.40542
▁Want	-9.40573
▁abortion	-9.40599
ta	-9.40801
▁reality	-9.40851
▁Johnson	-9.41114
te	-9.41119
▁Real	-9.41302
▁means	-9.41471
▁Their	-9.41493
▁Most	-9.41557
▁conduct	-9.41588
▁politician	-9.4161
▁billionaire	-9.41694
ever	-9.41696
▁significant	-9.41708
▁represent	-9.41808
ian	-9.41846
▁central	-9.41857
▁gay	-9.41863
▁22	-9.41866
▁train	-9.41994
▁Week	-9.42105
▁refugees	-9.42126
▁doctor	-9.42192
▁Our	-9.42299
▁Tim	-9.4232
▁talking	-9.42351
K	-9.42369
▁Today	-9.42461
▁decline	-9.42522
▁risk	-9.42599
▁write	-9.42677
▁Middle	-9.427
▁replace	-9.42736
▁worst	-9.42778
▁V	-9.42825
▁sure	-9.42831
▁expect	-9.43108
▁Spicer	-9.43187
▁reform	-9.43191
▁conflict	-9.4327
▁forc	-9.43389
▁itself	-9.43413
▁choice	-9.43471
▁editor	-9.43533
▁Christian	-9.43605
▁paid	-9.43713
N	-9.43769
▁Hill	-9.43774
▁instead	-9.43842
▁Or	-9.43997
▁Korean	-9.4404
▁Amazon	-9.44196
▁reporter	-9.44256
▁Even	-9.4427
▁per	-9.44401
▁raised	-9.44403
▁majority	-9.44627
▁track	-9.44687
▁Conservative	-9.44705
▁else	-9.44705
▁everyone	-9.44748
▁tweet	-9.44849
▁winning	-9.44923
▁September	-9.44959
▁trip	-9.4497
▁campus	-9.44971
▁medical	-9.45002
▁mean	-9.45047
▁huge	-9.45151
▁congressional	-9.45215
▁Watch	-9.45255
▁Israeli	-9.45276
▁cit	-9.4532
▁UK	-9.45374
▁broadcast	-9.45403
ish	-9.4556
▁organization	-9.45584
▁opposition	-9.45643
▁anything	-9.45644
▁familiar	-9.45721
▁Sean	-9.45728
▁mass	-9.4579
▁watch	-9.4586
▁fac	-9.46034
▁helped	-9.46089
▁avoid	-9.46115
it	-9.46186
▁Border	-9.46245
way	-9.46369
▁raise	-9.46387
▁able	-9.46407
▁Force	-9.46409
▁base	-9.46609
▁learned	-9.46692
▁check	-9.467
ritten	-9.46743
▁bar	-9.46807
▁scene	-9.46909
▁scientist	-9.46937
▁airport	-9.46941
▁performance	-9.4695
T	-9.47049
▁Michigan	-9.4711
▁further	-9.47117
▁add	-9.47247
▁Pennsylvania	-9.47285
▁region	-9.47306
▁Brazil	-9.47366
▁class	-9.47691
▁accept	-9.47835
▁send	-9.47837
▁district	-9.47861
▁Cleveland	-9.47984
▁radio	-9.48127
▁famous	-9.48182
▁original	-9.48207
▁level	-9.48266
ri	-9.4833
▁Campaign	-9.48336
la	-9.4837
▁worth	-9.48407
▁create	-9.48443
▁District	-9.48512
▁exact	-9.48514
▁argu	-9.48643
▁save	-9.48646
▁storm	-9.48722
▁proposal	-9.48822
▁Great	-9.48932
▁prevent	-9.48954
▁effect	-9.49022
▁investors	-9.49086
▁piece	-9.49184
▁El	-9.49253
▁Law	-9.49291
▁details	-9.49308
▁word	-9.49508
ter	-9.4954
▁Iraqi	-9.49612
▁probe	-9.49622
▁added	-9.49704
E	-9.49744
ate	-9.49824
▁episode	-9.49844
▁form	-9.49845
▁low	-9.50007
▁Far	-9.50073
▁drive	-9.50289
▁hands	-9.50362
▁militant	-9.50383
▁cover	-9.50402
▁powerful	-9.50411
▁term	-9.50416
▁goes	-9.50433
▁Many	-9.50462
▁forward	-9.50527
▁protests	-9.50544
▁department	-9.50565
▁brief	-9.50616
▁expand	-9.50652
▁legislati	-9.50696
▁Indiana	-9.50764
giving	-9.51012
ville	-9.51123
▁votes	-9.51149
▁NPR	-9.51196
▁Foundation	-9.51199
▁safe	-9.51202
▁common	-9.51381
ma	-9.51397
▁prices	-9.51403
▁practice	-9.51469
▁limit	-9.51633
▁Dallas	-9.51649
▁especial	-9.51649
▁gets	-9.51989
▁author	-9.52103
▁Council	-9.52105
▁Me	-9.52256
▁jail	-9.52288
▁provid	-9.52437
▁Intelligence	-9.52563
▁education	-9.52564
▁photo	-9.52583
▁Down	-9.5263
▁fatal	-9.52638
▁Anti	-9.52668
▁propos	-9.5268
▁quickly	-9.52689
▁Hampshire	-9.52839
▁bit	-9.52845
▁nam	-9.5296
▁60	-9.53032
▁African	-9.53048
▁decade	-9.53062
R	-9.53118
▁High	-9.532
▁reveal	-9.53289
▁Peter	-9.53368
▁tough	-9.53439
▁Leader	-9.53476
▁Bank	-9.53587
▁build	-9.53664
▁beat	-9.53688
▁Gun	-9.53723
▁played	-9.53725
▁character	-9.53749
▁transition	-9.5377
▁criticism	-9.53773
▁tech	-9.5379
▁kids	-9.53955
▁Olympic	-9.54014
▁rare	-9.54064
▁October	-9.5423
▁true	-9.54373
▁Brooklyn	-9.54418
▁passenger	-9.54511
▁speak	-9.54574
▁August	-9.54605
▁warned	-9.54683
▁approach	-9.54792
▁Under	-9.54877
▁weapons	-9.54979
▁Christmas	-9.54981
▁Francisco	-9.54985
▁allegations	-9.5501
▁voice	-9.55095
▁insurance	-9.5517
▁Service	-9.55269
▁MSNBC	-9.55358
▁hate	-9.55441
▁relationship	-9.55459
▁magazine	-9.55568
▁Let	-9.55582
▁fellow	-9.55646
▁present	-9.5568
▁lose	-9.55782
▁Brown	-9.55859
▁Canada	-9.5587
▁iPhone	-9.55942
▁loss	-9.56014
▁arriv	-9.56025
▁ruling	-9.56117
▁Martin	-9.56126
▁comment	-9.56164
▁terrorism	-9.56194
▁Wisconsin	-9.56212
L	-9.56282
am	-9.56731
▁rest	-9.56785
il	-9.57206
▁store	-9.57253
▁repeated	-9.57275
▁offered	-9.57402
▁begin	-9.5743
▁pass	-9.57462
▁opening	-9.57514
▁pressure	-9.57596
▁immediately	-9.57852
▁multiple	-9.57855
▁bomb	-9.57859
▁anyone	-9.5789
▁brand	-9.57917
▁Pro	-9.57957
ve	-9.58243
▁broke	-9.58296
▁refus	-9.58365
▁energy	-9.58428
▁worked	-9.58506
▁23	-9.58532
▁cancer	-9.58623
▁pull	-9.58703
▁founder	-9.58736
▁red	-9.58752
▁slow	-9.58843
▁identified	-9.58992
▁Marine	-9.58997
▁involved	-9.59103
▁gain	-9.59135
▁date	-9.59146
▁audience	-9.5921
▁floor	-9.59308
▁fake	-9.59309
▁hear	-9.59332
▁urge	-9.59389
▁exchange	-9.59432
▁drop	-9.59495
▁Policy	-9.59526
8	-9.59575
▁Since	-9.59606
▁announcement	-9.59615
▁Game	-9.5962
▁Arabia	-9.59701
▁Richard	-9.59705
▁planned	-9.59712
▁ready	-9.5985
▁owner	-9.60028
W	-9.60098
▁Sea	-9.60173
lo	-9.60174
▁Three	-9.60197
▁users	-9.60259
▁previous	-9.60417
▁experts	-9.60465
▁Kim	-9.60537
ro	-9.60572
▁Against	-9.60621
▁continu	-9.60638
▁appearance	-9.60758
▁Jones	-9.60846
▁gather	-9.60874
▁players	-9.60938
▁showing	-9.60963
▁families	-9.60993
▁Business	-9.60993
▁express	-9.61043
▁Georgia	-9.61193
▁hotel	-9.61207
▁opponent	-9.61293
▁warning	-9.61323
▁guilty	-9.61424
▁truck	-9.61452
▁ET	-9.61528
▁actor	-9.61795
▁reject	-9.61861
co	-9.61888
▁estate	-9.61898
▁hot	-9.62031
▁services	-9.62142
▁Afford	-9.622
▁streets	-9.62212
▁caught	-9.62404
off	-9.62498
▁ABC	-9.62499
daily	-9.62538
▁cars	-9.62572
▁lower	-9.62764
▁remember	-9.62809
greed	-9.62814
▁faces	-9.62861
▁inauguration	-9.62914
▁playing	-9.62962
▁virus	-9.63114
▁criticiz	-9.63167
▁surprise	-9.63176
ka	-9.63233
▁agree	-9.63274
▁born	-9.63478
▁subject	-9.63524
▁jump	-9.63524
▁poor	-9.63524
▁culture	-9.63524
▁vow	-9.63547
▁Bowl	-9.63565
▁blast	-9.63626
▁fill	-9.63899
▁problems	-9.63907
▁nine	-9.63984
▁suicide	-9.63989
▁Mayor	-9.64197
▁throw	-9.64241
▁prime	-9.64263
▁convict	-9.64278
▁Mosu	-9.64288
▁Gors	-9.64314
▁abuse	-9.64336
▁dropp	-9.64382
▁wave	-9.64427
im	-9.64431
▁Aleppo	-9.64451
▁similar	-9.64481
▁Could	-9.64554
▁transgender	-9.64554
▁sound	-9.64555
▁mind	-9.64613
▁defeat	-9.64727
▁Administration	-9.64761
▁changed	-9.64803
▁Should	-9.64865
▁football	-9.64867
▁professor	-9.6487
go	-9.64917
▁coach	-9.64974
▁Agency	-9.65012
▁apparently	-9.65045
▁figure	-9.6505
▁Afghanistan	-9.65073
▁contain	-9.65123
▁peace	-9.65131
ig	-9.65164
▁Nav	-9.6527
▁religious	-9.65282
▁Immigration	-9.65298
▁gone	-9.65309
▁eat	-9.65491
held	-9.6559
▁Human	-9.65671
▁presumptive	-9.65808
▁Kasich	-9.65825
▁tweeted	-9.65852
▁cash	-9.65906
▁driver	-9.65987
▁apartment	-9.66023
▁version	-9.66038
▁winner	-9.66039
G	-9.66089
▁disease	-9.6612
tic	-9.66137
▁rape	-9.66139
▁holding	-9.66173
▁Public	-9.66225
▁Valley	-9.66227
▁sports	-9.66231
▁Vice	-9.66346
▁Army	-9.66426
▁challenge	-9.66434
ship	-9.66691
▁perhaps	-9.66759
▁discussion	-9.66765
▁rock	-9.66796
▁Muslims	-9.66872
▁speaking	-9.66957
▁fashion	-9.66965
▁perform	-9.67151
▁missing	-9.67243
▁Island	-9.67258
▁Jr	-9.67296
▁violent	-9.6739
▁stopp	-9.67448
▁wake	-9.67511
▁difficult	-9.67604
▁investigat	-9.67663
▁kick	-9.67705
▁Foreign	-9.6771
▁Internet	-9.67818
▁fast	-9.67903
▁club	-9.6803
▁teacher	-9.68045
▁regard	-9.68069
▁Before	-9.68354
▁writer	-9.68374
▁Matter	-9.68414
▁Turkish	-9.68462
ham	-9.68476
▁sense	-9.68788
▁citizens	-9.68835
H	-9.69077
▁Scalia	-9.6911
▁birth	-9.69133
up	-9.69174
▁27	-9.69196
▁gas	-9.69229
▁26	-9.69391
▁struggle	-9.69436
▁victim	-9.69454
▁Ex	-9.69468
▁photos	-9.69492
▁higher	-9.6956
▁honor	-9.69692
▁note	-9.69718
▁Long	-9.69756
▁island	-9.69759
▁survey	-9.69763
▁Say	-9.69779
▁via	-9.69992
▁Central	-9.7009
▁Politics	-9.7011
▁moving	-9.7031
▁initial	-9.70421
▁app	-9.70453
▁historic	-9.70481
▁whom	-9.70528
▁ways	-9.70627
▁kne	-9.70684
▁Top	-9.70778
▁briefing	-9.70822
▁baby	-9.7097
▁2008	-9.70979
▁usual	-9.70983
ine	-9.71056
▁either	-9.71192
▁understand	-9.71207
▁28	-9.71243
▁-	-9.71308
▁needs	-9.71354
▁Tesla	-9.71413
driving	-9.71415
ory	-9.71445
▁dollars	-9.71471
▁suggested	-9.71477
▁Take	-9.71557
▁funding	-9.71628
▁parties	-9.71658
▁street	-9.71732
▁coast	-9.7179
▁Open	-9.71794
▁View	-9.71859
▁internet	-9.71859
▁favorite	-9.71862
▁90	-9.71863
ner	-9.71963
▁pretty	-9.71969
▁prompt	-9.72192
▁dangerous	-9.72312
▁count	-9.72353
▁Meet	-9.7243
▁agenc	-9.72487
▁Pope	-9.72617
▁holiday	-9.7264
▁pulled	-9.72661
▁church	-9.72696
▁above	-9.72753
▁Did	-9.72881
▁Plan	-9.72906
▁changes	-9.72907
▁Prince	-9.72988
▁animal	-9.73091
▁previously	-9.73179
▁Nations	-9.7319
▁leadership	-9.7323
▁Governor	-9.7343
▁CBS	-9.73444
▁Milo	-9.73567
▁Woman	-9.73656
▁Atlantic	-9.73722
though	-9.7378
▁supposed	-9.7378
▁Night	-9.73892
▁success	-9.7395
▁sanctions	-9.74042
▁easy	-9.74111
▁contest	-9.74139
▁safety	-9.74233
▁happen	-9.74303
▁middle	-9.74339
▁wounded	-9.74391
▁Channel	-9.74454
▁road	-9.74528
▁bus	-9.74565
▁wild	-9.74672
▁England	-9.74682
▁average	-9.74691
▁player	-9.74698
▁Islam	-9.74711
▁Earth	-9.74801
▁damage	-9.74866
▁rough	-9.74879
▁Smith	-9.74891
sh	-9.74935
▁emergency	-9.75061
▁agents	-9.7521
▁agenda	-9.75257
▁southern	-9.75257
▁camera	-9.75299
▁Life	-9.7533
▁page	-9.7537
▁establishment	-9.75377
▁successful	-9.75384
▁felt	-9.75484
▁hour	-9.75557
▁simple	-9.75586
▁critical	-9.75605
▁allowed	-9.75714
▁Capitol	-9.75719
▁headline	-9.7574
▁period	-9.75951
going	-9.76002
▁investment	-9.76054
town	-9.762
▁CIA	-9.76204
old	-9.76235
▁newspaper	-9.76402
▁northern	-9.76417
▁Jewish	-9.76421
F	-9.7645
▁laws	-9.76575
▁Vladimir	-9.7665
▁camp	-9.76713
imply	-9.76735
▁suit	-9.76765
▁radical	-9.76879
▁Lives	-9.76942
▁Christie	-9.77004
ca	-9.77009
ty	-9.7709
▁retire	-9.77101
▁Arizona	-9.77119
▁Oregon	-9.77119
▁conservatives	-9.77137
▁Canadian	-9.77354
▁carrie	-9.77403
▁profit	-9.77419
▁Lee	-9.77501
U	-9.77508
▁schedul	-9.77535
▁Officer	-9.77558
▁argument	-9.77614
▁Defense	-9.77741
▁Poll	-9.7775
▁broad	-9.77784
▁album	-9.77827
▁schools	-9.77832
▁lack	-9.77835
▁art	-9.77876
▁bathroom	-9.77944
▁model	-9.78008
▁Cuba	-9.78014
▁Fed	-9.78046
▁armed	-9.78056
▁beginning	-9.78065
▁believed	-9.78087
▁science	-9.78149
▁Political	-9.78182
▁198	-9.78299
▁traditional	-9.78312
▁roll	-9.78352
▁29	-9.78355
▁Executive	-9.7842
▁sale	-9.78502
▁fair	-9.78661
▁tour	-9.78678
▁Olympics	-9.78696
▁server	-9.7888
id	-9.78893
▁specific	-9.78939
struck	-9.78981
▁insist	-9.78988
▁impact	-9.79016
▁Vote	-9.79154
▁perfect	-9.79255
▁Then	-9.79281
▁picture	-9.79338
▁door	-9.79356
▁fighter	-9.79567
▁India	-9.79569
▁Make	-9.79733
▁delegates	-9.798
▁Am	-9.79938
ard	-9.79941
mo	-9.80033
losing	-9.80082
▁Government	-9.80117
▁Boston	-9.8022
▁trail	-9.80249
▁favor	-9.8026
ach	-9.80471
▁contract	-9.80567
▁Philadelphia	-9.80584
ford	-9.80585
▁Kill	-9.80737
▁park	-9.80738
▁hack	-9.80814
▁Right	-9.80816
▁patient	-9.80906
▁whole	-9.8091
▁independent	-9.80949
▁telling	-9.80973
▁obtain	-9.81071
▁McCa	-9.81115
▁Tiller	-9.81256
men	-9.81264
▁Would	-9.81316
▁classified	-9.81318
▁promised	-9.81329
▁restaurant	-9.81334
▁researcher	-9.81415
▁shift	-9.81463
▁Andrew	-9.81471
▁amount	-9.81544
▁shock	-9.81549
▁Home	-9.8155
▁frontrunner	-9.81562
▁quiet	-9.81563
▁deni	-9.81605
▁45	-9.81628
▁markets	-9.81653
▁Official	-9.81684
▁Follow	-9.81684
▁conversation	-9.81713
▁prosecutors	-9.81731
▁vice	-9.81809
▁games	-9.81828
▁however	-9.81888
▁Sirius	-9.81932
▁Jan	-9.8198
▁League	-9.82055
▁shared	-9.82076
▁effective	-9.82196
▁doubt	-9.82373
▁co	-9.82378
▁Associat	-9.82619
▁bann	-9.82653
▁beyond	-9.82672
▁alone	-9.82691
▁paper	-9.8273
▁sometime	-9.82961
▁century	-9.82978
▁dress	-9.83078
▁Ban	-9.83109
▁false	-9.83167
▁controversy	-9.8317
▁Power	-9.83175
▁stream	-9.83247
▁situation	-9.83296
▁signal	-9.83351
▁compar	-9.83382
▁Death	-9.83424
▁Journal	-9.83532
▁Anthon	-9.83545
▁confirmation	-9.83556
▁sharp	-9.83736
▁rose	-9.83844
▁blood	-9.83917
▁Louisiana	-9.83922
▁racist	-9.83926
▁2011	-9.83935
▁sold	-9.83954
▁regulator	-9.83963
▁boost	-9.84018
me	-9.84025
▁customers	-9.84052
▁35	-9.84138
▁mayor	-9.8414
▁treatment	-9.84189
▁Matthew	-9.84299
ized	-9.84383
ier	-9.84388
▁2010	-9.84431
▁dramatic	-9.84439
▁Bay	-9.84447
▁hall	-9.84618
▁Free	-9.84654
▁modern	-9.8479
▁hurt	-9.84805
▁God	-9.84826
▁detail	-9.84934
▁sea	-9.8495
▁Jackson	-9.85073
▁spend	-9.85088
▁built	-9.85122
▁Dead	-9.85147
▁band	-9.85153
▁Blasio	-9.85187
▁debt	-9.85187
▁anti	-9.8522
quite	-9.85288
▁ambassador	-9.85314
▁singer	-9.85434
▁Warren	-9.85442
▁aren	-9.8549
▁Freedom	-9.85571
▁platform	-9.85581
▁Brad	-9.8564
▁influence	-9.85662
▁flood	-9.85695
▁Representative	-9.85697
▁blame	-9.85699
▁critics	-9.8577
▁Pentagon	-9.85825
▁grant	-9.85828
▁gender	-9.85953
▁fraud	-9.85954
ul	-9.85984
▁standard	-9.86097
▁Mo	-9.8611
▁vehicle	-9.86117
▁producer	-9.86124
▁describe	-9.86236
▁credit	-9.86249
▁notice	-9.86344
▁dark	-9.86357
▁Love	-9.86412
▁planning	-9.86477
▁Carson	-9.86492
nd	-9.8653
▁fuel	-9.86541
▁Fight	-9.8656
▁closed	-9.86569
os	-9.86591
▁Dakota	-9.86597
▁worse	-9.86693
▁BuzzFeed	-9.86726
▁Patriot	-9.86726
▁gold	-9.86779
▁finding	-9.86869
▁era	-9.86871
▁ran	-9.86922
▁eyes	-9.86944
▁settlement	-9.87124
ak	-9.87177
▁Red	-9.87268
▁predict	-9.87273
▁offering	-9.87491
▁Ra	-9.87704
▁Despite	-9.87721
▁highest	-9.87762
▁sudden	-9.87766
▁watching	-9.87767
▁delay	-9.8777
▁Million	-9.87775
▁0	-9.87864
▁Colorado	-9.87897
▁Alex	-9.87897
▁Tower	-9.87901
▁Iranian	-9.87922
▁draft	-9.8795
▁actions	-9.87957
▁sentence	-9.87961
▁promise	-9.87973
▁population	-9.88038
▁31	-9.88043
▁formal	-9.88072
▁Look	-9.88121
▁70	-9.88154
▁spark	-9.88156
▁dog	-9.88287
▁extreme	-9.8829
▁Video	-9.88421
▁path	-9.88543
▁NBA	-9.88614
ba	-9.88641
▁panel	-9.8868
▁Brussels	-9.88684
▁Review	-9.88687
▁strategy	-9.88816
▁Global	-9.88903
▁male	-9.88973
▁wait	-9.89021
▁Secret	-9.89071
▁Institute	-9.89081
▁Michelle	-9.89087
▁records	-9.89119
▁girls	-9.89145
▁domestic	-9.89213
▁Charles	-9.89229
ir	-9.8925
▁Williams	-9.89283
▁taxes	-9.89297
▁recall	-9.89342
zi	-9.89383
▁f	-9.89443
▁Ivanka	-9.89479
▁carry	-9.89494
▁Commission	-9.89583
▁Four	-9.89589
▁ESPN	-9.89612
▁fresh	-9.89671
▁wonder	-9.89893
▁troops	-9.89968
▁rising	-9.90012
▁connection	-9.90034
▁drugs	-9.90074
stood	-9.9012
▁putt	-9.90196
▁advance	-9.90198
▁Cuban	-9.90207
▁Z	-9.90312
▁Debate	-9.9032
▁Editor	-9.90411
▁wealth	-9.90413
▁Palestinian	-9.90456
▁Well	-9.90532
ad	-9.90756
▁relative	-9.9082
▁pair	-9.90822
▁terms	-9.90883
▁Team	-9.90949
▁march	-9.90992
▁Mosco	-9.91086
▁unusual	-9.91086
▁veteran	-9.91137
bus	-9.91186
▁straight	-9.91221
▁labor	-9.91223
▁pack	-9.91345
▁Japanese	-9.9136
▁wins	-9.91384
▁80	-9.91551
▁Mets	-9.91602
▁continues	-9.91631
▁highlight	-9.91775
▁UN	-9.91838
▁Miami	-9.919
▁DC	-9.91908
▁Yankees	-9.91928
onway	-9.92047
head	-9.92081
▁Planned	-9.92082
▁Ma	-9.92172
▁north	-9.92206
▁pic	-9.92293
▁Western	-9.9231
▁complaint	-9.92359
▁accounts	-9.92377
▁brain	-9.92395
▁remov	-9.92408
▁joint	-9.92412
▁production	-9.92473
▁aid	-9.92482
▁deput	-9.92587
▁River	-9.9262
ey	-9.92667
▁drink	-9.92675
▁Speak	-9.9268
▁Men	-9.92687
▁chair	-9.92775
▁goal	-9.92786
▁Romney	-9.92858
▁spread	-9.9292
▁areas	-9.92934
▁Castro	-9.92997
▁Hall	-9.93005
▁mission	-9.93016
▁easi	-9.93124
▁investigator	-9.93125
▁marriage	-9.93142
▁sit	-9.93151
▁Pen	-9.93177
▁trend	-9.93181
▁parts	-9.93191
nother	-9.93206
▁Left	-9.93215
▁exit	-9.93276
▁combat	-9.93408
po	-9.93433
▁sleep	-9.93511
▁celebrat	-9.93548
▁Space	-9.93554
▁voter	-9.93657
▁university	-9.93685
▁ticket	-9.93688
▁related	-9.93778
▁Manchester	-9.93827
▁Association	-9.93861
ah	-9.93913
▁Presidential	-9.93924
▁Help	-9.93952
▁referr	-9.94004
▁traffic	-9.94016
▁refugee	-9.94039
▁Ital	-9.94104
▁WikiLeaks	-9.94241
▁Indian	-9.94281
▁Rock	-9.94325
▁contact	-9.94381
▁Still	-9.94392
▁highly	-9.9441
ut	-9.94457
▁pro	-9.94503
▁199	-9.94546
▁blow	-9.94618
▁Mar	-9.94637
served	-9.94648
▁Church	-9.94662
▁names	-9.94705
▁union	-9.94724
board	-9.94749
▁standing	-9.94753
▁guy	-9.94755
▁score	-9.94776
▁Education	-9.948
▁Call	-9.9485
▁Yet	-9.94869
▁relations	-9.94895
▁Alabama	-9.94941
▁colleague	-9.94941
▁revenue	-9.94941
▁businesses	-9.94947
▁196	-9.9496
▁v	-9.95096
▁fourth	-9.95137
▁Australia	-9.9533
▁language	-9.95504
▁involv	-9.95531
▁tweets	-9.95553
▁Fla	-9.95591
▁drama	-9.95625
▁neighborhood	-9.95693
▁box	-9.9576
▁elections	-9.9584
ney	-9.95977
▁weigh	-9.96249
▁featur	-9.96342
▁rating	-9.96365
▁dollar	-9.96387
▁truth	-9.96458
▁approved	-9.9649
▁available	-9.9656
▁example	-9.96562
▁Reagan	-9.96639
▁Thomas	-9.9664
▁products	-9.96678
▁Sheriff	-9.96782
▁spring	-9.96796
▁factor	-9.96799
▁Exclusive	-9.96925
▁exist	-9.97025
▁lift	-9.97029
ecause	-9.97045
▁Late	-9.97124
▁Africa	-9.97174
▁Francis	-9.97205
▁reporting	-9.97236
▁fit	-9.97273
▁guest	-9.97361
▁claiming	-9.9741
▁advocate	-9.97443
▁normal	-9.97576
▁basic	-9.9761
▁Social	-9.97614
▁Nov	-9.97625
▁allie	-9.97649
▁Parenthood	-9.9779
▁communication	-9.97801
▁operations	-9.97806
ities	-9.97869
▁racial	-9.97899
▁views	-9.97959
▁treat	-9.98022
▁rais	-9.98076
▁Kushner	-9.98077
▁debut	-9.98079
rs	-9.98198
▁eastern	-9.98222
▁shut	-9.98227
▁song	-9.98256
▁Deal	-9.98363
▁Silicon	-9.98367
▁Other	-9.98451
▁complete	-9.98455
▁chose	-9.98519
▁funds	-9.98519
▁gunman	-9.9853
▁dismiss	-9.98612
▁History	-9.98658
▁lines	-9.98668
kept	-9.98757
▁prominent	-9.98809
ver	-9.98822
▁49	-9.99003
▁opportunit	-9.99032
▁faced	-9.99072
▁elite	-9.99096
▁Nevada	-9.99242
▁rich	-9.99245
▁Egypt	-9.99381
▁blue	-9.99389
▁chemical	-9.99389
by	-9.99454
▁content	-9.99628
▁occurred	-9.99635
▁Rights	-9.99686
▁Face	-9.99752
den	-9.99784
▁Science	-9.9983
▁ballot	-9.99832
▁stake	-9.9991
ha	-10.0011
▁designed	-10.0017
▁neighbor	-10.0027
▁sweep	-10.0027
▁trading	-10.0027
▁Chairman	-10.0029
▁pop	-10.0046
▁eye	-10.0057
▁Eric	-10.0057
▁emerged	-10.0074
▁sort	-10.0074
▁LGBT	-10.0075
▁Never	-10.0077
▁carrying	-10.0078
▁match	-10.0081
▁award	-10.0082
▁Ver	-10.0083
▁flag	-10.0087
▁session	-10.0087
▁actress	-10.0087
▁pledge	-10.0096
▁surprising	-10.0102
▁photograph	-10.0105
▁Ali	-10.0114
▁sitting	-10.0118
▁wage	-10.013
▁agent	-10.014
▁Neil	-10.0141
▁jury	-10.0146
ster	-10.0147
▁Biden	-10.0151
▁failure	-10.0154
ga	-10.0157
▁prove	-10.0162
▁Jim	-10.0166
▁brother	-10.017
▁development	-10.0171
▁meant	-10.0171
▁Case	-10.0176
J	-10.0182
▁captur	-10.0194
▁sister	-10.0195
▁Stop	-10.0197
▁ship	-10.0198
▁boss	-10.0207
▁digital	-10.021
at	-10.0211
▁sentenc	-10.0214
▁Need	-10.0216
▁Venezuela	-10.0219
▁returns	-10.0227
▁planet	-10.0228
▁generation	-10.023
ger	-10.0234
▁fine	-10.0236
▁ideas	-10.0238
▁Avenue	-10.0252
▁Ask	-10.0257
▁computer	-10.0263
▁require	-10.0272
hi	-10.0277
▁stated	-10.0294
▁responsibl	-10.0297
▁dinner	-10.0298
▁Yahoo	-10.0313
vice	-10.0315
▁hair	-10.0328
▁Elizabeth	-10.0328
▁Chuck	-10.0328
led	-10.0331
▁divers	-10.0335
▁operation	-10.0346
▁Matt	-10.0348
▁William	-10.035
▁returned	-10.036
▁status	-10.0374
▁cross	-10.0378
where	-10.0388
▁Congressional	-10.0389
▁mention	-10.0391
▁Chelsea	-10.0404
▁books	-10.0405
▁label	-10.0409
▁range	-10.041
▁300	-10.0414
▁Catholic	-10.042
▁admitted	-10.0421
▁celebrate	-10.0422
▁please	-10.0429
▁soldiers	-10.0433
ge	-10.0433
▁respect	-10.0433
▁dream	-10.0436
▁Fire	-10.0436
▁setting	-10.0442
▁Po	-10.0443
ol	-10.0461
▁separate	-10.0463
▁disaster	-10.0466
▁Morning	-10.0466
▁Updat	-10.0466
▁Change	-10.0476
▁reasons	-10.0477
▁unveil	-10.0478
▁enjoy	-10.0497
▁income	-10.0497
▁teen	-10.0511
▁Josh	-10.0512
althcare	-10.0514
▁mid	-10.0521
iro	-10.0525
▁approval	-10.0528
▁Yes	-10.054
▁south	-10.054
▁threatened	-10.0543
▁twitter	-10.0544
▁Kansa	-10.0544
▁Homeland	-10.0546
▁feeling	-10.0567
ent	-10.057
▁ceremony	-10.0575
▁thanks	-10.0585
▁regime	-10.0591
ab	-10.0591
▁Per	-10.0595
▁training	-10.0599
▁referendum	-10.0606
▁works	-10.061
▁text	-10.0633
▁Control	-10.0635
op	-10.0636
▁offensive	-10.0638
▁struggling	-10.0638
▁intend	-10.065
▁Reserve	-10.0655
▁DNC	-10.067
▁levels	-10.0672
der	-10.0677
▁rush	-10.0685
▁guns	-10.0687
▁Jeb	-10.0688
▁minorit	-10.0688
▁mental	-10.0691
▁Netflix	-10.0701
▁Fall	-10.0702
▁stars	-10.0703
▁Than	-10.0707
▁green	-10.0713
back	-10.0715
▁Instagram	-10.0717
▁Bob	-10.0723
▁plant	-10.0728
▁suffered	-10.0731
▁prosecutor	-10.0733
ting	-10.0741
▁officially	-10.0746
▁remove	-10.0747
▁turns	-10.0748
▁progressive	-10.075
ization	-10.0758
▁Where	-10.0765
Y	-10.0768
▁End	-10.0772
▁Airport	-10.0781
▁trust	-10.0781
ni	-10.0782
▁Beach	-10.0783
▁Five	-10.0793
▁testimon	-10.0805
▁Italian	-10.0813
▁Louis	-10.0816
▁develop	-10.0823
▁Schumer	-10.0828
▁quarterback	-10.0829
▁homes	-10.0837
▁Sarah	-10.0845
▁Race	-10.0846
▁Con	-10.0848
ber	-10.0853
year	-10.0856
▁Houston	-10.0861
▁thinking	-10.0865
▁Academ	-10.0874
▁condemn	-10.0875
▁firing	-10.0877
▁baseball	-10.0877
▁Protection	-10.0878
li	-10.0878
▁stocks	-10.0879
▁vehicles	-10.0888
▁grow	-10.089
▁upon	-10.0891
▁various	-10.0893
▁regulations	-10.0899
▁learn	-10.0907
▁Family	-10.0909
▁400	-10.0913
▁helping	-10.0922
▁See	-10.0923
▁Politico	-10.0925
▁2009	-10.0927
▁reflect	-10.0934
▁Know	-10.094
▁Melania	-10.0941
▁Labor	-10.0941
▁Into	-10.0951
▁opinion	-10.0957
▁Australian	-10.0961
▁promises	-10.0963
▁Think	-10.0974
▁Pa	-10.0981
▁partner	-10.0996
▁closer	-10.0997
▁Ever	-10.0998
▁fan	-10.1
▁color	-10.1005
▁Second	-10.1006
▁pre	-10.1013
ble	-10.1014
▁dispute	-10.1022
▁sector	-10.1023
▁freedom	-10.1023
▁Cop	-10.1025
▁teenager	-10.1028
▁Only	-10.1029
▁value	-10.1029
▁Claim	-10.1039
▁Migrant	-10.1039
▁Southern	-10.1039
▁suspended	-10.1039
▁crimes	-10.1048
ci	-10.1052
▁introduc	-10.1052
▁Yiannopoulo	-10.1055
▁corporate	-10.1056
▁Angel	-10.1057
▁waiting	-10.1063
▁complex	-10.1069
▁protection	-10.107
▁Years	-10.107
▁Jar	-10.1072
un	-10.1075
▁individual	-10.1076
Trump	-10.1087
▁corruption	-10.1092
ler	-10.1098
ily	-10.1099
▁Both	-10.1101
▁discussed	-10.1104
▁Square	-10.1105
▁hacking	-10.1108
▁costs	-10.1108
nce	-10.1114
ious	-10.1119
▁import	-10.112
▁Note	-10.1124
wide	-10.1135
etts	-10.1139
▁linked	-10.114
▁mom	-10.1149
▁detain	-10.1154
▁Minnesota	-10.1154
▁fears	-10.1156
▁trouble	-10.1157
▁champion	-10.1159
▁possibilit	-10.1171
▁Corp	-10.1174
▁bag	-10.1179
▁Airline	-10.1189
BO	-10.1199
▁draw	-10.1208
▁Roger	-10.1213
▁size	-10.1214
▁spot	-10.1215
▁Trade	-10.1216
▁exclusive	-10.1221
▁staffer	-10.1223
▁gre	-10.1223
▁Nation	-10.1228
▁Bad	-10.123
line	-10.1237
▁YouTube	-10.1238
▁unprecedented	-10.1238
▁nightclub	-10.1238
▁Best	-10.1238
▁Again	-10.125
▁trigger	-10.1254
▁ultimate	-10.1254
▁sending	-10.127
▁Disney	-10.1271
▁Drug	-10.1272
▁Islamist	-10.1275
ence	-10.128
▁II	-10.1287
▁reading	-10.1289
▁Won	-10.1297
▁double	-10.1302
▁chain	-10.1303
fer	-10.1304
▁English	-10.1305
▁cyber	-10.1305
▁completely	-10.1309
▁tension	-10.1314
▁Stone	-10.1317
▁Off	-10.1317
▁Jerusalem	-10.1321
▁coalition	-10.1322
▁Thos	-10.1322
▁Arm	-10.1332
▁Voters	-10.1336
▁Kain	-10.1343
▁con	-10.1344
▁Protest	-10.1348
▁Afghan	-10.1355
▁Bridge	-10.1366
▁Speech	-10.1376
▁Sp	-10.1377
▁row	-10.1379
NATO	-10.1389
▁Young	-10.1396
▁warn	-10.1398
▁file	-10.14
▁identity	-10.1416
▁nominat	-10.1437
▁Gen	-10.1439
▁Massachus	-10.144
▁Scientist	-10.144
▁Ford	-10.1442
▁edge	-10.1443
▁super	-10.1445
▁style	-10.1446
▁manag	-10.145
▁athlete	-10.1457
▁Daniel	-10.1457
▁speed	-10.1459
▁endorsement	-10.1459
▁Work	-10.146
▁mark	-10.1462
▁Baltimore	-10.1474
▁Rick	-10.1478
▁Lo	-10.1478
▁NASA	-10.1491
▁competition	-10.1491
▁Va	-10.1493
▁Inside	-10.1516
▁software	-10.1519
▁Car	-10.1525
ILO	-10.1526
▁decide	-10.1528
▁rhetoric	-10.1534
▁lay	-10.1538
▁construction	-10.154
▁unexpected	-10.1543
▁Support	-10.1558
▁Oklahoma	-10.156
ow	-10.1561
▁brutal	-10.1561
▁Civil	-10.1576
▁severe	-10.1578
▁USA	-10.1578
▁knows	-10.1579
▁hop	-10.1579
▁dies	-10.1579
▁Ad	-10.1587
▁Atlanta	-10.1595
▁Kerry	-10.1602
▁Jason	-10.1613
▁mix	-10.1613
▁swing	-10.162
▁difference	-10.1621
▁footage	-10.1631
▁background	-10.1632
▁finish	-10.1637
▁Art	-10.1643
ng	-10.1645
▁commercial	-10.1647
ll	-10.1648
▁Vi	-10.1648
▁Bo	-10.1649
▁apparent	-10.1652
▁typical	-10.1664
▁electric	-10.1664
▁Goldman	-10.1667
▁Golden	-10.1672
I	-10.1677
▁property	-10.1682
▁village	-10.1683
▁Oscar	-10.1687
▁crack	-10.169
▁Order	-10.17
▁Awards	-10.1707
nstead	-10.171
▁guard	-10.1713
▁Amendment	-10.1717
life	-10.1721
▁Land	-10.1726
▁wound	-10.1726
▁Constitution	-10.1727
▁broken	-10.173
▁committed	-10.1733
ize	-10.1736
▁figures	-10.1737
▁messages	-10.1749
▁obvious	-10.1752
▁Coast	-10.1752
▁table	-10.1756
▁artist	-10.1757
▁aggressive	-10.1769
▁narrow	-10.177
▁filing	-10.1772
▁Rex	-10.1773
▁cable	-10.1774
▁terrorists	-10.1797
▁mate	-10.1808
▁alien	-10.1809
za	-10.1815
▁Knicks	-10.1819
per	-10.182
▁legac	-10.1823
▁watched	-10.1827
▁http	-10.1829
▁Bloomberg	-10.184
▁Tech	-10.184
▁Kennedy	-10.184
▁Yemen	-10.1853
▁concert	-10.1858
▁resolution	-10.1858
▁aircraft	-10.1859
io	-10.1871
▁Arab	-10.1874
▁Tax	-10.1887
▁Pat	-10.1892
▁Theresa	-10.1896
▁Frank	-10.1903
ck	-10.1907
▁Mean	-10.191
▁sat	-10.1915
▁Pay	-10.1921
▁bombing	-10.1927
▁Climate	-10.1929
▁analysis	-10.1933
▁gang	-10.1935
▁civilians	-10.1941
▁professional	-10.1943
▁involve	-10.1945
▁product	-10.1946
▁Merkel	-10.1947
wood	-10.1949
▁hacker	-10.195
▁angry	-10.1965
▁vast	-10.1965
▁Reil	-10.1978
▁cold	-10.1981
▁anchor	-10.1981
▁register	-10.1983
▁heavy	-10.1983
self	-10.1985
▁programs	-10.1998
▁harassment	-10.2002
▁Utah	-10.2004
lan	-10.2006
▁virtual	-10.201
▁Read	-10.2021
oft	-10.2021
ical	-10.2021
▁touch	-10.2024
▁tourist	-10.2032
▁newly	-10.2033
▁Keep	-10.2037
▁NYPD	-10.2037
▁institution	-10.2041
▁killer	-10.2042
▁recover	-10.2045
▁Special	-10.2056
▁Does	-10.2058
▁Maryland	-10.2075
▁injuries	-10.2077
▁Miller	-10.2094
▁reduce	-10.2096
vi	-10.2096
▁shop	-10.2097
▁oppos	-10.2103
▁physical	-10.211
▁Way	-10.2111
▁headquarters	-10.2111
▁raid	-10.2112
▁tree	-10.2112
▁slamm	-10.2118
▁hid	-10.2118
▁Jane	-10.2119
▁surge	-10.212
▁publisher	-10.212
▁pound	-10.2123
▁Beijing	-10.2128
▁grand	-10.2129
▁announce	-10.2129
▁worri	-10.2134
▁possibl	-10.2143
▁happy	-10.2147
▁2018	-10.2147
▁accusation	-10.2155
▁Mac	-10.2161
▁halt	-10.2163
▁prospect	-10.2164
▁choose	-10.2182
▁anniversar	-10.2183
▁behavior	-10.2183
▁stuff	-10.2183
▁Students	-10.2186
▁Asia	-10.2187
▁sides	-10.2187
▁Key	-10.2196
▁Him	-10.2196
▁natural	-10.2198
▁McConn	-10.2202
tz	-10.2205
les	-10.2216
tiny	-10.2219
▁pitch	-10.222
▁collect	-10.2227
sby	-10.2232
▁threatening	-10.2239
▁confirm	-10.2239
ub	-10.2248
▁rap	-10.2252
field	-10.2256
▁comedy	-10.226
▁ex	-10.2261
▁endors	-10.2265
▁sick	-10.2273
▁bare	-10.2275
▁serving	-10.2275
▁diplomatic	-10.2278
▁winter	-10.228
▁lock	-10.2286
▁Van	-10.2289
▁closing	-10.2295
▁eventual	-10.2296
▁Tennessee	-10.2313
▁happens	-10.2323
▁catch	-10.2325
▁plead	-10.2327
▁documentar	-10.2328
▁foot	-10.2329
▁Kentuck	-10.2331
▁communitie	-10.2333
▁joke	-10.2335
▁employee	-10.2338
▁movies	-10.2344
rich	-10.2349
▁die	-10.2354
▁flee	-10.2355
▁nearby	-10.2355
▁prepar	-10.2356
▁rain	-10.2361
▁anger	-10.2363
au	-10.2364
▁Calls	-10.2366
▁golf	-10.2374
▁parent	-10.2377
mon	-10.2382
▁Lu	-10.2386
▁Antonin	-10.2388
▁prepare	-10.2391
▁Turn	-10.2391
ke	-10.2397
▁Giants	-10.2398
▁Win	-10.2399
▁threaten	-10.24
▁accident	-10.2403
▁pilot	-10.2406
▁responsibilit	-10.2406
▁abandon	-10.2406
▁Kellyanne	-10.2406
rself	-10.2415
▁payment	-10.2416
▁react	-10.2417
▁maker	-10.2422
▁Dan	-10.2424
▁Ro	-10.2424
▁Zuckerberg	-10.2425
▁witness	-10.2428
▁begins	-10.243
▁prepared	-10.2433
▁Old	-10.2434
▁Food	-10.2434
▁leg	-10.2442
▁unlikely	-10.2444
▁pipeline	-10.2444
▁investor	-10.2455
▁snow	-10.2459
▁replacement	-10.2467
▁Image	-10.2469
▁finance	-10.2471
▁stores	-10.2473
▁Pakistan	-10.2477
▁surrounding	-10.2484
rte	-10.2485
▁corner	-10.2487
▁ball	-10.2492
▁purchase	-10.2498
▁pregnant	-10.25
▁twice	-10.25
▁marijuana	-10.2519
▁nationwide	-10.2522
well	-10.2527
▁escape	-10.2529
ions	-10.253
▁concerned	-10.2535
▁Little	-10.2538
▁challenges	-10.2542
▁estimate	-10.2543
▁internal	-10.2546
▁Charlotte	-10.2557
▁Price	-10.2559
▁Christians	-10.2562
▁Sex	-10.2569
▁Prie	-10.2571
▁Jack	-10.2576
▁secure	-10.2578
▁league	-10.2584
drew	-10.2586
▁stunning	-10.2586
▁Moore	-10.2596
▁NEWS	-10.26
▁videos	-10.2607
▁cultural	-10.2615
▁associate	-10.2615
hood	-10.2616
lin	-10.2629
▁Arrest	-10.2634
▁explosion	-10.2634
▁hike	-10.2636
▁active	-10.2639
▁stands	-10.264
▁additional	-10.2641
▁complain	-10.2646
▁Action	-10.2653
▁positive	-10.2653
and	-10.2654
▁33	-10.2657
▁Research	-10.2662
▁Student	-10.267
▁conspiracy	-10.2672
▁Calif	-10.2673
mer	-10.2676
▁Macro	-10.2685
▁investigate	-10.2687
▁Thousand	-10.2692
▁Bureau	-10.2692
va	-10.2698
▁journal	-10.2704
▁sport	-10.2708
▁Sports	-10.2709
▁screen	-10.2714
▁channel	-10.2716
▁Khan	-10.2721
▁75	-10.2722
bo	-10.2727
▁Record	-10.2731
▁Di	-10.2741
▁Side	-10.2745
▁danger	-10.2749
▁DeVos	-10.275
▁Detroit	-10.275
▁democracy	-10.275
▁Network	-10.275
▁Ba	-10.2751
▁Ho	-10.2764
▁Part	-10.2765
▁expectations	-10.2766
▁progress	-10.2767
▁lady	-10.2769
▁crew	-10.277
▁weapon	-10.2777
▁analysts	-10.2778
▁al	-10.2782
▁individuals	-10.2784
▁Grand	-10.2789
▁Dylan	-10.2789
▁Guardian	-10.2789
▁Economic	-10.279
▁Beck	-10.2792
▁statements	-10.2799
▁Todd	-10.2809
▁benefit	-10.281
▁36	-10.2817
night	-10.2826
▁Vegas	-10.2827
▁Rich	-10.2829
▁stretch	-10.283
▁card	-10.2832
▁Eastern	-10.2837
do	-10.2839
▁Gary	-10.284
▁challeng	-10.2855
▁Tell	-10.2856
no	-10.2865
ru	-10.2866
▁electoral	-10.2867
▁operat	-10.2869
▁readers	-10.2871
▁executives	-10.2872
▁marri	-10.2876
▁Li	-10.2883
▁Philippines	-10.2884
▁Club	-10.2887
▁task	-10.2887
▁yesterday	-10.2887
ran	-10.2893
▁prais	-10.2901
▁Adam	-10.2903
▁appoint	-10.2904
▁explosive	-10.2907
▁blam	-10.2908
▁Mother	-10.2913
▁Palm	-10.2915
▁weak	-10.2918
▁Boy	-10.2925
▁territory	-10.2926
▁seriously	-10.2929
▁leaked	-10.2933
da	-10.2936
▁activity	-10.2947
▁visa	-10.2951
▁inspir	-10.2954
▁ending	-10.2954
▁pain	-10.2954
▁heat	-10.2957
▁Cuomo	-10.2966
▁Missouri	-10.2966
▁Next	-10.2966
▁square	-10.2966
▁Organization	-10.2966
▁boat	-10.2972
chin	-10.298
▁Blue	-10.2985
▁transcript	-10.2986
▁owners	-10.2993
▁capture	-10.3002
▁Hamilton	-10.3006
bi	-10.3008
▁Na	-10.3011
▁32	-10.3013
▁Lead	-10.3022
▁Chap	-10.3032
▁rescue	-10.3034
▁headed	-10.3039
fare	-10.3041
▁Puerto	-10.3046
▁housing	-10.3046
win	-10.3046
▁shape	-10.3046
▁Final	-10.3049
▁Justin	-10.3049
pe	-10.3057
▁quick	-10.306
▁Book	-10.3061
▁Netanyahu	-10.3066
▁custody	-10.3066
▁forecast	-10.3066
▁organizations	-10.3068
▁counter	-10.3069
▁bodie	-10.3071
body	-10.3074
right	-10.3074
0	-10.3078
▁photographer	-10.3082
▁positions	-10.3082
▁benefits	-10.3085
ung	-10.3085
▁surveill	-10.3086
▁maintain	-10.3086
ac	-10.309
Kevin	-10.3091
▁speaker	-10.3104
▁weather	-10.3106
▁PM	-10.3109
▁failing	-10.3114
▁Services	-10.3125
▁Musk	-10.3126
▁routine	-10.3126
▁Email	-10.3127
▁NYC	-10.3137
▁novel	-10.3143
▁signature	-10.3146
▁design	-10.3147
▁2005	-10.3149
▁pool	-10.3154
▁leak	-10.316
▁mainstream	-10.3167
▁Hard	-10.317
▁rank	-10.3172
▁constitutional	-10.3173
▁dad	-10.3178
▁Jew	-10.3181
▁Sa	-10.3183
▁reaction	-10.3183
▁Kaepernick	-10.3187
▁gift	-10.3187
▁Music	-10.3202
:	-10.3204
▁degree	-10.3207
▁division	-10.3207
▁Harry	-10.3209
▁handl	-10.3214
▁charit	-10.3223
ball	-10.3224
▁Las	-10.3225
▁Investigation	-10.3229
▁weight	-10.3232
mi	-10.3233
ill	-10.326
ure	-10.326
ement	-10.3263
▁confront	-10.3267
▁walking	-10.3269
berg	-10.3281
▁consumer	-10.3288
▁Miss	-10.3289
▁regular	-10.3303
▁resign	-10.3303
▁nations	-10.3306
▁plot	-10.3307
▁harm	-10.3309
▁Ronald	-10.331
▁Davis	-10.331
▁marked	-10.3324
▁Harvard	-10.333
▁massacre	-10.333
▁inmate	-10.3331
ti	-10.3332
▁hedge	-10.3338
▁covered	-10.3341
▁flow	-10.3341
▁Shooting	-10.3342
▁Dec	-10.3342
▁devices	-10.3348
▁Battle	-10.3351
iest	-10.3353
▁Nearly	-10.3354
▁Story	-10.3354
▁Colin	-10.3357
▁Pacific	-10.3359
ee	-10.3368
▁ice	-10.3372
▁rocket	-10.3373
▁Har	-10.3373
▁attacker	-10.3376
▁viewers	-10.3381
▁Too	-10.3385
▁Games	-10.3386
house	-10.3387
▁Cabinet	-10.3392
aught	-10.3393
▁clean	-10.3396
▁treated	-10.3397
▁fix	-10.3406
▁happening	-10.3408
▁Protester	-10.3409
▁changing	-10.3413
▁Head	-10.3416
▁moderate	-10.3429
▁Talk	-10.3433
▁Caucus	-10.3434
▁Illegal	-10.3434
▁Fast	-10.3434
ud	-10.3434
▁43	-10.3469
▁crude	-10.3475
▁Brian	-10.3479
▁Libya	-10.3479
▁places	-10.3479
▁emotional	-10.3486
▁Radio	-10.3488
▁Vermont	-10.3496
▁Mary	-10.3497
▁Vox	-10.3497
▁Oil	-10.3502
▁Jordan	-10.3516
▁Children	-10.3517
▁upset	-10.3519
▁slight	-10.3525
▁material	-10.353
▁Six	-10.3536
▁Illinois	-10.3538
▁currenc	-10.3538
▁seiz	-10.3539
v	-10.3541
▁device	-10.3543
▁smart	-10.3544
▁immigrant	-10.3545
▁Se	-10.3549
▁Majority	-10.3562
▁Things	-10.3568
▁hole	-10.357
cut	-10.3572
▁shopping	-10.358
▁chaos	-10.358
▁Town	-10.3581
▁collection	-10.3585
▁supporter	-10.359
▁correct	-10.3592
▁Dem	-10.3597
▁fun	-10.3598
▁monitor	-10.3601
▁Micros	-10.3602
▁primaries	-10.3605
▁facts	-10.3622
▁recruit	-10.3623
▁Lady	-10.3623
▁Jon	-10.3625
▁deals	-10.363
▁Find	-10.3631
▁musical	-10.3633
▁Berlin	-10.3644
▁larger	-10.3648
ging	-10.365
uthorities	-10.3652
▁leaves	-10.3658
▁Fort	-10.3664
▁cheer	-10.3664
▁Flint	-10.3665
▁frequent	-10.3665
▁basketball	-10.3665
▁Mass	-10.3666
▁Reporter	-10.3669
▁Jay	-10.367
▁expert	-10.3672
que	-10.3673
▁Ar	-10.3677
▁warm	-10.3683
ture	-10.3685
▁Access	-10.3687
▁diplomat	-10.3687
▁deportation	-10.3687
ists	-10.3689
▁bomber	-10.3699
▁Medicaid	-10.3708
▁mogul	-10.3708
▁candidac	-10.3708
▁Susan	-10.3708
▁polling	-10.3711
▁48	-10.3715
the	-10.3718
ov	-10.3719
▁essential	-10.3729
▁Patrol	-10.3729
▁tradition	-10.3731
▁Rose	-10.3731
▁Ann	-10.3732
▁begun	-10.3738
ho	-10.3749
▁Hurricane	-10.3751
▁Ed	-10.3753
▁Stein	-10.3758
▁negotiation	-10.3759
▁pointed	-10.376
▁destroy	-10.3767
ita	-10.377
▁Aaron	-10.3772
▁EPA	-10.3773
▁Carter	-10.3775
▁tight	-10.3784
▁Leave	-10.3787
▁Samsung	-10.3794
▁Graham	-10.3794
▁Among	-10.3794
▁breaking	-10.3795
▁outlets	-10.38
▁NEW	-10.381
▁environmental	-10.3811
▁cycle	-10.3811
▁strategist	-10.3815
▁rapid	-10.3816
▁Treasury	-10.3821
V	-10.3828
▁Wells	-10.3832
▁comedian	-10.3837
over	-10.3837
roadway	-10.3839
▁Glenn	-10.3841
▁item	-10.3843
▁citizen	-10.3848
▁stick	-10.3858
▁Megyn	-10.3859
ated	-10.3859
▁Slideshow	-10.386
▁Target	-10.3863
▁rid	-10.3866
▁Hospital	-10.388
▁airstrike	-10.388
▁Seattle	-10.3881
▁Palin	-10.3882
▁Sweden	-10.3882
▁Cash	-10.3883
▁worker	-10.3896
▁improve	-10.3897
▁withdraw	-10.3898
▁Sign	-10.3898
▁haven	-10.3899
▁negative	-10.3903
▁Sachs	-10.3903
▁Mitt	-10.3904
▁Mad	-10.3906
▁vision	-10.3916
▁govern	-10.3921
▁Conference	-10.3924
▁laid	-10.3925
▁firms	-10.3931
,000	-10.3935
▁Play	-10.3936
▁sue	-10.3937
▁cool	-10.3947
ang	-10.3949
▁memo	-10.3952
▁commander	-10.3958
day	-10.3967
pa	-10.3968
▁Budget	-10.3968
▁Gay	-10.3971
AM	-10.3979
▁pos	-10.3984
▁Dute	-10.3994
▁spokeswom	-10.3999
spread	-10.4001
▁welcome	-10.4008
▁Ukraine	-10.4012
▁outcome	-10.4012
▁spott	-10.4012
▁Erdogan	-10.4012
▁margin	-10.4013
om	-10.4013
▁outrage	-10.4027
▁adopt	-10.403
ial	-10.403
▁Point	-10.4032
▁dis	-10.4038
▁150	-10.4041
▁machine	-10.4051
▁populist	-10.4057
▁cell	-10.4058
▁42	-10.4059
▁collapse	-10.4061
▁studio	-10.4062
▁code	-10.4065
▁44	-10.4073
▁recommend	-10.4077
▁luxury	-10.4078
▁infrastructure	-10.4078
▁mobile	-10.4078
tanbu	-10.4079
▁blog	-10.4079
▁mess	-10.4082
▁faith	-10.4086
▁facility	-10.4087
▁passing	-10.409
▁Capital	-10.4101
▁festival	-10.4101
▁viral	-10.4101
▁Insider	-10.4108
▁historical	-10.411
▁beach	-10.4111
ably	-10.4115
▁gains	-10.4118
tan	-10.412
▁c	-10.4122
▁Mississippi	-10.4123
▁beautiful	-10.4123
▁riot	-10.4123
▁BBC	-10.4124
▁adults	-10.4124
sky	-10.4136
▁ride	-10.4138
▁Test	-10.4142
▁resort	-10.4145
▁Fake	-10.4146
▁Board	-10.4146
▁refuse	-10.4149
di	-10.4158
▁fish	-10.4161
▁overhaul	-10.4167
▁rivals	-10.4171
▁wish	-10.4172
▁classic	-10.4176
▁heads	-10.418
▁invit	-10.4186
▁38	-10.4188
▁element	-10.419
▁plent	-10.419
▁tens	-10.419
▁Nancy	-10.419
▁talent	-10.4191
▁Brazilian	-10.4192
▁mis	-10.4203
▁manufactur	-10.4205
▁robot	-10.421
▁column	-10.4211
▁Suspect	-10.4212
▁Medical	-10.4212
▁assistant	-10.4213
▁Wal	-10.4229
▁counsel	-10.4232
▁western	-10.4234
▁Appeal	-10.4235
▁Judicia	-10.4235
▁violation	-10.424
▁pledg	-10.4244
▁flying	-10.4258
▁Mid	-10.4263
▁Lake	-10.4264
▁Being	-10.4272
▁Cup	-10.4279
▁Cooper	-10.428
▁felon	-10.428
▁Alaska	-10.428
▁Bashar	-10.428
▁representative	-10.4281
▁counts	-10.4283
▁Mate	-10.4287
▁37	-10.4289
▁Jimm	-10.4296
▁Wild	-10.4297
▁terribl	-10.4299
▁Major	-10.43
▁Start	-10.4306
▁Pick	-10.4307
▁Senior	-10.4325
▁interests	-10.4329
▁edition	-10.4329
▁cr	-10.4333
▁downtown	-10.4336
▁iconic	-10.435
▁bust	-10.435
▁admit	-10.4351
▁Energy	-10.4352
▁argue	-10.4356
▁exercise	-10.436
ev	-10.436
ot	-10.4371
▁earnings	-10.4373
▁divided	-10.4381
ware	-10.4393
▁values	-10.4393
▁supply	-10.4394
▁rallies	-10.4396
▁Rand	-10.4397
▁Jets	-10.4403
▁Girl	-10.4407
▁theory	-10.4412
▁immediate	-10.4415
▁encourage	-10.4417
▁Lewis	-10.4417
ib	-10.4421
▁society	-10.4423
▁discrimination	-10.4426
▁type	-10.4438
▁cheap	-10.444
▁summit	-10.444
▁wedding	-10.4447
▁map	-10.4448
▁acknowledg	-10.4454
▁suburb	-10.4459
▁estimat	-10.446
▁hired	-10.4462
▁Snapchat	-10.4463
▁Jerr	-10.4476
▁Steven	-10.4485
▁length	-10.4486
▁Taiwan	-10.4486
▁Sam	-10.4487
▁shocking	-10.4489
▁bright	-10.4489
▁spy	-10.449
▁Manning	-10.4496
▁strange	-10.4498
▁Eve	-10.4499
▁troubl	-10.4502
▁Stan	-10.4503
▁apart	-10.4507
▁Podesta	-10.4509
▁crucial	-10.4509
▁presence	-10.4509
▁gap	-10.451
▁barr	-10.4513
▁command	-10.4529
▁Lynch	-10.4532
▁shoot	-10.4541
▁thank	-10.4545
▁Sept	-10.4549
▁ring	-10.4552
▁racism	-10.4556
▁Feb	-10.4558
▁Supporter	-10.4559
▁donors	-10.4563
▁glass	-10.4565
▁Ku	-10.4566
▁Mu	-10.4572
erkeley	-10.4579
▁retail	-10.4587
▁Child	-10.459
▁window	-10.4591
▁climb	-10.4594
▁required	-10.4601
▁extra	-10.4602
▁medal	-10.4602
▁alternative	-10.4602
▁Welcome	-10.4602
▁resignation	-10.4604
▁gathering	-10.4607
▁Rod	-10.4621
▁privacy	-10.4626
▁Through	-10.4626
▁dump	-10.4627
▁analyst	-10.4639
▁celebrity	-10.4641
Without	-10.4642
▁revelation	-10.4649
▁praise	-10.4656
▁prisoner	-10.4657
worn	-10.4659
▁Facts	-10.4671
▁Father	-10.4673
▁quit	-10.4676
▁attract	-10.4683
▁jet	-10.469
ept	-10.4692
▁destroyed	-10.4694
▁34	-10.4697
▁inform	-10.47
tra	-10.4715
▁rural	-10.472
▁client	-10.472
▁rent	-10.472
▁temporarily	-10.472
▁clash	-10.4724
▁39	-10.4724
nt	-10.4726
▁object	-10.473
▁west	-10.4737
▁fifth	-10.4744
▁loan	-10.4744
▁Doctor	-10.4744
▁Marlow	-10.4744
▁execution	-10.4744
▁alert	-10.4744
▁shooter	-10.4747
▁coup	-10.476
▁east	-10.4761
▁disrupt	-10.4761
fire	-10.4764
▁Tony	-10.4774
ator	-10.4777
▁locat	-10.4788
▁designer	-10.4788
▁necessary	-10.4788
▁knowledge	-10.4792
▁desperate	-10.4794
▁coal	-10.48
▁tank	-10.4803
▁surger	-10.4809
▁invest	-10.4812
▁Hotel	-10.4816
▁Rob	-10.4832
▁Film	-10.4838
vo	-10.4839
▁Fidel	-10.4839
▁Amid	-10.484
11	-10.4843
▁consumers	-10.4846
ua	-10.4858
▁Ca	-10.4874
▁temporar	-10.4887
▁horror	-10.4887
▁startup	-10.4888
▁promote	-10.4888
▁affiliate	-10.4893
▁renew	-10.4904
▁implement	-10.4911
▁advertising	-10.4911
▁Joseph	-10.4911
▁management	-10.4917
jo	-10.492
red	-10.4921
▁questioned	-10.4929
▁Earlie	-10.4929
▁zone	-10.4932
▁purpose	-10.4935
▁Santa	-10.4935
▁Edward	-10.4936
hrew	-10.4938
▁Come	-10.4942
▁Going	-10.4948
ice	-10.4955
▁steal	-10.4956
TM	-10.4959
▁adult	-10.4959
han	-10.4967
▁shown	-10.4968
▁Carl	-10.4975
▁link	-10.4981
▁McDonald	-10.4984
▁recount	-10.4985
▁bias	-10.4985
▁backlash	-10.4985
▁Phil	-10.4986
▁deny	-10.4988
▁route	-10.4988
▁Bar	-10.4991
▁tonight	-10.4994
▁endorse	-10.4999
▁Hit	-10.4999
▁schedule	-10.5001
▁promot	-10.5003
ted	-10.5004
▁split	-10.5005
▁heavily	-10.5008
▁Cook	-10.5015
▁pages	-10.5016
▁Warner	-10.502
▁drivers	-10.5029
▁soccer	-10.5032
▁legislative	-10.5034
▁mistake	-10.504
▁stolen	-10.5042
▁extraordinar	-10.5042
▁Fund	-10.5044
▁options	-10.5044
ility	-10.5045
▁resist	-10.5057
▁section	-10.5057
▁Hope	-10.5057
▁net	-10.506
▁Mc	-10.5069
▁moral	-10.507
▁Victor	-10.5071
ward	-10.5073
▁toll	-10.508
▁province	-10.5081
▁demonstration	-10.5086
▁determined	-10.5086
▁Assad	-10.5089
▁Give	-10.5091
ip	-10.5103
▁franchise	-10.5106
▁Repeal	-10.5106
▁visitor	-10.5106
▁advantage	-10.5106
▁columnist	-10.5108
▁core	-10.5109
▁Once	-10.5109
ugh	-10.5115
▁none	-10.5121
▁Republic	-10.5127
▁Road	-10.5131
stone	-10.5136
▁heading	-10.514
rd	-10.5141
ron	-10.5141
▁extend	-10.5142
▁Asian	-10.5142
▁studie	-10.515
▁inter	-10.5156
▁Kingdom	-10.5156
▁Columbia	-10.518
▁nature	-10.518
▁assets	-10.5183
▁Oak	-10.5185
▁advisers	-10.5197
▁direction	-10.52
▁Arkansa	-10.5205
▁identify	-10.5205
▁afford	-10.5205
▁Rice	-10.5207
▁hopeful	-10.521
▁resigned	-10.5211
ou	-10.5217
▁rebels	-10.5218
ile	-10.522
▁conviction	-10.5222
▁g	-10.5224
▁Museum	-10.523
▁Gulf	-10.523
▁urging	-10.523
▁jihadist	-10.5233
▁smartphone	-10.5236
king	-10.5245
▁parliament	-10.5248
▁BRIEF	-10.5255
▁caucuses	-10.5265
▁penalty	-10.5273
▁Memorial	-10.528
▁commitment	-10.5281
▁unique	-10.5281
▁oppose	-10.5288
▁Pe	-10.53
▁Dieg	-10.53
▁lies	-10.5303
▁Country	-10.5305
▁imagine	-10.5306
▁affect	-10.5316
▁Crime	-10.5321
ay	-10.5321
▁Mitch	-10.5331
▁birthday	-10.5331
▁myster	-10.5337
▁drone	-10.5339
how	-10.5344
▁caucus	-10.5345
▁striking	-10.5355
▁drove	-10.5355
▁bottom	-10.5355
▁Short	-10.5355
tuck	-10.5362
▁Worker	-10.5367
▁Ta	-10.537
▁donation	-10.537
▁Hawaii	-10.5376
ph	-10.538
▁Du	-10.538
▁confidence	-10.538
▁Ocean	-10.538
▁Talib	-10.5381
▁Hate	-10.5381
▁Jong	-10.5384
▁Fisher	-10.5385
▁airline	-10.5385
▁greater	-10.539
▁Water	-10.5391
▁worry	-10.5396
▁sun	-10.54
▁revolution	-10.54
▁foundation	-10.5403
▁Behind	-10.5406
▁Victim	-10.5406
▁Nick	-10.541
ueens	-10.5419
ina	-10.542
▁prior	-10.5428
▁boycott	-10.5431
▁1980	-10.5432
ik	-10.5434
▁2007	-10.5434
▁overwhelming	-10.544
▁option	-10.5446
▁veterans	-10.5447
▁remind	-10.5455
▁string	-10.5456
▁subway	-10.5457
▁seeming	-10.5458
▁Ten	-10.5458
▁losses	-10.5459
▁settle	-10.5461
▁profile	-10.5463
▁41	-10.5464
em	-10.5465
▁tru	-10.547
broad	-10.547
har	-10.5474
▁Penn	-10.5485
▁intense	-10.5486
▁survive	-10.5495
▁Connecti	-10.5497
▁targets	-10.5502
▁mere	-10.5503
▁Ru	-10.5505
▁deploy	-10.5506
▁Financial	-10.5508
▁mosque	-10.5508
▁Environmental	-10.5509
▁ethic	-10.5509
ors	-10.5513
▁Matti	-10.552
av	-10.5524
▁speeches	-10.5526
ves	-10.5528
▁auto	-10.5533
▁impossible	-10.5534
▁Kong	-10.5535
▁produced	-10.5536
▁alive	-10.5536
▁outbreak	-10.5538
▁yes	-10.5544
▁overall	-10.5545
▁Oscars	-10.5552
▁affected	-10.5557
▁fate	-10.5558
▁engineer	-10.5559
▁Hispanic	-10.5559
▁expensive	-10.5559
▁beating	-10.5565
▁plays	-10.5569
▁lie	-10.5573
▁Gold	-10.5576
▁oversee	-10.5576
▁pose	-10.5582
▁Terror	-10.5584
▁sheriff	-10.5585
▁RNC	-10.5585
▁subscriber	-10.5587
▁lying	-10.5587
▁environment	-10.5589
▁Nazi	-10.5589
▁busy	-10.5594
work	-10.5601
gg	-10.5607
▁Parliament	-10.5611
▁electronic	-10.5611
▁chant	-10.5611
ff	-10.5614
▁powers	-10.5616
▁homeless	-10.5621
▁Hundred	-10.5636
▁asylum	-10.5636
▁receiv	-10.564
▁Birth	-10.5642
▁absolutely	-10.5654
▁Elon	-10.5655
▁Circuit	-10.5662
▁succeed	-10.5662
▁Making	-10.5663
▁Hong	-10.5664
▁authority	-10.5671
our	-10.5671
▁Much	-10.5677
▁religion	-10.5688
▁Deput	-10.5689
▁solar	-10.569
▁van	-10.5694
▁Teen	-10.57
tepped	-10.5705
▁Run	-10.5707
zer	-10.5714
▁erupt	-10.5715
▁advisor	-10.5715
▁girlfriend	-10.5715
▁wind	-10.5715
ag	-10.5715
▁2001	-10.5717
▁scrutiny	-10.5724
▁Market	-10.5725
▁county	-10.5725
▁trick	-10.5731
▁behalf	-10.5741
▁bizarre	-10.5741
▁twist	-10.5742
▁announc	-10.5752
ct	-10.5755
▁Tak	-10.5756
▁numer	-10.5767
▁Money	-10.5769
▁merger	-10.5773
▁location	-10.5778
tha	-10.5786
▁laugh	-10.5787
▁punch	-10.5789
▁Oval	-10.5795
con	-10.5807
▁participat	-10.581
▁hero	-10.581
▁Wars	-10.5815
▁publication	-10.5818
▁Front	-10.5819
▁extended	-10.582
▁marks	-10.5824
▁determine	-10.5826
▁Core	-10.5833
▁ensure	-10.5845
▁Severa	-10.5851
▁pace	-10.5853
▁arrive	-10.5859
▁Ko	-10.5859
▁Consider	-10.5873
▁volunteer	-10.5873
▁loom	-10.5873
▁Future	-10.5873
▁aside	-10.5874
ja	-10.5876
▁sounds	-10.5877
▁listen	-10.5881
▁k	-10.5886
▁matters	-10.5887
▁sever	-10.5887
▁surprised	-10.5891
▁Though	-10.5892
light	-10.5895
▁convince	-10.5899
▁Nunes	-10.5901
▁strength	-10.5905
▁teams	-10.5919
▁Had	-10.5921
Care	-10.5925
▁commission	-10.5925
▁explains	-10.5928
dating	-10.593
▁Baton	-10.5932
▁handle	-10.5932
▁Sal	-10.5933
▁interfere	-10.5939
▁tape	-10.5947
▁Terry	-10.5953
▁prize	-10.5953
▁warrant	-10.5953
▁deadline	-10.5957
hn	-10.5959
▁closely	-10.5966
▁47	-10.5966
▁judges	-10.5969
▁dealing	-10.5971
▁Latin	-10.5972
kin	-10.5975
▁indict	-10.5978
sistance	-10.5979
▁crazy	-10.5979
▁expansion	-10.598
▁Omar	-10.5982
▁replac	-10.5987
▁sued	-10.5988
▁politically	-10.5989
▁Scar	-10.5991
▁restriction	-10.5993
▁Mars	-10.5999
▁Pelosi	-10.6006
▁departure	-10.6007
▁fierce	-10.6007
all	-10.6008
▁memory	-10.6009
▁consequences	-10.6009
▁ignor	-10.6009
▁Fair	-10.601
▁Maybe	-10.6013
▁Colombia	-10.6016
▁tower	-10.602
▁Roug	-10.6024
▁produce	-10.6024
▁songs	-10.6027
▁Friends	-10.6029
▁alarm	-10.603
▁Chair	-10.603
▁coffee	-10.6033
▁permanent	-10.6033
▁cabinet	-10.6034
▁Hitler	-10.6034
▁industrial	-10.6035
▁En	-10.6039
▁pictures	-10.6042
▁Pre	-10.6046
izing	-10.6054
▁tout	-10.6055
bb	-10.6059
▁Military	-10.606
▁vacation	-10.6061
▁Brother	-10.6062
▁Try	-10.6063
▁legend	-10.6064
▁covering	-10.6073
▁Ross	-10.6079
▁surround	-10.6084
▁Ken	-10.6085
▁ballistic	-10.6088
▁relief	-10.6088
▁proud	-10.6088
▁Model	-10.6089
▁Bets	-10.609
ean	-10.6094
▁tend	-10.6097
▁hell	-10.6097
pi	-10.6104
▁addition	-10.6106
▁Use	-10.611
▁1990	-10.6115
▁Summer	-10.6116
▁Beyonc	-10.612
documented	-10.6122
▁dominat	-10.6125
▁46	-10.6127
▁controll	-10.6138
▁Authorit	-10.6139
▁Gawker	-10.6142
▁LONDON	-10.6142
▁Patrick	-10.6142
▁landmark	-10.6142
▁Rico	-10.6143
▁testing	-10.6144
▁Kath	-10.6156
▁skin	-10.6157
▁icon	-10.6168
▁feminist	-10.6169
atar	-10.6174
▁Collins	-10.6175
▁guide	-10.6177
▁Talking	-10.618
▁Guard	-10.6191
▁suffering	-10.6195
▁Veteran	-10.6197
▁structure	-10.6197
▁Vietnam	-10.6197
▁sustain	-10.6197
▁tone	-10.6198
gen	-10.6201
▁h	-10.622
▁lobby	-10.6228
▁developed	-10.6236
ox	-10.6237
▁cutting	-10.6238
▁web	-10.6247
▁Murder	-10.6251
▁missed	-10.6252
▁65	-10.6259
▁careful	-10.626
▁surface	-10.6269
▁restrict	-10.6272
▁Bernardin	-10.6273
▁Bengha	-10.6279
▁Liberal	-10.6279
▁remote	-10.6279
▁Thanksgiving	-10.628
▁cartel	-10.628
▁dictator	-10.628
▁Swedi	-10.6282
▁survivor	-10.6286
▁promising	-10.6289
▁bond	-10.6291
row	-10.6308
ek	-10.6308
▁Check	-10.6311
ncient	-10.6311
▁scale	-10.6312
▁shouldn	-10.6313
▁symbol	-10.6314
▁cap	-10.6316
▁Girls	-10.6328
▁Wood	-10.6328
dding	-10.6331
▁rebel	-10.6331
▁Spanish	-10.6335
▁commentator	-10.6336
he	-10.6339
ible	-10.6342
▁hostage	-10.635
▁aftermath	-10.635
▁Gu	-10.6352
▁Harris	-10.6357
▁Mal	-10.6358
▁Got	-10.636
▁transform	-10.6361
▁Dies	-10.6362
Between	-10.6363
▁Coulter	-10.6363
▁partisan	-10.6363
▁Ethic	-10.6363
▁Less	-10.6372
ect	-10.6376
▁Move	-10.6376
▁interesting	-10.6376
TV	-10.6388
▁curb	-10.6391
▁temperature	-10.6391
▁trillion	-10.6391
▁scheme	-10.6391
▁stance	-10.6392
▁grown	-10.6395
▁literally	-10.6398
▁Custom	-10.6411
▁Maine	-10.6411
ski	-10.6411
▁conversations	-10.6412
▁package	-10.6416
▁minimum	-10.6419
▁apologize	-10.642
▁beauty	-10.6447
▁journey	-10.6447
▁alliance	-10.6447
▁Set	-10.6448
▁Greg	-10.6456
hu	-10.6457
▁drawing	-10.6466
▁print	-10.6467
▁encounter	-10.6467
ack	-10.6469
▁silence	-10.6472
▁sanctuar	-10.6475
▁Tour	-10.6475
ORK	-10.6475
▁Jo	-10.6475
▁nor	-10.6478
▁Dog	-10.6485
▁complicated	-10.6488
▁manage	-10.6496
anagement	-10.6498
ite	-10.65
▁Benjamin	-10.6503
▁Taylor	-10.6504
▁Marshall	-10.6504
▁Flight	-10.6506
▁55	-10.6514
hitting	-10.6521
▁fly	-10.6523
▁infect	-10.6523
▁Problem	-10.6531
▁boom	-10.6536
▁bridge	-10.6537
▁prayer	-10.654
▁Station	-10.6543
▁fallen	-10.6548
long	-10.6548
▁shar	-10.6552
▁cancel	-10.6553
ew	-10.6555
▁newsletter	-10.656
▁Kurdish	-10.656
▁topic	-10.6571
▁reduc	-10.6582
▁earned	-10.6586
▁Violence	-10.6588
▁Bronx	-10.6588
▁meddl	-10.6588
▁narrative	-10.6589
▁initiative	-10.6589
▁Hale	-10.6593
▁Nice	-10.6594
▁cl	-10.6604
min	-10.6613
▁earthquake	-10.6617
▁cloud	-10.6617
▁Austin	-10.6617
▁Garland	-10.6618
wa	-10.6627
▁cook	-10.6631
▁Defend	-10.6649
▁phones	-10.6652
▁53	-10.6654
▁Perry	-10.6657
▁sw	-10.6662
▁Ambassador	-10.6674
▁overseas	-10.6674
▁conclusion	-10.6674
▁Aile	-10.6675
▁fled	-10.6676
▁risks	-10.6678
▁solution	-10.6678
▁Own	-10.6679
▁Terrorist	-10.668
▁devastating	-10.6687
▁Whe	-10.6687
▁diet	-10.6689
▁Ging	-10.6692
▁standoff	-10.6695
▁index	-10.6696
▁reference	-10.6697
▁Allen	-10.6701
cu	-10.6702
▁phrase	-10.6703
▁Stock	-10.6704
▁pour	-10.6705
▁myself	-10.671
▁Dow	-10.671
ade	-10.6714
▁recording	-10.6714
▁amazing	-10.6719
▁Early	-10.6722
▁Barr	-10.6726
fi	-10.6726
▁inquir	-10.673
▁Boeing	-10.6732
ap	-10.6732
▁approve	-10.6733
▁bitter	-10.6735
HS	-10.6737
▁dogs	-10.6741
tro	-10.6748
▁awards	-10.6757
▁impos	-10.6757
▁shadow	-10.6761
▁Antonio	-10.6761
▁Ministr	-10.6761
▁answers	-10.6765
oo	-10.6775
like	-10.6775
▁51	-10.6787
ana	-10.6789
▁Adviser	-10.6791
▁fought	-10.6792
▁Garden	-10.6796
tion	-10.6808
▁Cut	-10.6815
▁Che	-10.6818
▁Kremlin	-10.6819
▁championship	-10.682
▁2000	-10.682
▁otherwise	-10.6821
FP	-10.6821
▁Reid	-10.6821
▁Better	-10.6824
▁Found	-10.6827
▁updated	-10.6829
▁ripp	-10.6843
▁Globe	-10.6848
▁VIDEO	-10.6848
▁resource	-10.6848
▁finished	-10.6849
▁appointment	-10.6851
▁moon	-10.6852
▁Oh	-10.6861
▁reputation	-10.6878
WATCH	-10.6878
▁Douglas	-10.6878
▁error	-10.6878
▁funeral	-10.6878
▁anthem	-10.6878
▁PAC	-10.6886
▁regional	-10.69
▁nationalist	-10.6906
▁Muhammad	-10.6907
▁Project	-10.6907
▁fundamental	-10.6907
▁Dutch	-10.6907
▁editorial	-10.6908
▁congressman	-10.6908
gate	-10.6912
▁breach	-10.6912
▁canceled	-10.6914
▁Dear	-10.6915
▁concluded	-10.6917
▁Dun	-10.6928
▁robber	-10.6931
older	-10.6934
▁harder	-10.6936
▁Larry	-10.6937
▁suspend	-10.6937
▁loud	-10.6937
▁surviv	-10.6939
▁insult	-10.6944
ane	-10.6948
▁sky	-10.6952
▁remarkabl	-10.6954
pending	-10.6961
▁LA	-10.6961
▁Picture	-10.6966
▁parade	-10.6968
▁Ball	-10.6976
▁rail	-10.6981
▁Jose	-10.6986
▁willing	-10.6988
▁smoke	-10.6988
IA	-10.6988
▁audio	-10.6989
▁Tho	-10.6992
▁Hannity	-10.6996
▁Enforcement	-10.6996
▁knife	-10.6996
▁Port	-10.6997
▁hint	-10.6997
▁soldier	-10.7002
▁Howard	-10.7005
▁injury	-10.7006
▁Ka	-10.7016
port	-10.7017
▁Bur	-10.702
▁tighten	-10.7024
▁Parent	-10.7026
▁mount	-10.7026
▁Maher	-10.7028
▁197	-10.7029
▁categor	-10.7029
▁master	-10.7038
▁tap	-10.7046
▁Chi	-10.7049
▁Company	-10.7056
▁minor	-10.7057
▁celebrit	-10.7066
▁52	-10.7068
▁farm	-10.7071
▁entry	-10.7072
▁prov	-10.7073
ett	-10.7074
let	-10.7074
▁experienc	-10.7075
▁diagnos	-10.7081
▁Warriors	-10.7083
▁Actor	-10.7084
▁scientific	-10.7095
▁OK	-10.7095
▁Travel	-10.7097
▁engag	-10.7104
▁feed	-10.7107
▁warming	-10.7108
Z	-10.7109
▁na	-10.711
▁sad	-10.7115
▁podcast	-10.7115
▁bipartisan	-10.7115
▁Were	-10.7122
▁theater	-10.7129
Keith	-10.713
▁THE	-10.713
▁Charge	-10.7131
▁advanc	-10.7134
▁Festival	-10.7146
▁babies	-10.7146
▁Reince	-10.7146
▁aware	-10.7148
US	-10.7149
▁operative	-10.715
▁ally	-10.7151
▁regret	-10.7155
▁Days	-10.7157
▁user	-10.7163
▁Briefing	-10.7166
▁explode	-10.7176
▁vs	-10.7176
▁Weiner	-10.7176
▁calm	-10.7176
▁hire	-10.718
▁native	-10.7181
mart	-10.7182
pping	-10.7183
▁mouth	-10.7188
▁theme	-10.7195
▁lunch	-10.7206
▁Activist	-10.7206
▁species	-10.7206
▁Thrones	-10.7206
▁Holocaust	-10.7206
▁rumor	-10.7206
▁Egyptian	-10.7208
▁ends	-10.7208
▁Sexual	-10.7208
▁basis	-10.7211
▁license	-10.7214
▁militia	-10.722
▁li	-10.7224
▁hat	-10.7225
▁percentage	-10.7233
▁pursue	-10.7234
▁Communication	-10.7236
▁mock	-10.7245
ise	-10.7256
▁sight	-10.7259
▁balance	-10.726
▁Any	-10.7261
▁Ga	-10.7263
▁nice	-10.7268
▁clip	-10.7278
▁employer	-10.7278
▁veto	-10.7286
▁NY	-10.7291
qui	-10.7294
▁minute	-10.7296
▁graduate	-10.7296
▁Block	-10.7299
▁Shot	-10.7301
▁parking	-10.7303
▁Sha	-10.7319
▁2020	-10.733
▁Prosecutor	-10.7331
erling	-10.7343
ick	-10.7348
▁port	-10.7351
▁meaning	-10.7352
▁Del	-10.7355
▁Criminal	-10.7359
▁beloved	-10.7359
▁Reform	-10.7359
▁hiring	-10.736
▁saving	-10.7361
▁2004	-10.7363
fa	-10.7364
lain	-10.7371
▁equity	-10.7372
▁testify	-10.7373
▁bet	-10.7377
▁artists	-10.7379
▁exposed	-10.7382
▁Stand	-10.7387
▁predecessor	-10.739
▁illness	-10.7391
▁bin	-10.7392
▁dance	-10.7392
errick	-10.7398
ug	-10.7399
▁ugl	-10.7404
▁125	-10.7405
▁slam	-10.7406
▁Ms	-10.7409
▁hoped	-10.7414
▁Dis	-10.7414
▁sees	-10.7419
▁links	-10.7422
▁waters	-10.7428
▁Full	-10.7441
▁tale	-10.7442
▁Sentence	-10.7442
ven	-10.7446
▁Heart	-10.745
▁nightmare	-10.7452
▁switch	-10.7452
▁Charlie	-10.7452
▁boyfriend	-10.7452
▁hail	-10.7454
▁Seven	-10.7455
▁violated	-10.7456
▁Jill	-10.7456
▁disappear	-10.7462
▁Za	-10.7465
▁cent	-10.7466
▁Staff	-10.7471
▁Share	-10.7473
▁humans	-10.7478
▁restaurants	-10.7479
▁Latino	-10.7479
▁Clark	-10.7483
▁bankruptcy	-10.7484
▁Jonath	-10.7506
▁council	-10.7514
▁epidemic	-10.7514
▁opioid	-10.7514
▁weird	-10.7514
▁barrel	-10.7517
▁meat	-10.7521
lu	-10.7522
▁bold	-10.7544
▁explanation	-10.7546
▁peaceful	-10.7549
▁Mi	-10.7557
▁creator	-10.7564
▁hang	-10.7566
▁contender	-10.7574
▁Gray	-10.7576
▁Lewandowski	-10.7577
▁emissions	-10.7577
▁notorious	-10.7577
▁Electoral	-10.7578
▁gear	-10.7578
▁Anderson	-10.7581
▁posts	-10.7581
▁Pop	-10.7584
▁Page	-10.7587
▁alleg	-10.7587
▁Su	-10.7596
▁Standing	-10.7597
ino	-10.76
▁Cover	-10.7602
▁consistent	-10.7604
▁Doesn	-10.7607
▁insider	-10.7608
▁Tehran	-10.7609
▁flash	-10.7609
▁offense	-10.7609
▁hunt	-10.7613
▁activities	-10.7615
▁su	-10.7616
uck	-10.7621
▁speculation	-10.7621
▁youth	-10.7625
▁non	-10.7626
▁twin	-10.7634
▁teenage	-10.7635
▁Deep	-10.7641
▁spotlight	-10.7641
▁forget	-10.7643
ged	-10.7646
▁la	-10.7653
▁odd	-10.7654
▁Hu	-10.7666
▁strategic	-10.7672
▁Lincoln	-10.7672
▁auction	-10.7672
▁economist	-10.7672
▁Takes	-10.7689
▁follower	-10.7691
▁recovery	-10.7695
▁grocer	-10.7704
▁museum	-10.7704
▁tribute	-10.7704
▁Crisis	-10.7704
▁mysterious	-10.7704
▁Portland	-10.7705
▁Legal	-10.771
▁Abu	-10.7711
▁Ray	-10.7712
▁Abortion	-10.7722
▁Disease	-10.7736
▁Remember	-10.7736
▁Inauguration	-10.7736
▁Colbert	-10.7736
▁correspondent	-10.7736
▁Been	-10.7737
▁keeps	-10.7738
▁TEL	-10.7743
▁established	-10.775
▁shake	-10.7752
▁burn	-10.776
while	-10.7763
▁Rise	-10.7766
▁flat	-10.7769
▁Mon	-10.7769
▁solid	-10.7778
uk	-10.7778
▁Fear	-10.7788
▁disturbing	-10.779
▁accuse	-10.7795
▁Class	-10.7797
▁57	-10.7797
▁learning	-10.7797
▁tournament	-10.78
▁Assault	-10.78
▁whatever	-10.78
▁Rape	-10.7801
▁Cameron	-10.7801
▁Ge	-10.7814
▁Jenni	-10.7814
▁mall	-10.782
▁equip	-10.7821
▁soar	-10.7828
▁yourself	-10.7828
▁Fail	-10.7832
▁Jesus	-10.7832
VIV	-10.7833
▁1970	-10.7833
▁provider	-10.7836
▁ruin	-10.7836
▁Transgender	-10.7841
▁Snap	-10.7844
▁Abedin	-10.7845
OJ	-10.7855
▁Nixon	-10.7865
▁chamber	-10.7865
▁unanimous	-10.7865
▁impeachment	-10.7866
▁completed	-10.7868
▁Sun	-10.7874
▁miss	-10.7881
▁Refugees	-10.7884
▁Song	-10.7886
water	-10.7891
▁apologiz	-10.7895
▁Members	-10.7896
▁mosquito	-10.7897
▁influential	-10.7897
▁Roof	-10.7898
▁elder	-10.7898
▁Nobel	-10.7899
▁greet	-10.7899
▁bear	-10.7901
▁Cross	-10.7901
▁Jake	-10.7904
▁Threat	-10.7909
▁circle	-10.7909
▁stabb	-10.7917
▁archive	-10.7919
▁Liberty	-10.793
▁Nuclear	-10.793
▁Bring	-10.7931
▁Eight	-10.7932
▁odds	-10.7936
▁reverse	-10.794
▁Son	-10.7942
▁puts	-10.7944
▁Bolt	-10.7944
of	-10.7945
mp	-10.7948
▁neck	-10.7957
▁Grow	-10.7962
▁unknown	-10.7963
▁Safety	-10.7963
lor	-10.7966
▁rapper	-10.7966
▁Ron	-10.7969
j	-10.7973
mar	-10.7976
ntil	-10.7978
▁600	-10.798
▁Shi	-10.7981
pp	-10.799
▁fundrais	-10.7993
▁194	-10.7995
▁ocean	-10.7995
▁segment	-10.7995
▁tool	-10.7996
▁entertainment	-10.7996
▁retirement	-10.8
▁posting	-10.8003
▁affairs	-10.8006
▁Getty	-10.8009
▁equal	-10.801
▁guys	-10.8024
▁System	-10.8028
▁Morgan	-10.803
▁finger	-10.803
▁Place	-10.803
▁everywhere	-10.8032
▁mine	-10.8033
▁bombs	-10.8034
▁fail	-10.8035
▁tapp	-10.8041
▁Hack	-10.8047
▁organized	-10.8049
▁Made	-10.8051
▁Affair	-10.8054
hr	-10.8057
▁Rome	-10.8058
▁54	-10.8063
▁Minority	-10.8066
▁embrace	-10.8066
▁selection	-10.8067
▁highway	-10.8075
▁decisions	-10.8077
▁Must	-10.8085
▁pois	-10.809
▁Manafort	-10.8094
▁taxpayer	-10.8094
▁Which	-10.8095
▁belong	-10.8096
▁meal	-10.8097
▁Around	-10.8097
▁takeover	-10.8101
▁plea	-10.8104
▁harsh	-10.8127
▁rigged	-10.8127
▁Madison	-10.8128
▁divorce	-10.813
▁handed	-10.8136
FC	-10.8136
AND	-10.8148
▁shout	-10.815
▁fiscal	-10.8161
▁clock	-10.8161
▁contentious	-10.8162
▁cat	-10.8162
▁permit	-10.8165
▁Thank	-10.8172
▁sweet	-10.8177
▁taste	-10.818
▁quote	-10.8191
▁self	-10.8193
▁float	-10.8194
▁procedure	-10.8194
▁Prize	-10.8194
▁declar	-10.8197
▁debates	-10.8199
TA	-10.82
log	-10.8201
▁Jobs	-10.8202
▁depend	-10.8204
ko	-10.8205
uc	-10.8206
▁apply	-10.8207
▁craft	-10.8216
▁Mari	-10.8219
▁carrier	-10.8221
▁trailer	-10.8224
che	-10.8225
▁acquisition	-10.8228
ssange	-10.8228
▁sugar	-10.8228
▁drawn	-10.8229
▁Harve	-10.8234
ny	-10.8239
▁Camp	-10.8245
▁Dems	-10.8253
▁Rules	-10.8257
▁rang	-10.8259
▁eager	-10.8261
▁desert	-10.8261
▁Study	-10.8261
▁Orange	-10.8262
▁advertisement	-10.8262
▁tenure	-10.8262
▁peak	-10.8262
▁privilege	-10.8265
▁trie	-10.8271
AL	-10.8278
we	-10.8279
▁Nor	-10.829
▁Ni	-10.829
▁Culture	-10.8292
▁constant	-10.8295
▁pundit	-10.8295
▁grave	-10.8295
▁insurer	-10.8295
▁dubb	-10.8295
▁cheat	-10.8295
▁Ke	-10.8296
▁Few	-10.8301
▁scenes	-10.8306
▁tur	-10.8309
▁river	-10.8319
uff	-10.8323
bbie	-10.8324
top	-10.8324
▁rifle	-10.8329
▁unleash	-10.8329
▁feud	-10.8329
▁anonymous	-10.833
▁settled	-10.8332
▁Juan	-10.8333
▁emerg	-10.8333
▁Native	-10.8335
▁Track	-10.8337
▁Kids	-10.8338
II	-10.8341
▁mountain	-10.8343
▁folks	-10.8348
quality	-10.8357
▁critic	-10.836
▁alcohol	-10.8361
▁travelers	-10.8361
ueen	-10.8362
▁Emmanuel	-10.8363
▁Verizon	-10.8363
▁ambitious	-10.8363
▁Football	-10.8363
▁Hernand	-10.8363
▁occasion	-10.8364
▁Cold	-10.8364
▁Close	-10.8367
Year	-10.8368
▁Pok	-10.8373
▁Da	-10.8374
art	-10.8381
▁Lt	-10.8383
af	-10.8384
▁stress	-10.8388
▁ignore	-10.839
uestions	-10.8394
▁propaganda	-10.8397
▁venture	-10.8397
▁ICE	-10.84
▁Them	-10.8401
▁Season	-10.8404
▁pot	-10.8406
▁Baker	-10.8407
▁delegate	-10.8413
ating	-10.8417
▁kid	-10.8418
▁Christoph	-10.8431
▁shelter	-10.8432
▁Bruc	-10.8434
iv	-10.8434
▁VP	-10.8435
▁everybody	-10.8436
▁explore	-10.8437
ong	-10.8439
▁Murra	-10.8441
ex	-10.8445
▁doors	-10.8449
▁premiere	-10.8449
▁Ha	-10.8456
▁vi	-10.846
▁guarantee	-10.8466
▁poverty	-10.8466
▁dedicat	-10.8466
▁abus	-10.847
▁soul	-10.8472
▁Sometime	-10.8474
▁slash	-10.8494
▁Release	-10.8499
▁urban	-10.85
list	-10.8501
fraid	-10.8501
▁Dream	-10.8502
og	-10.8509
gar	-10.8509
ttled	-10.851
▁Julian	-10.8514
ani	-10.852
▁accord	-10.8527
▁Baby	-10.8528
▁weekly	-10.853
▁Huma	-10.853
▁i	-10.853
▁Host	-10.8531
▁confident	-10.8535
▁Orleans	-10.8535
▁Pulse	-10.8535
▁desire	-10.8535
▁Northern	-10.8535
▁Community	-10.8536
▁Nothing	-10.8536
▁Mer	-10.8536
▁clothes	-10.8537
▁Blame	-10.8537
▁tear	-10.8537
itarian	-10.8538
▁Commissioner	-10.8542
▁Almost	-10.8549
▁tears	-10.855
aw	-10.8558
▁contribut	-10.856
▁Alien	-10.8564
▁pattern	-10.857
▁suspension	-10.857
▁extensive	-10.857
▁Program	-10.857
▁variet	-10.857
▁Cinc	-10.8571
▁grabb	-10.8572
com	-10.8574
▁Cohen	-10.8575
▁banker	-10.8577
▁fat	-10.8578
▁Tonight	-10.8581
era	-10.8583
▁Amy	-10.8592
▁except	-10.8598
▁Serie	-10.86
▁punish	-10.8602
ON	-10.8603
▁Lawyer	-10.8606
▁roundup	-10.8607
▁250	-10.8611
worth	-10.8615
▁regulation	-10.8617
PEC	-10.8622
▁Russians	-10.8637
▁artificial	-10.8639
▁enormous	-10.8639
▁premium	-10.8639
▁Sch	-10.8641
▁chicken	-10.8642
▁Carrie	-10.8643
▁tall	-10.8645
▁disclosure	-10.8646
▁porn	-10.8648
▁infection	-10.8649
pl	-10.8652
▁Prison	-10.8652
▁litera	-10.8653
▁Push	-10.8653
▁Intel	-10.8653
ight	-10.8661
▁affair	-10.8663
▁realize	-10.8668
▁endanger	-10.8675
▁application	-10.8675
▁resume	-10.8676
ground	-10.8676
▁undermine	-10.8679
▁Corps	-10.8688
▁Giuliani	-10.871
▁helicopter	-10.871
▁Sudan	-10.871
▁stronghold	-10.8711
▁Walker	-10.872
low	-10.8724
▁motion	-10.8732
ook	-10.8737
▁Alleged	-10.8737
▁59	-10.874
▁85	-10.8741
▁abrupt	-10.8745
▁anxiet	-10.8745
dom	-10.8746
▁household	-10.8746
▁Rachel	-10.8747
▁forth	-10.8752
chi	-10.876
flew	-10.8765
▁anymore	-10.8768
▁crush	-10.8775
▁66	-10.8778
▁Professor	-10.8781
▁Wrong	-10.8781
▁inflation	-10.8781
▁SAN	-10.879
craft	-10.879
▁democratic	-10.8794
▁Rally	-10.8797
▁declare	-10.8805
▁ID	-10.881
▁intention	-10.8812
▁Tayyi	-10.8816
▁academic	-10.8817
▁infamous	-10.8823
▁dying	-10.8826
▁ho	-10.8829
▁pile	-10.8829
▁dragg	-10.883
▁plac	-10.8831
▁99	-10.8837
▁Eli	-10.8838
▁boast	-10.8847
▁Warn	-10.8848
▁Happen	-10.8852
▁Denver	-10.8852
▁celebration	-10.8853
ennis	-10.8855
▁portion	-10.886
▁nobody	-10.8863
▁lowest	-10.8863
▁AT	-10.8864
▁facilit	-10.8865
eg	-10.887
itz	-10.887
▁Light	-10.8889
▁Maria	-10.8892
▁tragedy	-10.8895
▁spin	-10.8897
▁lit	-10.8897
▁nominate	-10.8898
▁manufacturer	-10.8901
▁retailer	-10.8901
▁restore	-10.8902
▁denounc	-10.8903
▁700	-10.8904
▁sub	-10.8911
▁Em	-10.8911
▁ten	-10.8912
▁Mis	-10.8914
▁enemy	-10.8924
▁Dozen	-10.8924
▁Greek	-10.8924
▁Duke	-10.8924
▁uncertainty	-10.8925
▁comic	-10.8927
▁operate	-10.8931
▁Strike	-10.8932
▁disclose	-10.8932
nati	-10.8933
NL	-10.8937
▁arrival	-10.8941
▁slipp	-10.8947
▁clinic	-10.8955
▁Scot	-10.8956
▁repeat	-10.8956
AN	-10.896
▁Alexander	-10.896
▁empty	-10.896
if	-10.8961
▁App	-10.897
20	-10.8976
tu	-10.8978
▁Hours	-10.898
▁personality	-10.898
▁Threaten	-10.8983
▁seconds	-10.8985
▁fame	-10.8986
▁scor	-10.8987
▁Cha	-10.8989
▁experiment	-10.8991
▁sensitiv	-10.8995
rid	-10.8995
und	-10.8996
▁memorial	-10.8996
▁starr	-10.8999
▁crowded	-10.8999
ink	-10.9012
▁brothers	-10.9013
▁defin	-10.9013
▁56	-10.9015
▁mourn	-10.9015
▁clothing	-10.9016
▁bound	-10.9022
ue	-10.9024
yang	-10.9027
▁legendar	-10.9028
▁wreck	-10.9032
▁Pittsburgh	-10.9032
ITY	-10.9032
▁strict	-10.9033
▁strip	-10.9037
▁orbit	-10.9041
▁Col	-10.9053
▁800	-10.9065
▁Charlesto	-10.9067
▁Field	-10.9069
▁McCarthy	-10.9069
▁Tiger	-10.9069
▁shell	-10.9071
▁inde	-10.9074
▁Gett	-10.9075
▁customer	-10.9076
▁appropriate	-10.9078
▁Bre	-10.9078
▁Mom	-10.9086
▁Broad	-10.9094
ze	-10.9103
▁universities	-10.9105
▁Easter	-10.9106
▁Local	-10.9106
▁Wonder	-10.9107
▁soft	-10.9107
employment	-10.9107
▁ease	-10.9119
▁mandate	-10.912
▁Yorkers	-10.912
▁Critic	-10.912
▁injur	-10.9123
▁escalat	-10.9127
▁emerge	-10.9131
▁di	-10.9138
▁Bald	-10.9141
▁sentiment	-10.9142
▁steady	-10.9143
▁Thai	-10.9144
moil	-10.9144
verything	-10.9147
ari	-10.915
▁connected	-10.9152
▁indicate	-10.9154
▁leaks	-10.9158
▁horse	-10.9162
▁wrapp	-10.9162
▁smash	-10.9169
ative	-10.9171
▁Chancellor	-10.9179
▁Stadium	-10.9179
▁disorder	-10.9179
▁uniform	-10.9179
▁venue	-10.9179
▁petition	-10.9179
▁forgot	-10.9179
▁Voting	-10.9179
▁automaker	-10.9181
▁ramp	-10.9182
▁Mail	-10.9184
▁Gar	-10.9185
▁improv	-10.9186
▁farmer	-10.9188
▁par	-10.9197
▁Trans	-10.9199
▁Listen	-10.9199
▁fed	-10.9201
▁combin	-10.9201
ker	-10.921
▁Beat	-10.9212
▁load	-10.9213
▁Exchange	-10.9216
▁Trudeau	-10.9216
▁counterpart	-10.9216
▁1960	-10.9217
▁battleground	-10.9217
▁Village	-10.9219
▁centers	-10.9219
▁negotiat	-10.9242
▁Magazine	-10.9253
▁Mueller	-10.9253
▁essay	-10.9254
▁TPM	-10.9254
▁Demand	-10.9254
▁requirement	-10.9258
▁Pres	-10.926
▁Lawmaker	-10.9261
▁nei	-10.9264
▁tackle	-10.9265
▁crossing	-10.9266
▁circulat	-10.9267
▁stranger	-10.9271
AR	-10.928
▁Joy	-10.9282
▁knock	-10.929
▁Belgian	-10.9291
▁Greece	-10.9291
▁Society	-10.9291
▁admission	-10.9291
▁Promise	-10.9291
▁Jeffrey	-10.9291
▁detention	-10.9291
▁trapp	-10.9296
▁Put	-10.9298
ER	-10.9302
▁transfer	-10.9311
▁marking	-10.9312
▁forever	-10.932
▁Wins	-10.9324
▁Milwaukee	-10.9328
▁Phoeni	-10.9328
stein	-10.9329
▁patrol	-10.9329
▁NSA	-10.933
▁Dave	-10.9339
▁Agent	-10.934
▁Bomb	-10.9347
▁secur	-10.9352
▁Lot	-10.9357
▁depict	-10.9358
▁borders	-10.936
▁spokesperson	-10.9366
▁opposite	-10.9366
▁output	-10.9373
ese	-10.9373
▁wing	-10.9374
ified	-10.9375
▁Woods	-10.938
▁earn	-10.938
▁contractor	-10.9382
▁List	-10.9382
▁employ	-10.9387
▁painting	-10.9389
▁overnight	-10.939
▁signing	-10.9395
▁Cal	-10.9396
▁dropping	-10.9397
▁compete	-10.94
▁grab	-10.9402
▁entrepreneur	-10.9403
▁stall	-10.9404
▁Johnny	-10.9408
▁suffer	-10.9409
▁Hav	-10.9412
▁Area	-10.9415
argo	-10.9417
lam	-10.9421
▁grounds	-10.9421
▁Abe	-10.9422
▁hospitals	-10.9425
ties	-10.9425
what	-10.9429
Old	-10.9429
▁witnesse	-10.9434
▁prohibit	-10.9437
▁spirit	-10.944
▁Peace	-10.9441
▁drill	-10.9441
▁Scandal	-10.9441
▁satellite	-10.9441
▁unarm	-10.9441
▁Billionaire	-10.9441
▁Melissa	-10.9441
▁battl	-10.9446
▁scrambl	-10.9446
▁embass	-10.9449
care	-10.9451
▁heroin	-10.9454
down	-10.9458
▁waste	-10.9465
▁engine	-10.9466
▁eligib	-10.947
▁landing	-10.948
▁Gorka	-10.948
▁Stay	-10.9482
▁911	-10.9483
▁Age	-10.9494
▁civilian	-10.9497
▁Cost	-10.9501
▁utter	-10.9502
borough	-10.9509
▁homicide	-10.9518
▁Pyong	-10.9518
▁Montana	-10.9518
▁partnership	-10.9519
▁actors	-10.9522
▁Oct	-10.9527
lated	-10.9529
▁Rangers	-10.9529
ft	-10.9531
▁immun	-10.9536
▁descend	-10.9539
▁strengthen	-10.9547
▁Lost	-10.9549
ps	-10.9555
mpson	-10.9555
▁badly	-10.9556
▁landscape	-10.9556
▁permission	-10.9556
▁sailor	-10.9561
▁comeback	-10.9562
▁accidental	-10.9563
▁spreading	-10.9564
▁impose	-10.9566
▁computers	-10.9567
▁Bee	-10.9574
▁Yo	-10.9574
▁ill	-10.9582
mm	-10.9583
▁honest	-10.9585
▁concept	-10.9588
▁Bas	-10.9591
▁violate	-10.9593
CLUSIVE	-10.9594
▁apology	-10.9594
▁silent	-10.9594
▁evil	-10.9594
▁Tapper	-10.9594
▁zero	-10.9594
▁Nikk	-10.9595
▁walls	-10.9595
▁funny	-10.9595
▁Moment	-10.96
▁continent	-10.9607
▁Slam	-10.9611
▁j	-10.9614
nger	-10.962
▁bombings	-10.962
▁wood	-10.9623
bil	-10.9625
unk	-10.9631
▁Serge	-10.9632
▁plastic	-10.9633
▁Labour	-10.9633
▁slogan	-10.9633
▁SEAL	-10.9633
▁Henry	-10.9633
▁statue	-10.9634
▁Common	-10.9635
▁indictment	-10.9636
▁bull	-10.9639
▁Web	-10.9646
uit	-10.9649
▁Gre	-10.9655
some	-10.9659
▁Save	-10.9668
▁Elli	-10.9668
▁Galaxy	-10.9672
▁UC	-10.9672
▁innocent	-10.9672
▁Griffi	-10.9672
▁desk	-10.9672
▁connect	-10.9672
▁Cartel	-10.9672
▁Redstone	-10.9673
▁assessment	-10.9673
▁childhood	-10.9674
▁2003	-10.9676
▁GM	-10.9679
▁Killing	-10.9679
ette	-10.9682
▁hanging	-10.9693
▁Offer	-10.9695
▁creation	-10.9696
point	-10.9697
▁defi	-10.9697
▁Sky	-10.9699
nch	-10.9702
▁detect	-10.9702
▁inaugura	-10.9703
▁Bell	-10.9703
▁portray	-10.9706
erhaps	-10.9709
▁Source	-10.9711
ories	-10.9712
▁plus	-10.9712
▁earth	-10.9713
▁confrontation	-10.9714
gt	-10.9716
▁demonstrator	-10.9718
▁seal	-10.972
▁delivery	-10.9721
▁participate	-10.9725
▁Haiti	-10.9746
▁Fashion	-10.975
▁Swiss	-10.975
▁awkward	-10.975
▁contrast	-10.975
▁punishment	-10.9752
▁suggestion	-10.9754
bra	-10.9755
▁Mel	-10.9759
▁Online	-10.9764
▁tactics	-10.9778
▁worrie	-10.9781
kh	-10.9783
▁commit	-10.9783
▁sixth	-10.9785
▁Refugee	-10.9785
▁interrupt	-10.9786
llusion	-10.9789
▁Leonard	-10.9789
▁migration	-10.9789
▁Partial	-10.979
▁Koch	-10.9796
▁popul	-10.9797
▁du	-10.9803
▁realiz	-10.9804
▁Award	-10.9809
▁84	-10.9812
▁Kar	-10.9815
▁fence	-10.9816
▁Kate	-10.9817
▁Leaders	-10.9817
▁Bi	-10.9827
▁eliminate	-10.9827
▁legislature	-10.9828
▁Investor	-10.983
▁Interest	-10.9831
▁recommendation	-10.9831
▁Dick	-10.9842
▁fires	-10.9846
▁Researcher	-10.9849
▁Nigeria	-10.985
▁Visit	-10.986
▁motivat	-10.9861
cious	-10.9867
▁ST	-10.9867
▁Silver	-10.9868
▁Viacom	-10.9868
▁globe	-10.9868
▁Click	-10.9868
▁Bundy	-10.9868
▁Voice	-10.9868
▁weaken	-10.9869
▁Baghdad	-10.9872
▁passage	-10.9873
▁divide	-10.9887
▁Sc	-10.989
▁buzz	-10.9893
▁Buy	-10.9898
qua	-10.9902
▁disagree	-10.9906
▁epic	-10.9907
istic	-10.9907
▁residence	-10.9908
rod	-10.9913
▁successor	-10.9915
▁refuge	-10.9916
▁creative	-10.9916
ington	-10.9918
▁Springs	-10.9918
▁goals	-10.9921
▁courts	-10.9921
▁underway	-10.9926
▁broker	-10.9929
ide	-10.993
▁millennials	-10.9931
BS	-10.9933
sburg	-10.9934
▁battery	-10.9937
▁62	-10.9937
▁Expert	-10.9947
▁Primary	-10.9947
▁deficit	-10.9947
▁burst	-10.9947
▁tunnel	-10.9947
▁Address	-10.9947
▁fault	-10.9948
▁slave	-10.9949
ore	-10.995
▁disappoint	-10.9953
war	-10.9972
▁Thanks	-10.9976
▁pet	-10.9987
▁kitchen	-10.9987
▁preliminar	-10.9987
▁technical	-10.9987
▁Buffett	-10.9987
▁Pipeline	-10.9987
▁medicine	-10.9987
▁Honor	-10.999
▁Leak	-10.9991
▁outlet	-10.9992
aeda	-10.9995
▁firearms	-11.0004
▁stabbing	-11.0005
▁papers	-11.0009
▁allege	-11.0011
▁rage	-11.0012
▁Rev	-11.0014
▁quot	-11.0015
▁Building	-11.0017
▁Fat	-11.0018
▁Han	-11.0019
▁heated	-11.002
OR	-11.0021
wan	-11.0022
▁Update	-11.0026
▁resolve	-11.0027
▁retreat	-11.0027
▁substantial	-11.0027
▁yield	-11.0027
▁mask	-11.0027
▁watchdog	-11.0028
▁Coming	-11.0028
▁Wallac	-11.003
▁Learn	-11.0036
ank	-11.0042
▁74	-11.0043
▁Seek	-11.0043
▁mad	-11.0047
▁Te	-11.005
▁shareholders	-11.0055
▁bloody	-11.0064
▁install	-11.0064
▁donate	-11.0065
▁Belgium	-11.0068
▁Stewart	-11.0068
▁perspective	-11.0068
▁corporation	-11.0068
▁guess	-11.0068
▁moderator	-11.0069
▁Soros	-11.007
▁revive	-11.0072
▁yell	-11.0072
▁Maduro	-11.0075
▁listening	-11.0078
▁Evan	-11.0088
▁em	-11.0091
▁Huffing	-11.0097
▁Kh	-11.0099
▁Teacher	-11.01
az	-11.0104
▁Soviet	-11.0108
▁explicit	-11.0108
▁accurate	-11.0108
▁Schult	-11.011
▁ordinary	-11.0111
rie	-11.0113
▁Andrea	-11.0114
▁Suicide	-11.0117
tlantic	-11.0125
▁escap	-11.0129
▁burning	-11.0129
▁Recep	-11.0133
▁Par	-11.0133
▁Marc	-11.0145
▁deliberate	-11.0148
▁fantasy	-11.0149
▁await	-11.0149
▁verdict	-11.0149
▁laptop	-11.0149
▁Baseball	-11.0149
▁Percent	-11.0149
▁Room	-11.015
▁Mall	-11.015
▁fundraiser	-11.0151
▁Bible	-11.0155
▁Sure	-11.0156
▁proof	-11.0156
▁Job	-11.016
▁Billion	-11.0162
▁statistic	-11.0166
▁ha	-11.0169
▁deported	-11.0173
uous	-11.0173
▁flags	-11.0174
▁models	-11.0176
▁explor	-11.0177
▁Bangladesh	-11.0186
▁transport	-11.0188
▁Rodrig	-11.0189
cor	-11.0189
▁Commerc	-11.019
▁Pruitt	-11.019
▁instance	-11.019
▁duty	-11.019
▁Actress	-11.0191
▁modest	-11.0192
▁Gang	-11.0193
ros	-11.0194
▁Ne	-11.0194
▁Data	-11.0195
▁founded	-11.0203
▁mob	-11.0204
▁coordinat	-11.0204
▁Immigrants	-11.0205
▁Rolling	-11.0206
▁Wolf	-11.0207
▁compet	-11.0215
▁collapsed	-11.0216
▁plung	-11.0218
ire	-11.0222
▁Goe	-11.0228
▁Sh	-11.023
▁nonprofit	-11.0231
▁Jerem	-11.0231
ED	-11.0236
▁suburban	-11.0238
▁understanding	-11.0238
▁toxic	-11.0239
wear	-11.0244
▁fruit	-11.0245
ray	-11.0251
▁roads	-11.0251
cha	-11.0255
▁Hold	-11.0257
ock	-11.0259
▁repli	-11.0261
▁Famili	-11.0272
▁suspicion	-11.0272
▁Development	-11.0272
▁Fresh	-11.0272
▁shak	-11.0278
equality	-11.0279
▁Reality	-11.0286
ya	-11.0294
▁Malaysia	-11.0296
▁emba	-11.0296
hem	-11.0297
▁hide	-11.0298
▁Guy	-11.0302
▁smile	-11.0305
▁Brooks	-11.0308
▁Starbucks	-11.0313
▁cellphone	-11.0313
▁horribl	-11.0313
▁phase	-11.0313
▁Clear	-11.0313
▁kiss	-11.0313
▁comparison	-11.0314
▁shutdown	-11.0314
▁membership	-11.0318
▁Noah	-11.0322
ass	-11.0326
ea	-11.0327
▁deport	-11.0331
▁secrets	-11.0333
▁prefer	-11.0334
▁loser	-11.0335
▁Isn	-11.0339
▁Lorett	-11.0342
▁Near	-11.0352
▁Line	-11.0354
▁Racist	-11.0355
▁Ireland	-11.0355
▁yellow	-11.0355
▁distance	-11.0356
tting	-11.036
▁traffick	-11.0362
▁leftist	-11.0373
▁socialist	-11.0376
▁inevitabl	-11.0377
▁wor	-11.038
▁fr	-11.0381
▁Edge	-11.0381
▁anyway	-11.0387
▁occasional	-11.0396
▁roof	-11.0396
▁Industr	-11.0396
▁Join	-11.0396
▁Mountain	-11.0396
▁trash	-11.0396
▁Oliver	-11.0398
▁organizers	-11.0402
▁Poland	-11.0403
▁Jenner	-11.0404
▁dust	-11.0404
▁Revolution	-11.0416
▁Breaking	-11.0422
oy	-11.0424
western	-11.0426
▁generat	-11.0429
▁executed	-11.0434
▁Dur	-11.0435
▁Fifth	-11.0438
▁Zealand	-11.0438
▁vessel	-11.0438
▁misconduct	-11.0439
▁Dangerous	-11.0439
▁Wilson	-11.0439
▁wiretapp	-11.0441
▁deem	-11.0443
▁Add	-11.0446
ai	-11.0468
▁blind	-11.0468
ok	-11.0469
▁fiction	-11.0473
▁min	-11.0474
▁associat	-11.0474
▁panic	-11.0475
▁metal	-11.0476
▁flaw	-11.048
▁Meeting	-11.048
▁sprawl	-11.048
▁Consumer	-11.048
▁Ferguson	-11.048
▁NCAA	-11.048
▁Happy	-11.048
▁Confederate	-11.048
▁ridiculous	-11.048
▁ministr	-11.0481
▁brilliant	-11.0481
▁Mnu	-11.0482
▁shark	-11.0483
▁script	-11.0486
q	-11.0488
▁crowds	-11.05
▁deadlie	-11.0501
▁anticipated	-11.0502
▁Des	-11.0504
▁Inter	-11.0506
▁sole	-11.0507
▁branch	-11.0511
credible	-11.0512
Independence	-11.0516
▁Protect	-11.0519
▁Cat	-11.052
pen	-11.0521
▁pieces	-11.0522
▁Libertarian	-11.0522
▁Vatican	-11.0522
▁Writing	-11.0522
▁Become	-11.0522
▁Kanye	-11.0522
▁Delta	-11.0524
▁Movement	-11.0525
▁sponsor	-11.0526
▁Cr	-11.0535
▁stat	-11.0536
▁Fe	-11.0536
▁Accus	-11.0549
▁peer	-11.0557
▁thin	-11.0561
▁gate	-11.0562
cross	-11.0563
▁context	-11.0565
▁define	-11.0566
▁Guzm	-11.0566
▁NRA	-11.0568
val	-11.0574
▁personne	-11.0575
▁Fact	-11.0575
▁welcom	-11.0581
pt	-11.0585
ara	-11.0587
▁indicated	-11.0594
rr	-11.0604
▁Rule	-11.0606
▁spill	-11.0606
▁dominate	-11.0607
▁Information	-11.0607
▁Kardashian	-11.0607
▁SUV	-11.0607
▁Technology	-11.0607
▁divisive	-11.0607
▁empire	-11.0607
▁Movie	-11.0607
▁definite	-11.0608
▁Stanley	-11.0609
▁Campus	-11.0609
▁Parker	-11.0612
▁Bear	-11.0617
▁vulnerab	-11.0622
▁Break	-11.0624
▁Voter	-11.0632
▁Cho	-11.0635
▁Roman	-11.0636
▁Fl	-11.0636
▁corrupt	-11.0647
▁recognize	-11.0648
▁harass	-11.0648
▁Wikileaks	-11.065
▁bureau	-11.065
▁king	-11.0652
▁Journalist	-11.0655
▁Tel	-11.0656
▁IS	-11.0663
▁tired	-11.0663
my	-11.0675
▁observer	-11.0678
▁burned	-11.0679
ef	-11.0687
▁breast	-11.0693
▁principal	-11.0693
▁Andy	-11.0694
▁mood	-11.0695
▁Drop	-11.0697
▁Candidate	-11.0702
▁Forum	-11.0704
▁Makes	-11.0704
▁establish	-11.0715
▁Tea	-11.0722
▁wine	-11.0725
▁Dark	-11.0726
▁appli	-11.0728
RA	-11.0733
▁triumph	-11.0735
▁Female	-11.0736
▁IPO	-11.0736
▁swift	-11.0736
▁Arctic	-11.0736
▁Third	-11.0736
▁swimmer	-11.0736
▁Fame	-11.0738
▁painful	-11.0739
pain	-11.074
▁priority	-11.0741
▁bench	-11.0742
▁Venezuelan	-11.0743
▁Century	-11.0744
▁fortune	-11.0744
▁Fill	-11.0745
unnam	-11.0745
▁extremist	-11.0746
▁regularly	-11.075
▁independence	-11.0756
▁cry	-11.0763
▁torture	-11.0766
▁paint	-11.0769
▁Met	-11.0772
▁Brand	-11.0774
▁Fiorina	-11.0779
▁furious	-11.078
▁Prevention	-11.0781
▁shoulder	-11.0781
▁Assembly	-11.0782
▁testifie	-11.0783
▁acquire	-11.0783
▁revealing	-11.0783
▁Step	-11.0792
▁Lose	-11.0792
▁Dean	-11.0797
▁Half	-11.0802
▁Turner	-11.0808
▁violat	-11.081
▁Barbar	-11.081
NA	-11.0811
▁supplie	-11.0812
▁shirt	-11.0815
▁disclos	-11.0821
▁chapter	-11.0823
▁enemies	-11.0823
▁Nominee	-11.0823
▁bunch	-11.0823
▁achievement	-11.0825
▁legally	-11.0829
avi	-11.0833
▁Fac	-11.0834
▁Shar	-11.0837
ada	-11.0842
▁teammate	-11.0845
▁Yell	-11.0855
▁oust	-11.0857
▁norm	-11.086
▁Dar	-11.0862
▁teens	-11.0863
▁crackdown	-11.0867
▁Storm	-11.0868
▁Yale	-11.0869
▁Terrorism	-11.087
▁Ti	-11.0874
▁heels	-11.0874
▁partial	-11.0875
▁Alt	-11.0876
▁method	-11.0884
▁bullet	-11.0885
▁opt	-11.0885
▁tools	-11.0888
pro	-11.0889
ki	-11.089
▁jokes	-11.0901
burg	-11.0903
▁Mind	-11.0904
▁hashtag	-11.091
▁inappropriate	-11.091
▁universe	-11.091
▁Account	-11.091
▁Simpson	-11.091
▁steel	-11.0911
▁spell	-11.0911
▁genetic	-11.0911
▁Correspondent	-11.0911
▁developer	-11.0913
▁indication	-11.0914
▁2002	-11.0916
▁edit	-11.0917
▁qualifi	-11.092
▁thousand	-11.0927
▁Pass	-11.0928
▁Working	-11.0935
Points	-11.0938
▁circumstances	-11.0944
qu	-11.0944
▁assert	-11.0948
▁Event	-11.0949
bar	-11.0951
▁Interior	-11.0954
▁filibuster	-11.0954
▁Lindsey	-11.0955
▁excuse	-11.0955
▁BEI	-11.0955
▁breakfast	-11.0955
▁Klein	-11.0956
▁Winter	-11.0956
▁addiction	-11.0957
▁pregnancy	-11.0962
▁contribution	-11.0969
▁Search	-11.097
▁enact	-11.0971
ala	-11.0972
▁opportunities	-11.0974
▁stole	-11.0982
▁Holding	-11.0987
▁reader	-11.0987
▁lights	-11.0989
▁Mediterran	-11.0999
▁Russell	-11.0999
▁destruction	-11.0999
▁naked	-11.0999
▁stepping	-11.0999
▁pocket	-11.0999
▁Rush	-11.1001
▁Trust	-11.1003
▁cards	-11.1008
ken	-11.1009
▁consideration	-11.1016
▁Name	-11.1019
▁Brit	-11.1033
▁Newt	-11.1034
▁Pi	-11.104
▁Independent	-11.1043
▁Schwei	-11.1043
▁Hampton	-11.1044
▁Blood	-11.1044
▁Upper	-11.1046
selves	-11.1048
▁stunn	-11.1049
▁Royal	-11.105
▁introduce	-11.1051
▁denie	-11.1052
bean	-11.1057
▁69	-11.1059
▁Tweet	-11.1063
▁Somalia	-11.1063
▁Kati	-11.1064
▁58	-11.1065
▁Fi	-11.1071
▁interfer	-11.1071
▁Sales	-11.1071
▁assist	-11.1073
▁Low	-11.1079
bu	-11.1085
▁Wa	-11.1085
▁Craig	-11.1088
▁Chaffe	-11.1088
▁graphic	-11.1088
▁Jail	-11.1088
▁Carib	-11.1089
▁recession	-11.109
▁Establishment	-11.1094
uestion	-11.1098
▁Hot	-11.1099
▁function	-11.1099
▁forest	-11.11
▁copy	-11.1114
LA	-11.1115
rin	-11.1116
▁mail	-11.1121
pped	-11.1126
▁entitl	-11.1132
▁Marvel	-11.1133
▁Small	-11.1133
▁Mount	-11.1133
▁Guant	-11.1134
▁prosecution	-11.1135
ify	-11.1135
▁Risk	-11.1138
▁stark	-11.115
▁Hell	-11.1153
▁bone	-11.1158
blew	-11.116
▁monument	-11.1162
▁Safe	-11.1165
▁Stra	-11.1177
▁shield	-11.1178
▁priest	-11.1178
▁amendment	-11.1178
▁refer	-11.1179
▁Might	-11.1182
▁Luther	-11.1187
▁hello	-11.1191
▁conventional	-11.1199
▁lifetime	-11.1199
▁rag	-11.1202
▁Cit	-11.1204
iz	-11.1209
▁intent	-11.1216
morrow	-11.1217
▁shoes	-11.1219
▁Opinion	-11.1223
▁nervous	-11.1223
▁ceasefire	-11.1223
▁Castile	-11.1223
▁Kirk	-11.1225
▁clue	-11.1227
▁contributor	-11.1229
▁Outside	-11.123
▁devoted	-11.123
▁Laur	-11.1239
▁surg	-11.1242
▁intervention	-11.1245
▁72	-11.1246
▁ranking	-11.1248
IN	-11.1252
ella	-11.1258
▁embrac	-11.1261
CP	-11.1266
▁Remain	-11.1268
▁Toronto	-11.1268
▁substance	-11.1268
▁intellectual	-11.1268
▁Irish	-11.1268
▁instant	-11.1269
▁horrific	-11.1269
▁barrier	-11.1269
▁76	-11.1274
▁showdown	-11.1274
▁observ	-11.1275
▁Nobody	-11.1275
▁topics	-11.1282
▁refusal	-11.129
▁devastat	-11.1293
▁excited	-11.1298
▁aspect	-11.1299
LES	-11.1305
▁hospitaliz	-11.1309
▁protester	-11.131
stage	-11.1311
▁88	-11.1312
▁buri	-11.1312
▁frustration	-11.1314
▁swimming	-11.1314
▁jewel	-11.1314
▁damaging	-11.1314
▁Partnership	-11.1314
▁Lawsuit	-11.1314
▁vital	-11.1314
▁Believe	-11.1314
▁Archive	-11.1315
▁Mitchell	-11.1316
PS	-11.1317
▁solve	-11.1325
▁Mil	-11.1326
▁echo	-11.1328
▁delet	-11.1329
▁warnings	-11.133
▁firefighter	-11.133
▁wheel	-11.1336
▁golden	-11.1341
▁engage	-11.1342
▁root	-11.1342
▁bloc	-11.1346
▁manner	-11.1347
▁prediction	-11.1348
▁Levin	-11.1352
▁bat	-11.1358
▁PARIS	-11.136
▁phenomenon	-11.136
▁stadium	-11.136
▁gross	-11.136
▁bedroom	-11.136
▁compound	-11.136
▁Ave	-11.1361
▁DNA	-11.1364
▁insight	-11.1365
mond	-11.1366
▁Grant	-11.1366
▁myth	-11.1366
▁setback	-11.1368
rov	-11.1382
▁rolled	-11.1385
▁approximate	-11.1388
▁lab	-11.1392
EN	-11.1394
▁unclea	-11.1401
▁Op	-11.1402
▁defensive	-11.1406
▁Cubs	-11.1406
▁rampage	-11.1408
▁Blast	-11.141
born	-11.1412
▁Driver	-11.1414
▁examin	-11.1417
▁hostil	-11.1419
▁investigated	-11.1422
▁Devin	-11.1424
▁marketing	-11.1426
▁winds	-11.1427
cal	-11.1432
▁lett	-11.1438
▁bottle	-11.1438
▁faction	-11.1438
▁reads	-11.1439
▁consensus	-11.1446
▁prescription	-11.1452
▁concrete	-11.1452
▁Tribun	-11.1452
▁Soon	-11.1453
▁awful	-11.1453
▁Interview	-11.1453
▁impressive	-11.1453
cus	-11.1454
▁CPAC	-11.1455
▁revised	-11.1459
▁mansion	-11.1459
▁locations	-11.1459
▁Challenge	-11.1462
cover	-11.1468
hand	-11.147
▁Simon	-11.1478
▁gig	-11.1482
▁Roll	-11.1486
ped	-11.1489
car	-11.149
▁Mrs	-11.1493
▁AG	-11.1493
▁Dad	-11.1494
▁Columbus	-11.1499
▁Religious	-11.1499
▁consecutive	-11.1499
▁misleading	-11.1499
▁surrogate	-11.1499
▁gym	-11.1499
▁invasion	-11.1499
▁workplace	-11.1501
▁flu	-11.1502
▁respective	-11.1503
▁Ya	-11.1509
her	-11.1517
▁employment	-11.1526
▁Spring	-11.1533
▁screening	-11.1536
▁loyal	-11.1545
▁Lochte	-11.1545
▁censor	-11.1545
▁fossil	-11.1545
▁unpopular	-11.1545
▁vaccine	-11.1545
▁Hudson	-11.1545
▁Summit	-11.1546
▁sidewalk	-11.1546
▁Thiel	-11.1549
▁crown	-11.155
▁Sound	-11.155
▁alter	-11.1554
▁95	-11.1563
idi	-11.1572
itt	-11.1572
▁choices	-11.1574
tom	-11.158
▁tense	-11.1584
▁bail	-11.1591
▁creep	-11.1592
▁bribe	-11.1592
▁ideological	-11.1592
▁silver	-11.1592
▁pride	-11.1593
▁sexist	-11.1596
ome	-11.1599
▁pollster	-11.1602
▁outsider	-11.1604
ual	-11.1605
▁MO	-11.1607
▁banner	-11.1607
▁Congressman	-11.161
▁Pur	-11.1614
▁bow	-11.1617
▁exception	-11.1618
bit	-11.1618
IRS	-11.1623
▁Harle	-11.1624
▁gr	-11.1626
▁strain	-11.1628
▁Base	-11.1629
RE	-11.1631
SA	-11.1634
▁knee	-11.1638
▁chaotic	-11.164
▁tragic	-11.164
▁Relations	-11.164
▁urgent	-11.1641
▁Compani	-11.1641
▁combination	-11.1642
▁collective	-11.1642
▁Christ	-11.1643
▁Truth	-11.1646
vin	-11.165
play	-11.1652
▁bully	-11.1653
▁Bri	-11.1656
▁height	-11.1658
▁78	-11.1658
▁ideal	-11.1659
▁plants	-11.1663
▁windows	-11.1664
▁requir	-11.1667
iness	-11.1668
polis	-11.1672
▁DE	-11.1673
▁120	-11.1676
▁Anne	-11.1677
▁offices	-11.1678
erson	-11.1678
▁pen	-11.1682
air	-11.1683
▁disabl	-11.1684
▁cartoon	-11.1685
▁accomplish	-11.1685
▁Alphabet	-11.1687
▁portrait	-11.1687
▁competitive	-11.1687
▁82	-11.1687
▁courtroom	-11.169
▁ditch	-11.169
▁unlike	-11.1692
▁Jean	-11.1694
▁shore	-11.1697
▁Said	-11.1697
▁din	-11.17
▁plate	-11.17
book	-11.1705
▁Sell	-11.1708
▁Bus	-11.1711
woman	-11.1723
▁Aid	-11.1725
▁pad	-11.1729
▁incredibl	-11.1733
▁assign	-11.1733
▁Ham	-11.1734
▁Rousseff	-11.1735
▁repair	-11.1735
▁supremacist	-11.1735
▁Standard	-11.1735
▁priorities	-11.1735
▁Paper	-11.1736
▁reminder	-11.1738
▁Wayne	-11.1738
▁Letter	-11.1739
▁plott	-11.1741
▁Self	-11.1745
▁Nine	-11.1746
DC	-11.1747
▁hometown	-11.1751
▁grade	-11.1753
ert	-11.1753
▁Walter	-11.1754
▁94	-11.1756
IS	-11.176
▁64	-11.1761
▁SE	-11.1764
▁rely	-11.1766
▁Aug	-11.177
▁sand	-11.1771
gi	-11.1772
▁Fran	-11.1778
▁Panama	-11.1782
▁Ellis	-11.1782
▁evangelical	-11.1782
▁Tar	-11.1783
▁entrance	-11.1783
▁Yorker	-11.1785
▁skills	-11.1786
▁lease	-11.1787
▁protected	-11.1791
▁Mor	-11.1792
▁Citi	-11.1804
ath	-11.1806
GA	-11.1812
▁expression	-11.1812
▁neighborhoods	-11.1815
▁Fre	-11.182
▁Alan	-11.182
▁grip	-11.1824
▁trader	-11.1824
▁67	-11.1827
essica	-11.1827
▁scenario	-11.1831
▁shrink	-11.1831
▁sorry	-11.1831
▁Fans	-11.1831
▁Beast	-11.1832
▁wire	-11.1835
▁achieve	-11.1836
▁filmmaker	-11.1838
▁mo	-11.1842
▁pink	-11.1846
▁lesson	-11.1853
▁premier	-11.1854
bot	-11.1858
▁Whole	-11.186
je	-11.1861
▁loose	-11.1862
▁Command	-11.1863
▁Hoga	-11.1865
▁tim	-11.1871
pat	-11.1873
▁infant	-11.1878
▁cream	-11.1879
▁supreme	-11.1879
▁happi	-11.1879
▁operator	-11.1879
▁confusion	-11.1881
▁Store	-11.1883
▁Dennis	-11.1884
▁Tri	-11.1889
LB	-11.189
▁Die	-11.1892
▁beneath	-11.1896
▁Charg	-11.1906
▁Gri	-11.1917
▁rant	-11.1918
▁Zoo	-11.1919
▁euro	-11.1919
▁Raise	-11.192
▁Gene	-11.1921
residential	-11.1923
▁trauma	-11.1927
▁encrypt	-11.1927
▁freak	-11.1927
▁glimpse	-11.1927
▁visual	-11.1927
▁carbon	-11.1927
▁genre	-11.1927
▁isolat	-11.193
▁minds	-11.1931
▁math	-11.1937
▁Dollar	-11.1937
▁Nash	-11.1939
▁CA	-11.1939
onica	-11.1946
▁Jacob	-11.1958
▁tip	-11.1963
▁193	-11.1969
▁fur	-11.1972
▁encouraging	-11.1976
▁Jinp	-11.1976
▁chef	-11.1976
▁Golf	-11.1976
▁Return	-11.1977
▁legislator	-11.1977
▁vanish	-11.1978
▁Unlike	-11.1978
▁releas	-11.1978
▁plain	-11.1979
▁implication	-11.198
▁pill	-11.1981
▁removal	-11.1993
ama	-11.1996
▁Seth	-11.1998
▁Victoria	-11.1998
▁wrestl	-11.2
stead	-11.2
away	-11.2004
▁Lind	-11.2006
▁humanity	-11.2006
▁Imagine	-11.2009
▁proceed	-11.2011
▁Train	-11.2016
▁iron	-11.2019
▁Bat	-11.2024
▁Concern	-11.2025
▁insurgent	-11.2025
▁streak	-11.2025
▁fulfill	-11.2025
LEVEL	-11.2025
▁Medicare	-11.2025
▁oath	-11.2025
▁Fields	-11.2025
▁Agreement	-11.2026
▁Limba	-11.2027
▁Photo	-11.2027
ata	-11.2032
LE	-11.2034
▁Evening	-11.2037
▁61	-11.2038
▁defeated	-11.2041
▁tune	-11.2041
▁Player	-11.2045
▁stor	-11.2046
▁drag	-11.2055
▁cruise	-11.2058
▁challenger	-11.206
▁Hero	-11.2067
▁dig	-11.207
▁Beyond	-11.2074
▁ambition	-11.2074
▁bolster	-11.2074
▁pioneer	-11.2074
▁wisdom	-11.2074
▁consent	-11.2074
▁LeBr	-11.2075
▁consultant	-11.2075
▁judgment	-11.2075
▁Albert	-11.2075
▁Argentina	-11.2076
▁milk	-11.2076
▁possession	-11.2078
▁Carrier	-11.2083
rate	-11.2086
▁midst	-11.2089
▁Crowd	-11.2096
▁popularity	-11.2098
▁Roy	-11.21
▁eve	-11.2102
▁bump	-11.2105
iter	-11.2111
▁pray	-11.2111
ich	-11.2119
▁tattoo	-11.2124
▁Dinner	-11.2124
▁Eagle	-11.2124
▁expense	-11.2124
▁outlook	-11.2124
▁nasty	-11.2124
▁hammer	-11.2124
▁Championship	-11.2124
▁confidential	-11.2124
▁uncover	-11.2127
▁Investigator	-11.2131
ax	-11.2131
▁pal	-11.2133
▁battles	-11.2146
ova	-11.215
▁absurd	-11.2163
ji	-11.2167
▁attendees	-11.2167
ology	-11.2169
▁expose	-11.2169
▁Exxon	-11.2174
▁Switzer	-11.2174
▁seed	-11.2174
▁creature	-11.2176
▁pursu	-11.2177
▁assess	-11.2178
▁evacuation	-11.2179
▁precise	-11.218
lis	-11.218
▁Philippine	-11.2181
▁assertion	-11.2181
▁doubl	-11.2182
▁valuable	-11.2186
▁finale	-11.2187
▁Snowd	-11.2189
▁AM	-11.2193
▁im	-11.2194
▁Storie	-11.2194
▁Personal	-11.2199
▁drunk	-11.2203
▁68	-11.2207
▁Barry	-11.2211
▁diploma	-11.2216
▁Confirm	-11.2222
▁89	-11.2222
▁Volkswag	-11.2224
▁toddler	-11.2224
▁kidnapped	-11.2224
▁cleric	-11.2224
▁random	-11.2224
▁cooperation	-11.2225
▁existence	-11.2225
▁grim	-11.2226
▁classes	-11.2233
▁Pew	-11.2235
▁advoca	-11.2235
▁reward	-11.2235
▁skeptical	-11.2238
▁musician	-11.2238
▁apps	-11.224
kyo	-11.2245
▁hunting	-11.2251
▁Cap	-11.2254
bound	-11.2254
▁Hor	-11.2257
▁blaze	-11.2266
▁reli	-11.2267
▁Sandy	-11.2272
▁depart	-11.2273
▁Private	-11.2274
▁blockbuster	-11.2274
▁Nat	-11.2275
▁troll	-11.2276
▁Ruth	-11.2277
▁invitation	-11.2277
tle	-11.2278
▁pronounc	-11.2282
▁embarrassing	-11.23
▁outlin	-11.2302
▁forms	-11.2307
ybody	-11.2313
▁Rou	-11.2315
ntertainment	-11.2324
▁optimis	-11.2324
latter	-11.2324
▁astronaut	-11.2324
▁Cancer	-11.2325
▁joy	-11.2325
viation	-11.2327
▁sentences	-11.2328
▁robb	-11.2334
▁tracks	-11.2337
▁Grande	-11.2337
ban	-11.234
▁casualt	-11.2348
▁gut	-11.2354
▁Walk	-11.2358
▁Fan	-11.2366
ista	-11.2369
▁undergo	-11.2371
don	-11.2371
▁chat	-11.2375
▁convert	-11.2375
▁Animal	-11.2375
▁steam	-11.2375
▁proclaim	-11.2375
▁LOS	-11.2376
▁teeth	-11.2376
▁messag	-11.2377
▁nominations	-11.2381
▁terrifying	-11.2386
▁stone	-11.2387
▁chase	-11.2387
▁Wi	-11.2389
▁Sue	-11.2389
ique	-11.239
▁140	-11.2391
▁dur	-11.2399
▁Burn	-11.24
▁Dana	-11.2409
▁comfort	-11.2412
▁extremists	-11.2414
ei	-11.2416
▁Univers	-11.2416
▁ski	-11.2422
▁assume	-11.2422
▁Max	-11.2422
▁types	-11.2423
▁beef	-11.2426
▁Cavalier	-11.2426
▁Reason	-11.2426
▁guidelines	-11.2426
▁Harbor	-11.2426
▁Radical	-11.2426
▁memoir	-11.2427
▁wildfire	-11.2428
▁camps	-11.2428
▁stump	-11.2429
▁Roberts	-11.243
▁smuggl	-11.2432
▁Tu	-11.244
▁retailers	-11.2442
▁Euro	-11.2444
aries	-11.2445
▁True	-11.2446
▁Wing	-11.2449
▁seize	-11.2451
▁disappointing	-11.2467
▁87	-11.247
▁Sand	-11.2471
▁poison	-11.2477
▁participant	-11.2478
▁attitude	-11.2478
▁monster	-11.2478
▁reopen	-11.2478
▁profound	-11.2478
▁Philip	-11.2478
▁legitimate	-11.2479
▁Pull	-11.2479
▁citizenship	-11.2479
▁Pan	-11.2483
RI	-11.2493
▁Motor	-11.2494
▁shareholder	-11.2495
▁bi	-11.2499
▁widen	-11.2506
▁grass	-11.2508
▁occupie	-11.2512
▁bike	-11.2518
ark	-11.2519
mit	-11.252
▁materials	-11.2525
▁WH	-11.2526
▁Hand	-11.2527
pin	-11.2528
▁Resident	-11.2529
ISCO	-11.2529
▁Travi	-11.2529
▁guidance	-11.2529
▁Bowie	-11.253
▁Operation	-11.2532
bin	-11.2535
▁purchas	-11.2536
▁Twin	-11.2542
▁shortage	-11.2544
gue	-11.2545
▁Gra	-11.2547
▁Cox	-11.255
▁judicial	-11.256
▁inches	-11.2563
▁nose	-11.2565
spoken	-11.2571
▁Min	-11.2572
▁derail	-11.258
▁Empire	-11.2581
▁HIV	-11.2581
▁clinch	-11.2581
▁Recent	-11.2582
▁Worth	-11.2583
box	-11.2588
▁anywhere	-11.2593
▁acceptance	-11.2597
▁Arena	-11.2599
▁acknowledge	-11.2602
▁Month	-11.2607
▁jets	-11.261
ju	-11.2612
▁Given	-11.2615
▁seventh	-11.2616
▁Motors	-11.2616
app	-11.2622
▁shap	-11.2632
▁FRANC	-11.2633
▁Urban	-11.2633
▁prestig	-11.2633
▁telephone	-11.2633
▁description	-11.2633
▁Weather	-11.2633
▁pension	-11.2633
▁Choice	-11.2634
▁classroom	-11.2634
▁Tribe	-11.2634
▁detective	-11.2636
▁chart	-11.2636
▁Batman	-11.2637
▁revers	-11.2642
▁span	-11.2649
nes	-11.265
▁Bel	-11.2658
▁Allow	-11.2658
▁decid	-11.2661
▁Austria	-11.2668
eh	-11.2674
▁intentional	-11.2681
itch	-11.2685
▁Netherlands	-11.2685
▁Wasserman	-11.2685
▁pizza	-11.2685
▁Nomination	-11.2685
▁Swift	-11.2685
▁Weapon	-11.2685
▁exceed	-11.2685
mann	-11.2685
▁Comedy	-11.2686
▁grill	-11.2686
▁Franklin	-11.2686
▁pollution	-11.2687
▁flames	-11.2687
▁nurse	-11.2688
▁Wade	-11.269
▁Poor	-11.269
iling	-11.2693
▁pit	-11.2697
versight	-11.27
▁parliamentar	-11.27
▁Fourth	-11.27
▁Gag	-11.27
▁suspicious	-11.2707
rum	-11.2722
ivity	-11.2728
▁Nam	-11.273
Memo	-11.273
▁sink	-11.2734
▁magic	-11.2736
▁Damasc	-11.2738
▁Nebraska	-11.2738
▁decisive	-11.2738
▁Gabriel	-11.2738
▁smooth	-11.2738
▁Saint	-11.2738
▁Seoul	-11.2738
▁serial	-11.2738
▁salary	-11.2738
▁squad	-11.2738
▁Boko	-11.2739
▁assassination	-11.274
▁Massive	-11.2741
▁retain	-11.2743
▁Also	-11.2745
iac	-11.2747
▁Jos	-11.2748
▁Sad	-11.2759
▁Past	-11.2768
▁mile	-11.2773
▁Bou	-11.2781
▁Partners	-11.2782
▁Announce	-11.2784
▁MP	-11.2786
American	-11.2786
▁beer	-11.2787
▁ANGE	-11.2787
upp	-11.2789
▁Valentin	-11.2791
▁properties	-11.2791
▁purported	-11.2791
▁destination	-11.2792
▁Haram	-11.2792
▁Feel	-11.2792
▁commissioner	-11.2792
nsurance	-11.2793
▁Actual	-11.2793
▁Deutsche	-11.2793
▁Gil	-11.2794
▁Lord	-11.2805
▁crop	-11.2807
▁Jet	-11.281
▁Shut	-11.2814
ois	-11.2816
▁Sher	-11.2817
▁Moon	-11.2823
owell	-11.283
▁damn	-11.2831
zz	-11.2832
▁notion	-11.2833
▁inner	-11.2835
▁quest	-11.2842
▁exec	-11.2844
▁Spencer	-11.2844
▁Presidency	-11.2845
▁pump	-11.2845
▁frustrated	-11.2846
▁pastor	-11.2847
▁Huck	-11.2848
▁Box	-11.2855
▁cells	-11.2855
▁shipp	-11.2856
▁Niet	-11.2856
ali	-11.2858
▁Tyle	-11.286
▁discriminat	-11.2861
▁mandat	-11.2861
▁Fin	-11.2864
▁flower	-11.2869
▁vers	-11.287
▁73	-11.2873
▁77	-11.2875
▁Gas	-11.2876
▁drones	-11.2878
▁Tem	-11.2883
▁subsid	-11.2883
hill	-11.2883
front	-11.2885
ition	-11.2885
▁Yu	-11.289
▁confess	-11.2894
▁AI	-11.2895
▁impeach	-11.2896
▁brown	-11.2897
▁Reynolds	-11.2898
▁SCOTUS	-11.2898
▁declining	-11.2898
ix	-11.2898
▁smell	-11.2898
▁Running	-11.2898
▁Treat	-11.2898
▁frozen	-11.2899
▁Bra	-11.29
▁Chance	-11.2901
▁Nicola	-11.2901
▁Send	-11.2903
▁83	-11.2904
tri	-11.2905
▁Joint	-11.2907
▁machines	-11.2909
▁assum	-11.2914
▁longest	-11.2917
▁Factor	-11.2918
▁drought	-11.2925
▁singing	-11.2933
ries	-11.2945
lm	-11.2946
▁acquir	-11.2947
abee	-11.2949
▁dreams	-11.295
▁airplane	-11.2951
unconstitutional	-11.2951
▁Cancel	-11.2952
▁Potter	-11.2952
▁slump	-11.2953
▁impression	-11.2955
rated	-11.2971
▁belief	-11.2984
▁demonstrat	-11.2984
▁Fu	-11.2985
▁Vo	-11.2987
tru	-11.2988
▁principle	-11.2989
▁Ju	-11.2989
▁meme	-11.3
▁Delaware	-11.3005
▁unconscious	-11.3005
▁ransom	-11.3005
▁bombshell	-11.3005
▁misdemeanor	-11.3005
▁Hamas	-11.3006
▁Abuse	-11.3006
▁sniper	-11.301
▁stable	-11.301
ership	-11.3011
▁equality	-11.3011
▁Grass	-11.3018
ux	-11.3018
▁rebuild	-11.3021
dic	-11.3021
▁fam	-11.3023
▁teach	-11.3024
dor	-11.3024
▁Later	-11.3032
▁tea	-11.3041
owitz	-11.3041
▁Sharp	-11.3044
▁Janet	-11.3047
any	-11.3048
NBC	-11.3058
▁Employee	-11.306
▁kidnapping	-11.306
▁nickname	-11.306
▁surrender	-11.306
▁volume	-11.306
▁steep	-11.306
▁vocal	-11.306
▁Aviv	-11.306
▁Possibl	-11.306
▁Something	-11.306
▁handgun	-11.306
▁pact	-11.3061
▁Whit	-11.3068
▁Michel	-11.3068
▁wel	-11.3072
▁Bret	-11.3073
▁transportation	-11.3078
▁picking	-11.3079
▁pu	-11.308
▁Tale	-11.3082
▁Bond	-11.3083
▁imagin	-11.3084
▁rebuke	-11.3086
rous	-11.3087
▁Comment	-11.3088
▁popp	-11.3093
▁pe	-11.3107
▁freeze	-11.311
cast	-11.3111
▁bubble	-11.3113
▁Anthem	-11.3114
▁Apprentice	-11.3114
▁Defeat	-11.3114
▁Zillow	-11.3114
▁Hulk	-11.3114
▁universal	-11.3114
▁reckless	-11.3114
▁stroke	-11.3114
dale	-11.3114
▁spray	-11.3115
▁predominant	-11.3115
▁Express	-11.3115
▁Nint	-11.3116
rit	-11.3116
▁engagement	-11.3117
cat	-11.3117
▁outfit	-11.3119
▁Trial	-11.312
▁unfair	-11.3122
▁visible	-11.3123
▁Dept	-11.3128
▁overturn	-11.313
rk	-11.3134
▁shouting	-11.3134
▁dismantle	-11.3136
bury	-11.3137
▁shower	-11.3139
▁Nei	-11.314
▁ma	-11.314
fu	-11.3142
▁Mich	-11.315
▁Indonesia	-11.3152
▁turnout	-11.3154
▁smartphones	-11.3155
uz	-11.3155
▁superhero	-11.3159
▁Econom	-11.316
▁Ja	-11.316
▁Ground	-11.3169
▁Effort	-11.3169
▁Kabul	-11.3169
▁neutral	-11.3169
▁shatter	-11.3169
▁cocaine	-11.3169
▁milestone	-11.317
▁Brock	-11.3171
▁Robot	-11.3171
▁obstruction	-11.3171
ute	-11.3172
▁Brain	-11.3174
▁comfortable	-11.3178
eb	-11.3179
▁Lav	-11.3179
▁promotion	-11.318
▁plunge	-11.3186
ago	-11.3187
▁assistance	-11.319
▁Hollande	-11.319
▁button	-11.3193
▁unidentifi	-11.3195
▁Ye	-11.3197
▁spike	-11.3211
▁cup	-11.3214
▁Such	-11.3215
▁wag	-11.3216
▁chest	-11.3217
▁Bachelor	-11.3225
▁Shkreli	-11.3225
▁plummet	-11.3225
▁subsequent	-11.3225
▁Edition	-11.3226
▁commentar	-11.3228
▁preparation	-11.3229
▁Chao	-11.323
▁necessar	-11.3231
▁enforce	-11.3233
▁capacit	-11.3238
▁Pakistani	-11.3238
▁Democrac	-11.3243
▁instruct	-11.3246
▁covers	-11.3251
lay	-11.3255
▁origin	-11.3259
▁Crash	-11.326
ahami	-11.3263
▁Kassa	-11.3264
▁Polls	-11.3265
▁Hear	-11.3266
lit	-11.3276
▁locker	-11.3276
In	-11.3277
▁Photos	-11.3278
▁Endorse	-11.3279
▁Raqqa	-11.328
▁absence	-11.328
▁demographic	-11.328
▁overlook	-11.328
▁oversight	-11.3281
▁Jacki	-11.3282
▁MI	-11.3288
▁rental	-11.3291
▁propose	-11.3292
bel	-11.3299
▁Manuel	-11.3299
▁submitt	-11.3301
▁Lyf	-11.3306
▁Karen	-11.3309
▁preferr	-11.3309
du	-11.3314
▁FO	-11.3315
dell	-11.3316
▁snap	-11.3323
▁Strong	-11.3324
room	-11.3325
▁Ch	-11.3326
▁zoo	-11.3326
▁ca	-11.3331
▁chas	-11.3332
▁televis	-11.3333
▁practical	-11.3333
▁ethnic	-11.3333
▁attach	-11.3334
▁knocked	-11.3335
▁Mohammed	-11.3336
▁Sebastia	-11.3336
▁sequel	-11.3336
▁technique	-11.3336
▁blunt	-11.3336
▁interior	-11.3336
▁Brent	-11.3337
▁humor	-11.3337
BUL	-11.3338
gie	-11.3339
▁Fix	-11.334
▁penn	-11.3341
▁choos	-11.3341
▁79	-11.3347
▁rac	-11.3348
▁Planet	-11.3349
set	-11.3351
▁Flag	-11.3354
▁donor	-11.3355
▁Wilders	-11.3365
▁Ash	-11.3368
▁exten	-11.3368
▁lash	-11.3379
rt	-11.338
▁Candidates	-11.3381
▁EST	-11.3382
▁trans	-11.3386
rah	-11.3387
▁relationships	-11.3388
▁architect	-11.3392
▁Idaho	-11.3392
▁tremendous	-11.3392
▁Forget	-11.3392
▁rubb	-11.3395
▁Advisor	-11.3396
trust	-11.34
▁countless	-11.34
mph	-11.3402
▁spectacular	-11.3402
▁runway	-11.341
burn	-11.3412
▁Farm	-11.3419
▁reviews	-11.3435
▁pan	-11.3438
▁ear	-11.3439
▁stem	-11.3442
▁Delegate	-11.3449
▁electorate	-11.3449
▁sovereign	-11.3449
▁Nigel	-11.3449
ropical	-11.3449
▁jacket	-11.3449
Embassy	-11.345
▁woke	-11.345
▁Curr	-11.345
▁thus	-11.3451
more	-11.3451
▁slavery	-11.3451
▁contestant	-11.3454
hold	-11.3455
▁rebound	-11.3455
▁sideline	-11.3457
load	-11.3467
▁deepen	-11.3468
▁Foods	-11.3479
▁Chase	-11.3479
▁Karl	-11.348
ipping	-11.3492
▁broadcaster	-11.3495
▁endless	-11.3496
▁Snow	-11.3496
oll	-11.3497
▁Bon	-11.3503
▁anonym	-11.3504
▁Premier	-11.3505
▁burden	-11.3505
▁historian	-11.3505
▁Emergency	-11.3505
▁evolv	-11.3506
▁terminal	-11.3506
▁assailant	-11.3506
▁Havana	-11.3506
▁Message	-11.3506
▁depression	-11.3507
▁danc	-11.3507
▁Cadde	-11.3509
▁tick	-11.3509
▁Turns	-11.3509
iffe	-11.3509
▁vetting	-11.351
owski	-11.351
fe	-11.3511
▁defendant	-11.3516
▁queen	-11.3516
▁forum	-11.3519
▁criticize	-11.353
▁loves	-11.3535
▁Colombian	-11.3542
▁63	-11.3556
▁pin	-11.3557
▁Path	-11.3561
▁Reject	-11.3563
▁Metropoli	-11.3563
▁Comic	-11.3563
▁Communist	-11.3563
▁Portug	-11.3563
▁buyers	-11.3563
▁criminals	-11.3565
▁pig	-11.3566
▁1994	-11.3566
▁sample	-11.3574
▁lane	-11.3577
bn	-11.3584
▁Born	-11.3591
▁conclude	-11.3592
▁Tru	-11.3599
▁contests	-11.3601
▁Sum	-11.3605
▁Carly	-11.3608
▁Elect	-11.3608
▁scare	-11.3609
▁confirms	-11.3612
ott	-11.3613
▁dry	-11.3614
▁Daw	-11.3618
▁carpet	-11.362
▁extremism	-11.362
▁physician	-11.362
▁thick	-11.362
▁swamp	-11.362
▁sons	-11.3621
▁theft	-11.3625
tch	-11.3631
▁USS	-11.3633
▁centre	-11.3633
maker	-11.3642
ku	-11.3647
for	-11.3654
▁shed	-11.3661
gle	-11.3666
▁Chan	-11.3667
▁arena	-11.3668
▁Airbnb	-11.3678
▁relevant	-11.3678
▁presum	-11.3678
▁drain	-11.3678
▁sketch	-11.3678
▁transaction	-11.3678
▁lethal	-11.3678
▁leap	-11.3678
▁Bhara	-11.3679
▁demonstrate	-11.3679
▁Capt	-11.368
▁stunt	-11.3681
▁lessons	-11.3684
▁Yate	-11.3685
▁advertiser	-11.3687
unich	-11.3687
▁examine	-11.3689
▁lecture	-11.3689
▁Lock	-11.369
ano	-11.3695
table	-11.3695
▁fallout	-11.37
▁beliefs	-11.3702
▁le	-11.3718
▁scam	-11.3723
lew	-11.3731
▁Evidence	-11.3736
▁Violent	-11.3736
▁ideology	-11.3736
▁landslide	-11.3736
▁revenge	-11.3736
▁subpoena	-11.3736
▁captain	-11.3736
ison	-11.3737
▁File	-11.3737
▁gray	-11.3737
▁Margar	-11.3737
▁detonat	-11.3737
▁Estate	-11.3738
▁firework	-11.374
▁belt	-11.374
▁Metro	-11.3741
writ	-11.3744
▁Citizens	-11.3744
ification	-11.3744
ncy	-11.3746
ord	-11.3747
▁pure	-11.3748
hani	-11.3757
▁denial	-11.3758
▁doping	-11.3761
onic	-11.3764
▁pause	-11.3769
▁Trip	-11.3774
▁imp	-11.378
▁Belt	-11.3782
▁Artist	-11.3784
▁obsess	-11.3789
ith	-11.3792
▁liberty	-11.3794
▁casino	-11.3795
▁excellen	-11.3795
▁patch	-11.3795
▁Studie	-11.3795
▁Cor	-11.3795
▁Least	-11.3795
▁lifestyle	-11.3796
▁Franco	-11.3797
▁HB	-11.3797
▁teaching	-11.3798
▁wonderful	-11.38
▁costume	-11.3801
▁southwest	-11.3807
▁Walking	-11.3807
▁invent	-11.3812
kes	-11.3813
▁CBO	-11.3814
▁bash	-11.3816
▁defender	-11.3818
▁Code	-11.3825
▁Dann	-11.3829
▁spots	-11.3829
▁designat	-11.383
▁breath	-11.3833
▁Sir	-11.3834
▁Horn	-11.3834
▁fleet	-11.3838
▁guards	-11.3838
▁Sony	-11.384
rew	-11.3843
▁Tama	-11.3847
▁unite	-11.3847
▁Map	-11.3849
▁Emirate	-11.3853
▁curious	-11.3853
▁rookie	-11.3853
▁Rosenstein	-11.3853
▁Pearl	-11.3853
▁Emmy	-11.3854
▁pursuit	-11.3854
▁Body	-11.3855
▁nationally	-11.3856
▁colorful	-11.3858
▁reel	-11.386
▁Lauren	-11.386
▁Guns	-11.3866
▁dec	-11.3866
rano	-11.3874
▁Mock	-11.3875
rop	-11.3876
▁Anna	-11.3887
▁slide	-11.389
▁dirty	-11.389
ular	-11.3892
ES	-11.3892
▁Riot	-11.3894
▁soil	-11.3898
▁lucky	-11.3898
▁Carlo	-11.39
elson	-11.3903
uring	-11.3903
▁preserve	-11.3911
▁Otto	-11.3913
▁Together	-11.3913
▁manslaughter	-11.3913
▁Division	-11.3913
▁nerve	-11.3913
▁farewell	-11.3913
▁vicious	-11.3913
saw	-11.3913
▁Solar	-11.3914
▁gunshot	-11.3914
▁unlock	-11.3915
ery	-11.3917
▁Hacker	-11.3917
▁shootout	-11.3917
▁Idea	-11.3922
▁Readers	-11.3923
can	-11.3927
die	-11.393
▁assembl	-11.3936
▁Inde	-11.3944
▁airlines	-11.3946
▁Tie	-11.3952
MZ	-11.3955
ec	-11.3958
▁screaming	-11.3961
▁exhibit	-11.3968
▁speakers	-11.3968
▁sail	-11.3969
▁characteriz	-11.3969
▁knowing	-11.3971
▁pitcher	-11.3971
▁librar	-11.3971
:45	-11.3972
▁Chipotle	-11.3972
▁cousin	-11.3972
▁patent	-11.3972
▁cheese	-11.3972
▁Survey	-11.3972
▁nude	-11.3972
▁Injur	-11.3972
▁grop	-11.3973
▁Jamie	-11.3973
▁graduation	-11.3973
asse	-11.3974
▁declaration	-11.3975
▁lament	-11.3977
iat	-11.3979
▁Urge	-11.3982
▁Si	-11.3986
▁advised	-11.3991
Air	-11.3992
▁bird	-11.3993
▁passe	-11.4015
▁Oc	-11.4015
▁skeptic	-11.4015
▁restor	-11.4018
▁Winner	-11.4019
▁animated	-11.402
▁lands	-11.4023
▁addict	-11.4028
ato	-11.4028
▁uncertain	-11.4031
WE	-11.4032
▁aggravat	-11.4032
▁Sanctuar	-11.4032
▁juror	-11.4032
▁pedestrian	-11.4032
▁swirl	-11.4032
▁Already	-11.4032
▁pretend	-11.4032
▁muscle	-11.4032
AFTA	-11.4032
▁discount	-11.4032
▁Ger	-11.4032
▁lyric	-11.4032
▁Ve	-11.4033
▁offshore	-11.4034
cent	-11.4035
yra	-11.404
▁Mol	-11.4041
▁Mason	-11.4042
▁Progress	-11.4046
▁Hills	-11.4051
▁mega	-11.4054
teen	-11.4054
▁Ren	-11.4056
▁unfold	-11.4065
▁130	-11.407
▁Rap	-11.4076
gre	-11.4076
▁exports	-11.4077
▁Cowboys	-11.4078
bal	-11.4079
▁Cast	-11.4082
▁scrap	-11.4085
▁NYT	-11.4085
▁Murphy	-11.4092
▁Restaurant	-11.4092
▁mortgage	-11.4092
▁balloon	-11.4092
▁warehouse	-11.4092
▁comprehensive	-11.4092
▁comply	-11.4092
▁clown	-11.4092
▁Minutes	-11.4093
place	-11.4093
▁bread	-11.4094
▁Meyer	-11.4094
▁atmosphere	-11.4096
▁Finance	-11.4097
▁Wright	-11.4098
▁Luis	-11.41
▁lineup	-11.41
▁displac	-11.4101
▁Hunt	-11.4102
▁Credit	-11.4105
▁outspoken	-11.4107
▁Lisa	-11.4109
ologist	-11.4112
▁snapp	-11.4115
▁belonging	-11.4116
▁Gore	-11.4116
▁principles	-11.4117
▁concealed	-11.4118
▁hub	-11.4124
▁bacteria	-11.4127
standing	-11.413
▁Hi	-11.4132
▁hotte	-11.4135
▁mal	-11.4136
▁86	-11.4141
▁primari	-11.4143
▁div	-11.4144
▁towns	-11.415
▁Philando	-11.4153
▁stupid	-11.4153
▁Natural	-11.4153
▁siege	-11.4153
▁superstar	-11.4153
▁medication	-11.4153
▁registration	-11.4153
▁hatred	-11.4153
▁haul	-11.4154
▁recalls	-11.4156
▁detainee	-11.4156
▁Apologize	-11.4159
▁performer	-11.4159
▁Height	-11.4166
▁Thought	-11.4169
▁seasons	-11.4171
rat	-11.4171
▁taxi	-11.4171
shot	-11.4174
▁bell	-11.4175
▁Je	-11.4175
▁Era	-11.4178
▁Aide	-11.4187
▁bonds	-11.4187
nam	-11.4191
▁boo	-11.4196
▁seeker	-11.4199
▁Fired	-11.4202
▁recognized	-11.4203
▁Faith	-11.4214
▁brawl	-11.4214
▁lesbian	-11.4214
▁romantic	-11.4214
▁Modern	-11.4214
▁perceiv	-11.4214
▁optimistic	-11.4215
▁aisle	-11.4215
▁Tiny	-11.4215
▁Pac	-11.4217
▁fascinating	-11.4218
hole	-11.4218
▁hip	-11.4219
▁MS	-11.4223
▁critically	-11.4224
aney	-11.4226
▁Grammy	-11.4227
▁duo	-11.4228
▁Link	-11.4233
▁linger	-11.4234
▁owe	-11.4235
▁Theater	-11.4239
▁Ris	-11.4244
SE	-11.4246
▁Somali	-11.4247
▁Missing	-11.4248
▁worship	-11.4251
ida	-11.4254
▁Kenya	-11.4258
▁engaging	-11.4258
▁Adams	-11.4258
▁rescu	-11.4264
▁Southeast	-11.4264
▁Along	-11.4267
▁approaching	-11.4269
▁occur	-11.427
▁churches	-11.4271
band	-11.4273
▁arguabl	-11.4274
▁Answer	-11.4275
▁Bathroom	-11.4275
▁Cologne	-11.4275
▁Lawrence	-11.4275
▁Politician	-11.4275
▁hurricane	-11.4275
▁suppress	-11.4275
▁ceiling	-11.4275
▁Focus	-11.4275
▁garb	-11.4276
▁Marriage	-11.4276
▁toilet	-11.4276
▁Hearing	-11.4279
▁Probe	-11.4281
▁counselor	-11.4282
▁rattl	-11.4283
▁pickup	-11.4283
▁Chang	-11.4283
▁scream	-11.4286
▁multi	-11.4289
lle	-11.429
▁SEC	-11.4296
▁Tuls	-11.4301
▁charter	-11.4302
▁Saman	-11.4302
apoli	-11.4304
aff	-11.4311
rap	-11.4317
zo	-11.432
▁rip	-11.4321
▁achiev	-11.4328
▁Emil	-11.433
▁capabl	-11.4331
▁basket	-11.4337
▁realDonaldTrump	-11.4337
▁unfortunate	-11.4337
▁Realtor	-11.4337
▁retake	-11.4337
▁Freddie	-11.4337
:15	-11.4337
▁Enough	-11.4337
▁disastrous	-11.4337
▁Ber	-11.4337
▁preview	-11.4338
▁Leban	-11.4338
PHI	-11.4347
▁hung	-11.4348
ini	-11.4355
▁smil	-11.4355
▁Millennials	-11.4356
▁tag	-11.4357
▁engineering	-11.4359
▁playoff	-11.4361
▁sheet	-11.4364
▁reign	-11.4369
▁Value	-11.4375
▁900	-11.4377
▁bragg	-11.4377
▁Mick	-11.4389
▁Stree	-11.439
fall	-11.4391
▁Killer	-11.4393
▁Begin	-11.4399
▁Conflict	-11.4399
▁Ghostbuster	-11.4399
▁TRUMP	-11.4399
▁equivalent	-11.4399
▁provocative	-11.4399
▁acclaim	-11.4399
▁recipe	-11.4399
▁Mosque	-11.4399
▁Clean	-11.4399
▁maximum	-11.4399
▁Weekend	-11.4399
▁acre	-11.44
▁Gaza	-11.44
▁cinema	-11.44
▁flagship	-11.4402
▁Drive	-11.4403
▁Highway	-11.4405
▁Sorr	-11.4407
ogue	-11.4407
▁alarming	-11.4408
▁Warning	-11.441
nder	-11.4414
▁soda	-11.4418
▁align	-11.4424
cker	-11.4424
ingham	-11.4427
▁Refuge	-11.443
▁organ	-11.4431
▁frame	-11.4433
▁playoffs	-11.4444
roll	-11.4445
▁ministers	-11.4447
▁Bez	-11.4448
▁custom	-11.4449
▁clashe	-11.4452
▁invite	-11.4456
lie	-11.4457
▁elevat	-11.4459
▁Expect	-11.446
▁93	-11.446
▁Joaqu	-11.4461
▁Antarctic	-11.4461
▁Flood	-11.4461
▁authoritarian	-11.4463
▁outrageous	-11.4465
▁excit	-11.4476
▁proceeding	-11.4479
▁racially	-11.4481
lon	-11.4482
▁elaborate	-11.4484
▁Arian	-11.4487
▁Singer	-11.449
▁Author	-11.4491
▁sting	-11.4494
▁chip	-11.4495
yl	-11.4498
▁inbox	-11.4503
▁Person	-11.4505
▁mistaken	-11.4506
▁Minne	-11.4509
▁Respond	-11.4524
▁bruis	-11.4524
▁escort	-11.4524
▁ghost	-11.4524
▁Ahmad	-11.4524
▁Double	-11.4524
▁Nasdaq	-11.4524
▁dawn	-11.4524
▁imminent	-11.4524
▁benchmark	-11.4524
▁definition	-11.4525
▁smoking	-11.4525
▁Housing	-11.4525
▁notable	-11.4528
▁1995	-11.4529
▁inspiration	-11.4529
▁friendship	-11.453
endo	-11.4533
▁evacuat	-11.4534
▁Buck	-11.4538
force	-11.4542
▁Unit	-11.4548
▁Lower	-11.4557
fo	-11.456
tar	-11.456
▁Bobb	-11.4562
ium	-11.4562
▁Dor	-11.4563
read	-11.4569
▁outline	-11.4577
▁cake	-11.4579
put	-11.4582
▁transit	-11.4585
▁deserve	-11.4587
▁Destroy	-11.4588
▁Explain	-11.4588
▁dynamic	-11.4588
▁Reddit	-11.4588
▁jazz	-11.4588
▁premise	-11.4588
▁JANE	-11.4588
▁Ginsburg	-11.4588
▁dumb	-11.4588
▁lung	-11.4588
▁Appear	-11.4588
▁opinions	-11.4588
▁wireless	-11.459
▁Worst	-11.459
▁wider	-11.4593
▁everyday	-11.4594
▁confus	-11.4594
▁noise	-11.4602
▁chill	-11.4605
▁compare	-11.4607
▁persuade	-11.4612
week	-11.4614
▁Card	-11.4616
mat	-11.4618
▁exploit	-11.4628
▁Simone	-11.4631
▁Virgin	-11.4643
▁Bern	-11.4646
▁distract	-11.4648
▁Eat	-11.4651
▁Surge	-11.4651
▁thorough	-11.4651
▁Ukrainian	-11.4651
▁agricultur	-11.4651
▁strand	-11.4651
▁centrist	-11.4651
▁Ice	-11.4652
▁Bor	-11.4655
▁1992	-11.4656
▁interaction	-11.4661
▁Pr	-11.4663
▁Band	-11.4666
▁Build	-11.4667
▁unrest	-11.467
▁st	-11.4675
▁surfac	-11.4676
▁counterterroris	-11.4679
▁Pin	-11.4683
▁discipline	-11.4688
▁trends	-11.4693
▁Guilt	-11.4702
▁Books	-11.4707
▁restrain	-11.4708
▁Bull	-11.4711
▁runner	-11.4711
▁listing	-11.4712
▁colon	-11.4714
▁symptom	-11.4715
▁calendar	-11.4715
▁marathon	-11.4715
▁regain	-11.4715
▁Unfortunate	-11.4715
▁PHIL	-11.4716
▁ambush	-11.4716
▁distress	-11.4716
▁facult	-11.4716
▁restroom	-11.4716
▁NeverTrump	-11.4717
▁Gender	-11.4717
▁Jam	-11.4723
▁Hurt	-11.4724
imer	-11.4724
▁assured	-11.4727
▁Mission	-11.4728
▁Role	-11.4728
▁luck	-11.4731
▁Julia	-11.4733
▁Crown	-11.4733
▁Rudy	-11.4734
▁slip	-11.4735
piece	-11.4736
▁Revolutionar	-11.4737
cho	-11.4738
bank	-11.4742
▁Nigerian	-11.4744
▁cow	-11.4746
▁skipp	-11.4751
▁god	-11.4754
▁Carr	-11.4757
▁Bu	-11.4763
▁youngest	-11.4769
▁Bol	-11.477
▁proven	-11.4771
oli	-11.4771
ria	-11.4771
▁arts	-11.4775
▁reserve	-11.4776
▁adjust	-11.4778
▁cult	-11.478
▁bargain	-11.478
▁Enrique	-11.478
▁grandmother	-11.478
▁reboot	-11.478
▁besieg	-11.478
▁shoppers	-11.478
▁click	-11.478
▁Watergate	-11.478
ransportation	-11.4781
aba	-11.4783
▁Medal	-11.4785
▁Master	-11.4788
▁generate	-11.4791
▁understood	-11.4791
run	-11.4791
▁wars	-11.4792
▁Count	-11.4797
▁shame	-11.4797
alais	-11.48
▁drinks	-11.4801
▁Celebrity	-11.481
▁overdose	-11.4811
▁rein	-11.4819
tain	-11.4827
▁Bab	-11.4833
▁enforc	-11.4833
oun	-11.4834
▁editors	-11.4836
▁upend	-11.4838
▁exhaust	-11.4843
▁Detail	-11.4845
▁Article	-11.4845
▁Serena	-11.4845
ADEL	-11.4845
▁podium	-11.4845
▁Jesse	-11.4845
▁1950	-11.4846
▁blogger	-11.4846
▁Jefferson	-11.4846
illa	-11.4848
▁False	-11.4849
▁Fo	-11.485
▁memorabl	-11.4852
▁Wis	-11.4854
aki	-11.4857
▁investments	-11.4857
▁Launch	-11.4867
▁Lena	-11.4869
10	-11.4873
▁gunn	-11.4874
▁boot	-11.4892
▁81	-11.4897
▁ACA	-11.4897
ola	-11.49
eased	-11.4901
▁Carry	-11.4902
arch	-11.4903
▁lend	-11.4905
▁launche	-11.4906
▁eliminat	-11.4909
▁Counsel	-11.491
▁Emanuel	-11.491
▁Fraud	-11.491
▁Marathon	-11.491
▁Singapore	-11.491
▁elephant	-11.491
▁hurdle	-11.491
▁tumult	-11.491
▁relax	-11.491
▁stomach	-11.491
▁paragraph	-11.491
▁Studio	-11.491
▁Morris	-11.491
▁Broadcast	-11.491
▁orange	-11.491
▁grace	-11.4911
▁excessive	-11.4911
▁Goldberg	-11.4911
▁brush	-11.4911
▁Wife	-11.4912
▁fier	-11.4913
▁utilit	-11.4913
▁Corco	-11.4913
▁workforce	-11.4913
nnie	-11.4915
▁improvement	-11.4916
anamo	-11.4917
ress	-11.4917
▁association	-11.4919
▁Luke	-11.4924
▁Socialist	-11.4924
▁slaughter	-11.4926
▁Winn	-11.4929
▁Phone	-11.4929
▁startling	-11.4932
▁Heat	-11.4934
nar	-11.4937
made	-11.4943
▁dar	-11.4945
▁intercept	-11.4947
▁Lane	-11.4948
▁Thing	-11.4949
nkara	-11.4952
att	-11.4953
ential	-11.4953
▁tips	-11.4956
lock	-11.496
eus	-11.4962
▁thrill	-11.4971
▁abduct	-11.4972
▁Lies	-11.4973
▁exam	-11.4973
▁Iron	-11.4975
▁engulf	-11.4976
▁Android	-11.4976
▁Raheem	-11.4976
▁breakthrough	-11.4976
▁constituent	-11.4976
▁mirror	-11.4976
▁radar	-11.4976
▁autonomous	-11.4976
▁Investment	-11.4976
▁passionate	-11.4977
▁retaliation	-11.4977
nytime	-11.4977
▁Rodrigue	-11.4977
▁complication	-11.4978
▁Knight	-11.4983
▁Living	-11.4985
ila	-11.4986
▁Elite	-11.4987
ump	-11.4989
▁batter	-11.4997
▁Lan	-11.5008
▁firearm	-11.5015
▁Fred	-11.5018
▁honored	-11.5019
19	-11.5029
▁automat	-11.5037
▁Tur	-11.5037
30	-11.5039
▁Memo	-11.5041
▁Door	-11.5041
▁Nad	-11.5042
▁correspond	-11.5042
hook	-11.5042
▁Alexandria	-11.5042
▁dishonest	-11.5042
▁widow	-11.5042
▁Librar	-11.5042
▁Buzz	-11.5042
▁trove	-11.5042
▁LI	-11.5043
▁Boris	-11.5044
▁cement	-11.5044
▁arrang	-11.5046
▁outgoing	-11.5048
▁download	-11.5048
▁Gross	-11.5049
▁Cur	-11.5052
▁Rein	-11.5058
IRO	-11.506
intended	-11.5062
▁habit	-11.5069
thal	-11.5071
test	-11.5073
▁Aim	-11.5074
security	-11.5077
▁casual	-11.5078
▁financ	-11.5079
▁Gates	-11.508
▁mocking	-11.5087
▁overturned	-11.509
▁Immigrant	-11.5093
ifying	-11.5097
▁Tra	-11.5103
▁presid	-11.5104
▁bite	-11.5108
▁Ahmed	-11.5109
▁Murdoch	-11.5109
▁database	-11.5109
▁portfolio	-11.5109
▁territori	-11.5109
▁transparenc	-11.5109
▁Machine	-11.5109
▁Mohamed	-11.5109
▁whale	-11.5109
▁Elementa	-11.511
▁hearts	-11.511
▁passport	-11.511
wick	-11.5111
▁FDA	-11.5111
▁steer	-11.5115
▁Laden	-11.5115
▁Pere	-11.5118
▁attendant	-11.5118
▁brave	-11.512
manda	-11.5126
▁penalt	-11.5127
verage	-11.5129
accompanied	-11.5134
lov	-11.5136
▁Denie	-11.5138
▁Cam	-11.5141
▁competitors	-11.5144
▁undis	-11.5146
tre	-11.516
▁Same	-11.5161
ILLE	-11.5167
par	-11.5167
▁Ty	-11.5171
▁bowl	-11.5171
▁coat	-11.5174
▁Bombing	-11.5175
▁fool	-11.5175
▁Arnold	-11.5176
▁Response	-11.5176
▁Soccer	-11.5176
▁Warmbier	-11.5176
▁contaminat	-11.5176
▁Cyber	-11.5176
▁Bro	-11.5177
▁Carmelo	-11.5177
▁defiant	-11.5178
law	-11.5181
▁195	-11.5182
▁stag	-11.5184
▁flipp	-11.5187
ient	-11.5187
▁mothers	-11.5189
▁deter	-11.519
break	-11.5199
▁philosoph	-11.52
▁administrative	-11.5203
▁lone	-11.5209
▁Leon	-11.5213
▁passion	-11.5215
▁Salt	-11.5219
▁Gi	-11.522
hir	-11.522
▁gam	-11.5224
▁hook	-11.5225
▁allegation	-11.5226
otify	-11.5231
▁duti	-11.5233
NC	-11.5233
▁Arts	-11.5234
▁fails	-11.5235
▁Jup	-11.5236
▁array	-11.5236
FCC	-11.5238
▁humiliat	-11.524
▁compil	-11.5242
cher	-11.5242
▁Ecuador	-11.5243
▁Feminist	-11.5244
▁Kalanick	-11.5244
▁Madonna	-11.5244
▁Stockholm	-11.5244
▁Suggest	-11.5244
▁contemporar	-11.5244
▁ritual	-11.5244
▁abolish	-11.5244
▁anxious	-11.5244
▁convoy	-11.5244
▁Multiple	-11.5244
▁empower	-11.5244
▁hoax	-11.5244
▁galler	-11.5244
▁Jur	-11.5244
▁Emma	-11.5245
▁Technologi	-11.5246
▁Beckham	-11.5246
▁stemm	-11.5247
▁dash	-11.5247
▁uncomfortable	-11.5247
▁plow	-11.5248
▁Limit	-11.5248
▁weakness	-11.525
▁complet	-11.5256
▁beside	-11.5256
▁reviewed	-11.5257
▁expos	-11.5267
▁habits	-11.527
▁Doug	-11.5271
▁Malaysian	-11.5272
fight	-11.5281
▁Tweets	-11.5282
Russia	-11.5282
▁uphold	-11.5285
▁Wind	-11.5285
▁Ab	-11.529
RIO	-11.5293
▁Kris	-11.5297
ito	-11.5298
▁caution	-11.5299
▁contribute	-11.53
▁pornograph	-11.5305
▁pivot	-11.5307
Bot	-11.5307
▁motor	-11.5307
▁Legend	-11.5311
▁Roosevelt	-11.5312
▁envoy	-11.5312
▁gorilla	-11.5312
▁ingredient	-11.5312
▁vegetable	-11.5312
▁Krautham	-11.5312
▁dissent	-11.5312
▁Bronco	-11.5312
▁Pride	-11.5312
▁memories	-11.5312
ult	-11.5313
▁Biggest	-11.5313
▁Harper	-11.5313
▁Coach	-11.5319
▁Vow	-11.5319
▁bears	-11.5324
▁cargo	-11.5325
▁Bird	-11.5329
▁wav	-11.5331
▁Roe	-11.5332
▁heritage	-11.5339
▁Latinos	-11.534
EA	-11.534
▁timeline	-11.5342
▁Due	-11.5352
tical	-11.5354
OS	-11.536
▁Moin	-11.5364
word	-11.5369
▁musicians	-11.5369
▁Shinz	-11.5369
vy	-11.5375
▁Shakespeare	-11.538
▁centuries	-11.538
▁genius	-11.538
▁recipient	-11.538
▁verge	-11.538
▁commencement	-11.538
▁Schill	-11.5381
▁trademark	-11.5381
▁marketplace	-11.5382
▁Writer	-11.5384
pan	-11.5384
▁Linda	-11.5393
▁borrow	-11.5398
▁holder	-11.5402
▁Hart	-11.5406
▁painted	-11.5411
▁scared	-11.5414
sumption	-11.5414
▁Kid	-11.5416
productive	-11.5421
easing	-11.5422
▁properly	-11.5422
▁Called	-11.5424
▁scary	-11.5426
wo	-11.5433
mouth	-11.5436
▁Polic	-11.5436
▁lender	-11.5436
▁rat	-11.5438
▁Modi	-11.544
▁Ltd	-11.5441
▁homeland	-11.5441
▁Princess	-11.5443
▁91	-11.5446
▁McMaster	-11.5449
▁occupation	-11.5449
▁valid	-11.5449
▁Boycott	-11.5449
▁Draft	-11.5449
▁Option	-11.5449
▁recognition	-11.545
▁Nike	-11.545
▁sitcom	-11.545
▁Buffalo	-11.545
▁liar	-11.5451
▁Ny	-11.5453
▁correctness	-11.5455
trak	-11.5455
▁Kellogg	-11.5456
▁filter	-11.5457
▁Fish	-11.546
▁analyz	-11.5462
CC	-11.5462
▁withdrawal	-11.5464
▁Plus	-11.5464
▁Bai	-11.5465
▁backer	-11.5466
▁laughing	-11.5467
▁coin	-11.5469
▁accelerat	-11.547
▁rack	-11.5473
▁Elliot	-11.5474
ubai	-11.5476
▁transferr	-11.5482
▁Original	-11.5491
▁org	-11.5492
▁crying	-11.5492
▁Lack	-11.5499
amp	-11.5502
▁compromise	-11.5515
▁recess	-11.5515
▁Returns	-11.5518
▁Lin	-11.5518
▁Agricultur	-11.5518
▁Caesar	-11.5518
▁Berkshire	-11.5519
▁inspector	-11.5519
▁Mulv	-11.5519
▁Tinder	-11.5519
▁Abdul	-11.5519
▁kingdom	-11.5519
▁frank	-11.5519
▁Failure	-11.5519
▁pants	-11.5519
▁Kristo	-11.5522
▁foe	-11.5523
▁villain	-11.5524
▁condo	-11.5526
▁Owner	-11.5527
▁duck	-11.5529
▁Words	-11.5539
▁absolute	-11.5541
▁admir	-11.5542
ona	-11.5542
▁makeup	-11.5545
ui	-11.5546
ura	-11.5547
▁Alec	-11.5548
▁objection	-11.555
aj	-11.5555
▁makers	-11.556
▁extradit	-11.5575
▁Ana	-11.5578
▁wip	-11.5581
▁Rid	-11.5582
▁CH	-11.5583
▁industri	-11.5584
▁Madri	-11.5587
▁gene	-11.5588
▁Screen	-11.5588
▁genuine	-11.5588
▁garner	-11.5588
▁Tampa	-11.5589
▁smear	-11.5589
▁subtle	-11.5589
▁TPP	-11.559
▁Praise	-11.5591
▁filling	-11.5592
bre	-11.5593
▁ME	-11.5598
▁symbolic	-11.5598
▁basement	-11.5606
▁undo	-11.5608
tte	-11.5608
▁VA	-11.5612
▁None	-11.5615
▁shutt	-11.5617
▁melt	-11.5618
▁heighten	-11.5619
▁Imp	-11.5625
▁Zone	-11.5626
▁Cole	-11.5634
▁inventor	-11.5634
▁Rhode	-11.5648
NT	-11.5648
dominant	-11.5653
▁conservat	-11.5654
▁Tebow	-11.5659
▁genocide	-11.5659
▁Digital	-11.5659
▁fragil	-11.5659
▁surpass	-11.5659
▁Television	-11.5659
▁defy	-11.5659
▁pneumonia	-11.5659
▁counting	-11.566
▁roots	-11.566
▁summon	-11.5661
anziel	-11.5662
▁Clay	-11.5666
lzhe	-11.5666
80	-11.5667
▁presentation	-11.5671
▁Harrison	-11.5674
press	-11.5674
▁spurr	-11.5678
▁Shoot	-11.568
▁cafe	-11.5681
▁Always	-11.5681
ecurities	-11.5684
▁sexism	-11.5688
▁yards	-11.5689
key	-11.5691
▁bang	-11.5693
▁developments	-11.5694
▁phon	-11.5694
TE	-11.57
▁liquid	-11.5704
ritage	-11.5705
orte	-11.5707
▁AL	-11.5707
▁Mir	-11.5708
ological	-11.5708
▁upper	-11.5708
▁Ready	-11.571
▁polariz	-11.5713
trial	-11.5713
▁produc	-11.5715
othy	-11.5718
erek	-11.5723
▁lean	-11.5724
▁Palac	-11.573
▁voluntar	-11.573
▁Attempt	-11.573
▁genital	-11.573
▁iPad	-11.573
▁junior	-11.573
▁qualify	-11.573
▁Federation	-11.573
▁bonus	-11.573
▁goodbye	-11.573
▁integrity	-11.573
▁layoffs	-11.573
▁roster	-11.573
▁obes	-11.573
▁pardon	-11.573
▁lewd	-11.573
▁Term	-11.5731
▁brick	-11.5732
▁Hassan	-11.5732
▁diesel	-11.5736
▁sophisticat	-11.5736
▁contradict	-11.574
ilma	-11.574
▁NJ	-11.5742
face	-11.5748
▁Tough	-11.575
▁Nathan	-11.5752
▁astonishing	-11.5754
▁goods	-11.5758
▁mode	-11.576
▁useful	-11.5762
▁polic	-11.5767
▁deserves	-11.5775
authorized	-11.5778
▁Oss	-11.5782
aya	-11.5782
▁asset	-11.5782
▁Lil	-11.5784
▁wash	-11.5791
▁Mario	-11.5797
▁rallie	-11.5798
nyone	-11.5799
▁Cardinal	-11.5801
▁Legacy	-11.5801
▁consist	-11.5801
▁overcome	-11.5801
▁Captain	-11.5801
▁republic	-11.5802
▁flock	-11.5802
▁slur	-11.5803
▁Ore	-11.5803
▁defects	-11.5804
▁millionaire	-11.5804
▁Correction	-11.5806
▁deployment	-11.5806
▁reversal	-11.5808
▁interact	-11.5814
▁Pete	-11.5814
▁forceful	-11.5816
▁celebrations	-11.5817
osa	-11.5825
▁Hey	-11.5825
▁Sara	-11.5828
▁menu	-11.5829
ica	-11.5829
ario	-11.5829
▁sham	-11.5832
atic	-11.5835
cation	-11.5836
▁Wait	-11.5836
▁northeast	-11.584
▁Crow	-11.5846
▁Hal	-11.5847
▁noon	-11.5854
▁Ac	-11.5861
cri	-11.5863
▁admitt	-11.5864
ggy	-11.5866
▁Auto	-11.5866
▁Resign	-11.5872
▁Rate	-11.5872
▁Bart	-11.5873
▁pharmaceutical	-11.5873
▁Medicine	-11.5873
▁ignit	-11.5873
▁Daughter	-11.5873
▁Apparent	-11.5873
▁distribut	-11.5873
▁vague	-11.5873
▁Title	-11.5873
▁unpredictable	-11.5874
▁clarify	-11.5875
▁installment	-11.5876
ssa	-11.5878
▁Ica	-11.5882
refore	-11.5882
▁channels	-11.5882
▁71	-11.5883
▁Rebel	-11.5884
▁tent	-11.5887
▁pm	-11.5887
▁Mills	-11.5887
▁Lesson	-11.589
gal	-11.5898
▁sweat	-11.59
tter	-11.59
▁thriller	-11.59
▁Investigat	-11.5904
▁wrap	-11.5907
▁Smart	-11.5913
▁Lab	-11.5921
▁defect	-11.5926
▁Alton	-11.5926
▁allegiance	-11.5927
▁Ramada	-11.593
▁Isis	-11.5932
▁skip	-11.5934
▁specialist	-11.5939
▁possess	-11.5941
▁Tub	-11.5942
▁Corbyn	-11.5946
▁collision	-11.5946
▁incumbent	-11.5946
▁proportion	-11.5946
▁reassure	-11.5946
▁distant	-11.5946
▁conscious	-11.5946
▁Coalition	-11.5946
▁Mental	-11.5946
▁adaptation	-11.5947
▁cancelled	-11.5947
▁reduction	-11.5949
▁Contest	-11.595
▁cure	-11.595
▁Genev	-11.5951
▁contend	-11.5954
▁Creat	-11.5954
nage	-11.5954
▁skill	-11.596
fra	-11.5964
▁stops	-11.5966
▁pleas	-11.5978
eslie	-11.5978
▁dive	-11.5981
ulip	-11.5981
▁triple	-11.5983
▁Jenn	-11.5984
▁lion	-11.5985
▁provisions	-11.5996
▁domin	-11.6
lus	-11.6002
▁flip	-11.6007
▁gunme	-11.6008
▁nin	-11.6013
resumptive	-11.6017
▁concession	-11.6019
▁conglomerate	-11.6019
▁innovation	-11.6019
▁motorcycle	-11.6019
▁warplane	-11.6019
▁Marlins	-11.6019
▁Patient	-11.6019
▁loyalty	-11.602
▁Earnest	-11.602
▁Member	-11.6022
▁breed	-11.6022
▁nail	-11.6022
▁entertain	-11.6025
▁outdoor	-11.6025
paid	-11.6025
▁doomed	-11.6027
▁Truck	-11.6027
▁screens	-11.603
▁Engineer	-11.603
▁Pitt	-11.6035
▁Manager	-11.6036
ode	-11.6038
▁marry	-11.6041
ipped	-11.6042
▁Ivy	-11.6044
▁directors	-11.6045
▁stok	-11.6045
▁Constitutional	-11.6048
rice	-11.6048
▁authorized	-11.6054
▁clearance	-11.6054
▁Ram	-11.6056
▁Banks	-11.6058
▁Sur	-11.6062
alph	-11.6063
▁Domin	-11.6064
sey	-11.6064
▁Issues	-11.607
▁afterward	-11.6072
—	-11.6074
▁Ste	-11.6085
▁JPMorgan	-11.6092
▁chocolate	-11.6092
▁delegation	-11.6092
▁thwart	-11.6092
▁Gonzal	-11.6092
▁staggering	-11.6092
▁Outrage	-11.6092
▁Simmon	-11.6092
Semit	-11.6093
▁Decision	-11.6093
▁boring	-11.6094
▁poet	-11.6096
▁Hook	-11.6097
▁burger	-11.6097
▁Kl	-11.6097
▁battlefield	-11.6097
▁Nicole	-11.6097
▁Racial	-11.6098
▁Pai	-11.6099
▁condemnation	-11.6099
▁Single	-11.6101
pm	-11.6101
▁Ros	-11.6102
ST	-11.6103
▁Ian	-11.6105
IE	-11.6106
▁supplier	-11.6111
▁Catch	-11.6119
▁embarrass	-11.6126
▁FA	-11.6127
bol	-11.6133
▁Pu	-11.6139
▁jihadi	-11.6145
▁Libyan	-11.6154
▁Brook	-11.6155
▁Kor	-11.6156
▁pressing	-11.6157
bat	-11.616
▁spur	-11.616
rpool	-11.6163
▁Electronic	-11.6166
▁Pulitzer	-11.6166
▁Racism	-11.6166
▁Yesterday	-11.6166
▁component	-11.6166
▁incorrect	-11.6166
munition	-11.6166
▁Islamophobi	-11.6166
▁limb	-11.6166
▁Kislya	-11.6167
▁stack	-11.6167
▁Shiite	-11.6167
▁revolutionary	-11.6169
▁furni	-11.617
▁1998	-11.617
▁Hallowe	-11.617
▁predator	-11.617
▁Kyle	-11.6173
calise	-11.6176
▁spectr	-11.6176
▁rocks	-11.618
TI	-11.6187
▁northwest	-11.6188
feld	-11.6189
ram	-11.6191
▁sensation	-11.6195
▁bans	-11.6195
▁cooperate	-11.62
esh	-11.6201
▁mountains	-11.6209
▁Plane	-11.6211
▁submit	-11.6214
▁consum	-11.6215
▁Lou	-11.6216
star	-11.6218
▁Shap	-11.6219
▁autism	-11.6225
▁prop	-11.6225
▁Masters	-11.6225
▁theaters	-11.6226
▁accuser	-11.6234
▁combine	-11.6235
▁Southwest	-11.6237
▁mistakes	-11.624
▁hypocri	-11.624
▁Guide	-11.624
▁commodit	-11.6241
▁enthusiasm	-11.6241
▁diabet	-11.6241
▁penthouse	-11.6241
▁generous	-11.6241
▁Vale	-11.6241
▁monet	-11.6241
▁roil	-11.6241
▁mild	-11.6242
▁Admit	-11.6242
▁unfit	-11.6242
▁FL	-11.6243
▁Congo	-11.6244
▁Wheel	-11.6246
▁Boyle	-11.6248
▁Wats	-11.6248
▁egg	-11.6248
▁shifting	-11.6252
▁Wel	-11.6255
▁newborn	-11.626
▁salt	-11.6262
▁Katy	-11.6262
act	-11.6263
▁raw	-11.6267
▁shutter	-11.6271
▁Ki	-11.6281
▁freed	-11.6282
▁Funding	-11.6286
▁reliabl	-11.6287
ash	-11.6288
▁Ag	-11.6305
:20	-11.6305
▁platforms	-11.6309
▁Assistant	-11.6316
▁EpiPen	-11.6316
▁KKK	-11.6316
▁Melbourn	-11.6316
▁Phelps	-11.6316
▁Schiff	-11.6316
▁credentials	-11.6316
▁obstacle	-11.6316
▁Comedian	-11.6316
▁Electric	-11.6316
▁reiterat	-11.6316
▁telecom	-11.6316
▁buck	-11.6317
▁Wake	-11.6318
▁communist	-11.6318
▁inspire	-11.6318
▁Holmes	-11.6319
▁92	-11.632
▁scar	-11.632
▁Marcus	-11.632
▁PC	-11.6321
ives	-11.6323
try	-11.6327
▁Score	-11.6327
▁Klan	-11.6329
▁Erin	-11.6329
▁attendance	-11.6332
▁programm	-11.6334
▁UPDATE	-11.6336
▁vest	-11.6339
ised	-11.634
▁Austrian	-11.6341
▁lately	-11.6342
▁Sharia	-11.6345
25	-11.6346
▁conced	-11.6354
▁spie	-11.6354
▁adventure	-11.6364
anda	-11.6365
▁Amber	-11.6366
ountries	-11.6366
▁nod	-11.6367
▁mini	-11.6384
▁Strange	-11.6386
▁eggs	-11.6386
mus	-11.6386
▁construct	-11.6387
▁Sioux	-11.6392
▁acquitt	-11.6392
▁cyberattack	-11.6392
▁remake	-11.6392
▁vulgar	-11.6392
▁Silence	-11.6392
▁quake	-11.6392
▁catastrophic	-11.6392
▁garden	-11.6392
▁mutual	-11.6392
▁spree	-11.6392
▁swath	-11.6393
▁Trek	-11.6393
▁euros	-11.6394
▁Deport	-11.6394
▁Grace	-11.6394
▁exhibition	-11.6397
▁suck	-11.6398
▁Pressure	-11.6401
▁dire	-11.6401
▁selfie	-11.6406
▁spectacle	-11.6407
▁180	-11.6409
NAA	-11.6409
▁kn	-11.6425
▁Andre	-11.6426
▁poster	-11.6427
▁unfolded	-11.6428
had	-11.6428
▁Friend	-11.643
▁Im	-11.6431
▁intimate	-11.6434
▁Robin	-11.6434
DA	-11.644
▁projection	-11.6441
▁constitution	-11.6445
▁offend	-11.645
▁Ri	-11.645
Robinson	-11.6455
▁nationalism	-11.6458
▁indicat	-11.646
▁impress	-11.6462
▁Large	-11.6465
▁overtime	-11.6466
▁lap	-11.6467
▁royal	-11.6467
▁IT	-11.6468
▁Clooney	-11.6468
▁gesture	-11.6468
▁maneuver	-11.6468
▁Rafael	-11.6468
▁Salvador	-11.6468
▁Absolute	-11.6468
▁supermarket	-11.6468
▁Advocate	-11.6468
▁flurr	-11.6469
▁Deliver	-11.6469
▁checkpoint	-11.647
▁Enter	-11.647
▁reluctant	-11.647
▁selfies	-11.6471
▁lake	-11.6471
▁disappointment	-11.6472
▁Region	-11.6472
▁heal	-11.6474
▁ought	-11.6475
▁Dress	-11.6476
eck	-11.6477
▁Adele	-11.6479
▁Donna	-11.6483
▁Arthur	-11.6485
▁beard	-11.6487
▁rig	-11.6493
ference	-11.6496
▁barb	-11.6498
TC	-11.6499
▁foul	-11.6499
▁Document	-11.6499
▁Understand	-11.6499
▁Bla	-11.6507
▁Non	-11.6519
▁Aren	-11.652
▁Conn	-11.6523
▁Vol	-11.6529
▁decorat	-11.6533
weight	-11.6533
▁satir	-11.6536
ole	-11.654
rez	-11.6541
lot	-11.6542
▁Kind	-11.6543
▁enroll	-11.6544
▁Brzezin	-11.6545
▁Ghost	-11.6545
▁Surprise	-11.6545
▁Sweet	-11.6545
▁burglar	-11.6545
▁patron	-11.6545
▁taunt	-11.6545
▁Result	-11.6545
▁credibility	-11.6545
power	-11.6545
▁Popular	-11.6545
▁Lloyd	-11.6546
▁saga	-11.6546
▁lord	-11.6546
▁Nature	-11.6547
▁foreigners	-11.6547
▁delight	-11.6549
▁slot	-11.655
▁injection	-11.6552
▁Hughes	-11.6555
cade	-11.6557
▁secretive	-11.6558
▁committ	-11.6559
ado	-11.6562
▁throat	-11.6563
▁Looks	-11.6571
▁Canne	-11.6571
▁110	-11.6573
▁Hunter	-11.6576
▁equally	-11.658
▁Boss	-11.6583
▁Gal	-11.6584
▁Bros	-11.6584
lib	-11.6586
▁failures	-11.6586
▁Bile	-11.6588
ration	-11.6589
▁bro	-11.6594
▁commuter	-11.6596
▁shy	-11.6603
▁seller	-11.6609
▁Refuse	-11.6615
▁Bryan	-11.6618
▁Rifle	-11.6623
▁grief	-11.6623
▁spiral	-11.6623
▁improper	-11.6623
▁Row	-11.6623
▁blanket	-11.6623
CLU	-11.6624
▁swim	-11.6624
kind	-11.6626
▁elevator	-11.6626
▁obsession	-11.6628
▁Myster	-11.663
tric	-11.6632
BI	-11.6632
▁batch	-11.6635
▁Avoid	-11.6638
▁Dian	-11.664
RUT	-11.6643
▁Foot	-11.6643
▁appreciate	-11.6643
▁fastest	-11.6643
ALEM	-11.6644
bidding	-11.6648
▁deck	-11.6652
bach	-11.6657
▁stripp	-11.6658
FK	-11.666
▁proper	-11.6667
▁bother	-11.6668
▁Rogers	-11.6669
▁Playbo	-11.6671
▁commute	-11.6672
▁Mont	-11.6678
▁Magic	-11.668
dated	-11.6681
AP	-11.6681
heim	-11.6684
▁slim	-11.6686
▁tactic	-11.6689
TH	-11.6691
heroes	-11.6694
▁airing	-11.6696
▁Hungar	-11.67
▁debri	-11.67
▁Kimmel	-11.6701
▁feminism	-11.6701
▁pepper	-11.6701
▁Abbott	-11.6701
▁issuing	-11.6701
▁Tucker	-11.6701
▁psychological	-11.6701
▁Foster	-11.6703
bli	-11.6707
▁precedent	-11.6714
▁render	-11.6718
rri	-11.6719
▁destroyer	-11.6728
▁Worse	-11.6732
▁Rip	-11.674
▁Mayer	-11.6743
▁fold	-11.6744
▁audit	-11.6748
▁unemploy	-11.6749
▁bullets	-11.6749
etti	-11.675
action	-11.6754
▁Transport	-11.6755
▁lows	-11.6768
▁controversi	-11.6771
▁lists	-11.6772
▁feat	-11.6773
▁Bal	-11.6775
rick	-11.6775
▁Boehner	-11.6779
▁Sacrament	-11.6779
▁dinosaur	-11.6779
▁robust	-11.6779
McCrory	-11.6779
▁Sleep	-11.6779
▁splash	-11.6779
agnitude	-11.678
▁foster	-11.678
▁boil	-11.678
▁Rapper	-11.678
NS	-11.678
▁dossier	-11.678
▁Parade	-11.6781
▁Trend	-11.6782
▁enthusiastic	-11.6782
vit	-11.6783
▁Lamar	-11.6783
▁fever	-11.6784
▁Agree	-11.6785
▁approache	-11.6788
▁Arabic	-11.679
▁Brandon	-11.6791
▁survival	-11.6792
heur	-11.6795
▁Templ	-11.6796
▁trio	-11.6797
▁provision	-11.6799
fin	-11.6804
▁Issue	-11.6805
▁directive	-11.6805
bro	-11.6806
▁Strip	-11.6806
▁Petra	-11.6809
▁dirt	-11.681
▁Suit	-11.6811
▁doll	-11.6812
oz	-11.682
▁Sar	-11.6821
▁bearing	-11.6821
hol	-11.6822
▁Comp	-11.6822
▁98	-11.6822
▁charts	-11.6828
ula	-11.6833
iev	-11.6835
▁plagu	-11.6839
▁Holt	-11.6841
▁Sho	-11.6842
▁vet	-11.6844
▁190	-11.6846
▁Sub	-11.6848
strong	-11.6853
▁adapt	-11.6857
▁cautious	-11.6859
▁relentless	-11.6859
▁backdrop	-11.6859
▁bureaucrat	-11.6859
▁dashboard	-11.6859
▁Cornell	-11.686
▁manhunt	-11.6862
▁Sears	-11.6864
▁dam	-11.6865
▁chains	-11.6869
▁fictional	-11.6873
leen	-11.6878
▁pole	-11.688
nel	-11.6881
▁Amnesty	-11.6881
▁Mann	-11.6886
▁solo	-11.6887
▁correction	-11.6888
▁activism	-11.6893
▁haunt	-11.6906
▁organis	-11.6908
olo	-11.6919
▁enduring	-11.6919
▁Classic	-11.6919
▁chilling	-11.692
999	-11.692
▁Merc	-11.6921
▁evacuate	-11.6922
▁Mya	-11.6925
▁reviv	-11.6926
keep	-11.6927
RC	-11.6934
▁Holy	-11.6937
▁Success	-11.6938
▁Jihad	-11.6938
21	-11.6938
▁bio	-11.6938
▁Ebola	-11.6939
▁Evangelical	-11.6939
▁drastic	-11.6939
▁unacceptable	-11.6939
▁unravel	-11.6939
▁mishandl	-11.6939
▁Diversity	-11.6939
ISTAN	-11.6939
▁Lopez	-11.6939
▁Polish	-11.6939
▁Hidden	-11.6939
▁Missile	-11.694
▁disagreement	-11.6943
▁merit	-11.6943
▁Exit	-11.6944
▁Cause	-11.6947
▁Walt	-11.6948
▁Carls	-11.6949
▁inflict	-11.6949
▁relat	-11.6952
▁endur	-11.6956
▁spr	-11.6958
▁Celebrate	-11.6965
gram	-11.6966
▁bath	-11.6966
▁Kenne	-11.6973
▁identit	-11.6974
▁PR	-11.6974
▁96	-11.6977
▁Islands	-11.6982
▁Hol	-11.6989
▁Santi	-11.6989
▁justify	-11.6991
▁fines	-11.6994
▁risky	-11.7013
▁Zi	-11.7015
▁credible	-11.7015
▁listener	-11.7016
clusion	-11.7019
▁Trevor	-11.7019
▁critique	-11.7019
▁crippl	-11.7019
▁prevail	-11.7019
▁screw	-11.7019
▁Chemical	-11.702
▁Hugh	-11.702
▁uproar	-11.702
▁Sugar	-11.702
▁McK	-11.7021
▁retweet	-11.7021
▁Bett	-11.7021
▁obligation	-11.7022
illy	-11.7022
ONG	-11.7024
stan	-11.7034
▁warship	-11.7037
▁MA	-11.7043
▁fraternit	-11.7043
▁spare	-11.7045
▁Thi	-11.7045
▁Decades	-11.7047
▁Cair	-11.7049
EL	-11.7049
▁millennial	-11.7053
▁Giant	-11.7057
▁obscure	-11.7064
▁legaliz	-11.7064
▁compos	-11.7066
▁boxe	-11.7068
eem	-11.707
▁glut	-11.7072
▁quo	-11.7072
llen	-11.7073
▁trace	-11.7076
▁GE	-11.708
▁Pink	-11.7083
▁bug	-11.7094
▁Corporation	-11.7101
▁instinct	-11.7101
▁Drake	-11.7101
▁scatter	-11.7101
▁wrongdoing	-11.7101
▁Firing	-11.7101
▁exposure	-11.7101
▁Gallup	-11.7101
▁valuation	-11.7102
▁Harass	-11.7102
▁Deportation	-11.7102
▁Scout	-11.7104
▁Fatal	-11.7105
▁reelection	-11.7106
▁amp	-11.7107
▁Gaff	-11.7112
▁Rare	-11.7112
▁Duck	-11.7115
Up	-11.7115
▁shoe	-11.7116
▁instruction	-11.7116
▁Panthers	-11.7121
▁Bud	-11.7121
▁115	-11.7122
▁Shark	-11.7123
▁Puz	-11.7124
▁Schu	-11.7124
▁Finding	-11.7124
▁WHO	-11.7126
skirts	-11.7129
ault	-11.713
▁stressed	-11.7131
costa	-11.7134
▁Dump	-11.7141
▁reasonable	-11.7142
▁Ward	-11.7146
tis	-11.7148
▁contrar	-11.715
▁overwhelm	-11.7153
▁Nazis	-11.7154
ius	-11.7157
▁Browns	-11.7159
AT	-11.7161
26	-11.7162
▁Tens	-11.7165
▁Ala	-11.7168
nmar	-11.7171
▁inject	-11.7175
▁NH	-11.7182
▁cruel	-11.7182
▁conspir	-11.7182
▁Midwest	-11.7183
▁Chamber	-11.7183
▁Riyad	-11.7183
▁Thunder	-11.7183
▁headphone	-11.7183
▁raucous	-11.7183
▁transplant	-11.7183
▁Census	-11.7183
▁scratch	-11.7183
▁FARC	-11.7183
▁Gordon	-11.7183
▁emoji	-11.7183
▁Oxford	-11.7183
▁arrangement	-11.7183
▁Davo	-11.7184
▁97	-11.7184
▁Throw	-11.7184
▁Alliance	-11.7184
▁Dara	-11.7185
▁Northeast	-11.7186
tomic	-11.7186
▁invad	-11.7187
▁initiat	-11.7187
laza	-11.7188
▁confine	-11.719
▁Tank	-11.719
▁movements	-11.7198
IG	-11.72
▁outraged	-11.7204
elli	-11.7206
▁trooper	-11.7206
▁bra	-11.7213
▁PA	-11.7217
▁administrator	-11.722
▁Mag	-11.7227
▁Gott	-11.723
▁Gr	-11.7233
▁Dy	-11.7235
owed	-11.7236
▁intervene	-11.7238
ple	-11.7239
▁Lone	-11.7239
hel	-11.7243
drick	-11.7245
▁Male	-11.7246
▁starter	-11.7258
▁birds	-11.726
ais	-11.7262
▁Beaut	-11.7264
▁Surveill	-11.7265
:00	-11.7265
▁tariff	-11.7265
▁Redskins	-11.7265
UKIP	-11.7265
▁Ackman	-11.7265
▁Variet	-11.7265
▁sibling	-11.7265
▁Propert	-11.7266
▁Mormon	-11.7266
▁LLC	-11.7266
▁choke	-11.7266
▁Fernand	-11.7266
▁password	-11.7266
▁seizure	-11.7267
▁chronic	-11.7268
▁Echo	-11.7269
▁distribution	-11.7269
▁Ph	-11.7269
▁truce	-11.727
▁motorist	-11.7271
▁pivotal	-11.7271
▁excite	-11.7276
▁Joke	-11.728
▁Schla	-11.7283
▁Shooter	-11.7286
▁fist	-11.7287
▁murderer	-11.7288
▁JER	-11.7289
▁surgeon	-11.7293
▁verbal	-11.7302
▁qui	-11.7305
▁Reveals	-11.7307
▁Stars	-11.7308
▁separat	-11.7312
▁Maddo	-11.7312
▁Kra	-11.7317
▁tribe	-11.7318
▁Mobil	-11.7318
▁psych	-11.7321
state	-11.7321
▁matches	-11.7324
etta	-11.7324
core	-11.7337
▁intern	-11.7339
▁LinkedIn	-11.7349
▁McAul	-11.7349
▁Pompe	-11.7349
▁culminat	-11.7349
▁sufficient	-11.7349
▁turbulen	-11.7349
▁revolt	-11.7349
▁Sudden	-11.7349
▁rift	-11.7349
▁plaintiff	-11.7349
▁Cotton	-11.7349
▁Denton	-11.7349
▁UCLA	-11.7349
▁heavyweight	-11.7349
chester	-11.7349
ullivan	-11.735
▁Bias	-11.735
foot	-11.7351
▁reception	-11.7352
▁Clash	-11.7353
dge	-11.7355
fly	-11.7356
▁congratulat	-11.7357
▁logo	-11.7357
graph	-11.7357
▁usher	-11.7357
▁downplay	-11.7358
▁fixed	-11.7363
▁Fine	-11.7367
▁Main	-11.7368
tta	-11.7368
▁Grey	-11.737
▁Toward	-11.7371
▁Gap	-11.7372
▁Soul	-11.7373
▁Alice	-11.7375
gel	-11.7379
ower	-11.7383
closed	-11.7388
▁BA	-11.7392
▁Carne	-11.7395
▁Cape	-11.7395
▁Waters	-11.7397
▁spaces	-11.74
▁rep	-11.7401
trophy	-11.7405
gent	-11.7406
▁CO	-11.7409
▁prob	-11.7409
mnesty	-11.7409
▁marches	-11.7414
▁cab	-11.7417
▁permitt	-11.7423
▁Founder	-11.7428
▁default	-11.7433
▁diamond	-11.7433
▁jersey	-11.7433
▁painkiller	-11.7433
▁Samuel	-11.7433
▁atrocit	-11.7433
▁economies	-11.7433
▁Potential	-11.7433
▁conscience	-11.7433
▁Clapp	-11.7433
▁embark	-11.7433
▁Gianf	-11.7434
rian	-11.7436
▁TSA	-11.7437
▁civilization	-11.7438
uiet	-11.7443
▁underwater	-11.7443
ati	-11.7445
▁corpse	-11.7445
ridge	-11.7449
▁debat	-11.7451
oma	-11.7451
▁Blow	-11.7453
▁Mun	-11.7453
ERLIN	-11.7455
▁flagg	-11.7462
▁IN	-11.7467
▁slid	-11.747
▁Slow	-11.7472
▁Hands	-11.7473
GO	-11.748
▁swipe	-11.748
ello	-11.7482
▁Sund	-11.7484
▁Norwa	-11.7485
GE	-11.7487
▁Eye	-11.7488
▁TB	-11.7488
▁securities	-11.7488
▁Struggle	-11.7489
▁capp	-11.7491
upert	-11.7492
▁hill	-11.7492
▁workout	-11.7496
▁scope	-11.7498
▁Ven	-11.7501
▁Mobile	-11.7501
mont	-11.7502
HI	-11.7508
▁affirm	-11.751
▁clar	-11.7511
▁inning	-11.7517
▁Adolf	-11.7517
▁Enterprise	-11.7517
▁blizzard	-11.7517
▁cocktail	-11.7517
▁fugitive	-11.7517
▁Register	-11.7518
▁Suspend	-11.7518
▁Abbas	-11.7518
▁Moonlight	-11.7518
▁persistent	-11.7518
▁Root	-11.7519
▁pipe	-11.7519
▁Herald	-11.752
▁appointee	-11.7521
▁Couple	-11.7523
▁Died	-11.7523
▁Opening	-11.7524
lessness	-11.7527
▁courthouse	-11.753
▁crushing	-11.7531
▁motivation	-11.7531
▁Color	-11.7532
bert	-11.7543
lar	-11.7544
▁Ill	-11.7545
▁intensifie	-11.7548
ontinental	-11.7552
▁accountable	-11.7555
▁Commentar	-11.7558
IC	-11.7559
fish	-11.7566
▁Gone	-11.7569
▁yard	-11.7572
▁hawk	-11.7575
0,000	-11.7576
lander	-11.7576
▁Palmer	-11.7582
▁lobbyists	-11.7589
▁Site	-11.759
▁breathing	-11.7595
▁policymaker	-11.7599
▁imprison	-11.7601
▁MOS	-11.7601
▁Baptist	-11.7603
▁cemeter	-11.7603
▁chancellor	-11.7603
▁glance	-11.7603
▁applaud	-11.7603
▁lavish	-11.7603
▁staple	-11.7603
▁freezing	-11.7603
▁Eddie	-11.7603
▁HOUS	-11.7603
▁microcephal	-11.7604
▁Pledge	-11.7604
▁Falcons	-11.7606
▁chronicle	-11.7607
▁Rican	-11.7609
▁Chile	-11.7611
▁lining	-11.7612
▁horn	-11.7616
▁volatile	-11.7618
▁Bow	-11.7624
▁Plant	-11.7626
cam	-11.7628
▁Dust	-11.7631
▁bottles	-11.7631
▁Leav	-11.7633
▁Gor	-11.7634
loo	-11.7636
▁Reg	-11.7641
isation	-11.7644
▁haz	-11.7646
▁damages	-11.7647
▁helm	-11.7649
▁administrators	-11.765
▁Info	-11.7651
▁denounce	-11.7652
▁Stage	-11.7657
▁sights	-11.7662
ullah	-11.7663
hop	-11.7665
oke	-11.7669
erald	-11.7673
▁Lev	-11.7674
▁consulting	-11.7678
▁unfairly	-11.7678
dus	-11.768
▁judicia	-11.7681
▁Ze	-11.7686
▁Er	-11.7688
▁Circle	-11.7689
▁Initiative	-11.7689
▁Nordstrom	-11.7689
▁athletic	-11.7689
▁grandfather	-11.7689
▁lucrative	-11.7689
▁transmission	-11.7689
▁Wimb	-11.7689
▁depth	-11.7689
▁Generation	-11.7689
▁Sydne	-11.7689
▁southeast	-11.769
▁Adult	-11.769
▁Sunni	-11.769
▁Olympian	-11.769
▁coward	-11.7692
▁matchup	-11.7693
▁revival	-11.7694
▁sum	-11.7694
RO	-11.7702
▁Shell	-11.7702
▁steadi	-11.7702
▁Shock	-11.7703
▁Gut	-11.7703
▁ears	-11.7704
itis	-11.7707
▁mus	-11.7709
aged	-11.771
wich	-11.7711
HCA	-11.7712
▁Geer	-11.7713
▁nutrition	-11.7714
▁Brun	-11.7714
▁compromised	-11.7715
▁glor	-11.7721
▁160	-11.7723
▁Beth	-11.7728
▁Rais	-11.7728
▁Sanch	-11.7729
▁reactions	-11.7729
▁romance	-11.7731
▁Diet	-11.7733
▁Bid	-11.7737
▁scholar	-11.7743
▁advise	-11.7743
▁km	-11.7747
▁stumbl	-11.7747
kovic	-11.7748
▁Cu	-11.7749
mor	-11.7749
uh	-11.775
▁350	-11.7751
cap	-11.7755
▁Rescue	-11.7756
▁Zo	-11.7766
▁brac	-11.7766
▁Predict	-11.7766
▁distinct	-11.777
uick	-11.7771
rac	-11.7772
▁Garci	-11.7776
▁Disaster	-11.7776
▁Holiday	-11.7776
▁Rihanna	-11.7776
▁gasoline	-11.7776
▁estrang	-11.7776
▁Lauderdale	-11.7776
▁Internal	-11.7776
▁Nehl	-11.7776
▁Moving	-11.7776
▁defamation	-11.7777
▁Scene	-11.7777
▁Donnell	-11.7778
own	-11.7778
▁collaboration	-11.7778
▁Fallow	-11.7778
▁Iceland	-11.7779
▁bailout	-11.7779
▁oral	-11.7779
▁accomplishment	-11.7779
▁Populist	-11.778
▁undermin	-11.778
var	-11.7781
▁swell	-11.7783
▁Round	-11.7783
▁Mix	-11.7785
walk	-11.7789
▁Inspir	-11.779
▁Briton	-11.7791
onage	-11.7793
▁armor	-11.7797
▁destin	-11.7797
emise	-11.7798
OW	-11.7798
▁escalate	-11.7799
▁Reach	-11.78
▁Stol	-11.7801
▁opera	-11.7801
▁invok	-11.7805
▁Thom	-11.7813
▁heir	-11.7817
▁cookie	-11.7821
pol	-11.7825
uin	-11.7825
▁soften	-11.7826
▁corn	-11.7833
▁exceptional	-11.7833
▁Launche	-11.7835
▁Hir	-11.7836
▁offenders	-11.7839
▁Mara	-11.7843
▁confusing	-11.7843
▁buyer	-11.7845
▁cart	-11.7849
▁SA	-11.7852
▁sacrifice	-11.7858
making	-11.7861
▁compli	-11.7862
▁griev	-11.7862
▁overshadow	-11.7864
▁Pokemon	-11.7864
▁hijab	-11.7864
▁tissue	-11.7864
▁Nepal	-11.7864
▁chunk	-11.7864
▁Brenna	-11.7864
▁Furious	-11.7864
▁tolerance	-11.7864
▁snake	-11.7865
▁firestorm	-11.7865
▁VR	-11.7866
▁sacr	-11.7867
▁resolv	-11.7869
AD	-11.7872
▁hostilit	-11.7874
▁Wyomi	-11.7874
▁ponder	-11.7875
amount	-11.7876
Right	-11.7877
▁Julie	-11.788
BP	-11.7882
▁Spur	-11.7884
▁Cars	-11.7884
SBURG	-11.7885
space	-11.7888
PAC	-11.789
▁Hedge	-11.789
enmark	-11.7891
▁tablet	-11.7895
▁wise	-11.7895
▁Hawk	-11.7896
▁unst	-11.7896
▁affecting	-11.7905
van	-11.7906
▁cite	-11.7919
hor	-11.7919
mark	-11.792
▁vulnerabilit	-11.7923
▁Number	-11.7925
▁Hat	-11.7926
▁Resist	-11.793
lier	-11.793
▁Net	-11.7931
▁negotiate	-11.7931
▁Rain	-11.7931
▁heft	-11.7931
inson	-11.7932
▁User	-11.7935
▁Accuse	-11.7935
card	-11.7936
▁scramble	-11.794
▁sandwich	-11.7942
▁developers	-11.7944
kel	-11.7945
▁entr	-11.7946
▁Word	-11.7951
▁Diamond	-11.7952
▁bulk	-11.7952
▁excerpt	-11.7952
▁grasp	-11.7952
▁syndicat	-11.7952
▁Sanction	-11.7952
▁Probabl	-11.7952
▁despair	-11.7953
▁dislike	-11.7953
▁hover	-11.7954
lihood	-11.7954
▁playlist	-11.7955
▁rever	-11.7958
election	-11.796
▁pageant	-11.7961
▁tackl	-11.7964
▁slapp	-11.7966
▁op	-11.7966
▁misl	-11.7967
▁Bann	-11.7968
mine	-11.797
▁outstanding	-11.7971
▁Lines	-11.7973
▁solidarity	-11.7974
tin	-11.7977
ledon	-11.7978
▁Rem	-11.7979
▁cease	-11.7981
▁Carol	-11.7989
▁evolution	-11.7989
▁stamp	-11.7993
NE	-11.8
▁examples	-11.8
nts	-11.8007
rapy	-11.8012
▁Huge	-11.8018
▁Declare	-11.802
ockey	-11.8026
TED	-11.8032
▁disgusting	-11.8037
eninsula	-11.804
▁oppress	-11.804
▁Toyota	-11.8042
▁retiring	-11.8042
▁Different	-11.8042
▁Increase	-11.8042
▁thread	-11.8042
▁gradual	-11.8042
▁roar	-11.8042
▁headache	-11.8042
▁Alicia	-11.8042
▁Shift	-11.8042
▁persist	-11.8042
▁Yellow	-11.8042
▁slowdown	-11.8043
▁Examiner	-11.8044
▁penis	-11.8046
▁instructor	-11.8047
▁postpon	-11.8048
▁prospective	-11.8048
▁gu	-11.805
▁Growth	-11.8052
▁Wave	-11.8053
▁Kick	-11.8053
▁Ellen	-11.8054
stock	-11.8055
▁Pot	-11.8055
▁dose	-11.8064
aux	-11.8065
▁referenc	-11.8067
eit	-11.8077
▁Medi	-11.8079
OUL	-11.8084
▁Milk	-11.8089
AGO	-11.809
▁Burns	-11.8093
▁metro	-11.8101
▁Create	-11.8101
liv	-11.8102
naval	-11.8102
▁Leads	-11.8103
▁gent	-11.8103
▁Came	-11.8103
cking	-11.8105
▁gon	-11.8105
acher	-11.8106
▁compelling	-11.8108
▁Porn	-11.811
▁Costa	-11.8112
▁entertainer	-11.8124
▁ethical	-11.8128
22	-11.8129
▁Lion	-11.8129
▁Effect	-11.813
▁bankrupt	-11.8131
▁Benefit	-11.8132
▁DiCaprio	-11.8132
▁Montgomer	-11.8132
▁injunction	-11.8132
▁skyscraper	-11.8132
▁Firm	-11.8132
▁palace	-11.8132
▁adversar	-11.8132
▁wield	-11.8132
▁dialogue	-11.8132
▁lawn	-11.8132
▁autops	-11.8133
▁Hungarian	-11.8133
▁Centre	-11.8133
▁aspir	-11.8134
▁payroll	-11.8134
▁Str	-11.8134
▁Westmins	-11.8135
▁arson	-11.8135
▁disappearance	-11.8136
▁disput	-11.8137
▁Institution	-11.8138
taking	-11.8138
▁scrapp	-11.8143
▁simultaneously	-11.8144
▁marine	-11.8146
▁vacancy	-11.8149
▁intimidat	-11.816
▁diagnosi	-11.8161
▁Mob	-11.8164
▁chairs	-11.8164
▁Ship	-11.8166
enberg	-11.8168
▁Kal	-11.8168
▁trips	-11.8169
loa	-11.8172
▁attribut	-11.8177
▁Pl	-11.8179
riv	-11.8187
egger	-11.819
▁Witnesse	-11.8191
▁begg	-11.8192
▁typ	-11.8199
▁treasure	-11.8199
▁Nu	-11.8199
▁270	-11.8201
▁Trail	-11.8207
lap	-11.8211
▁Wage	-11.8213
▁layer	-11.8213
▁Ferr	-11.8214
PG	-11.8216
▁earlie	-11.8219
▁tail	-11.8221
▁influ	-11.8222
▁Cultural	-11.8223
▁Dispatch	-11.8223
▁Porzingis	-11.8223
▁circuit	-11.8223
▁convenience	-11.8223
▁enterprise	-11.8223
▁huddl	-11.8223
▁jurisdiction	-11.8223
▁scathing	-11.8223
▁definitive	-11.8223
▁Zero	-11.8223
▁reservation	-11.8224
▁Spot	-11.8224
▁deliberation	-11.8228
▁yog	-11.8228
▁compensati	-11.823
▁Prayer	-11.8233
▁Pri	-11.8234
▁newspapers	-11.8234
▁upstate	-11.8236
▁candy	-11.8238
▁Counter	-11.8239
safe	-11.8243
ID	-11.8243
pot	-11.8246
▁disruption	-11.8247
▁copie	-11.8256
rtheastern	-11.8262
▁blend	-11.8263
▁Fears	-11.8264
▁Paid	-11.8266
▁Teach	-11.8268
▁Juli	-11.8271
▁incit	-11.8276
▁Pain	-11.828
▁Hil	-11.8282
▁Burr	-11.8283
▁Yan	-11.8285
ches	-11.8286
▁dancer	-11.8288
CH	-11.829
▁Shake	-11.8295
▁Tam	-11.8296
manned	-11.83
▁Chery	-11.8302
▁charm	-11.8303
▁Bin	-11.8307
CA	-11.831
▁Attend	-11.8313
▁Computer	-11.8314
▁Migration	-11.8314
▁Observer	-11.8314
▁brazen	-11.8314
▁ceremoni	-11.8314
▁convincing	-11.8314
▁microphone	-11.8314
▁occupy	-11.8314
▁subscription	-11.8314
▁clerk	-11.8314
▁joking	-11.8314
▁Opposition	-11.8314
▁Falluja	-11.8314
▁tentative	-11.8315
▁titan	-11.8315
▁Teres	-11.8315
▁Detective	-11.8315
▁Nordli	-11.8315
▁tiger	-11.8315
▁Settlement	-11.8316
▁bigotry	-11.8316
▁organisation	-11.8316
▁Spark	-11.8316
▁FoxNews	-11.8316
BC	-11.8316
▁Tyson	-11.8317
friend	-11.8318
▁cabin	-11.8319
▁dorm	-11.8319
▁allerg	-11.832
eryl	-11.8321
miss	-11.8323
▁Normal	-11.8324
▁Stranger	-11.8324
▁Retir	-11.8324
▁Seem	-11.8326
▁bounce	-11.8326
▁NC	-11.8326
▁insane	-11.8327
▁Stephan	-11.8328
AMI	-11.8335
▁governors	-11.834
▁Norman	-11.8341
▁propell	-11.8341
LY	-11.8343
eman	-11.8351
SW	-11.8353
oni	-11.8356
lace	-11.8357
rates	-11.8358
▁emotions	-11.8358
SU	-11.8359
▁dispatch	-11.8364
▁Beverl	-11.8369
nell	-11.8372
UR	-11.8379
nted	-11.8379
▁Wire	-11.8379
40	-11.8384
▁Progressive	-11.8394
▁stair	-11.8394
▁Product	-11.8399
▁deplorables	-11.8402
▁Prevent	-11.8404
▁unify	-11.8405
▁accompany	-11.8407
▁brink	-11.8407
▁juvenile	-11.8407
▁neglect	-11.8407
▁Analyst	-11.8407
▁Discuss	-11.8407
▁molest	-11.8407
▁Lynn	-11.8407
EACH	-11.8407
▁fantastic	-11.8407
▁meltdown	-11.8407
▁jean	-11.8408
▁introduction	-11.8408
oxide	-11.8409
▁greenhouse	-11.8409
▁Mika	-11.8412
▁wan	-11.8413
laughter	-11.8414
adi	-11.8414
▁Grill	-11.8416
Klux	-11.8416
▁Crew	-11.8419
▁Cro	-11.842
▁Citizen	-11.8426
▁certificate	-11.8427
▁da	-11.843
tchen	-11.8431
▁Malco	-11.8432
▁Newton	-11.8436
▁dismissal	-11.8437
▁WI	-11.8439
▁Visa	-11.8441
▁Mega	-11.8443
▁foods	-11.8444
comm	-11.8446
wig	-11.8449
▁Draw	-11.8451
▁exists	-11.8454
scale	-11.8454
watch	-11.8455
▁Replace	-11.8456
▁Mack	-11.846
▁vandal	-11.846
▁Forest	-11.8464
randa	-11.8467
part	-11.8468
▁Dau	-11.8469
▁Kan	-11.8472
▁emphasiz	-11.8476
▁Curt	-11.8482
MA	-11.8489
▁Coal	-11.8489
▁Historic	-11.8494
▁Convict	-11.8494
▁smuggler	-11.8495
▁Lang	-11.8495
▁shin	-11.8497
▁betray	-11.8497
▁Abraham	-11.85
▁alligator	-11.85
▁Expand	-11.85
▁staunch	-11.85
▁Superior	-11.85
▁rogue	-11.8501
▁fond	-11.8501
▁gown	-11.8501
▁loft	-11.8501
▁miner	-11.8502
▁appropriation	-11.8502
▁Ashley	-11.8502
▁Friedman	-11.8503
▁sneak	-11.8505
kar	-11.8507
▁witch	-11.8508
▁upgrade	-11.8509
▁Dw	-11.8512
▁efficient	-11.8514
▁Associate	-11.8516
▁startups	-11.8518
▁motive	-11.8522
▁facto	-11.8522
▁Loan	-11.8522
▁DJ	-11.8524
▁applie	-11.8526
▁veil	-11.8529
▁sang	-11.853
▁parallel	-11.8531
▁wings	-11.8533
bull	-11.8534
views	-11.8536
▁Publish	-11.8542
pac	-11.8546
▁Gavi	-11.8547
TO	-11.8555
▁courtes	-11.8556
▁receiver	-11.8565
▁Troop	-11.8565
▁Este	-11.8565
▁brew	-11.8567
▁digit	-11.8574
▁750	-11.8574
▁stir	-11.8574
feed	-11.8576
ela	-11.8577
▁Der	-11.8578
▁sh	-11.8585
▁Pla	-11.859
▁caliph	-11.8595
▁Bieber	-11.8595
▁asteroid	-11.8595
▁catastrophe	-11.8595
▁uprising	-11.8595
▁Campbell	-11.8595
▁Blitz	-11.8595
▁Lemonade	-11.8595
▁covet	-11.8595
▁Crack	-11.8595
▁Current	-11.8595
▁automatically	-11.8596
▁Remark	-11.8596
▁keen	-11.8597
▁playground	-11.8598
▁Chronicle	-11.8599
▁shelve	-11.8601
▁Jazz	-11.8605
▁relay	-11.8605
▁Fun	-11.8605
▁Tro	-11.8606
▁barrage	-11.8607
▁jihad	-11.861
▁Basic	-11.8611
▁hunger	-11.8615
plan	-11.8616
sleep	-11.8619
▁orchestrat	-11.862
▁Indonesian	-11.8625
▁vari	-11.8625
▁attractive	-11.8627
Star	-11.8628
▁Bak	-11.8629
▁arch	-11.863
▁Lie	-11.863
▁prescrib	-11.8631
▁surreal	-11.8633
east	-11.8634
Time	-11.8638
▁formula	-11.8639
▁dismay	-11.8639
▁interpret	-11.8639
▁Boom	-11.8642
▁Statement	-11.8646
▁Ci	-11.865
ico	-11.865
▁Tear	-11.865
▁Sick	-11.8651
▁preserv	-11.8653
▁beverage	-11.8653
▁creditor	-11.8662
aging	-11.8662
▁iPhones	-11.8674
12	-11.8674
late	-11.8677
▁Ramo	-11.8679
▁fare	-11.8683
▁lure	-11.8684
▁Bit	-11.8684
▁nurs	-11.8685
▁Champions	-11.8685
▁obstruct	-11.8687
▁shine	-11.8689
▁Episode	-11.869
▁Hussein	-11.869
▁Monument	-11.869
▁PHOTOS	-11.869
▁applause	-11.869
▁arsenal	-11.869
▁diminish	-11.869
▁mastermind	-11.869
▁precinct	-11.869
▁revamp	-11.869
▁temperament	-11.869
▁unlawful	-11.869
▁grain	-11.869
▁snatch	-11.869
▁bleeding	-11.869
▁Spread	-11.8691
▁pleasure	-11.8691
▁intersection	-11.8691
▁Packer	-11.8691
▁tribal	-11.8692
▁probation	-11.8692
▁descent	-11.8692
▁prank	-11.8692
▁terrified	-11.8693
HL	-11.8693
▁botch	-11.8693
▁fitting	-11.8693
50	-11.8693
fest	-11.8694
▁offseason	-11.8694
fil	-11.8694
▁backpack	-11.8695
▁gala	-11.8696
▁Course	-11.87
▁objective	-11.87
okay	-11.87
▁distraction	-11.8701
boro	-11.8701
▁Economist	-11.8702
▁Ble	-11.8706
▁Sixth	-11.8707
lift	-11.8711
ending	-11.8713
stream	-11.8714
▁beam	-11.8722
▁Trie	-11.8725
▁enable	-11.8726
▁figur	-11.8727
pinning	-11.8728
nna	-11.8728
▁worrying	-11.8731
▁tide	-11.8734
gor	-11.8735
▁Mou	-11.8737
▁Wear	-11.8741
ough	-11.8742
lash	-11.8746
rigid	-11.8746
▁Glass	-11.875
▁dement	-11.8752
▁dish	-11.8753
▁collid	-11.8757
▁Photograph	-11.8763
post	-11.8765
▁Cond	-11.8767
▁bagg	-11.8768
▁rout	-11.877
▁Raider	-11.8773
gling	-11.8775
▁Moral	-11.8777
VE	-11.8779
▁Falcon	-11.8783
▁mounted	-11.8786
▁Alternative	-11.8786
▁Bahrain	-11.8786
▁evident	-11.8786
▁Switch	-11.8786
▁discredit	-11.8786
▁flick	-11.8786
▁Bishop	-11.8786
rim	-11.8786
▁tornado	-11.8786
▁Passenger	-11.8786
▁perception	-11.8787
▁Natali	-11.8787
▁defund	-11.8787
nick	-11.8787
▁Hail	-11.879
▁tenant	-11.879
▁Taco	-11.8791
▁Desk	-11.8791
▁Schwarzen	-11.8793
▁Known	-11.8793
▁Bryant	-11.8796
▁Except	-11.8799
▁Chu	-11.8804
▁Tan	-11.8806
▁Ava	-11.8807
▁Reed	-11.8814
Life	-11.8816
▁Boo	-11.882
▁meter	-11.882
▁Ranch	-11.8821
shing	-11.8821
▁Jacobs	-11.8821
▁Prett	-11.8823
▁Gab	-11.8824
MF	-11.8826
▁Glori	-11.8827
▁Luck	-11.8831
Page	-11.8831
ALL	-11.8831
▁SP	-11.8833
tell	-11.8843
▁Marie	-11.8844
▁dismantl	-11.8845
▁Form	-11.8847
▁skirt	-11.885
▁gangs	-11.8853
▁disgrac	-11.8853
PP	-11.8856
▁Sk	-11.8858
▁spoiler	-11.8863
ites	-11.8866
▁Vin	-11.8868
▁mut	-11.887
▁Mour	-11.8872
▁earning	-11.8872
▁ranch	-11.8872
uri	-11.8872
▁prep	-11.8876
sai	-11.8883
▁Resort	-11.8883
▁Revenue	-11.8883
▁Transcript	-11.8883
▁algorithm	-11.8883
▁applicants	-11.8883
▁emphasis	-11.8883
▁pistol	-11.8883
▁protocol	-11.8883
▁rescind	-11.8883
▁renown	-11.8883
▁Angry	-11.8883
▁garage	-11.8883
▁hurl	-11.8883
▁Barcelo	-11.8883
▁Gilbert	-11.8883
▁savage	-11.8884
▁Annual	-11.8884
▁Survivor	-11.8885
brook	-11.8885
▁Univisi	-11.8885
▁interpretation	-11.8885
▁cough	-11.8886
▁rotation	-11.8886
▁Handout	-11.8886
▁observation	-11.8887
▁Delay	-11.8887
▁hijack	-11.8887
pes	-11.8889
▁Identity	-11.8891
▁101	-11.8892
▁communicate	-11.8893
▁digg	-11.8893
▁Pet	-11.8895
LAND	-11.8896
▁butt	-11.8896
▁Franken	-11.8898
epp	-11.8901
▁tire	-11.8901
▁grind	-11.8903
▁riders	-11.8903
16	-11.8904
▁PORT	-11.8905
▁Monte	-11.8908
▁encountered	-11.8911
EC	-11.8912
▁Mart	-11.8913
mail	-11.8913
▁birther	-11.8914
▁Issa	-11.8914
▁stereotype	-11.8923
▁astronomer	-11.8924
▁forgive	-11.8924
▁Naval	-11.8928
▁Spend	-11.8928
▁Spa	-11.8932
eur	-11.8932
▁Healthcare	-11.8934
ICO	-11.8936
▁leaning	-11.894
▁Months	-11.8945
▁Wash	-11.8945
▁Hum	-11.8946
▁Gabb	-11.8946
▁grapple	-11.8953
▁Nationalist	-11.8955
▁Soldiers	-11.8955
ori	-11.8975
▁rode	-11.8981
▁Drudge	-11.8981
▁Norwegian	-11.8981
▁Religion	-11.8981
▁Shadow	-11.8981
▁constitute	-11.8981
▁stockpile	-11.8981
▁spouse	-11.8981
▁Lucas	-11.8981
▁indefinite	-11.8981
▁Spike	-11.8981
▁turkey	-11.8982
▁erect	-11.8982
▁Allegation	-11.8982
▁Satan	-11.8983
▁endure	-11.8985
leigh	-11.8985
isco	-11.8986
▁Troll	-11.8986
COW	-11.8991
▁Egg	-11.8992
▁execute	-11.8992
iver	-11.8992
▁darkness	-11.8995
▁systemic	-11.8997
▁mull	-11.9
▁Evans	-11.9
ops	-11.9
▁offset	-11.9001
▁soap	-11.9001
▁Reader	-11.9001
▁Manag	-11.9002
fax	-11.9003
▁uncle	-11.9006
▁rubber	-11.9007
▁Lions	-11.9016
▁Tree	-11.9017
▁sway	-11.9018
▁Turk	-11.902
Con	-11.9024
verse	-11.9025
▁dip	-11.9025
▁Haye	-11.9027
▁Swa	-11.9031
▁bout	-11.904
▁hungr	-11.9042
vision	-11.9042
▁novelist	-11.9044
▁kit	-11.9046
▁Joan	-11.9048
▁syndrome	-11.905
fill	-11.905
latt	-11.9051
▁Mess	-11.9053
▁hype	-11.9054
▁frenz	-11.9055
▁Sav	-11.9055
▁Rec	-11.906
▁hacks	-11.9063
The	-11.9072
▁guitar	-11.9078
▁Salma	-11.9079
issa	-11.9079
▁Nichola	-11.908
▁defence	-11.908
▁fraudulent	-11.908
▁thrust	-11.908
▁unhapp	-11.908
▁whistleblower	-11.908
▁xenophobi	-11.908
▁deteriorat	-11.908
▁gossip	-11.908
▁skull	-11.908
Pablo	-11.908
▁frantic	-11.908
▁biological	-11.908
▁backyard	-11.908
▁tally	-11.9081
▁Subway	-11.9081
▁aerial	-11.9081
▁appare	-11.9082
▁tables	-11.9082
▁Handel	-11.9083
▁Endorsement	-11.9084
▁Fal	-11.9086
▁Hur	-11.9086
izr	-11.909
▁Diana	-11.9093
▁wipe	-11.9096
▁pie	-11.9103
▁Berg	-11.9111
▁Sin	-11.9111
ira	-11.9116
▁worsen	-11.9117
rank	-11.9122
▁Leftist	-11.9123
▁Paint	-11.9124
▁Dell	-11.9127
▁Hans	-11.913
jah	-11.9142
▁conf	-11.9142
▁Prof	-11.9146
▁HA	-11.915
▁Holder	-11.9151
fell	-11.9153
lept	-11.9154
▁crashe	-11.9155
racle	-11.9158
gun	-11.9159
▁jack	-11.9174
▁ensu	-11.9175
▁Crazy	-11.918
▁bitcoin	-11.918
▁circus	-11.918
▁contempt	-11.918
▁graffiti	-11.918
▁hysteria	-11.918
▁skyrocket	-11.918
▁authentic	-11.918
▁debunk	-11.918
▁strangl	-11.918
▁swallow	-11.918
▁tuition	-11.918
▁fertil	-11.918
▁Anything	-11.918
▁ExxonMobil	-11.918
▁guru	-11.9181
▁caption	-11.9181
▁snack	-11.9181
AMPA	-11.9182
eparation	-11.9183
▁1972	-11.9184
▁Civilian	-11.9185
▁Text	-11.9188
▁Memor	-11.9189
▁mortal	-11.9189
▁hallway	-11.9192
▁hunter	-11.9193
▁halting	-11.9193
▁negotiator	-11.9197
▁expire	-11.9198
pur	-11.9198
▁Clem	-11.92
RY	-11.9201
▁spate	-11.9203
▁Mourn	-11.9208
AI	-11.9211
▁gripp	-11.9213
▁Hang	-11.9216
roots	-11.9216
▁slice	-11.9216
▁prosecut	-11.9217
aternity	-11.9218
bag	-11.922
▁sprint	-11.9231
▁Serbia	-11.9232
form	-11.9235
▁Wale	-11.9243
▁Finals	-11.9245
elect	-11.9252
▁anticipat	-11.9252
▁mat	-11.9256
ympathy	-11.9261
▁Gro	-11.9263
▁Gregor	-11.9263
▁chips	-11.9264
▁del	-11.9268
▁considerable	-11.9271
▁compensat	-11.9273
inho	-11.9274
▁Arsenal	-11.9281
▁Asylum	-11.9281
▁Hathaway	-11.9281
▁companion	-11.9281
▁bystander	-11.9281
▁miracle	-11.9281
▁gaffe	-11.9281
▁outreach	-11.9281
▁Aetna	-11.9281
▁accent	-11.9281
▁Seahawk	-11.9282
:40	-11.9282
▁woes	-11.9282
▁Window	-11.9282
▁scour	-11.9282
▁Inquir	-11.9283
▁nun	-11.9283
▁inflammat	-11.9284
▁Transition	-11.9285
▁magical	-11.9286
▁Christina	-11.9289
▁mill	-11.929
onnie	-11.9291
▁bigot	-11.9291
▁transmitt	-11.9292
NY	-11.9293
▁CHIC	-11.9294
▁conven	-11.9295
▁Vanity	-11.9298
▁swarm	-11.9305
rem	-11.9307
▁couch	-11.9307
▁dear	-11.9309
▁cris	-11.9309
▁brass	-11.9311
▁underscore	-11.9326
hit	-11.9328
▁Raj	-11.9328
▁Trouble	-11.9332
lav	-11.9335
▁container	-11.9335
▁Bash	-11.9338
▁pressured	-11.9342
▁Rank	-11.9344
▁listened	-11.9349
▁Dayton	-11.935
▁Milan	-11.9355
▁woods	-11.936
▁lovers	-11.9361
hall	-11.9363
▁manipulat	-11.9365
▁Select	-11.9369
▁swear	-11.9372
▁wet	-11.9373
▁Style	-11.9374
▁Cespedes	-11.9383
▁Obvious	-11.9383
▁POTUS	-11.9383
▁Shanghai	-11.9383
▁chorus	-11.9383
▁enclave	-11.9383
▁significance	-11.9383
▁superior	-11.9383
▁tobacco	-11.9383
▁Hopkins	-11.9383
▁Rodgers	-11.9383
▁ladies	-11.9383
▁indigenous	-11.9383
▁parole	-11.9384
▁Mistake	-11.9384
▁determination	-11.9384
▁Enem	-11.9385
▁decree	-11.9385
▁Pamel	-11.9386
▁shov	-11.9387
▁Kendal	-11.9387
▁Debt	-11.9387
▁deadlock	-11.9387
▁Panel	-11.9389
▁nuts	-11.9389
▁drum	-11.939
▁Skip	-11.939
▁whipp	-11.9391
▁Barb	-11.9393
▁amend	-11.9395
▁robotic	-11.9396
ways	-11.9396
▁Cons	-11.9397
cle	-11.9403
arian	-11.9404
▁unwa	-11.9404
▁fringe	-11.9405
▁showcase	-11.9408
▁Sport	-11.941
▁resemble	-11.9416
UD	-11.9416
▁predictable	-11.9418
▁stiff	-11.942
folk	-11.9423
▁Grad	-11.9424
▁Often	-11.9428
▁navigate	-11.9433
▁sour	-11.9438
▁Prepare	-11.944
DT	-11.944
DF	-11.9441
acek	-11.9443
leaguer	-11.9443
▁Kay	-11.9445
▁tapes	-11.9453
▁Rut	-11.9453
▁Katri	-11.9454
▁Osam	-11.9457
▁bestsell	-11.9459
mmon	-11.9459
▁Crimea	-11.946
▁Traffic	-11.9461
LI	-11.9463
▁feeding	-11.9465
▁Advance	-11.9465
▁assembly	-11.9469
▁corps	-11.9472
SV	-11.9474
▁publicist	-11.9477
▁Laws	-11.9482
▁concentrat	-11.9483
▁courage	-11.9485
▁absent	-11.9486
timulus	-11.9486
▁Famous	-11.9486
▁GDP	-11.9486
▁Poverty	-11.9486
▁Snyder	-11.9486
▁cancellation	-11.9486
▁clause	-11.9486
▁handcuff	-11.9486
▁hilarious	-11.9486
▁tabloid	-11.9486
▁threshold	-11.9486
▁thumb	-11.9486
▁Conspiracy	-11.9486
▁reaffirm	-11.9486
▁rethink	-11.9486
▁horrifying	-11.9486
▁Squad	-11.9487
▁Cecil	-11.9487
▁bride	-11.9487
▁Vincent	-11.9487
▁Titan	-11.9487
▁laud	-11.9488
▁Cher	-11.9489
▁slaying	-11.9489
▁Waymo	-11.949
▁intensify	-11.949
▁Admin	-11.949
▁organic	-11.9491
▁Pastor	-11.9492
wives	-11.9496
found	-11.9503
ulation	-11.9504
▁Drag	-11.9505
▁ML	-11.9506
▁Billboard	-11.9508
▁Equal	-11.9509
▁Drone	-11.9512
▁southeastern	-11.9514
▁speculat	-11.9516
▁breathe	-11.9517
izer	-11.9517
▁Rom	-11.9518
▁Numbers	-11.9518
▁organiz	-11.9519
tress	-11.9523
▁stalk	-11.9523
▁humble	-11.9523
▁rot	-11.9523
▁torn	-11.9525
▁hatch	-11.9526
▁rings	-11.9529
▁Sense	-11.9534
apping	-11.954
boy	-11.9541
makers	-11.9541
▁Celebrit	-11.9542
▁conceal	-11.9546
▁Rams	-11.9546
▁tons	-11.9557
ister	-11.9558
aud	-11.9561
ulus	-11.9562
▁ph	-11.9566
skies	-11.9572
▁tun	-11.9573
▁authors	-11.9574
▁Went	-11.9575
▁Tenn	-11.9576
cio	-11.9577
rav	-11.9579
City	-11.9579
bor	-11.958
▁boosting	-11.9582
▁fascinat	-11.9584
▁hardline	-11.9586
▁infiltrat	-11.9588
▁Transit	-11.9589
▁Oz	-11.959
▁gruesome	-11.9591
▁harbor	-11.9591
▁horizon	-11.9591
▁songwriter	-11.9591
▁unnecessar	-11.9591
▁Terminal	-11.9591
▁Pizza	-11.9591
▁bleak	-11.9591
▁calorie	-11.9591
gui	-11.9591
▁Peru	-11.9592
▁Stern	-11.9592
▁Wilbur	-11.9593
▁Zink	-11.9593
▁Drink	-11.9593
▁Santor	-11.9594
▁Burger	-11.9594
▁meaningful	-11.9595
▁decent	-11.9595
▁townhouse	-11.9599
▁powerhouse	-11.96
tact	-11.9604
AMA	-11.9605
utter	-11.9605
▁info	-11.9606
▁Krista	-11.9607
spite	-11.9611
▁Forward	-11.9616
code	-11.9618
▁Donor	-11.962
▁professionals	-11.9628
▁Heller	-11.9629
▁waiver	-11.963
guard	-11.9634
▁reflection	-11.9635
wdy	-11.9635
▁outage	-11.9636
iding	-11.9642
▁persecut	-11.9649
▁Liz	-11.965
ctor	-11.9656
▁Kin	-11.9661
▁Giv	-11.9664
▁accelerate	-11.9664
▁protestor	-11.9665
▁Gard	-11.9671
▁Californian	-11.9674
▁Gate	-11.9678
▁Ern	-11.968
▁cats	-11.9686
▁Renz	-11.9686
▁Tre	-11.9687
▁celeb	-11.9688
▁swap	-11.9689
▁Correct	-11.9689
▁Hanks	-11.9691
▁Rosen	-11.9692
▁champ	-11.9692
▁vacan	-11.9693
▁neurosurge	-11.9696
▁Chrysler	-11.9696
▁Disrupt	-11.9696
▁Language	-11.9696
▁Massacre	-11.9696
▁Opioid	-11.9696
▁Perfect	-11.9696
▁antibiotic	-11.9696
▁dilemma	-11.9696
▁fetus	-11.9696
▁libertarian	-11.9696
▁Cruise	-11.9696
▁recreational	-11.9696
▁dignity	-11.9696
▁grateful	-11.9696
▁launder	-11.9696
▁tendenc	-11.9697
▁incarceration	-11.9697
▁Replacement	-11.9698
▁Tommy	-11.9698
▁chopp	-11.9699
gaard	-11.97
▁crumbl	-11.97
▁Rogue	-11.97
▁Bust	-11.97
antic	-11.97
▁psychologist	-11.97
▁nerd	-11.9701
▁Comca	-11.9701
▁dense	-11.9701
▁Charter	-11.9702
▁pope	-11.9702
▁Heather	-11.9704
▁Watt	-11.9704
▁biograph	-11.9706
▁Abdel	-11.9714
▁trap	-11.9715
▁disma	-11.9719
▁Hello	-11.9719
mu	-11.972
▁cave	-11.9722
▁ouster	-11.9726
▁Tr	-11.9729
▁Greatest	-11.973
▁torch	-11.9731
▁drift	-11.9734
▁Pregnan	-11.9735
season	-11.9736
▁OR	-11.9749
▁spann	-11.9751
▁Design	-11.9752
yre	-11.9757
▁naturally	-11.9759
▁Erik	-11.976
etic	-11.9762
▁export	-11.9765
60	-11.9766
holder	-11.977
witt	-11.9773
bok	-11.9775
founded	-11.9777
▁merc	-11.9784
▁capabilit	-11.9785
▁boots	-11.9785
new	-11.9789
Tune	-11.9794
▁abort	-11.9797
▁excess	-11.9801
▁extract	-11.9801
▁Pier	-11.9802
▁Czech	-11.9802
▁Inspector	-11.9802
▁innovative	-11.9802
▁patriarch	-11.9802
▁tycoon	-11.9802
▁Album	-11.9802
▁Forb	-11.9802
▁bronze	-11.9802
▁buoy	-11.9802
▁domain	-11.9802
▁Geller	-11.9802
▁Basketball	-11.9802
▁Derby	-11.9803
▁touchdown	-11.9803
litary	-11.9804
▁Birm	-11.9804
▁avert	-11.9805
▁unilateral	-11.9805
▁Controvers	-11.9808
▁Below	-11.9809
▁Denis	-11.981
▁takeaway	-11.9811
▁escalation	-11.9812
▁modifi	-11.9814
▁collaps	-11.9819
▁Vall	-11.9819
▁Blo	-11.982
▁Rail	-11.982
ACA	-11.9824
▁Bernard	-11.9825
illi	-11.9826
▁posters	-11.9826
ife	-11.9827
▁closure	-11.983
▁illustrate	-11.9835
▁practic	-11.984
▁Fighter	-11.9841
▁Clare	-11.9842
▁tumbled	-11.9845
White	-11.9852
net	-11.9853
▁disability	-11.9856
▁fade	-11.9867
▁Flat	-11.9877
▁Hay	-11.9879
traction	-11.9885
▁stroll	-11.9886
▁Grammys	-11.9887
▁Pra	-11.9892
17	-11.9898
▁horses	-11.9906
▁Shu	-11.9907
reakfast	-11.9908
▁Fitzg	-11.991
▁WaPo	-11.991
▁Concert	-11.991
▁Conversation	-11.991
▁Experience	-11.991
▁aggression	-11.991
▁cluster	-11.991
▁distort	-11.991
▁flavor	-11.991
▁gadget	-11.991
▁monologue	-11.991
▁nonpartisan	-11.991
▁sergeant	-11.991
▁Agenda	-11.991
▁Sheikh	-11.991
▁annotat	-11.991
▁Easy	-11.991
▁Gambia	-11.991
▁lieutenant	-11.991
▁incentive	-11.991
▁Hiroshi	-11.991
aggot	-11.991
▁monkey	-11.991
▁Twenty	-11.991
▁blueprint	-11.991
▁Div	-11.9912
▁examination	-11.9913
▁Treatment	-11.9913
fancy	-11.9915
▁pale	-11.9915
▁Spokes	-11.9915
▁technological	-11.9916
truck	-11.9917
▁temper	-11.992
▁Md	-11.992
▁Hanna	-11.9922
▁roommate	-11.9924
▁Longer	-11.9924
▁distinguish	-11.9927
BM	-11.9928
▁blistering	-11.9929
TF	-11.993
▁Maj	-11.9936
▁Casey	-11.9941
aid	-11.9943
▁Hire	-11.9943
▁Bark	-11.9945
ummary	-11.9946
▁Mem	-11.9951
EF	-11.9952
▁disabilit	-11.9953
▁log	-11.9955
▁Starr	-11.996
▁woo	-11.9964
▁fascist	-11.9965
▁assumption	-11.9967
▁Total	-11.9971
BA	-11.9971
▁brace	-11.9974
▁DO	-11.9979
▁fabricat	-11.9983
▁dock	-11.9985
▁Whi	-11.9991
ryl	-11.9993
under	-11.9993
▁Syed	-11.9996
▁plug	-11.9996
green	-11.9999
lat	-12.0003
▁Date	-12.0013
▁Trumpism	-12.0014
▁accessor	-12.0014
▁Opportunit	-12.0018
▁Privacy	-12.0018
▁altogether	-12.0018
▁intrigue	-12.0018
▁patience	-12.0018
▁supplement	-12.0018
▁undecided	-12.0018
▁monarch	-12.0018
▁dairy	-12.0018
▁Blind	-12.0019
▁retriev	-12.0019
▁Marijuana	-12.0019
▁Heavy	-12.0019
▁Dorsey	-12.0019
▁Important	-12.0019
▁Request	-12.0019
▁Bennett	-12.0019
▁Ring	-12.002
▁Arrival	-12.002
▁Virus	-12.002
▁preference	-12.002
▁Level	-12.002
▁1940	-12.0021
▁Torre	-12.0021
▁Accept	-12.0022
▁Jonah	-12.0022
▁reinstate	-12.0023
▁peril	-12.0026
▁Sina	-12.003
▁Guest	-12.003
▁Fuel	-12.0035
anity	-12.0035
spect	-12.0036
▁poisoning	-12.0039
▁reshape	-12.004
▁closet	-12.0043
▁Photographer	-12.0045
▁Continues	-12.0049
▁criticis	-12.0052
▁Duran	-12.0055
▁Grave	-12.0056
▁Owens	-12.0056
▁rejection	-12.0057
▁Beatle	-12.0058
▁favorable	-12.0058
hat	-12.006
▁Robertson	-12.0064
▁mic	-12.0066
▁Grab	-12.0066
▁Pey	-12.0071
far	-12.0071
▁offender	-12.0072
del	-12.0074
related	-12.0076
ima	-12.0077
rrowing	-12.0078
▁Theory	-12.0079
sour	-12.0079
▁boundar	-12.0083
▁Minn	-12.0084
▁drowned	-12.0085
▁Hadi	-12.0087
igh	-12.0087
▁Cory	-12.0091
uba	-12.0094
▁champions	-12.0095
▁surprises	-12.0095
▁Alban	-12.0104
ika	-12.0104
▁Berry	-12.0115
IR	-12.0119
▁Spy	-12.012
▁wiretap	-12.0122
▁affluen	-12.0128
disproportionate	-12.0128
oulevard	-12.0128
▁McGregor	-12.0128
▁Morocco	-12.0128
▁disavow	-12.0128
▁exploding	-12.0128
▁insurgenc	-12.0128
▁necessit	-12.0128
▁unconventional	-12.0128
▁Hastert	-12.0128
▁Pepsi	-12.0128
▁crawl	-12.0128
▁Consult	-12.0128
▁pricing	-12.0128
▁Kraft	-12.0129
▁eyebrow	-12.0129
▁Duncan	-12.0129
Crooked	-12.0129
▁Santos	-12.013
gh	-12.013
▁heap	-12.0131
▁1930	-12.0131
ead	-12.0132
▁Renew	-12.0132
▁fraction	-12.0133
▁perpetrator	-12.0133
▁Danish	-12.0133
▁isolation	-12.0134
▁cord	-12.0134
▁pav	-12.0135
ander	-12.0137
▁batteries	-12.0139
stille	-12.014
▁cute	-12.014
wald	-12.0144
▁wallet	-12.0144
▁decrie	-12.0147
ebec	-12.0147
▁Remove	-12.015
▁solutions	-12.015
▁justified	-12.0151
▁programme	-12.0158
▁grappl	-12.016
▁replica	-12.0161
▁buyout	-12.0162
cott	-12.0167
▁Weak	-12.0171
CR	-12.0176
namo	-12.0177
▁helpful	-12.018
sex	-12.018
▁lover	-12.0182
▁upward	-12.0184
▁Arch	-12.0192
hic	-12.0196
▁solv	-12.02
▁resembl	-12.0202
▁provok	-12.0202
▁beats	-12.0204
roft	-12.0205
▁cigarettes	-12.0217
▁insulting	-12.0217
▁Jamaica	-12.0222
▁deserved	-12.0224
▁Kara	-12.0227
mates	-12.0232
uila	-12.0233
▁Wil	-12.0234
ilateral	-12.0236
▁dressing	-12.0239
▁Erdo	-12.0239
▁Schneider	-12.0239
▁Apollo	-12.0239
▁Bitcoin	-12.0239
▁Buchanan	-12.0239
▁Coffee	-12.0239
▁Explosion	-12.0239
▁Henderson	-12.0239
▁Resource	-12.0239
▁ambulance	-12.0239
▁kilometer	-12.0239
▁reconsider	-12.0239
▁apprehend	-12.0239
▁premature	-12.0239
▁roast	-12.0239
▁AIDS	-12.0239
▁alternate	-12.0239
▁entities	-12.0239
▁loophole	-12.0239
▁Blank	-12.024
▁outsourc	-12.024
▁Interstate	-12.024
▁flourish	-12.024
▁Cannon	-12.024
▁litigation	-12.024
▁Respect	-12.024
▁Rapid	-12.024
▁Lamont	-12.0241
▁peninsula	-12.0242
atitude	-12.0242
▁breakdown	-12.0242
▁imagination	-12.0243
eau	-12.0244
▁Blumen	-12.0244
▁Kas	-12.0245
▁digest	-12.0246
▁Ran	-12.0253
▁dealers	-12.0254
▁thriv	-12.0255
▁billboard	-12.026
▁Wearing	-12.026
▁wad	-12.0267
▁cope	-12.0268
▁Doc	-12.0272
▁cage	-12.0274
▁Commander	-12.0277
▁finalized	-12.0277
▁regulate	-12.0279
▁toast	-12.028
▁Stevens	-12.0284
▁Wor	-12.0284
▁Staffer	-12.0286
▁brains	-12.0287
▁assignment	-12.029
▁Hacked	-12.0297
▁Pam	-12.0306
▁tumble	-12.0306
cid	-12.0309
▁RE	-12.0312
▁Warm	-12.0315
▁Math	-12.0317
tick	-12.0319
▁translate	-12.0321
▁bloodie	-12.0321
24	-12.0323
kill	-12.0324
▁blown	-12.0327
▁glad	-12.0329
AB	-12.0332
▁Ky	-12.0336
▁char	-12.0345
hart	-12.0346
▁Plann	-12.0346
▁tube	-12.0348
▁jam	-12.0351
▁Fifty	-12.0352
▁Corporate	-12.0352
▁LiveWire	-12.0352
▁Observat	-12.0352
▁Recession	-12.0352
▁Ticket	-12.0352
▁unofficial	-12.0352
▁McAd	-12.0352
▁martial	-12.0352
▁consequential	-12.0352
unshine	-12.0352
▁Cambridge	-12.0352
▁Persian	-12.0352
▁Okay	-12.0352
▁Kurd	-12.0353
▁bury	-12.0353
▁Grimm	-12.0354
▁gymnastic	-12.0354
▁Gerald	-12.0354
▁grid	-12.0354
▁deposition	-12.0355
▁sensor	-12.0355
▁Highlight	-12.0355
▁reclaim	-12.0355
▁fray	-12.0355
▁Harrie	-12.0356
▁capitalist	-12.0356
▁feta	-12.0357
▁transformation	-12.0358
▁panels	-12.0359
MORE	-12.036
▁Khalid	-12.0364
▁Tele	-12.0369
▁prom	-12.037
▁Tension	-12.0371
▁Kenn	-12.0373
▁Lex	-12.038
ELS	-12.038
▁puzzl	-12.038
▁treasur	-12.0381
▁Corn	-12.0384
▁Fresn	-12.0385
▁Cour	-12.0385
chado	-12.0385
▁Fur	-12.0385
▁Kerr	-12.0389
▁Wide	-12.0392
▁solicit	-12.0392
▁Bulls	-12.0396
▁eater	-12.0398
▁logg	-12.0401
unny	-12.0404
▁Bomber	-12.0408
▁prostitute	-12.0409
▁Dam	-12.0414
▁municipal	-12.0417
▁Reno	-12.0418
▁surf	-12.0419
▁Rat	-12.0419
▁scan	-12.0423
▁mum	-12.0425
osh	-12.0428
▁rancher	-12.0435
▁junk	-12.0437
▁jaw	-12.0439
▁withhold	-12.0439
▁spreads	-12.0446
▁Ancient	-12.0449
wash	-12.045
▁bounc	-12.0451
▁hated	-12.0451
▁wishe	-12.0454
▁Villa	-12.046
▁React	-12.046
▁hik	-12.046
▁legitima	-12.0463
EY	-12.0465
▁Hezbollah	-12.0465
▁Legislature	-12.0465
▁Province	-12.0465
▁Statistics	-12.0465
▁bogus	-12.0465
▁delicate	-12.0465
▁gorgeous	-12.0465
▁restructuring	-12.0465
▁tirade	-12.0465
▁Figure	-12.0465
▁advising	-12.0465
▁Stephanopoulo	-12.0465
▁faint	-12.0465
▁minimal	-12.0465
▁glove	-12.0466
▁roam	-12.0466
▁Stefan	-12.0466
hai	-12.0466
▁salad	-12.0467
▁bucket	-12.0467
dolph	-12.0468
▁Oro	-12.0468
▁extinction	-12.0468
▁tsunami	-12.0469
▁pleading	-12.047
▁litter	-12.047
▁Jordanian	-12.047
view	-12.047
▁unload	-12.0472
▁Vet	-12.0473
▁Steel	-12.0474
therapy	-12.0479
▁Allah	-12.048
▁clinical	-12.0481
▁renewable	-12.0481
▁jab	-12.0483
▁outlaw	-12.0486
▁Bright	-12.0487
▁accounting	-12.0487
▁Signal	-12.049
▁Combat	-12.0493
▁Higher	-12.0502
▁Lam	-12.0505
iq	-12.0511
▁Escape	-12.0514
▁Cool	-12.0517
▁Mona	-12.052
▁backup	-12.0527
▁reunit	-12.0527
▁wrestler	-12.0528
▁Led	-12.0531
▁equit	-12.0531
▁gambl	-12.0532
90	-12.0539
▁Cable	-12.0539
clear	-12.0543
▁Flore	-12.0543
▁enhance	-12.0552
▁Sandr	-12.0555
agne	-12.0557
▁Tal	-12.0563
▁prince	-12.0563
▁Cheer	-12.0568
▁Retire	-12.0568
▁Spirit	-12.057
▁beache	-12.057
▁Moms	-12.0576
▁metaphor	-12.058
▁Touch	-12.058
▁Capsule	-12.058
▁Claire	-12.058
▁Condemn	-12.058
▁Embrace	-12.058
▁Enquirer	-12.058
▁Orthodox	-12.058
▁Virtual	-12.058
▁Zimbabwe	-12.058
▁elusive	-12.058
▁revisit	-12.058
▁unbelievabl	-12.058
▁unsuccessful	-12.058
▁Bentley	-12.058
▁scoop	-12.0581
▁peddl	-12.0581
▁Mahmo	-12.0581
▁intensive	-12.0581
▁enlist	-12.0582
Lago	-12.0582
▁Malle	-12.0583
▁Rival	-12.0583
▁dictatorship	-12.0583
▁Drama	-12.0584
▁spiritual	-12.0584
▁Ignore	-12.0585
▁Vince	-12.0585
▁impli	-12.0585
▁etc	-12.0586
▁ignorance	-12.0587
▁Constan	-12.0588
▁fianc	-12.0589
▁vary	-12.0589
▁bidder	-12.0591
▁Mook	-12.0592
▁fend	-12.0592
▁Wow	-12.0593
PR	-12.0593
Clinton	-12.0595
▁Illustrat	-12.0599
▁troubles	-12.0601
▁1,000	-12.0605
▁perk	-12.0607
▁psycholog	-12.0613
▁indexe	-12.0616
▁tortur	-12.0616
mula	-12.0619
▁Hour	-12.0626
▁composer	-12.0628
▁Rey	-12.0631
▁nav	-12.0632
OP	-12.0633
▁tempt	-12.0635
▁competitor	-12.0636
▁Statue	-12.064
▁Mau	-12.0645
▁Nin	-12.0645
▁Pack	-12.0647
▁Nest	-12.0647
▁Ride	-12.0653
▁Sister	-12.0655
▁Cards	-12.0656
pack	-12.0658
hia	-12.0662
neath	-12.0663
▁moms	-12.0664
▁mir	-12.0664
▁Cell	-12.0664
▁edg	-12.0668
▁discours	-12.0675
icy	-12.0679
▁advertise	-12.0684
ontroversial	-12.0689
▁instrument	-12.0692
tale	-12.0696
▁Bahamas	-12.0697
▁Episcopal	-12.0697
▁compris	-12.0697
▁erratic	-12.0697
▁inaccurate	-12.0697
▁straightforward	-12.0697
▁turnaround	-12.0697
▁awesome	-12.0697
▁collud	-12.0697
▁polite	-12.0697
▁Eugen	-12.0697
▁Telegraph	-12.0697
▁bisexual	-12.0697
▁uninsur	-12.0697
▁sculpture	-12.0697
RUSS	-12.0697
▁Rousey	-12.0697
▁Spotlight	-12.0697
▁envision	-12.0697
▁Repeat	-12.0697
▁Seat	-12.0698
▁Corruption	-12.0698
▁integration	-12.0698
▁purple	-12.0698
▁Garner	-12.0699
▁pillar	-12.0699
▁Evil	-12.0699
▁playbook	-12.0699
▁Darr	-12.0699
▁loving	-12.07
▁exploration	-12.0701
▁faithful	-12.0703
itude	-12.0703
▁Lemon	-12.0704
▁folk	-12.0705
▁Releas	-12.0707
▁Jihadi	-12.0708
respondents	-12.0708
▁Peak	-12.0709
:50	-12.0709
▁Worldwide	-12.071
CB	-12.0713
▁Reveal	-12.0723
▁Shara	-12.0723
▁mud	-12.0724
settling	-12.0724
urg	-12.0726
▁Tourist	-12.0726
una	-12.0728
▁Blair	-12.0728
rating	-12.0731
kins	-12.0733
▁neo	-12.0736
▁Dale	-12.074
▁185	-12.0742
lb	-12.0745
kov	-12.0746
▁supervis	-12.0749
▁upside	-12.076
▁McG	-12.0761
▁underscor	-12.0762
▁Serious	-12.0766
ude	-12.0776
▁frightening	-12.0777
▁Alp	-12.0778
App	-12.0779
▁Settle	-12.0779
▁golfer	-12.078
▁licens	-12.0783
▁shirts	-12.0786
▁Myth	-12.0786
▁Cater	-12.079
▁intel	-12.0796
▁Fires	-12.0796
phis	-12.0798
▁Sheld	-12.0804
ague	-12.0806
cky	-12.0811
▁Fitzpatrick	-12.0814
▁Strategy	-12.0814
▁dystopia	-12.0814
▁implant	-12.0814
▁injustice	-12.0814
▁ruthless	-12.0814
▁unthinkabl	-12.0814
▁appetite	-12.0814
▁McIlr	-12.0814
▁identification	-12.0814
▁invisible	-12.0814
▁Barclay	-12.0814
▁Dev	-12.0814
uinnip	-12.0814
▁Wealth	-12.0814
▁Clinic	-12.0815
▁ravag	-12.0815
▁Irving	-12.0815
▁Dominican	-12.0816
▁Putting	-12.0816
IT	-12.0816
▁Toshi	-12.0817
▁lightning	-12.0817
mmer	-12.0817
▁Schmidt	-12.0818
▁systematic	-12.0818
▁trainer	-12.0818
▁emotion	-12.0818
▁Ruling	-12.0819
▁dread	-12.0819
▁Raul	-12.0819
▁misogyn	-12.0819
▁disgust	-12.0821
▁Darrell	-12.0821
▁Steal	-12.0822
▁operators	-12.0823
▁Tap	-12.0824
▁Brave	-12.0828
▁HS	-12.0832
▁sack	-12.0833
▁prosecute	-12.0833
▁panick	-12.0835
tah	-12.0835
▁Agenc	-12.0836
▁Flee	-12.0838
▁backward	-12.0842
▁slap	-12.0843
▁spat	-12.0843
▁servant	-12.0847
imony	-12.0852
▁Sec	-12.0852
▁fabric	-12.0853
▁Alli	-12.0857
iki	-12.0861
▁curs	-12.0863
▁illustrat	-12.087
▁Gilmo	-12.0875
▁cav	-12.0875
▁Lib	-12.0877
▁captive	-12.0879
▁Dance	-12.0881
▁170	-12.0881
▁Cry	-12.0883
oval	-12.0884
▁Helen	-12.0885
motive	-12.0887
group	-12.0887
▁Sadiq	-12.0888
heart	-12.0896
▁stab	-12.0896
pool	-12.09
▁DA	-12.0901
▁preach	-12.0901
▁Spie	-12.0908
▁rear	-12.0911
hav	-12.0914
▁Ethiopia	-12.0916
▁Northwest	-12.0919
▁populat	-12.0919
einstein	-12.0932
▁Direct	-12.0933
▁Inaugura	-12.0933
▁Pharma	-12.0933
▁Depression	-12.0933
▁Pharmaceutical	-12.0933
▁prolific	-12.0933
▁strategies	-12.0933
▁submarine	-12.0933
▁vigorous	-12.0933
▁converg	-12.0933
▁idiot	-12.0933
▁Complete	-12.0933
▁delicious	-12.0933
▁Mainstream	-12.0933
▁altercation	-12.0934
▁unsubstantiated	-12.0934
▁subdu	-12.0934
▁vault	-12.0934
▁hazard	-12.0934
▁Sophi	-12.0935
▁helmet	-12.0935
▁Task	-12.0935
▁Arpa	-12.0935
▁enrollment	-12.0936
▁Reef	-12.0936
▁clever	-12.0937
▁Walsh	-12.0937
▁peek	-12.0937
▁LP	-12.0937
▁Vander	-12.0938
▁calculated	-12.0944
▁reef	-12.095
▁Table	-12.0952
▁PI	-12.0952
▁Rhodes	-12.0952
▁scorch	-12.0953
PD	-12.0953
▁adoption	-12.0955
▁Ref	-12.0956
vich	-12.0961
▁alb	-12.0963
▁Slate	-12.0965
udi	-12.0973
▁dishe	-12.0981
▁Cloud	-12.0986
▁trafficker	-12.0987
olu	-12.0989
STER	-12.0992
▁fad	-12.0998
▁Rocky	-12.0998
▁punk	-12.0999
free	-12.1
▁forcibl	-12.1001
▁recuse	-12.1002
▁Gall	-12.1005
mur	-12.1006
,	-12.1018
▁Shop	-12.1026
▁reinforce	-12.1035
▁boxer	-12.1036
▁Rest	-12.1043
▁pollut	-12.1046
▁masse	-12.1047
▁Clint	-12.1048
▁sneaker	-12.1048
nthetic	-12.1051
▁narrat	-12.1053
athedral	-12.1054
▁Athlete	-12.1054
▁Hondura	-12.1054
▁Horror	-12.1054
▁Paralympic	-12.1054
▁Privilege	-12.1054
▁Solution	-12.1054
▁Wound	-12.1054
▁falter	-12.1054
▁jolt	-12.1054
▁paralyzed	-12.1054
▁procedural	-12.1054
▁satisfy	-12.1054
▁substantive	-12.1054
▁Extreme	-12.1054
▁cheek	-12.1054
▁harvest	-12.1054
▁Certain	-12.1054
▁foil	-12.1054
▁secular	-12.1054
▁Rubin	-12.1055
▁Industrial	-12.1055
▁uneas	-12.1055
▁financier	-12.1055
dia	-12.1055
▁glamor	-12.1055
▁induc	-12.1055
▁polar	-12.1055
▁craze	-12.1055
▁Ridge	-12.1056
FT	-12.1056
▁dogged	-12.1056
▁yank	-12.1056
▁raft	-12.1057
▁Confirmation	-12.1058
▁metric	-12.1059
▁beast	-12.106
▁Caption	-12.1061
▁amass	-12.1061
▁academ	-12.1061
▁Tennis	-12.1063
▁cub	-12.1064
▁dipp	-12.1065
▁Tunisian	-12.1065
▁measur	-12.1065
▁Vienn	-12.1069
▁lurk	-12.1069
▁Pool	-12.1072
▁Val	-12.1073
pass	-12.1073
▁daylight	-12.1075
▁observe	-12.1075
▁enabl	-12.1077
enchant	-12.1089
▁classmates	-12.1089
hale	-12.109
▁disgrace	-12.109
void	-12.1095
▁Rosa	-12.1096
▁Career	-12.1097
▁juice	-12.1098
▁pinn	-12.111
▁Nut	-12.1113
ami	-12.1113
▁rope	-12.1116
lli	-12.1121
▁Prove	-12.1124
tag	-12.1127
▁badge	-12.1127
▁Lor	-12.1128
char	-12.1132
shift	-12.1133
▁cliff	-12.1133
▁NO	-12.1134
▁Dub	-12.1142
ME	-12.1147
▁Anger	-12.1151
emost	-12.1158
▁sanction	-12.1159
▁micro	-12.116
TER	-12.1161
▁Nast	-12.1161
▁Lit	-12.1166
▁Fate	-12.1167
▁verifi	-12.1168
▁farms	-12.1168
PA	-12.1169
▁Gh	-12.1171
NO	-12.1172
tine	-12.1173
▁horrifi	-12.1174
▁Kuwait	-12.1176
▁Podcast	-12.1176
▁Specific	-12.1176
▁confiscat	-12.1176
▁decapitat	-12.1176
▁tweak	-12.1176
▁Wrestl	-12.1176
▁Jungle	-12.1176
▁Federer	-12.1176
▁parody	-12.1176
▁Infant	-12.1176
▁Flower	-12.1176
▁Beginning	-12.1176
▁taco	-12.1176
▁groom	-12.1176
▁Pedro	-12.1176
▁Confront	-12.1177
▁Kristen	-12.1177
▁grievance	-12.1178
▁Loom	-12.1178
▁temple	-12.1178
▁scarce	-12.1178
▁laborator	-12.1178
▁epi	-12.1179
▁1975	-12.118
▁Haven	-12.118
▁Steelers	-12.118
uo	-12.1181
▁ego	-12.1182
▁consume	-12.1185
▁Arling	-12.1186
▁dealer	-12.1186
▁Haitian	-12.1189
▁ironic	-12.1189
▁Shann	-12.1191
▁shipment	-12.1191
▁outpost	-12.1192
▁Compar	-12.1193
▁dug	-12.1193
▁Dash	-12.1197
▁cautioned	-12.1199
▁representation	-12.1199
▁favors	-12.1201
▁believ	-12.1201
▁dean	-12.1201
▁Banner	-12.1203
bie	-12.1203
rose	-12.1205
▁imagery	-12.1208
inity	-12.1209
▁Matte	-12.1214
▁interven	-12.1217
▁furor	-12.1217
cia	-12.1237
▁novels	-12.1239
▁Soft	-12.1241
▁Sisters	-12.1241
▁Pal	-12.1246
▁Usa	-12.1257
tty	-12.1261
▁diner	-12.1261
▁que	-12.1263
▁acid	-12.1267
▁boarding	-12.1269
eering	-12.1279
▁Gave	-12.1279
▁Halt	-12.128
▁originat	-12.1281
beat	-12.1282
cceptable	-12.1284
month	-12.1285
dorf	-12.129
▁differ	-12.1291
▁Tool	-12.1292
▁stori	-12.1295
▁vacat	-12.1295
▁Solo	-12.1295
arta	-12.1298
▁Domestic	-12.1299
▁Earthquake	-12.1299
▁arraign	-12.1299
▁dissident	-12.1299
▁dubious	-12.1299
▁Lockheed	-12.1299
▁landlord	-12.1299
▁stubborn	-12.1299
▁embedd	-12.1299
▁embroil	-12.1299
▁lugg	-12.1299
▁obsolete	-12.1299
▁unearth	-12.1299
▁disguis	-12.1299
▁neat	-12.1299
▁charisma	-12.13
▁Straight	-12.13
YO	-12.13
▁architecture	-12.13
▁Ariz	-12.13
▁Philippe	-12.13
▁Lift	-12.13
▁Stake	-12.1301
▁Present	-12.1301
▁fuck	-12.1301
proxy	-12.1302
▁inclusive	-12.1303
▁herald	-12.1307
▁coma	-12.1308
▁confession	-12.1309
▁tuck	-12.131
▁upbeat	-12.1312
▁portrayal	-12.1314
▁shall	-12.1317
▁terribly	-12.1321
▁Wilder	-12.1321
urk	-12.1323
shaw	-12.1324
▁kneel	-12.1328
ayne	-12.1346
▁decrease	-12.1348
empt	-12.135
▁Trumpcare	-12.1352
▁para	-12.1353
▁Rust	-12.1355
▁Scor	-12.1355
▁institutional	-12.1357
▁perch	-12.1358
▁hug	-12.1361
uli	-12.1362
arrett	-12.1363
▁apple	-12.1372
▁hills	-12.1372
▁TO	-12.1373
▁Plot	-12.1388
match	-12.1389
▁Meme	-12.1389
▁Divide	-12.139
boat	-12.1391
▁Suf	-12.1397
▁Arms	-12.14
▁Chad	-12.1403
▁iO	-12.1406
▁Puts	-12.1407
▁Dodge	-12.1408
▁reserv	-12.1408
illo	-12.1412
ception	-12.1418
▁trait	-12.1419
▁candid	-12.1423
hoot	-12.1424
▁Affleck	-12.1424
▁Guatemala	-12.1424
▁Mirror	-12.1424
▁amateur	-12.1424
▁assurance	-12.1424
▁bluster	-12.1424
▁corridor	-12.1424
▁dwarf	-12.1424
▁frustrating	-12.1424
▁improbabl	-12.1424
▁jungle	-12.1424
▁refrain	-12.1424
▁Stream	-12.1424
▁immense	-12.1424
▁ominous	-12.1424
▁spawn	-12.1424
▁collar	-12.1424
▁eagle	-12.1424
▁cultivat	-12.1424
▁gallon	-12.1424
▁mobiliz	-12.1424
▁Impact	-12.1424
▁resettlement	-12.1425
▁Brutal	-12.1425
▁kingpin	-12.1425
▁Tiff	-12.1425
▁Baltic	-12.1425
▁Phyl	-12.1425
▁prosperity	-12.1426
▁aspiration	-12.1426
▁Barrier	-12.1427
▁sedan	-12.143
▁realistic	-12.143
▁Jump	-12.1431
▁Match	-12.1431
▁Chicken	-12.1433
▁exile	-12.1434
▁revok	-12.1435
▁Glen	-12.1435
▁Beau	-12.1436
▁travell	-12.1439
▁slate	-12.1441
▁ensur	-12.1444
grade	-12.1445
▁protective	-12.1446
▁neuro	-12.1446
▁caps	-12.1454
▁bypass	-12.1457
▁Yemeni	-12.1458
▁whistle	-12.1461
▁GOPer	-12.1465
▁Hair	-12.147
▁Glas	-12.1473
▁drunken	-12.1476
▁Tha	-12.1479
▁payout	-12.1487
▁CU	-12.1488
▁squeeze	-12.1488
AKE	-12.1489
agh	-12.1494
▁curat	-12.1494
▁Neill	-12.1495
▁moderat	-12.1496
▁Pine	-12.1497
▁rides	-12.1498
▁Finn	-12.1501
▁bore	-12.1501
tem	-12.1506
▁recogniz	-12.1507
▁Rik	-12.1509
storm	-12.151
▁Vir	-12.151
News	-12.151
▁lur	-12.152
▁Youth	-12.1531
▁dim	-12.1532
FF	-12.1537
nit	-12.1537
▁caller	-12.154
master	-12.1543
▁unifi	-12.1544
▁Bry	-12.1545
▁vigil	-12.155
▁chemist	-12.1551
▁Militia	-12.1551
▁Seinfeld	-12.1551
▁avalanche	-12.1551
▁flesh	-12.1551
▁magnate	-12.1551
▁nephew	-12.1551
▁orientation	-12.1551
▁prejudice	-12.1551
▁ubiquitous	-12.1551
▁Approach	-12.1551
▁Fellow	-12.1551
▁accumulat	-12.1551
▁penetrat	-12.1551
▁Dhaka	-12.1551
▁piano	-12.1551
▁Serial	-12.1551
▁Ghana	-12.1551
▁Kendrick	-12.1551
▁framework	-12.1551
▁glorious	-12.1551
▁Sergi	-12.1552
▁Kurt	-12.1552
▁Vision	-12.1552
vasive	-12.1552
aylor	-12.1553
▁Harambe	-12.1553
▁glu	-12.1553
▁unchang	-12.1553
▁Savage	-12.1553
▁embarrassment	-12.1554
▁Decline	-12.1555
▁erase	-12.1555
▁Speed	-12.1555
▁legalize	-12.1555
AF	-12.1555
▁cried	-12.1556
▁spar	-12.1556
▁Fri	-12.1558
loyd	-12.1558
▁Decide	-12.1559
▁derid	-12.1559
▁plight	-12.1561
▁booth	-12.1562
▁237	-12.1564
▁Cav	-12.1567
▁Gren	-12.1571
matic	-12.1577
▁balanc	-12.1579
iya	-12.1579
▁Jab	-12.158
▁borough	-12.1581
▁Nak	-12.1582
▁charities	-12.1591
check	-12.1597
ranium	-12.1603
cock	-12.1608
▁Else	-12.1609
▁KA	-12.1612
▁Eyes	-12.1613
▁shooters	-12.1619
▁McC	-12.1619
rote	-12.162
▁dare	-12.1624
▁Sale	-12.1626
▁Jun	-12.1626
▁gal	-12.1628
▁attraction	-12.1631
cop	-12.1633
▁Prisoner	-12.1635
ither	-12.1635
onia	-12.1636
▁Neu	-12.1636
▁NOT	-12.1637
World	-12.1642
bird	-12.1644
▁puzzle	-12.1647
▁voic	-12.165
bur	-12.1652
anne	-12.1653
▁preced	-12.1657
▁Driving	-12.166
▁Colon	-12.1664
▁Steele	-12.1669
▁whip	-12.167
▁Awaken	-12.1679
▁Character	-12.1679
▁Punish	-12.1679
▁Zakaria	-12.1679
▁unresponsive	-12.1679
▁leather	-12.1679
▁linebacker	-12.1679
▁rebellion	-12.1679
▁Cyru	-12.1679
▁liberti	-12.1679
▁angri	-12.1679
▁destructive	-12.168
▁Scrip	-12.168
▁Moss	-12.168
▁volcano	-12.168
▁rooftop	-12.168
▁Dirt	-12.168
▁Legendary	-12.1681
▁Danger	-12.1681
▁guitarist	-12.1682
▁Jorge	-12.1682
▁Recover	-12.1682
▁Trent	-12.1684
▁electors	-12.1685
▁FIF	-12.1685
▁Odd	-12.1687
▁wasted	-12.1687
▁Barnes	-12.1689
avoc	-12.169
▁Yard	-12.169
▁flexib	-12.169
▁Wang	-12.1691
borne	-12.1692
▁Wend	-12.1693
▁consult	-12.1693
aire	-12.1696
▁outcr	-12.1696
▁Plain	-12.1698
▁comics	-12.1699
erdue	-12.17
▁wrongful	-12.1701
▁Wedding	-12.1703
▁reache	-12.1703
▁carmaker	-12.1704
▁Chip	-12.1708
▁Stopp	-12.1709
▁salute	-12.171
▁maid	-12.171
▁Grim	-12.1713
▁fisherm	-12.1715
▁Colo	-12.1719
▁grad	-12.172
▁Gain	-12.172
▁recit	-12.1721
▁underage	-12.1722
▁miserabl	-12.1723
▁tele	-12.1726
▁sober	-12.1726
▁Pill	-12.1731
▁fixing	-12.1733
▁Cab	-12.1733
▁congress	-12.1733
▁formation	-12.1734
▁vandaliz	-12.1734
▁fractur	-12.1735
▁Pig	-12.1735
ood	-12.1735
▁Bag	-12.1735
rophy	-12.174
▁Includ	-12.1742
▁Shah	-12.1742
▁carve	-12.1745
enko	-12.1748
tech	-12.1748
▁commemorate	-12.1748
▁slips	-12.1751
▁Sit	-12.1755
tep	-12.176
▁Riz	-12.1765
▁thrilling	-12.177
nders	-12.1772
world	-12.1773
lton	-12.1775
▁toppl	-12.1777
niversal	-12.1779
erence	-12.1781
▁graduated	-12.1781
▁minors	-12.1782
▁Rating	-12.1783
▁Rage	-12.1786
▁brows	-12.1787
▁Panther	-12.1787
wise	-12.1788
▁Doom	-12.1793
▁Sala	-12.1797
atz	-12.1799
▁pok	-12.1801
▁brutalit	-12.1802
▁AN	-12.1802
▁depriv	-12.1809
▁Caracas	-12.1809
▁Cemeter	-12.1809
▁Frederick	-12.1809
▁Funeral	-12.1809
▁Leicester	-12.1809
▁Luxury	-12.1809
▁Newspaper	-12.1809
▁Sweep	-12.1809
▁adequate	-12.1809
▁cockpit	-12.1809
▁conquer	-12.1809
▁disdain	-12.1809
▁generic	-12.1809
▁intriguing	-12.1809
▁vindicat	-12.1809
▁wheelchair	-12.1809
▁Hindu	-12.1809
▁churn	-12.1809
▁reunion	-12.1809
▁wrist	-12.1809
▁Shield	-12.1809
▁jackpot	-12.1809
▁Pilot	-12.1809
▁heaven	-12.1809
▁Chatta	-12.1809
▁Genius	-12.181
▁debacle	-12.181
▁DePaul	-12.181
▁tongue	-12.181
▁Split	-12.181
▁curl	-12.181
▁potent	-12.181
▁patriotism	-12.1811
▁patriotic	-12.1811
▁Murderer	-12.1812
▁Continue	-12.1813
▁heckl	-12.1813
▁Execution	-12.1813
▁Psycho	-12.1815
▁luna	-12.1817
▁sticker	-12.1818
▁newsroom	-12.1819
▁Thor	-12.182
gon	-12.182
▁Helping	-12.182
▁hateful	-12.1825
▁experimental	-12.1826
▁informal	-12.1827
▁Erick	-12.1828
▁blockade	-12.183
▁inaugurat	-12.1831
▁Shore	-12.1831
▁hum	-12.1832
▁Logan	-12.1832
▁Webb	-12.1832
hard	-12.1832
▁Coh	-12.1836
▁spoil	-12.1837
▁punishing	-12.1838
▁Guild	-12.1839
ooga	-12.184
BER	-12.1841
▁Wine	-12.1844
▁rivers	-12.1847
eera	-12.1858
achi	-12.1862
▁commemorat	-12.1864
ART	-12.1865
▁gamble	-12.1865
arin	-12.1867
-1	-12.1867
▁Hid	-12.1869
▁virtue	-12.1871
▁Mill	-12.1872
▁prostitut	-12.1873
▁Moti	-12.1876
▁tribes	-12.1878
▁productive	-12.1882
▁coordinate	-12.1888
▁Held	-12.189
▁Discover	-12.1892
▁Audi	-12.1893
▁scal	-12.1898
▁Guards	-12.1902
▁Yankee	-12.1913
ime	-12.1915
orial	-12.1917
ej	-12.192
▁Buckle	-12.1928
▁gutt	-12.1928
▁forming	-12.1931
▁exempt	-12.1932
are	-12.1934
tified	-12.1936
▁sigh	-12.1937
▁deposit	-12.1937
▁psychiatr	-12.1938
▁Cont	-12.1938
▁Firearm	-12.194
▁Permanent	-12.194
▁curtail	-12.194
▁embodi	-12.194
▁identical	-12.194
▁illicit	-12.194
▁proponent	-12.194
▁suitcase	-12.194
▁vivid	-12.194
▁festivit	-12.194
▁Caitlyn	-12.194
▁vendor	-12.1941
▁poem	-12.1941
▁Requir	-12.1941
▁quirk	-12.1941
▁Snoop	-12.1941
▁Methodist	-12.1941
▁Blake	-12.1941
▁loath	-12.1942
▁Exact	-12.1942
▁surgical	-12.1942
▁mentor	-12.1942
▁groundbreak	-12.1942
▁Monster	-12.1942
▁Hood	-12.1943
▁characteristic	-12.1943
▁Index	-12.1943
FI	-12.1945
▁Coup	-12.1947
▁Criticism	-12.1948
▁Largest	-12.1948
▁Ayot	-12.195
▁Rocket	-12.195
▁divest	-12.1955
▁Feeling	-12.1957
▁Saving	-12.196
▁supervisor	-12.1962
▁motives	-12.1962
▁dodg	-12.1962
▁Rough	-12.1962
▁baseless	-12.1964
▁leverage	-12.1966
▁Kiss	-12.1967
▁Guil	-12.1969
flame	-12.1969
▁Wilm	-12.1971
essa	-12.1974
▁thoughtful	-12.1975
uthorization	-12.1975
▁slashing	-12.1977
▁Customer	-12.1977
▁influenc	-12.1977
▁Bran	-12.1978
▁DEL	-12.1988
▁McCo	-12.1988
sses	-12.1988
▁Mull	-12.1988
▁CAIR	-12.1989
▁Mica	-12.1991
▁pharmac	-12.1992
▁Dill	-12.1993
▁cleaning	-12.1996
▁Fare	-12.1998
DAD	-12.2001
▁curve	-12.2003
otto	-12.2007
▁reap	-12.2014
▁Maggi	-12.2017
▁UL	-12.2021
▁disapprov	-12.2026
▁Anton	-12.2038
▁broaden	-12.2041
SI	-12.2042
qualifi	-12.2044
lv	-12.2052
game	-12.2055
▁heist	-12.2058
▁Barc	-12.2061
▁stun	-12.2064
skill	-12.2069
▁Philly	-12.207
▁Weigh	-12.2073
▁Beautiful	-12.2074
▁Moroccan	-12.2074
▁absorb	-12.2074
▁bureaucrac	-12.2074
▁cereal	-12.2074
▁civic	-12.2074
▁concussion	-12.2074
▁mammal	-12.2074
▁railroad	-12.2074
▁whisper	-12.2074
▁Kidnapp	-12.2074
▁Eleven	-12.2074
▁Process	-12.2074
▁redefin	-12.2074
▁Silva	-12.2074
▁bracket	-12.2074
▁disregard	-12.2074
▁fingerprint	-12.2074
▁granddaughter	-12.2074
▁straw	-12.2074
▁preschool	-12.2074
▁tumor	-12.2074
▁midterm	-12.2074
▁elegant	-12.2074
▁snowstorm	-12.2074
▁Pandor	-12.2074
▁Moderate	-12.2074
▁Liberti	-12.2074
▁espi	-12.2075
▁brash	-12.2075
▁textbook	-12.2075
▁Tactic	-12.2075
▁Kurtz	-12.2075
▁kidney	-12.2076
▁Bailey	-12.2076
▁prolong	-12.2076
▁Fowl	-12.2077
▁Underground	-12.2077
▁poetry	-12.2077
▁Rebec	-12.2078
▁Hatch	-12.2078
▁refund	-12.2078
▁Catherine	-12.2078
▁Comm	-12.2079
▁Compare	-12.2079
▁murk	-12.2079
▁Hulu	-12.2079
▁Ivor	-12.2081
▁Winston	-12.2081
▁distinction	-12.2081
rail	-12.2083
▁Reaction	-12.2084
▁Hebd	-12.2085
850	-12.2085
▁Autopilot	-12.2086
▁Bru	-12.2087
▁doom	-12.2087
▁Regulator	-12.209
▁heroic	-12.209
▁insert	-12.209
▁Cent	-12.2092
▁Novel	-12.2096
▁Char	-12.2097
▁sinking	-12.2097
▁wander	-12.2098
▁Pitch	-12.2098
▁Weight	-12.2101
▁Boost	-12.2102
▁organize	-12.2103
▁Phillips	-12.2105
▁commun	-12.2105
▁trolling	-12.2105
▁Levi	-12.2106
▁spik	-12.2109
▁Cheat	-12.211
▁branche	-12.211
▁Kam	-12.211
▁Tape	-12.2111
▁institute	-12.2112
▁stamps	-12.2113
ttering	-12.2114
▁Curti	-12.2116
▁equipp	-12.212
▁stumble	-12.2121
▁Seriously	-12.2128
▁Bert	-12.213
▁shade	-12.2142
▁rhetorical	-12.2144
▁Messi	-12.2144
▁mold	-12.2146
▁Chef	-12.2149
ellar	-12.2153
▁Done	-12.2153
urple	-12.2156
▁disappearing	-12.2156
▁Cand	-12.2159
▁Dolan	-12.2164
▁Sham	-12.2164
▁guided	-12.2165
▁por	-12.2173
▁stirring	-12.2176
Arthur	-12.2179
LGBT	-12.2179
▁Ont	-12.218
▁Gam	-12.2184
▁expir	-12.2185
culos	-12.2187
Gener	-12.2192
▁pitt	-12.2197
iti	-12.2197
▁resettl	-12.2198
▁vegan	-12.2199
▁feeds	-12.22
▁reveler	-12.22
oria	-12.2201
▁interc	-12.2202
▁Favor	-12.2209
▁Airstrike	-12.2209
▁Disgrace	-12.2209
▁Mosquito	-12.2209
▁Opponent	-12.2209
▁Pfizer	-12.2209
▁Situation	-12.2209
▁Trigger	-12.2209
▁Tsarnaev	-12.2209
▁blatant	-12.2209
▁curtain	-12.2209
▁embolden	-12.2209
▁inadvertent	-12.2209
▁provocation	-12.2209
▁transparent	-12.2209
▁Ibrahim	-12.2209
▁Saddam	-12.2209
▁clutch	-12.2209
▁Abandon	-12.2209
▁approving	-12.2209
▁Shelby	-12.2209
▁Shepard	-12.2209
▁Spear	-12.2209
▁nonsens	-12.2209
▁Honest	-12.2209
▁enrag	-12.2209
▁Jenkin	-12.2209
▁pathetic	-12.221
▁stash	-12.221
▁Penalt	-12.221
▁Approve	-12.221
▁blessing	-12.221
yuan	-12.221
▁cruelty	-12.221
▁firebrand	-12.221
[...]
