<unk>	0
<s>	0
</s>	0
▁,	-3.26922
▁the	-3.45646
s	-3.45959
▁.	-3.63899
▁’	-3.94372
▁a	-4.02477
▁	-4.04045
▁to	-4.04045
▁of	-4.09933
ed	-4.24423
▁in	-4.31796
▁and	-4.38834
▁s	-4.48001
ing	-4.48332
▁"	-4.58588
"	-4.74779
▁on	-4.91062
▁”	-5.01477
▁that	-5.08788
▁for	-5.08879
▁The	-5.14107
.	-5.15919
y	-5.26217
▁is	-5.26456
▁Trump	-5.27982
ly	-5.35338
“	-5.48267
▁with	-5.48298
▁was	-5.51479
▁be	-5.52187
▁at	-5.66231
d	-5.6708
▁:	-5.67596
e	-5.68656
▁his	-5.70377
▁—	-5.75289
▁from	-5.7763
▁as	-5.82456
▁by	-5.82724
▁it	-5.83577
▁has	-5.84804
▁he	-5.87239
▁an	-5.91788
n	-5.92214
▁A	-5.99256
▁said	-6.04755
en	-6.05921
▁I	-6.06164
er	-6.14915
▁are	-6.16422
▁have	-6.16502
▁(	-6.17309
▁)	-6.17754
▁who	-6.17877
▁S	-6.2044
▁Donald	-6.21456
▁t	-6.27336
▁",	-6.30479
▁not	-6.33459
▁about	-6.36896
▁after	-6.38002
▁her	-6.45329
es	-6.45786
▁this	-6.49762
▁U	-6.49949
▁will	-6.51707
▁their	-6.52971
▁In	-6.55371
▁Clinton	-6.57159
t	-6.58931
▁President	-6.58937
l	-6.64863
▁had	-6.65397
▁one	-6.66196
▁its	-6.67278
-	-6.67787
▁out	-6.69339
▁over	-6.69442
▁were	-6.71293
[	-6.7176
▁up	-6.72391
▁It	-6.72824
▁more	-6.73911
▁but	-6.74519
▁?	-6.7462
a	-6.76203
▁new	-6.77629
▁you	-6.78568
▁New	-6.80565
▁or	-6.81577
▁they	-6.83628
▁people	-6.8466
al	-6.87533
▁would	-6.87865
▁which	-6.89535
▁into	-6.89823
▁than	-6.90716
o	-6.90913
▁CNN	-6.9233
▁first	-6.94354
▁she	-6.95152
▁when	-6.98416
r	-6.98566
▁Obama	-6.9868
$	-7.02135
▁House	-7.05408
▁Hillary	-7.05623
▁two	-7.0587
▁Republican	-7.06916
▁re	-7.07014
▁we	-7.09988
▁all	-7.1048
▁last	-7.12099
in	-7.12929
▁week	-7.13033
▁He	-7.13207
▁some	-7.13493
▁can	-7.13667
ld	-7.13672
▁presidential	-7.14074
▁years	-7.14179
▁what	-7.15009
▁But	-7.16249
▁campaign	-7.17102
▁just	-7.17829
▁year	-7.1844
on	-7.18463
‘	-7.20028
▁C	-7.20641
▁could	-7.24848
▁most	-7.25392
▁time	-7.25449
▁Tuesday	-7.25868
ers	-7.26617
▁Friday	-7.26633
▁man	-7.27182
▁like	-7.28631
m	-7.2919
▁Thursday	-7.30102
▁him	-7.30138
▁To	-7.31777
ion	-7.33149
▁no	-7.34925
▁against	-7.35177
▁Monday	-7.36038
▁American	-7.3675
ies	-7.37979
st	-7.38028
▁president	-7.38385
▁For	-7.39423
▁Wednesday	-7.39584
S	-7.40594
an	-7.40781
▁according	-7.40875
▁before	-7.42219
▁police	-7.42281
p	-7.42444
▁m	-7.43096
▁other	-7.43406
▁On	-7.43996
▁state	-7.4414
▁back	-7.44209
▁so	-7.45026
▁former	-7.45344
▁This	-7.4619
▁White	-7.46587
during	-7.47237
▁York	-7.47802
▁We	-7.48237
c	-7.48305
▁now	-7.49953
▁United	-7.49957
▁there	-7.50046
▁election	-7.5073
▁And	-7.51705
▁US	-7.51873
▁News	-7.52445
▁State	-7.52528
▁world	-7.52655
th	-7.53012
▁million	-7.54429
▁them	-7.54904
▁D	-7.55238
ic	-7.55788
▁says	-7.55918
▁B	-7.56019
▁if	-7.5623
▁Sunday	-7.56626
▁show	-7.56807
▁Washington	-7.56885
▁how	-7.57216
▁un	-7.58439
i	-7.59052
▁down	-7.59812
▁do	-7.60346
▁government	-7.60964
▁country	-7.6107
▁night	-7.62224
▁America	-7.62726
le	-7.63783
▁made	-7.6432
se	-7.64406
▁off	-7.65108
w	-7.65379
el	-7.65762
▁also	-7.65888
or	-7.6619
▁us	-7.68499
▁want	-7.68957
▁may	-7.69423
▁Saturday	-7.69442
▁1	-7.69497
▁where	-7.70617
▁look	-7.70812
▁M	-7.71335
▁day	-7.71478
▁our	-7.71729
▁get	-7.73836
▁Democratic	-7.74045
▁while	-7.74231
▁2016	-7.74386
▁percent	-7.74879
▁attack	-7.75632
▁even	-7.76067
able	-7.7734
▁under	-7.77463
▁States	-7.77971
▁since	-7.78293
▁E	-7.78796
▁take	-7.78933
▁through	-7.78954
ther	-7.79847
▁reported	-7.79937
▁media	-7.80217
▁Is	-7.80368
k	-7.80442
▁say	-7.80725
▁being	-7.80741
man	-7.80854
b	-7.81073
▁company	-7.81595
▁near	-7.81668
ation	-7.81759
▁F	-7.81793
▁That	-7.81944
▁home	-7.82034
▁make	-7.82906
est	-7.83604
h	-7.8365
▁your	-7.83721
▁P	-7.83846
▁three	-7.83951
▁National	-7.83978
▁political	-7.83979
▁public	-7.8461
▁b	-7.84883
▁because	-7.86617
between	-7.86779
▁my	-7.86995
▁officials	-7.8717
▁vote	-7.8736
▁K	-7.87861
▁GOP	-7.87971
▁found	-7.88523
re	-7.89208
▁nominee	-7.89398
▁news	-7.89639
▁administration	-7.90275
▁city	-7.91203
▁only	-7.91223
▁p	-7.91438
▁W	-7.91826
▁North	-7.92095
▁way	-7.92262
▁federal	-7.92352
▁T	-7.92699
▁women	-7.92794
ity	-7.93261
▁group	-7.93445
g	-7.93728
▁As	-7.93914
▁includ	-7.94022
▁de	-7.94426
▁O	-7.94428
▁days	-7.95935
▁d	-7.96067
▁around	-7.96273
▁need	-7.96789
▁end	-7.97618
▁After	-7.97732
▁What	-7.98086
▁law	-7.98164
▁should	-7.98394
▁called	-7.98472
▁support	-7.98536
▁How	-7.98728
ur	-7.98743
▁000	-7.98798
▁report	-7.98865
▁Russia	-7.99983
▁Senate	-8.00048
it	-8.00557
▁With	-8.00727
▁2	-8.00922
uch	-8.01428
▁much	-8.02168
▁N	-8.02573
▁part	-8.02828
▁order	-8.02966
▁death	-8.03129
▁At	-8.03267
ar	-8.03506
▁You	-8.03809
▁killed	-8.04252
▁Court	-8.04308
is	-8.04377
us	-8.04393
u	-8.04408
ist	-8.04498
▁Department	-8.04587
ive	-8.04629
▁Republicans	-8.05061
▁next	-8.05287
▁month	-8.05904
▁ve	-8.05931
▁any	-8.06172
▁When	-8.06253
▁No	-8.06522
▁Of	-8.06537
▁know	-8.06565
▁me	-8.06649
▁court	-8.0682
▁those	-8.07253
▁candidate	-8.07291
f	-8.07546
▁did	-8.07694
▁Cruz	-8.07952
▁10	-8.08289
▁J	-8.08595
▁own	-8.08707
▁announced	-8.08901
▁Russian	-8.09195
▁deal	-8.09293
▁Sanders	-8.09327
▁case	-8.0951
▁still	-8.09763
▁long	-8.0991
▁!	-8.09993
ment	-8.1017
C	-8.10907
et	-8.11266
▁lead	-8.11302
▁Sen	-8.1161
▁Re	-8.11659
▁party	-8.11935
ry	-8.11996
▁John	-8.12495
▁does	-8.12786
A	-8.12896
▁national	-8.12981
▁life	-8.13252
▁work	-8.13441
▁think	-8.13484
▁There	-8.13598
il	-8.13719
▁call	-8.14201
▁going	-8.14412
▁Breitbart	-8.15062
▁right	-8.1561
▁Bill	-8.15717
▁health	-8.15891
▁debate	-8.16354
▁ago	-8.16661
▁great	-8.16932
ri	-8.17285
▁If	-8.17383
▁top	-8.17719
▁final	-8.1778
▁took	-8.1784
▁go	-8.17904
▁another	-8.17962
▁De	-8.18017
▁She	-8.1815
▁released	-8.18368
▁interview	-8.1837
▁morning	-8.18644
▁few	-8.18946
▁An	-8.18962
▁Democrats	-8.1916
▁office	-8.1943
▁least	-8.19612
▁South	-8.19706
▁ad	-8.19952
um	-8.19974
▁turn	-8.20251
▁Americans	-8.20306
▁They	-8.20441
▁G	-8.21141
▁Fox	-8.213
ism	-8.21301
▁here	-8.21445
▁team	-8.21922
▁FBI	-8.22029
▁woman	-8.22269
▁L	-8.22443
▁set	-8.22646
▁see	-8.22738
▁move	-8.2337
▁very	-8.23431
▁3	-8.23739
▁host	-8.23888
▁China	-8.24214
out	-8.24329
▁One	-8.24527
▁post	-8.24588
▁won	-8.24721
▁left	-8.24968
ro	-8.25435
▁months	-8.25439
▁family	-8.25455
age	-8.25467
▁big	-8.2557
▁Twitter	-8.257
M	-8.25782
ance	-8.26184
▁H	-8.26272
▁school	-8.26331
▁recent	-8.26601
▁University	-8.26618
▁both	-8.2667
▁Texas	-8.26739
▁help	-8.26805
▁use	-8.26983
▁California	-8.27113
▁billion	-8.27308
▁5	-8.27427
lo	-8.27611
ton	-8.27657
▁video	-8.27673
▁appear	-8.28118
▁number	-8.28268
▁security	-8.28615
id	-8.2866
gan	-8.28663
▁past	-8.28807
ra	-8.28912
▁policy	-8.29328
▁don	-8.2945
▁war	-8.29638
▁open	-8.29665
▁business	-8.3004
ant	-8.30049
▁good	-8.30131
ch	-8.30292
▁20	-8.30304
▁Be	-8.30568
▁bill	-8.3067
▁black	-8.30777
▁statement	-8.30825
▁R	-8.30927
▁So	-8.31092
▁Police	-8.32252
▁major	-8.32541
▁point	-8.32584
▁Islamic	-8.32721
im	-8.32723
▁dead	-8.32959
▁four	-8.32982
▁Facebook	-8.3316
▁might	-8.33223
▁men	-8.3361
▁asked	-8.33614
▁place	-8.33719
▁across	-8.3435
▁Here	-8.34449
sh	-8.34838
▁fight	-8.34877
▁charge	-8.35201
▁plan	-8.35506
▁arrest	-8.35711
▁Congress	-8.36106
▁try	-8.36203
▁second	-8.36257
▁came	-8.36379
▁start	-8.36431
▁early	-8.36524
▁got	-8.36659
▁follow	-8.36996
▁City	-8.37149
ce	-8.37384
ne	-8.3751
▁Post	-8.37545
▁speech	-8.37579
son	-8.37869
▁Co	-8.38013
▁become	-8.38024
▁come	-8.38061
▁investigation	-8.38141
▁Day	-8.38501
ent	-8.38667
▁issue	-8.38737
▁St	-8.38752
▁race	-8.38787
▁press	-8.38982
many	-8.39341
▁decision	-8.39538
ol	-8.39812
▁reports	-8.39867
▁latest	-8.40019
▁whe	-8.40107
▁shot	-8.404
z	-8.4051
▁well	-8.40732
▁seem	-8.40915
P	-8.40947
one	-8.41234
▁military	-8.41431
▁May	-8.41458
ful	-8.41466
▁put	-8.41516
▁car	-8.41751
▁voters	-8.41864
▁name	-8.42052
▁win	-8.42183
▁Syria	-8.42344
▁Supreme	-8.42493
less	-8.42834
▁used	-8.42863
▁block	-8.42963
▁change	-8.43089
▁high	-8.43124
▁executive	-8.43322
ate	-8.43823
ness	-8.44033
▁4	-8.44124
▁never	-8.44228
▁Barack	-8.44467
▁hit	-8.44552
▁known	-8.44702
x	-8.44899
la	-8.44947
▁Why	-8.45089
▁Not	-8.45181
ia	-8.4539
▁died	-8.4555
T	-8.46719
ter	-8.46856
▁history	-8.46868
▁run	-8.46889
▁best	-8.46998
O	-8.47427
▁meeting	-8.4751
ul	-8.47657
▁live	-8.47744
▁James	-8.47918
▁story	-8.48387
▁Paul	-8.48472
▁His	-8.48516
▁among	-8.49177
▁Florida	-8.49331
L	-8.49463
▁gun	-8.49585
▁pay	-8.49756
▁f	-8.49829
▁away	-8.49869
▁far	-8.49908
▁keep	-8.5003
▁severa	-8.50445
▁shooting	-8.50614
▁w	-8.50989
▁five	-8.51125
ous	-8.51202
▁head	-8.51389
▁email	-8.51426
▁official	-8.51625
▁continue	-8.51659
▁question	-8.51759
▁clear	-8.52082
▁young	-8.5217
▁system	-8.52305
▁saying	-8.52506
▁members	-8.52557
to	-8.52684
▁La	-8.52841
▁season	-8.53705
▁white	-8.53826
ally	-8.54059
▁same	-8.54223
▁Ryan	-8.5435
▁social	-8.54564
▁every	-8.55099
▁9	-8.55232
te	-8.55492
▁Bernie	-8.55703
B	-8.55774
▁Please	-8.55872
▁remain	-8.55902
▁Mr	-8.55953
▁too	-8.56138
▁claim	-8.56332
li	-8.56358
▁From	-8.56503
▁Korea	-8.56708
▁accus	-8.56997
▁fire	-8.5707
▁San	-8.57081
na	-8.57266
▁chief	-8.57716
▁children	-8.57877
▁7	-8.58101
▁Justice	-8.58128
▁close	-8.58374
at	-8.58424
▁Street	-8.58543
▁face	-8.58555
▁late	-8.58622
▁Party	-8.58677
D	-8.58684
▁lot	-8.58737
▁why	-8.58773
▁Carolina	-8.58911
▁Times	-8.59012
▁making	-8.59047
▁behind	-8.59185
ir	-8.59572
▁series	-8.59746
▁again	-8.59774
▁nation	-8.59986
▁alleged	-8.60378
▁already	-8.60431
▁Le	-8.60583
ling	-8.60626
▁these	-8.60712
ie	-8.60766
▁give	-8.60802
▁World	-8.60863
▁market	-8.60934
▁leader	-8.60946
▁sign	-8.61448
▁6	-8.61486
▁Ted	-8.61724
▁moment	-8.61776
▁ever	-8.61892
▁Comey	-8.61962
▁Will	-8.6198
▁star	-8.62031
▁Now	-8.621
▁foreign	-8.62189
▁power	-8.62414
▁immigration	-8.62687
▁little	-8.62901
▁didn	-8.62948
▁Do	-8.63015
▁Committee	-8.63115
▁Obamacare	-8.6313
▁record	-8.63143
ta	-8.63156
▁2015	-8.63437
▁find	-8.63492
land	-8.63525
▁launch	-8.63661
▁European	-8.63769
▁hours	-8.64022
ian	-8.64352
co	-8.6464
▁Man	-8.64741
▁real	-8.64781
went	-8.64791
2	-8.64821
▁Over	-8.64834
▁bigge	-8.65113
▁March	-8.65333
▁11	-8.65883
▁TV	-8.65921
▁likely	-8.6594
▁ban	-8.66183
▁attempt	-8.66204
▁weekend	-8.66318
ting	-8.66429
▁100	-8.66489
▁film	-8.66683
▁air	-8.66712
▁something	-8.66799
▁Michael	-8.66944
▁love	-8.67538
▁following	-8.67651
▁victor	-8.67691
▁receive	-8.67898
ell	-8.682
▁director	-8.68604
▁West	-8.68719
▁really	-8.68736
▁attacks	-8.68778
ma	-8.6885
▁town	-8.68866
ine	-8.68875
▁Can	-8.69131
▁murder	-8.69429
▁private	-8.69582
I	-8.69659
v	-8.69825
ish	-8.69907
▁stop	-8.69941
▁update	-8.70122
▁Black	-8.70202
▁tell	-8.7026
▁old	-8.70363
▁cut	-8.70417
▁money	-8.70466
am	-8.70542
▁local	-8.70579
▁Syrian	-8.70584
▁weeks	-8.70588
▁suspect	-8.70618
▁believe	-8.70627
▁consider	-8.70693
be	-8.70914
▁leaders	-8.71282
▁things	-8.71434
▁seen	-8.71544
▁talk	-8.71604
▁taking	-8.7169
▁small	-8.71821
▁All	-8.71824
▁War	-8.7183
▁8	-8.71874
▁game	-8.72141
▁care	-8.72241
▁Are	-8.72254
▁less	-8.72391
▁general	-8.72526
▁job	-8.72612
▁ISIS	-8.72644
▁Ra	-8.72735
5	-8.72738
▁tax	-8.72826
▁himself	-8.72895
▁stories	-8.73205
ca	-8.73261
ig	-8.73327
▁along	-8.73446
▁sexual	-8.73458
▁border	-8.73474
ING	-8.73513
▁primary	-8.73514
▁travel	-8.73557
▁Wall	-8.73726
▁event	-8.73784
▁shows	-8.74033
▁publish	-8.74064
▁global	-8.74071
▁states	-8.74189
▁join	-8.74215
▁push	-8.74395
▁Apple	-8.74403
▁share	-8.74431
▁Mexico	-8.74471
▁control	-8.74498
▁today	-8.74507
op	-8.74775
▁expected	-8.74954
▁conservative	-8.75171
▁More	-8.75233
TON	-8.75339
me	-8.75482
ci	-8.75523
▁later	-8.75597
6	-8.75712
▁comes	-8.75743
▁once	-8.75909
▁15	-8.76039
▁conference	-8.7621
▁secretary	-8.76301
▁Secretary	-8.76377
coming	-8.76424
▁large	-8.76499
▁hard	-8.76513
ke	-8.771
ence	-8.77135
▁six	-8.7719
▁officer	-8.77267
▁then	-8.77339
▁officers	-8.77344
▁yet	-8.77707
▁current	-8.78104
▁plans	-8.78129
un	-8.78181
▁trade	-8.78272
▁students	-8.78416
▁bank	-8.78451
▁Union	-8.78588
▁companies	-8.78897
▁Iran	-8.78898
▁Al	-8.7902
0	-8.79093
▁Act	-8.79169
▁full	-8.79554
▁visit	-8.79644
▁information	-8.79705
▁outside	-8.79783
▁First	-8.79908
▁address	-8.79994
▁David	-8.80035
▁pick	-8.80161
po	-8.80411
▁list	-8.80492
▁British	-8.80675
1	-8.80807
tic	-8.80854
▁Rubio	-8.80886
▁Muslim	-8.80955
▁potential	-8.81315
▁V	-8.81334
▁countries	-8.81403
ha	-8.81407
▁assault	-8.81488
▁special	-8.81529
▁authorities	-8.81591
▁judge	-8.81628
▁running	-8.81922
▁rights	-8.81935
▁free	-8.8209
▁earlier	-8.82268
▁test	-8.82541
▁Security	-8.82654
▁thing	-8.8282
▁economic	-8.82829
▁threat	-8.83073
lmost	-8.8341
▁ll	-8.83427
▁CEO	-8.83484
ve	-8.83514
▁politics	-8.8366
▁book	-8.83744
▁Two	-8.8384
▁sources	-8.8391
▁reach	-8.8402
ten	-8.84094
pe	-8.84166
way	-8.84224
▁12	-8.84346
▁Daily	-8.84412
▁short	-8.84429
▁future	-8.84499
▁partners	-8.84513
▁thought	-8.84654
▁London	-8.84676
▁water	-8.84681
▁better	-8.84683
▁nomination	-8.84704
▁role	-8.85124
▁rate	-8.85225
F	-8.85235
▁Con	-8.85327
▁sex	-8.85558
▁building	-8.85685
▁fall	-8.85823
ley	-8.86115
▁Un	-8.86407
▁30	-8.86521
▁My	-8.86529
▁ask	-8.86585
▁gett	-8.86719
▁working	-8.86966
▁Los	-8.87225
▁seek	-8.87284
▁Gov	-8.87415
▁poll	-8.8753
▁illegal	-8.8765
▁act	-8.87762
mo	-8.88031
▁tri	-8.88092
▁supporters	-8.88237
▁data	-8.8862
▁County	-8.88643
ard	-8.88924
▁killing	-8.89137
▁taken	-8.89227
7	-8.89326
▁bring	-8.89499
▁concern	-8.89593
▁Ex	-8.89616
▁below	-8.89674
▁writing	-8.89732
▁Some	-8.90002
▁line	-8.90137
▁each	-8.90248
▁rally	-8.90388
▁human	-8.90664
ak	-8.90804
until	-8.9092
▁Mike	-8.91052
▁legal	-8.91097
om	-8.91305
▁hand	-8.91704
ah	-8.91738
▁Who	-8.91818
▁actual	-8.9229
▁questions	-8.9229
▁program	-8.92631
▁People	-8.92715
ner	-8.92753
▁50	-8.92764
▁allow	-8.92783
▁different	-8.92862
R	-8.92885
▁intelligence	-8.92908
▁sponsors	-8.9296
▁Her	-8.93015
▁2017	-8.93198
▁having	-8.932
▁c	-8.93281
▁strong	-8.93545
▁enough	-8.93586
▁thousands	-8.93835
▁person	-8.93906
ut	-8.93952
▁protest	-8.94018
ary	-8.94023
▁Care	-8.94177
▁About	-8.94227
▁wrote	-8.94316
▁lost	-8.94416
▁display	-8.94563
▁WASH	-8.94611
▁Rep	-8.94612
▁drug	-8.94676
▁prison	-8.94695
up	-8.94707
ge	-8.94717
▁release	-8.94741
▁Europe	-8.94747
▁online	-8.94927
▁network	-8.94954
▁Health	-8.94957
▁com	-8.94963
▁battle	-8.95194
▁buy	-8.95226
U	-8.95263
G	-8.95354
came	-8.95607
▁leave	-8.95886
▁Former	-8.95936
▁key	-8.96277
E	-8.96361
without	-8.96436
▁wife	-8.9644
▁recently	-8.96445
▁French	-8.96996
▁often	-8.97022
3	-8.97135
▁half	-8.97343
▁East	-8.97426
▁co	-8.97432
ty	-8.97606
▁financial	-8.97698
▁afternoon	-8.97747
▁Don	-8.97788
▁Center	-8.97849
▁steps	-8.97987
▁bad	-8.98011
▁Ro	-8.98049
▁mother	-8.98217
▁document	-8.98279
▁hold	-8.98314
▁process	-8.98509
lways	-8.98654
▁18	-8.98689
▁capital	-8.98815
▁agency	-8.98849
▁select	-8.98863
▁senior	-8.9902
min	-8.9906
▁Britain	-8.99073
▁largest	-8.99156
▁led	-8.99159
▁George	-8.99225
go	-8.9929
lu	-8.99469
▁Federal	-8.99483
ag	-8.99625
▁claims	-8.99791
nt	-8.99825
▁General	-8.99844
▁sent	-8.99942
▁focus	-8.99947
ated	-8.99949
4	-9.00131
▁January	-9.00258
▁interest	-9.00319
▁Ma	-9.00358
▁food	-9.00418
▁2014	-9.00465
▁personal	-9.00568
▁economy	-9.00621
▁hope	-9.0085
ba	-9.00967
▁house	-9.01055
▁By	-9.01159
▁fact	-9.01202
▁son	-9.01247
▁letter	-9.01269
▁site	-9.01339
▁Go	-9.01442
▁started	-9.0151
▁service	-9.01527
▁According	-9.01812
K	-9.01875
ni	-9.01926
▁student	-9.01959
▁coming	-9.01991
▁April	-9.02196
▁deliver	-9.02207
▁Show	-9.02208
▁Y	-9.02221
▁toward	-9.02324
▁Israel	-9.02351
▁November	-9.02408
▁forces	-9.02493
▁Out	-9.02544
▁study	-9.02567
▁decades	-9.02624
▁ahead	-9.02666
▁ra	-9.02722
▁dis	-9.03109
ad	-9.03129
▁possible	-9.03412
▁Minister	-9.03527
▁room	-9.0354
▁industry	-9.03634
▁lawsuit	-9.03637
▁response	-9.03849
ions	-9.03918
▁confirmed	-9.04029
▁explain	-9.04055
▁front	-9.04059
mon	-9.04102
led	-9.04132
▁jobs	-9.04272
▁Inc	-9.04695
ster	-9.04753
▁enter	-9.04783
▁seven	-9.04882
▁June	-9.0494
▁sell	-9.04978
▁Mo	-9.05095
▁pro	-9.05096
▁though	-9.05201
▁play	-9.05302
▁Iraq	-9.0532
▁others	-9.05404
▁increase	-9.05476
▁Me	-9.05554
▁France	-9.05588
▁presidency	-9.05806
ack	-9.06069
ga	-9.06084
▁Pro	-9.06149
▁times	-9.06176
ized	-9.06234
▁target	-9.06476
▁problem	-9.06546
▁met	-9.06857
▁deep	-9.06915
8	-9.07085
▁Report	-9.07198
▁Chicago	-9.07296
H	-9.073
no	-9.0736
▁demand	-9.07464
▁course	-9.07575
▁important	-9.07583
▁calling	-9.07608
▁oil	-9.07635
▁college	-9.07686
▁wall	-9.07755
▁read	-9.07907
time	-9.07984
ru	-9.08149
W	-9.08386
hi	-9.08466
▁must	-9.08473
▁Last	-9.08475
▁per	-9.085
espite	-9.08589
▁School	-9.08641
▁Up	-9.08642
▁incident	-9.08697
▁violence	-9.08754
▁Bush	-9.08762
▁Or	-9.0882
▁arm	-9.08886
▁crisis	-9.08983
ver	-9.08994
▁crowd	-9.09029
▁father	-9.09095
▁force	-9.09247
▁return	-9.09285
▁Ohio	-9.09321
▁climate	-9.09434
N	-9.09442
▁13	-9.09505
▁international	-9.09605
ted	-9.09624
▁Just	-9.0965
▁wants	-9.09748
▁ground	-9.09831
▁Pence	-9.09844
▁defend	-9.09922
▁rule	-9.0999
▁nuclear	-9.10004
cy	-9.10054
9	-9.10055
▁member	-9.10119
▁evening	-9.10206
▁Office	-9.10514
▁message	-9.10667
▁Di	-9.10674
▁candidates	-9.10699
▁feel	-9.1076
▁kind	-9.10871
▁soon	-9.10995
▁Park	-9.10995
▁Mar	-9.11123
▁Press	-9.11165
▁con	-9.11166
ud	-9.1119
▁During	-9.11427
▁Dr	-9.1166
▁offer	-9.117
▁third	-9.11793
▁workers	-9.119
▁criminal	-9.11909
While	-9.1191
nd	-9.11979
ez	-9.11981
▁Putin	-9.12105
▁Iowa	-9.12203
ab	-9.12298
▁evidence	-9.12318
▁senator	-9.1232
▁body	-9.12486
▁center	-9.12559
gg	-9.12619
▁Angeles	-9.12623
▁Super	-9.12675
our	-9.1272
tra	-9.12781
per	-9.12835
em	-9.12843
▁Hollywood	-9.12905
▁Robert	-9.12968
vi	-9.13001
pent	-9.13116
▁Paris	-9.1313
▁community	-9.13143
ph	-9.13304
▁direct	-9.13417
▁secret	-9.13424
▁activist	-9.13496
▁dozen	-9.13496
▁boy	-9.13632
▁review	-9.13867
▁inside	-9.13928
ors	-9.14594
▁age	-9.14655
▁popular	-9.14659
▁child	-9.14682
▁effort	-9.14789
▁Women	-9.14867
▁respond	-9.14888
▁comments	-9.15059
▁Reuters	-9.15168
▁reporters	-9.15174
▁14	-9.15206
▁break	-9.15262
▁25	-9.15315
ti	-9.15481
ll	-9.15485
▁let	-9.15528
▁side	-9.15574
▁daughter	-9.15651
▁hundred	-9.15651
▁land	-9.15709
▁Google	-9.15712
side	-9.15721
▁lawmaker	-9.15725
ect	-9.15769
▁repeal	-9.15772
▁elect	-9.1595
▁Sessions	-9.16076
▁summer	-9.16076
▁hearing	-9.16111
▁include	-9.16203
▁heart	-9.16334
ham	-9.16507
▁received	-9.16509
▁am	-9.16581
▁Po	-9.16617
▁cause	-9.16647
tion	-9.16659
ill	-9.16824
ot	-9.16903
▁matter	-9.16985
▁project	-9.16991
▁terrorist	-9.16996
▁hospital	-9.17453
▁issues	-9.17598
▁Jeff	-9.17606
▁light	-9.17735
▁Pa	-9.17795
▁discuss	-9.17902
▁Director	-9.18106
ber	-9.18116
▁July	-9.18129
▁stage	-9.18145
ability	-9.18316
▁attorney	-9.1835
▁staff	-9.18367
▁ex	-9.18389
▁account	-9.1847
ang	-9.18551
▁Mark	-9.18743
ship	-9.18781
▁Judge	-9.18912
▁gave	-9.19099
▁space	-9.1918
▁Star	-9.19247
▁Election	-9.19363
▁suggest	-9.19485
▁firm	-9.19547
▁fil	-9.19554
▁Time	-9.19564
▁failed	-9.19762
ac	-9.19777
▁Virginia	-9.19802
▁AP	-9.19836
▁board	-9.19879
▁phone	-9.20035
rought	-9.20059
▁17	-9.20095
▁Mexican	-9.20232
▁Turkey	-9.20486
▁stay	-9.20694
ial	-9.20757
ck	-9.20819
▁protect	-9.20853
▁rise	-9.20886
▁groups	-9.20921
▁adviser	-9.20994
▁crash	-9.21128
▁words	-9.21399
▁movie	-9.21449
▁Chris	-9.21548
▁spoke	-9.21835
▁extension	-9.21894
▁lawyer	-9.21913
▁action	-9.21969
▁Attorney	-9.22151
▁Chinese	-9.22216
▁search	-9.22217
▁40	-9.22234
line	-9.22356
▁Saudi	-9.2241
▁Zika	-9.22411
▁German	-9.22419
con	-9.2242
▁annual	-9.2254
mp	-9.22632
▁Far	-9.22658
▁doing	-9.22694
▁El	-9.22765
▁fired	-9.22876
ever	-9.23022
▁image	-9.23061
▁Prime	-9.23088
▁convention	-9.23219
ow	-9.23242
▁charg	-9.23245
▁Ho	-9.23564
▁defense	-9.23582
der	-9.23605
▁strike	-9.23648
▁area	-9.23656
▁eight	-9.23782
ical	-9.23808
ought	-9.23839
les	-9.23861
▁wrong	-9.2391
▁minister	-9.24043
▁together	-9.24109
▁governor	-9.24131
▁Chief	-9.24308
▁discover	-9.24308
▁Joe	-9.24368
▁Was	-9.24665
▁Tom	-9.24767
ap	-9.24887
▁lives	-9.25044
vo	-9.25102
▁enforcement	-9.25105
▁flight	-9.25111
os	-9.25215
▁aim	-9.25221
▁technolog	-9.25237
▁terror	-9.25281
▁Have	-9.25508
▁v	-9.25619
▁g	-9.25621
▁International	-9.25634
▁certain	-9.25637
▁describ	-9.25677
▁Has	-9.25708
▁Media	-9.25762
▁19	-9.25815
▁Uber	-9.26202
king	-9.26322
▁music	-9.26392
▁idea	-9.26463
▁happened	-9.26482
▁resident	-9.26494
▁Sp	-9.265
▁Good	-9.26656
▁friend	-9.26723
ize	-9.26744
ier	-9.26757
ger	-9.26809
▁chance	-9.26914
▁sales	-9.26964
▁Brexit	-9.2698
▁cop	-9.27321
▁field	-9.27345
ct	-9.27349
▁revealed	-9.2765
▁amid	-9.27834
▁Ben	-9.27842
▁Big	-9.27899
▁result	-9.27944
▁Air	-9.27978
▁bid	-9.28017
▁movement	-9.28089
▁growing	-9.28141
▁form	-9.28205
▁reason	-9.28253
▁Says	-9.28314
▁creat	-9.28326
▁couple	-9.28396
▁wide	-9.28462
▁Democrat	-9.28954
▁measure	-9.28965
ka	-9.28966
▁Bannon	-9.29104
▁scandal	-9.29173
▁manager	-9.29364
:	-9.29509
▁career	-9.2959
▁pre	-9.29661
▁total	-9.29673
▁Ga	-9.29913
▁walk	-9.29953
bo	-9.30014
▁website	-9.30148
▁missile	-9.30219
av	-9.30384
▁source	-9.30591
▁girl	-9.30683
▁entire	-9.30709
▁done	-9.30744
va	-9.30797
▁particular	-9.30849
ists	-9.31027
▁meet	-9.31096
▁stock	-9.31325
▁rival	-9.31395
▁parents	-9.31401
▁Senator	-9.3144
▁Back	-9.31539
▁saw	-9.3159
▁living	-9.31628
▁makes	-9.31664
▁rules	-9.31762
▁Your	-9.31772
▁emails	-9.31806
▁results	-9.31831
▁choice	-9.31841
▁Green	-9.31927
▁Stephen	-9.32054
▁fear	-9.32055
ven	-9.32068
aw	-9.32126
ff	-9.32519
▁article	-9.32698
▁feature	-9.32757
▁migrant	-9.32842
▁Even	-9.32909
mer	-9.33007
▁unit	-9.33027
▁Marco	-9.33089
▁single	-9.3312
he	-9.33231
▁television	-9.33356
▁employees	-9.33626
▁16	-9.3363
▁Manhattan	-9.33635
▁title	-9.33862
▁answer	-9.33913
▁Every	-9.33914
▁Per	-9.33949
▁civil	-9.33976
▁2012	-9.33998
▁track	-9.33999
▁...	-9.34046
▁Germany	-9.34076
▁Like	-9.34161
▁NBC	-9.34311
▁College	-9.34362
▁Orlando	-9.34362
▁nothing	-9.34522
▁position	-9.34667
V	-9.34728
▁24	-9.34849
▁Car	-9.34849
▁policies	-9.34881
▁heard	-9.34986
▁piece	-9.35006
▁female	-9.35095
▁request	-9.35095
ach	-9.35146
▁cover	-9.35204
▁Li	-9.35219
▁Attack	-9.35463
▁Gun	-9.35508
▁passed	-9.35514
▁Hill	-9.35536
▁approach	-9.35537
▁Lo	-9.35691
▁probabl	-9.35759
▁massive	-9.35789
▁view	-9.35804
▁wear	-9.35822
pa	-9.35891
▁access	-9.35907
▁giant	-9.35907
▁due	-9.35953
▁husband	-9.36055
▁victims	-9.36124
▁editor	-9.36209
▁Steve	-9.36256
lin	-9.36356
▁themselves	-9.36364
▁chairman	-9.36378
▁500	-9.36524
▁tie	-9.3656
▁Flynn	-9.36576
▁Pre	-9.36648
▁Leader	-9.36657
men	-9.36688
▁friends	-9.36761
mm	-9.36894
▁trial	-9.36968
▁efforts	-9.36973
▁signed	-9.37007
▁EU	-9.37012
▁condition	-9.37024
▁risk	-9.37117
▁fund	-9.37152
▁provide	-9.3722
off	-9.37625
di	-9.37666
bi	-9.37688
▁stand	-9.37788
▁main	-9.37902
▁propos	-9.37907
▁quarter	-9.37921
▁immigrants	-9.38
▁expect	-9.38001
▁plane	-9.38017
▁21	-9.38036
▁app	-9.38108
▁spending	-9.3815
▁Get	-9.38263
▁Scott	-9.38372
▁journalist	-9.38422
▁protesters	-9.38487
▁price	-9.38518
▁experience	-9.38538
▁reveal	-9.38546
▁controversial	-9.38549
▁growth	-9.38636
▁appeal	-9.38687
▁crime	-9.38797
▁fee	-9.38815
▁polls	-9.38868
▁bar	-9.39016
▁station	-9.39065
▁leaving	-9.39221
▁trip	-9.39276
▁miles	-9.39525
▁step	-9.39631
▁longer	-9.3977
▁cr	-9.39807
ub	-9.39823
▁train	-9.39863
que	-9.40092
▁serve	-9.4012
▁cit	-9.40147
▁22	-9.40153
▁represent	-9.40183
▁serious	-9.40292
▁minutes	-9.40322
▁Jersey	-9.40454
▁Sa	-9.40539
▁decided	-9.4059
▁agreement	-9.40634
▁bas	-9.40647
▁attend	-9.40796
▁base	-9.40843
▁mass	-9.40947
ide	-9.41028
▁remark	-9.4103
▁cast	-9.41119
▁Kelly	-9.41313
▁seat	-9.41416
▁justice	-9.41538
▁Live	-9.41551
▁cost	-9.4156
▁fac	-9.41616
ney	-9.41634
ev	-9.41655
bb	-9.4168
▁liberal	-9.41703
ory	-9.41769
▁cities	-9.4178
▁injured	-9.41933
▁committee	-9.42018
ite	-9.42046
▁February	-9.42175
▁coverage	-9.42364
rs	-9.42383
▁spokesm	-9.42467
▁attention	-9.42492
▁Am	-9.42543
▁red	-9.42651
▁Year	-9.42683
▁Ad	-9.42703
ious	-9.42717
▁NFL	-9.42729
▁High	-9.42905
▁kill	-9.42988
▁fans	-9.43024
Y	-9.43187
▁round	-9.43194
▁Group	-9.43286
▁increasing	-9.43286
▁declared	-9.43308
▁Convention	-9.43366
▁conduct	-9.43366
▁bit	-9.43415
▁Z	-9.43516
▁Pi	-9.43649
▁budget	-9.43686
▁actor	-9.43786
▁Ka	-9.43858
given	-9.43871
▁200	-9.44009
▁King	-9.44226
▁roll	-9.44243
▁research	-9.44296
▁December	-9.44409
▁Rio	-9.44477
▁Speaker	-9.4455
▁events	-9.44581
▁tweet	-9.44599
▁2013	-9.44654
▁relationship	-9.44732
▁talks	-9.44775
▁fell	-9.44867
▁low	-9.44896
▁author	-9.44908
au	-9.44977
▁Ha	-9.45051
▁voting	-9.45057
▁everything	-9.45059
ging	-9.45068
▁Bank	-9.45123
▁Japan	-9.45134
▁Middle	-9.45138
▁abortion	-9.45392
▁Want	-9.45498
▁Gu	-9.45623
▁reality	-9.45708
▁Great	-9.45718
▁Plan	-9.45781
▁Law	-9.4593
▁Johnson	-9.45969
▁Watch	-9.46036
▁replace	-9.46038
▁Bo	-9.46271
▁warning	-9.46346
▁watch	-9.46411
▁politician	-9.46447
▁Most	-9.46467
▁significant	-9.46529
▁billionaire	-9.46529
▁means	-9.46561
▁Real	-9.46595
do	-9.4668
▁central	-9.46694
▁gay	-9.46718
▁Week	-9.469
▁Ta	-9.46942
ritten	-9.47028
▁doctor	-9.4704
▁refugees	-9.47111
▁Tim	-9.47124
fer	-9.47187
▁aide	-9.47211
▁Our	-9.47259
▁talking	-9.47277
▁Today	-9.47308
▁mind	-9.47344
▁Their	-9.47349
▁Pe	-9.47361
▁decline	-9.47371
▁class	-9.47423
▁write	-9.47444
ure	-9.47456
▁worst	-9.47619
ft	-9.47624
▁Sal	-9.47825
▁Spicer	-9.48024
▁reform	-9.48058
▁conflict	-9.48107
▁Christian	-9.48214
▁itself	-9.48242
ho	-9.48273
und	-9.48367
▁sure	-9.48431
▁instead	-9.48445
▁imp	-9.48468
▁paid	-9.48562
▁caus	-9.48581
ade	-9.48644
▁23	-9.48695
ron	-9.48827
▁mean	-9.48963
ement	-9.48991
▁Amazon	-9.49032
▁Korean	-9.49109
▁hate	-9.49113
▁Under	-9.49251
▁reporter	-9.49273
▁raised	-9.49282
▁Na	-9.49295
▁Vi	-9.49344
▁radio	-9.49369
▁majority	-9.49487
▁Conservative	-9.49543
▁else	-9.49547
▁Nav	-9.49576
▁everyone	-9.49599
ward	-9.49609
▁Brown	-9.49711
▁winning	-9.4972
ating	-9.49769
▁September	-9.49796
▁medical	-9.49797
▁Ban	-9.49798
▁campus	-9.49825
ble	-9.49888
▁broadcast	-9.49996
▁huge	-9.50019
▁congressional	-9.50051
▁Israeli	-9.50076
da	-9.50162
▁organization	-9.50169
▁UK	-9.50296
▁drive	-9.50382
▁defeat	-9.50394
▁anything	-9.50482
▁opposition	-9.50482
▁create	-9.50506
▁familiar	-9.50563
▁character	-9.50582
▁Sean	-9.50749
ay	-9.50764
ged	-9.50781
▁avoid	-9.50823
▁helped	-9.50901
▁road	-9.50913
▁safe	-9.51047
▁Border	-9.51084
▁iPhone	-9.51254
ator	-9.5136
▁Force	-9.51402
▁raise	-9.51478
▁learned	-9.51505
▁limit	-9.51517
▁scene	-9.51524
▁beat	-9.51583
▁check	-9.51614
▁criticiz	-9.51735
▁scientist	-9.51773
▁airport	-9.51785
▁performance	-9.51798
▁Anti	-9.519
▁Michigan	-9.51947
▁further	-9.51958
▁region	-9.52085
▁Pennsylvania	-9.52121
▁fatal	-9.52162
▁Brazil	-9.52191
▁Poll	-9.52242
▁accept	-9.5228
ler	-9.52586
▁Ca	-9.52617
▁district	-9.52646
▁Ar	-9.52668
▁send	-9.52722
▁Cleveland	-9.52821
▁voice	-9.52822
▁level	-9.52842
▁investigat	-9.52962
▁famous	-9.53001
ities	-9.53121
if	-9.53148
che	-9.53165
▁Campaign	-9.53173
▁original	-9.53211
▁pressure	-9.53325
▁District	-9.53349
▁worth	-9.53354
▁exact	-9.5336
▁rock	-9.5341
▁argu	-9.53468
mi	-9.53497
▁probe	-9.53559
▁hands	-9.53596
▁bomb	-9.53696
▁proposal	-9.53734
▁effect	-9.53759
▁prevent	-9.53791
▁storm	-9.53867
▁investors	-9.54033
▁legislati	-9.54043
giving	-9.54152
▁details	-9.54305
▁Sea	-9.54343
▁added	-9.5439
▁word	-9.54469
▁fr	-9.54491
old	-9.54562
▁save	-9.54566
▁Iraqi	-9.54579
ture	-9.54583
▁episode	-9.54681
fe	-9.54716
tro	-9.54928
▁term	-9.54966
▁able	-9.54979
▁build	-9.54984
▁militant	-9.55219
▁powerful	-9.55275
▁Bar	-9.55391
▁department	-9.55404
▁brief	-9.55438
▁expand	-9.55489
▁rest	-9.55535
▁goes	-9.55569
▁Many	-9.55617
▁Make	-9.55639
▁Indiana	-9.55675
▁forward	-9.55775
▁j	-9.55785
▁fill	-9.5581
▁perform	-9.5583
▁present	-9.55902
ville	-9.5603
▁NPR	-9.56031
▁practice	-9.56045
▁Foundation	-9.56048
▁protests	-9.56062
▁forc	-9.56146
▁gr	-9.56229
▁common	-9.56235
cu	-9.56276
▁Dallas	-9.56485
▁especial	-9.56485
▁prices	-9.5651
▁Council	-9.56942
▁tech	-9.57054
▁jail	-9.57125
▁votes	-9.57182
tan	-9.57224
▁owner	-9.57289
▁model	-9.5735
uff	-9.57384
▁Intelligence	-9.574
▁education	-9.574
▁hot	-9.5741
▁60	-9.57425
▁quickly	-9.57525
▁photo	-9.57548
▁Down	-9.57664
▁Hampshire	-9.57676
▁decade	-9.57683
▁brand	-9.57768
▁reject	-9.5786
▁African	-9.57948
uc	-9.58174
wa	-9.58303
▁store	-9.58398
▁Peter	-9.58461
▁gets	-9.58471
▁criticism	-9.58611
▁transition	-9.58615
▁Olympic	-9.58624
and	-9.58725
▁played	-9.58728
▁art	-9.58736
▁count	-9.5876
▁tough	-9.5881
▁speak	-9.58819
▁rare	-9.58953
▁surprise	-9.59005
▁October	-9.59067
▁mis	-9.59221
▁kids	-9.5924
▁church	-9.59254
▁Brooklyn	-9.59255
▁honor	-9.59255
iv	-9.59294
▁passenger	-9.59349
▁true	-9.59393
▁flag	-9.59432
▁August	-9.59442
▁warned	-9.59499
▁provid	-9.59607
▁Island	-9.59661
▁add	-9.59678
▁Christmas	-9.59818
▁Francisco	-9.59829
▁fast	-9.59847
▁allegations	-9.59879
▁Service	-9.59882
▁insurance	-9.60007
▁weapons	-9.60022
▁Dis	-9.60101
▁comment	-9.60129
ice	-9.60156
ec	-9.60189
▁MSNBC	-9.60195
▁contain	-9.60201
▁pass	-9.60258
▁magazine	-9.60384
▁Let	-9.60419
ug	-9.60449
▁fellow	-9.6049
▁lose	-9.60509
▁paper	-9.60574
▁Canada	-9.60674
▁Kim	-9.60708
board	-9.60742
▁loss	-9.60793
▁contest	-9.60833
▁camp	-9.60837
▁li	-9.60934
▁ruling	-9.60954
▁Martin	-9.6096
▁terrorism	-9.60992
▁Wisconsin	-9.61049
▁date	-9.61266
za	-9.61428
▁cl	-9.61506
▁eat	-9.61686
▁arriv	-9.61889
▁begin	-9.62042
▁repeated	-9.62101
▁offered	-9.6215
▁st	-9.62267
▁opening	-9.62411
ick	-9.62552
▁favor	-9.62674
▁exchange	-9.62682
▁Prince	-9.62683
▁multiple	-9.62683
▁immediately	-9.62688
▁anyone	-9.62732
qui	-9.62772
▁Che	-9.62837
▁broke	-9.62922
▁energy	-9.63264
▁birth	-9.6336
▁critical	-9.63363
▁worked	-9.63373
▁continu	-9.63446
▁cancer	-9.63462
ran	-9.63486
▁Sha	-9.63551
pl	-9.63572
▁pull	-9.63587
fa	-9.63744
▁gain	-9.63749
▁identified	-9.63753
▁compar	-9.6386
▁Game	-9.63907
▁Marine	-9.63937
▁involved	-9.63994
▁refus	-9.6403
▁audience	-9.64047
▁drop	-9.64049
▁agree	-9.64096
▁floor	-9.64145
▁fake	-9.64152
hu	-9.64194
▁Policy	-9.64317
▁Open	-9.64326
ina	-9.64343
tz	-9.64353
▁Va	-9.64433
▁Since	-9.64441
▁investment	-9.64453
▁announcement	-9.6446
▁slow	-9.64463
▁founder	-9.6448
▁Richard	-9.64546
▁planned	-9.64553
▁Arabia	-9.64678
▁wave	-9.64854
▁ready	-9.64862
▁throw	-9.64935
▁ho	-9.64979
▁Three	-9.65034
▁urge	-9.65039
▁Cr	-9.6509
▁ET	-9.65103
▁Long	-9.65165
▁hear	-9.65224
▁sentence	-9.65235
▁jump	-9.65236
held	-9.65241
kin	-9.65252
▁previous	-9.65255
▁peace	-9.65309
▁experts	-9.65408
going	-9.65432
▁users	-9.65449
pp	-9.65467
▁Against	-9.65471
▁appearance	-9.65632
▁gather	-9.65697
▁Jones	-9.65741
▁express	-9.65773
▁Vice	-9.6578
▁Ru	-9.65808
▁Business	-9.6583
▁families	-9.6583
▁goal	-9.65887
▁players	-9.66008
▁Georgia	-9.6603
▁hotel	-9.66081
▁opponent	-9.6613
▁truck	-9.66141
▁guilty	-9.66263
io	-9.66308
▁showing	-9.66362
ip	-9.66478
den	-9.66709
▁estate	-9.66739
▁cash	-9.66745
low	-9.66845
▁streets	-9.66954
▁Afford	-9.67037
▁damage	-9.67144
▁27	-9.67216
▁caught	-9.67248
▁gas	-9.67253
▁ABC	-9.67295
daily	-9.67358
▁Kill	-9.67399
▁services	-9.67413
▁Ri	-9.67507
az	-9.67509
▁page	-9.67539
well	-9.67624
▁remember	-9.67645
▁inauguration	-9.67751
▁lower	-9.67756
▁sports	-9.67785
▁born	-9.6787
▁virus	-9.67952
▁playing	-9.68025
▁abuse	-9.68169
row	-9.68259
▁club	-9.68267
▁En	-9.68352
▁subject	-9.68361
▁culture	-9.68362
▁poor	-9.68363
▁vow	-9.68377
▁sense	-9.6839
▁suit	-9.6839
▁faces	-9.68455
▁Bowl	-9.68456
▁blast	-9.68463
▁hall	-9.6874
▁suicide	-9.68771
by	-9.68796
▁nine	-9.68835
▁Gors	-9.68847
ett	-9.68861
▁kick	-9.68879
▁convict	-9.69001
▁inter	-9.69048
▁prime	-9.69081
▁problems	-9.69163
▁Mayor	-9.69163
▁newspaper	-9.69184
hr	-9.69283
▁Aleppo	-9.69287
▁similar	-9.69287
▁transgender	-9.69391
▁Could	-9.69391
▁sound	-9.69443
▁Win	-9.69459
▁dropp	-9.69522
▁challenge	-9.69525
▁figure	-9.6954
back	-9.69547
▁26	-9.6958
▁Administration	-9.69598
ex	-9.69675
▁Should	-9.69702
▁football	-9.69704
▁cars	-9.69705
▁professor	-9.69712
art	-9.69715
▁0	-9.6974
▁Say	-9.69769
▁coach	-9.69824
▁Agency	-9.69853
▁changed	-9.6988
▁apparently	-9.69881
▁Mosu	-9.69889
▁Afghanistan	-9.6991
▁understand	-9.70031
red	-9.70071
▁gone	-9.70076
▁Immigration	-9.70119
▁religious	-9.70119
▁rape	-9.70121
▁nam	-9.7024
▁blood	-9.70333
▁coast	-9.70433
▁Kasich	-9.70642
▁presumptive	-9.70647
▁driver	-9.70654
▁Human	-9.70695
▁tweeted	-9.70727
▁broad	-9.70736
▁apartment	-9.70865
▁dress	-9.70867
▁winner	-9.70909
▁disease	-9.70959
▁version	-9.71012
▁Valley	-9.71062
▁Public	-9.71062
▁shift	-9.71108
▁holding	-9.71307
▁Army	-9.71401
▁perhaps	-9.716
▁Mal	-9.71722
▁discussion	-9.71795
iz	-9.71796
▁fashion	-9.71802
▁speaking	-9.71816
ey	-9.7189
▁Smith	-9.71908
▁bus	-9.71977
greed	-9.72023
ition	-9.72081
▁violent	-9.72227
▁missing	-9.72253
▁Muslims	-9.72266
▁wake	-9.72334
▁Jr	-9.72391
▁difficult	-9.72441
▁boost	-9.72485
▁Fla	-9.7253
▁Foreign	-9.72547
▁kne	-9.72605
▁Internet	-9.72654
▁Rock	-9.72724
▁anti	-9.72749
▁regard	-9.72869
▁success	-9.72881
▁photos	-9.72909
▁hack	-9.72955
▁stopp	-9.72998
▁Night	-9.73107
▁Before	-9.73191
▁teacher	-9.73233
ath	-9.73236
▁Turkish	-9.73298
▁writer	-9.73318
▁28	-9.73374
▁Matter	-9.73417
▁Alex	-9.73423
▁Call	-9.73426
▁Mu	-9.73572
zi	-9.736
▁baby	-9.73623
▁Life	-9.73709
▁citizens	-9.73785
▁wild	-9.73836
▁Scalia	-9.73947
▁victim	-9.74063
J	-9.74162
▁computer	-9.74164
▁struggle	-9.74273
▁recall	-9.74382
▁Bay	-9.74399
▁Did	-9.74401
ire	-9.74424
▁screen	-9.74567
▁survey	-9.74599
all	-9.74662
fi	-9.74684
▁platform	-9.74708
▁neighborhood	-9.74712
▁higher	-9.74737
▁island	-9.74865
▁Central	-9.74927
▁Politics	-9.74927
▁Associat	-9.74968
▁historic	-9.75004
▁moving	-9.75147
▁198	-9.7515
▁initial	-9.75257
▁Home	-9.75278
▁box	-9.75296
ek	-9.75316
▁predict	-9.75433
▁briefing	-9.75649
▁Take	-9.75669
▁2008	-9.75823
▁usual	-9.75854
▁Top	-9.75924
ably	-9.75967
▁either	-9.76028
▁via	-9.76076
par	-9.76141
og	-9.7615
▁Col	-9.76151
ford	-9.76178
town	-9.76183
pi	-9.76209
▁suggested	-9.7624
▁Tesla	-9.7625
driving	-9.76257
▁lack	-9.76264
▁ways	-9.76351
struck	-9.76365
▁90	-9.76396
▁dollars	-9.76485
▁funding	-9.76493
▁parties	-9.765
▁cap	-9.76505
▁street	-9.76674
▁whom	-9.76677
▁internet	-9.76694
▁radical	-9.76694
▁View	-9.76699
▁favorite	-9.76704
▁pretty	-9.76806
lan	-9.76841
▁prompt	-9.77029
▁Fire	-9.77048
ified	-9.77112
▁ma	-9.77131
▁dangerous	-9.77153
▁Look	-9.77276
▁agenc	-9.77298
▁Meet	-9.77304
mar	-9.77366
▁note	-9.77396
▁pulled	-9.77449
▁holiday	-9.77477
▁Pope	-9.7759
▁above	-9.7759
head	-9.77838
▁needs	-9.77908
▁animal	-9.77929
▁previously	-9.78014
▁leadership	-9.78073
▁Nations	-9.78144
▁Governor	-9.78266
▁drink	-9.78266
▁CBS	-9.78291
fu	-9.78298
ane	-9.78319
ef	-9.78329
▁Bur	-9.78335
though	-9.78355
▁credit	-9.7838
▁Woman	-9.78493
▁trend	-9.78494
▁Du	-9.78509
▁Atlantic	-9.78563
▁Milo	-9.78577
▁changes	-9.78605
▁supposed	-9.78607
▁McCa	-9.78671
house	-9.7869
uck	-9.78715
losing	-9.78866
▁Dead	-9.78893
▁sanctions	-9.789
▁dark	-9.78913
ov	-9.78922
berg	-9.78948
▁easy	-9.78948
▁happen	-9.78955
▁-	-9.79012
▁average	-9.79067
▁safety	-9.7908
▁middle	-9.79176
▁wounded	-9.792
▁Channel	-9.7929
▁worse	-9.79393
▁Islam	-9.79425
▁England	-9.79519
▁player	-9.79563
▁Earth	-9.79634
▁simple	-9.79634
▁rough	-9.79635
▁emergency	-9.79899
▁teen	-9.79965
▁Fight	-9.80009
imply	-9.80017
▁Bi	-9.80024
▁29	-9.80047
qua	-9.80067
▁agenda	-9.80094
▁southern	-9.80094
▁hour	-9.80146
▁camera	-9.80203
▁felt	-9.80209
▁establishment	-9.80217
▁agents	-9.8022
▁successful	-9.80233
▁Fed	-9.80278
▁false	-9.80325
ny	-9.80385
▁sea	-9.80411
▁allowed	-9.80436
ink	-9.8046
act	-9.80486
ps	-9.80513
▁Capitol	-9.80556
tri	-9.80565
▁deni	-9.80596
▁headline	-9.80606
qu	-9.80618
▁period	-9.80788
▁fair	-9.80923
▁march	-9.80939
▁CIA	-9.8105
▁northern	-9.81254
▁Jewish	-9.81264
amp	-9.81448
▁whole	-9.81463
▁Mc	-9.81487
▁Vladimir	-9.81487
▁blow	-9.81531
we	-9.81546
▁45	-9.81731
▁Lu	-9.81809
▁racial	-9.81839
▁Christie	-9.81844
▁trail	-9.81904
▁retire	-9.81929
▁Lives	-9.81944
▁Arizona	-9.81956
▁Oregon	-9.81956
▁mayor	-9.82046
ja	-9.82086
ik	-9.82136
▁Canadian	-9.82191
▁profit	-9.82191
▁la	-9.8229
▁Se	-9.82356
down	-9.82372
▁era	-9.82434
▁panel	-9.82449
▁argument	-9.82467
▁shock	-9.82475
▁carrie	-9.82486
▁Defense	-9.82545
▁stream	-9.82545
bus	-9.82559
▁Officer	-9.82562
▁Mi	-9.82583
ze	-9.82619
▁conservatives	-9.82625
,000	-9.82663
▁album	-9.82663
▁Cor	-9.8267
▁Cuba	-9.82757
▁bathroom	-9.82781
▁science	-9.829
▁beginning	-9.82903
▁Political	-9.83018
▁armed	-9.83068
ile	-9.83081
▁believed	-9.83155
▁sale	-9.83174
▁traditional	-9.83212
▁Lee	-9.83251
▁Executive	-9.83256
▁laws	-9.83325
oli	-9.83613
▁specific	-9.83733
ass	-9.83805
▁server	-9.83809
▁Olympics	-9.83823
▁impact	-9.8386
▁plant	-9.8389
cut	-9.83892
▁dog	-9.8394
▁picture	-9.83954
▁Vote	-9.83965
▁dream	-9.83972
▁chair	-9.83976
▁door	-9.84013
▁schools	-9.84027
▁perfect	-9.84092
ue	-9.84175
▁Pat	-9.84205
▁insist	-9.84245
▁India	-9.84336
▁Men	-9.8436
▁God	-9.84422
ple	-9.84476
tch	-9.8453
har	-9.84577
▁schedul	-9.84633
▁delegates	-9.84717
ise	-9.84909
▁Government	-9.84935
▁Boston	-9.85058
▁Left	-9.85083
▁modern	-9.85178
▁199	-9.85247
▁Har	-9.85273
▁flood	-9.85299
▁contract	-9.85321
▁Philadelphia	-9.85421
▁influence	-9.85423
bra	-9.85446
▁Right	-9.85455
ped	-9.85539
▁labor	-9.8556
▁Red	-9.85627
▁park	-9.85656
▁patient	-9.85664
▁brain	-9.85666
▁Tiller	-9.85672
▁independent	-9.85786
hood	-9.85797
▁ran	-9.85798
▁telling	-9.85861
j	-9.8589
▁obtain	-9.85908
▁restaurant	-9.85946
▁path	-9.85952
▁band	-9.86045
▁bombing	-9.86137
▁Would	-9.86153
▁classified	-9.86161
▁promised	-9.86229
▁spread	-9.8623
▁Dec	-9.86273
▁conversation	-9.86325
▁Ver	-9.86327
▁Andrew	-9.86334
▁amount	-9.86397
▁frontrunner	-9.86398
▁quiet	-9.86399
▁Follow	-9.86521
▁Official	-9.86521
▁example	-9.86522
▁card	-9.86621
▁UN	-9.86634
▁Mon	-9.8667
▁Free	-9.86686
▁however	-9.86743
▁prosecutors	-9.86748
▁Sirius	-9.86767
▁League	-9.8689
▁vice	-9.86922
▁na	-9.86964
▁doubt	-9.87014
▁effective	-9.87059
spect	-9.8715
ee	-9.87192
▁shared	-9.87192
▁development	-9.87285
▁standard	-9.87408
▁games	-9.87425
▁fighter	-9.87509
▁beyond	-9.87509
▁exist	-9.87525
▁alone	-9.87549
▁bann	-9.87591
▁researcher	-9.87683
▁Jan	-9.87686
▁markets	-9.87721
▁Arm	-9.87733
▁century	-9.87758
▁sometime	-9.8781
▁Hu	-9.87852
ash	-9.87921
▁blame	-9.87978
▁controversy	-9.88007
▁Power	-9.88008
▁Well	-9.88037
▁describe	-9.88059
▁situation	-9.88132
ai	-9.88175
▁Pen	-9.88204
▁Journal	-9.88237
▁fit	-9.88277
▁Death	-9.88288
▁wait	-9.88378
▁Anthon	-9.88382
▁signal	-9.88404
▁confirmation	-9.88418
stood	-9.88438
▁Williams	-9.88476
du	-9.88484
▁rose	-9.88545
▁Wal	-9.88607
han	-9.88626
▁Global	-9.88633
▁sharp	-9.88633
▁spark	-9.88636
▁Help	-9.88636
▁failure	-9.88638
▁Louisiana	-9.88758
▁racist	-9.88759
▁regulator	-9.8876
▁2011	-9.88771
▁dismiss	-9.88889
▁customers	-9.8898
▁match	-9.89004
▁treatment	-9.89037
ual	-9.89065
▁Read	-9.89069
▁35	-9.8908
▁Matthew	-9.89136
▁2010	-9.89271
▁sold	-9.89295
▁dramatic	-9.89297
▁prove	-9.89302
▁80	-9.89389
ible	-9.89429
▁detail	-9.89543
her	-9.89585
▁hurt	-9.89643
ER	-9.89708
▁Wi	-9.89888
▁built	-9.89896
▁spend	-9.89912
▁Jackson	-9.89913
▁tour	-9.89961
▁notice	-9.89968
▁Blasio	-9.90024
▁fresh	-9.90024
▁debt	-9.90024
▁Da	-9.90054
▁pack	-9.90079
▁ambassador	-9.90151
▁Warren	-9.90279
▁Four	-9.90329
▁guard	-9.9035
the	-9.90374
▁Freedom	-9.90409
▁fine	-9.90503
▁Editor	-9.90534
▁Representative	-9.90534
▁super	-9.9062
ves	-9.90633
▁Pentagon	-9.90662
▁Brad	-9.90691
▁grant	-9.90696
▁vehicle	-9.90727
▁singer	-9.9074
▁fraud	-9.9079
▁gender	-9.90791
▁31	-9.90899
over	-9.90939
ank	-9.91002
▁critics	-9.91075
▁aren	-9.9109
▁producer	-9.91103
▁fuel	-9.91307
▁planning	-9.91319
▁Carson	-9.91349
ization	-9.91427
▁Dakota	-9.91434
▁blue	-9.91436
rr	-9.91477
▁End	-9.91536
▁BuzzFeed	-9.91563
▁Patriot	-9.91563
▁opinion	-9.91563
▁Love	-9.91603
▁spot	-9.91614
stone	-9.91643
▁gold	-9.91671
▁finding	-9.9176
▁closed	-9.91766
▁table	-9.91857
▁fix	-9.91966
▁settlement	-9.91969
mat	-9.9197
▁eyes	-9.92025
▁pop	-9.92058
▁offering	-9.92346
▁Gen	-9.92466
▁promise	-9.92515
▁Despite	-9.92597
▁sudden	-9.92603
▁Million	-9.92603
▁delay	-9.92603
▁highest	-9.92649
▁watching	-9.92705
▁normal	-9.92725
▁Colorado	-9.92733
▁draft	-9.92733
▁Tower	-9.92736
▁joke	-9.92737
ock	-9.92755
▁Iranian	-9.92788
▁Ch	-9.92791
▁advance	-9.92805
▁cross	-9.92845
▁population	-9.92884
ju	-9.9294
▁pic	-9.92963
▁70	-9.93062
▁extreme	-9.93126
▁Ne	-9.93152
ook	-9.9318
▁Video	-9.93258
▁actions	-9.93276
▁NBA	-9.93404
log	-9.93408
ib	-9.93434
▁names	-9.93449
▁Brussels	-9.93521
▁Review	-9.93533
▁strategy	-9.93653
▁Nov	-9.93692
▁Case	-9.93745
▁male	-9.93771
▁Cha	-9.9387
▁Secret	-9.93904
port	-9.93917
▁Institute	-9.93918
▁Michelle	-9.93933
▁Team	-9.93985
▁Then	-9.93991
▁domestic	-9.9405
▁Commission	-9.94297
▁Ivanka	-9.94315
▁taxes	-9.94344
▁carry	-9.94384
▁girls	-9.94408
▁ESPN	-9.94448
▁troops	-9.94582
▁formal	-9.94634
▁wonder	-9.94754
▁rising	-9.94852
▁connection	-9.94906
right	-9.94937
▁Cop	-9.94947
▁records	-9.95059
nch	-9.95075
▁Debate	-9.95116
▁wealth	-9.95117
▁grand	-9.95126
▁hair	-9.95132
▁Cuban	-9.95149
▁Charles	-9.95193
▁celebrat	-9.9523
▁Palestinian	-9.95251
izing	-9.9526
lor	-9.9526
quite	-9.95275
▁Know	-9.95384
gen	-9.95409
▁Jo	-9.95462
light	-9.95468
rate	-9.95521
▁Matt	-9.95531
▁involv	-9.95534
▁Hall	-9.95574
ert	-9.9562
▁relative	-9.95663
ana	-9.95687
▁pair	-9.95692
▁veteran	-9.95749
ily	-9.95768
▁text	-9.95794
vice	-9.95873
▁unusual	-9.95923
▁Mosco	-9.95925
▁Neil	-9.95996
▁drugs	-9.9601
▁h	-9.96047
▁straight	-9.96058
▁terms	-9.9606
unk	-9.96102
istic	-9.96105
▁Stop	-9.96167
▁Japanese	-9.96199
▁Art	-9.96441
▁Dan	-9.96474
ng	-9.96513
ugh	-9.96583
▁highlight	-9.96622
▁ship	-9.96637
▁Ab	-9.96692
▁Miami	-9.96737
▁Planned	-9.96743
rap	-9.96785
▁Yankees	-9.96789
nother	-9.96825
▁Frank	-9.96882
nder	-9.96966
▁DC	-9.97021
▁Mets	-9.97063
▁Western	-9.97148
▁intend	-9.97163
AN	-9.97192
▁complaint	-9.97242
▁drama	-9.97246
▁wins	-9.97283
▁north	-9.97328
AR	-9.9733
▁production	-9.97349
kept	-9.97357
▁union	-9.97365
▁deput	-9.97435
▁River	-9.97442
▁Speak	-9.97455
▁joint	-9.97475
▁Sch	-9.97513
▁rich	-9.97556
▁Roger	-9.97583
▁continues	-9.97599
▁Ti	-9.97657
cor	-9.97671
▁Romney	-9.97694
▁shut	-9.97809
▁Castro	-9.97841
▁mission	-9.97906
▁marriage	-9.97988
▁197	-9.97994
▁easi	-9.98
tle	-9.98052
▁Angel	-9.98102
▁combat	-9.98109
▁exit	-9.9818
▁areas	-9.98269
win	-9.98272
althcare	-9.98321
▁sleep	-9.98363
▁traffic	-9.98372
▁investigator	-9.98377
▁Space	-9.98385
can	-9.98395
▁score	-9.98426
▁Mil	-9.9847
▁fan	-9.98496
▁university	-9.98522
▁ticket	-9.98523
▁voter	-9.98623
▁related	-9.98627
oft	-9.98628
▁chain	-9.98662
▁Manchester	-9.98664
▁accounts	-9.9867
▁refugee	-9.9869
▁Association	-9.98748
air	-9.98763
▁operation	-9.98763
▁Fe	-9.98817
▁Ju	-9.98855
▁referr	-9.98906
▁advocate	-9.98921
▁unveil	-9.98939
▁Presidential	-9.98969
▁confirm	-9.9899
▁WikiLeaks	-9.99078
▁Indian	-9.99122
▁contact	-9.99218
▁highly	-9.99243
▁Still	-9.9927
▁Church	-9.99497
ram	-9.995
▁relations	-9.99502
▁Eric	-9.99541
▁Education	-9.99637
▁guy	-9.99646
▁Yet	-9.99721
▁parts	-9.99751
▁Alabama	-9.99778
▁colleague	-9.99778
▁reflect	-9.99778
▁revenue	-9.99778
▁196	-9.99795
▁trouble	-9.99805
▁sit	-9.99853
rt	-9.99913
▁standing	-10.0003
▁fourth	-10.0006
▁Ber	-10.0007
▁Australia	-10.0007
▁businesses	-10.0012
▁Turn	-10.0016
▁Ali	-10.0018
eg	-10.0018
▁remov	-10.0021
chi	-10.0025
▁putt	-10.003
▁language	-10.0034
▁allie	-10.0042
▁Food	-10.0051
BO	-10.0058
▁Civil	-10.0062
▁Constitution	-10.0063
field	-10.007
▁Late	-10.0074
▁Mac	-10.0075
▁rating	-10.0084
▁dollar	-10.0089
▁weigh	-10.0101
▁tweets	-10.0102
served	-10.0105
▁bag	-10.0113
▁mistake	-10.0119
▁trust	-10.0121
▁Ital	-10.0125
▁truth	-10.0129
▁available	-10.0133
▁See	-10.0135
▁approved	-10.0136
▁Reagan	-10.0148
▁Thomas	-10.0148
▁spring	-10.0159
▁Sheriff	-10.0162
nstead	-10.0162
▁Gra	-10.0164
▁Exclusive	-10.0176
▁dispute	-10.0177
▁Pan	-10.018
▁please	-10.0184
▁Ed	-10.0185
ecause	-10.0187
▁products	-10.0187
▁Africa	-10.0191
▁Francis	-10.0203
oo	-10.0205
▁lift	-10.0209
ify	-10.0219
▁material	-10.0219
▁reporting	-10.0221
▁Sh	-10.0221
▁guest	-10.0222
▁claiming	-10.0232
▁champion	-10.0234
where	-10.0235
▁aid	-10.0236
work	-10.0237
▁surge	-10.0237
▁rais	-10.0239
▁Social	-10.024
▁respect	-10.024
▁factor	-10.0242
▁pledge	-10.0245
▁snow	-10.0249
▁Ten	-10.0253
▁basic	-10.0258
▁Parenthood	-10.0263
▁Rob	-10.0265
wide	-10.0267
▁communication	-10.0272
set	-10.0274
▁Su	-10.0284
▁lay	-10.0287
ung	-10.0289
▁treat	-10.0289
▁Kushner	-10.0291
▁debut	-10.0293
▁protection	-10.0295
▁divers	-10.03
▁Arab	-10.0302
▁eastern	-10.0306
▁song	-10.0307
▁views	-10.0314
ou	-10.0315
▁operations	-10.0316
▁mom	-10.0319
▁Silicon	-10.032
▁49	-10.0326
▁elections	-10.0328
▁complete	-10.0328
▁chose	-10.0337
▁gunman	-10.0339
▁Other	-10.034
▁History	-10.0349
▁prominent	-10.0364
val	-10.0367
▁Deal	-10.0371
▁Ko	-10.0376
▁funds	-10.038
rd	-10.0382
▁featur	-10.0382
▁opportunit	-10.0387
▁elite	-10.0393
▁Nevada	-10.0408
▁stake	-10.0408
▁Egypt	-10.0421
▁chemical	-10.0423
▁lines	-10.0423
▁Face	-10.0423
▁green	-10.0427
▁content	-10.0437
▁occurred	-10.0438
▁William	-10.0441
▁faced	-10.0442
ker	-10.0455
▁Science	-10.0467
▁ballot	-10.0468
lar	-10.0468
ore	-10.0472
▁touch	-10.0477
uit	-10.0477
▁Rights	-10.048
▁novel	-10.0482
▁Trade	-10.0502
▁designed	-10.0506
gar	-10.0509
▁Protest	-10.0509
▁neighbor	-10.051
▁sweep	-10.0511
▁trading	-10.0511
▁Chairman	-10.0513
▁eye	-10.0523
▁Trans	-10.0524
▁Van	-10.0529
▁al	-10.053
rat	-10.0531
▁flow	-10.0544
▁emerged	-10.0559
▁LGBT	-10.056
▁carrying	-10.0563
▁Never	-10.0564
▁sort	-10.0567
▁photograph	-10.0567
▁session	-10.0571
▁actress	-10.0571
▁alien	-10.0573
▁wage	-10.0576
ea	-10.0579
▁surprising	-10.0585
maker	-10.0587
iro	-10.0597
▁Ku	-10.0598
▁Adam	-10.0601
▁sitting	-10.0603
▁jet	-10.0608
▁Jim	-10.0619
▁cat	-10.0625
▁jury	-10.063
▁Biden	-10.0631
▁brother	-10.0632
▁natural	-10.0645
▁clean	-10.0661
▁sister	-10.0668
▁Off	-10.068
▁meant	-10.0686
▁digital	-10.069
▁seiz	-10.0691
▁boss	-10.0691
▁agent	-10.0691
▁value	-10.0693
▁Labor	-10.0693
▁Venezuela	-10.0694
ight	-10.0695
▁generation	-10.0715
▁wind	-10.0719
▁maker	-10.0722
▁gang	-10.0724
▁Avenue	-10.0736
zz	-10.0736
▁planet	-10.0737
▁award	-10.0738
▁celebrate	-10.0747
▁sub	-10.0748
▁speaker	-10.0759
▁returns	-10.077
▁require	-10.0773
com	-10.0774
▁ideas	-10.0774
▁vi	-10.0775
▁scar	-10.0777
▁responsibl	-10.0781
▁Academ	-10.0781
▁dinner	-10.0782
▁prospect	-10.0783
▁books	-10.0791
▁Yahoo	-10.0796
▁brutal	-10.0796
▁Bu	-10.0808
▁Need	-10.0808
▁foot	-10.081
▁Elizabeth	-10.0812
▁channel	-10.0812
▁rhetoric	-10.0812
▁Chuck	-10.0812
▁Ask	-10.082
▁300	-10.0832
▁returned	-10.0833
▁Land	-10.0833
▁professional	-10.0842
▁Book	-10.0845
▁Change	-10.0857
▁Miss	-10.0857
▁status	-10.0859
▁homes	-10.0861
▁Congressional	-10.0873
▁admitted	-10.0874
▁Josh	-10.0876
lam	-10.0879
▁mention	-10.088
▁Chelsea	-10.0888
▁remove	-10.0891
▁range	-10.0892
▁label	-10.0893
▁stated	-10.0893
▁Catholic	-10.0904
▁complex	-10.0904
▁interfer	-10.0905
▁setting	-10.0917
▁soldiers	-10.0928
list	-10.0942
▁leg	-10.0948
▁disaster	-10.095
▁Morning	-10.095
▁Way	-10.0954
ette	-10.0955
af	-10.0956
▁Rick	-10.0956
▁severe	-10.0961
▁ball	-10.0962
▁Yes	-10.0969
▁halt	-10.0969
▁enjoy	-10.0981
▁income	-10.0982
▁Fund	-10.0984
▁Ba	-10.0986
tar	-10.0991
▁captur	-10.0999
▁works	-10.101
▁approval	-10.1012
▁Yemen	-10.1012
▁mid	-10.1016
jo	-10.1016
bu	-10.1019
▁bear	-10.1019
▁threatened	-10.1024
▁Kansa	-10.1027
▁twitter	-10.1027
▁Homeland	-10.103
▁cell	-10.1049
▁mark	-10.1054
▁di	-10.1054
▁feeling	-10.1057
▁ceremony	-10.1059
▁window	-10.106
▁Ge	-10.1062
cho	-10.1064
▁Bad	-10.1068
▁separate	-10.107
▁machine	-10.1074
▁regime	-10.1075
▁Gar	-10.1076
▁south	-10.1079
▁reasons	-10.108
▁inspir	-10.1086
▁referendum	-10.109
table	-10.1091
▁Bridge	-10.1092
▁training	-10.1101
▁thanks	-10.1118
▁Updat	-10.1119
▁Control	-10.1119
▁offensive	-10.1121
▁struggling	-10.1121
▁corner	-10.113
▁Reserve	-10.1141
▁Work	-10.115
▁Bob	-10.1153
▁rush	-10.1153
▁DNC	-10.1155
▁Han	-10.1159
▁Stone	-10.1173
▁Jeb	-10.1174
▁Fall	-10.1175
▁mental	-10.1183
▁Netflix	-10.1185
▁Than	-10.1187
▁prosecutor	-10.1189
▁levels	-10.1197
▁institution	-10.1197
▁Instagram	-10.12
▁type	-10.1208
▁Into	-10.1209
▁suffered	-10.1213
ua	-10.1214
ept	-10.122
tain	-10.1221
▁artist	-10.1222
▁develop	-10.1228
▁officially	-10.123
▁progressive	-10.1235
▁testimon	-10.1248
▁Where	-10.125
cent	-10.1253
▁dec	-10.1258
▁Airport	-10.1265
▁Beach	-10.127
▁Louis	-10.1274
▁Pay	-10.1287
▁Italian	-10.1298
▁Jon	-10.13
▁Five	-10.1301
▁plead	-10.1305
life	-10.1307
▁Schumer	-10.1312
▁quarterback	-10.1313
▁Palm	-10.1315
▁400	-10.1316
▁Rose	-10.1318
▁stars	-10.1323
rew	-10.1326
▁Sarah	-10.1328
▁Tech	-10.133
year	-10.1331
▁Race	-10.1337
▁Houston	-10.1344
▁airline	-10.135
▁turns	-10.1352
ko	-10.1354
▁condemn	-10.1356
▁Tra	-10.136
▁thinking	-10.136
▁firing	-10.136
▁baseball	-10.1361
ON	-10.1363
▁grow	-10.1363
▁Protection	-10.1364
▁em	-10.137
▁golf	-10.1377
▁various	-10.1377
▁guns	-10.1383
▁Family	-10.1393
▁regulations	-10.1393
▁learn	-10.1394
▁sentenc	-10.1397
▁Won	-10.1398
RE	-10.1399
▁vehicles	-10.14
▁Politico	-10.1409
▁2009	-10.1411
▁minorit	-10.1411
▁stocks	-10.1414
▁Melania	-10.1425
▁hunt	-10.1425
▁upon	-10.143
▁helping	-10.1433
rie	-10.1438
▁Australian	-10.1456
▁Think	-10.1457
▁Music	-10.1463
▁mix	-10.1463
▁partner	-10.1463
▁Libya	-10.1474
▁promises	-10.1475
▁II	-10.148
▁color	-10.149
▁Second	-10.149
▁closer	-10.1502
▁sector	-10.1507
▁freedom	-10.1507
▁Bas	-10.1508
▁Ever	-10.151
▁teenager	-10.1516
rich	-10.1516
▁Only	-10.1518
▁suspended	-10.1521
▁Migrant	-10.1523
▁Claim	-10.1523
▁Southern	-10.1523
▁catch	-10.1524
▁collect	-10.1527
▁mate	-10.153
mit	-10.1534
▁edge	-10.1536
▁individual	-10.1537
▁Yiannopoulo	-10.1539
▁corporate	-10.1539
q	-10.1543
nger	-10.1553
▁waiting	-10.1556
Trump	-10.1561
▁double	-10.1564
▁reaction	-10.1573
▁corruption	-10.1575
DA	-10.1575
▁discussed	-10.1577
▁crimes	-10.1581
day	-10.1585
▁Square	-10.1589
▁Both	-10.1597
▁Years	-10.1601
ki	-10.1602
▁import	-10.1603
▁Hand	-10.1605
▁Bro	-10.1607
▁Lead	-10.1609
▁hacking	-10.1614
▁hop	-10.1615
▁linked	-10.1621
▁trans	-10.1625
aught	-10.1627
vin	-10.1629
▁Jar	-10.1634
▁Corp	-10.1638
▁Minnesota	-10.1638
▁costs	-10.1639
▁detain	-10.164
▁invit	-10.1641
ude	-10.1646
▁Sam	-10.1648
▁fun	-10.1649
▁possibilit	-10.1655
▁Bri	-10.1656
▁Six	-10.1656
▁introduc	-10.1658
▁Rev	-10.1668
▁Airline	-10.1674
▁fears	-10.1674
▁Part	-10.1678
▁draw	-10.1681
▁file	-10.1688
▁Bra	-10.169
pro	-10.1691
▁listen	-10.1702
▁exclusive	-10.1705
cha	-10.1705
gue	-10.1706
▁pitch	-10.1713
▁Nation	-10.1717
▁correct	-10.1719
▁YouTube	-10.1721
▁unprecedented	-10.1721
▁nightclub	-10.1721
▁product	-10.1724
IC	-10.1729
OR	-10.173
▁Again	-10.1731
▁rid	-10.1732
▁Note	-10.1736
▁ultimate	-10.1738
▁trigger	-10.1738
ILO	-10.1738
tiny	-10.1743
▁Tax	-10.1746
▁Disney	-10.1756
▁Drug	-10.1757
▁Del	-10.1759
▁Islamist	-10.1766
▁location	-10.1769
▁Best	-10.1769
rick	-10.1772
▁Final	-10.1774
▁English	-10.1788
▁cyber	-10.1788
▁completely	-10.1793
▁destroy	-10.1797
▁sending	-10.1801
▁Jerusalem	-10.1805
▁coalition	-10.1806
▁lock	-10.1812
▁tension	-10.1815
▁Find	-10.1821
lain	-10.1822
30	-10.1823
tin	-10.1826
▁reading	-10.1827
▁Voters	-10.183
▁style	-10.1831
▁Afghan	-10.1839
IN	-10.1854
▁Shi	-10.1855
▁Speech	-10.1856
▁Sex	-10.1858
▁Em	-10.1866
NATO	-10.1874
▁App	-10.1882
▁Young	-10.1888
iest	-10.1889
▁Carl	-10.1893
lock	-10.1899
▁identity	-10.1901
▁size	-10.1901
▁staffer	-10.1903
▁rain	-10.1916
ich	-10.1923
▁Massachus	-10.1924
▁Scientist	-10.1924
etts	-10.193
let	-10.1939
▁athlete	-10.1941
▁Daniel	-10.1941
itch	-10.1942
▁endorsement	-10.1944
▁speed	-10.1948
▁Support	-10.1953
room	-10.1955
▁warn	-10.1957
▁Baltimore	-10.1958
▁drone	-10.1958
gle	-10.197
ino	-10.1971
▁NASA	-10.1975
▁smartphone	-10.1975
▁competition	-10.1975
pping	-10.1985
▁manag	-10.1988
▁react	-10.1991
▁software	-10.1993
▁clash	-10.1993
cri	-10.1996
▁Thank	-10.1998
▁Inside	-10.2006
gi	-10.201
▁decide	-10.2017
▁affect	-10.202
▁unexpected	-10.2027
▁construction	-10.2029
▁nominat	-10.2031
▁row	-10.2038
▁Oklahoma	-10.2044
▁shop	-10.2064
▁Wild	-10.2065
▁Ford	-10.2068
mark	-10.2071
▁Atlanta	-10.2078
▁Kerry	-10.2079
▁Ke	-10.2092
▁difference	-10.2096
▁crack	-10.2098
▁Jason	-10.2098
▁USA	-10.2113
▁stretch	-10.2113
▁admit	-10.2116
▁footage	-10.2116
▁background	-10.2117
▁dies	-10.2123
▁finish	-10.2126
▁Play	-10.2129
▁attract	-10.2129
▁outrage	-10.2129
▁commercial	-10.2131
▁apparent	-10.2136
▁swing	-10.2145
▁Golden	-10.2147
▁Oscar	-10.2148
▁typical	-10.2148
▁electric	-10.2148
▁Goldman	-10.2151
▁charit	-10.2154
▁newly	-10.2157
▁36	-10.2159
▁property	-10.2165
▁village	-10.2165
▁Bomb	-10.2166
▁div	-10.2174
▁k	-10.2177
rac	-10.2179
fare	-10.218
▁committed	-10.2184
▁Order	-10.2187
pt	-10.2193
▁mo	-10.2193
▁topic	-10.2199
▁Amendment	-10.22
▁Awards	-10.2201
ium	-10.2201
rte	-10.2205
late	-10.2206
fire	-10.2211
▁wound	-10.2214
▁Thos	-10.2218
▁broken	-10.2231
▁Chap	-10.2234
▁obvious	-10.2236
▁Coast	-10.2236
▁75	-10.2239
▁sat	-10.2241
▁Head	-10.2242
▁Fl	-10.2252
▁aggressive	-10.2253
▁narrow	-10.2254
ump	-10.2255
▁Sc	-10.2257
▁figures	-10.226
ute	-10.2265
▁cable	-10.2273
▁filing	-10.2274
▁Him	-10.2274
▁Rex	-10.2275
▁Knicks	-10.2288
▁sides	-10.2292
ES	-10.2303
▁messages	-10.2303
▁Jordan	-10.2306
▁http	-10.2306
▁legac	-10.2308
ative	-10.2309
▁watched	-10.2316
▁Bloomberg	-10.2324
▁Kennedy	-10.2324
EN	-10.2329
▁par	-10.2331
▁knows	-10.2337
▁Phil	-10.2339
▁Sign	-10.2339
▁concert	-10.2342
▁resolution	-10.2342
▁aircraft	-10.2343
▁announce	-10.2347
▁terrorists	-10.2347
rop	-10.2353
▁reduce	-10.2358
▁counter	-10.2366
▁barr	-10.2374
▁Blue	-10.2378
▁Theresa	-10.238
▁tru	-10.2388
▁Chi	-10.2398
fo	-10.2402
▁Climate	-10.2413
▁renew	-10.2413
▁analysis	-10.2415
▁Merkel	-10.2431
wood	-10.2431
▁civilians	-10.2436
▁Prie	-10.2436
▁Er	-10.2439
▁die	-10.2442
▁pos	-10.2444
▁angry	-10.2449
▁Reil	-10.2449
▁vast	-10.2449
▁anchor	-10.2449
▁Todd	-10.2451
lm	-10.2464
▁register	-10.2467
▁heavy	-10.2467
sby	-10.2472
ult	-10.248
▁Jew	-10.2484
dge	-10.2484
▁ring	-10.2485
▁virtual	-10.2485
▁Utah	-10.2485
▁harassment	-10.2486
▁cold	-10.2488
▁Mean	-10.2492
mart	-10.2499
dding	-10.2504
▁NYPD	-10.2521
▁Keep	-10.2521
▁recover	-10.2529
print	-10.2529
▁tourist	-10.2537
▁Special	-10.2539
▁Ken	-10.2539
▁Jane	-10.255
▁rap	-10.2554
▁Maryland	-10.2559
▁injuries	-10.256
▁leak	-10.2573
▁engineer	-10.2574
ware	-10.2575
▁Miller	-10.2577
▁programs	-10.2578
▁Does	-10.2579
▁hid	-10.2585
▁killer	-10.2587
lle	-10.2588
ita	-10.2589
▁Comp	-10.2589
▁hacker	-10.259
▁headquarters	-10.2594
▁physical	-10.2594
▁pound	-10.2594
▁raid	-10.2603
▁tree	-10.2603
▁slamm	-10.2607
▁Beijing	-10.2612
▁extra	-10.2612
▁possibl	-10.2615
▁weapon	-10.2627
▁2018	-10.263
▁happy	-10.263
▁accusation	-10.2652
▁anniversar	-10.2667
▁behavior	-10.2667
▁Asia	-10.2667
▁stuff	-10.2669
▁choose	-10.2674
pur	-10.2678
rself	-10.268
self	-10.2681
▁lobby	-10.2685
▁McConn	-10.2686
▁Students	-10.2691
▁worri	-10.2694
▁pain	-10.2701
▁robot	-10.2704
▁estimate	-10.271
▁Kain	-10.2711
▁associate	-10.2712
▁Key	-10.2712
▁Tho	-10.2717
▁Son	-10.2717
▁threatening	-10.2724
▁publisher	-10.2726
▁hike	-10.2742
▁escape	-10.2743
▁comedy	-10.2745
▁Test	-10.2747
ew	-10.2752
▁purchase	-10.2759
▁serving	-10.2759
▁prepar	-10.2761
▁diplomatic	-10.2765
▁winter	-10.2773
▁closing	-10.278
▁eventual	-10.2781
▁Tennessee	-10.2796
▁employee	-10.2799
▁witness	-10.2799
▁oppos	-10.2802
AL	-10.2803
▁bare	-10.2804
▁smart	-10.2809
▁Bureau	-10.2815
▁faith	-10.2815
▁ride	-10.2815
▁Kentuck	-10.2815
▁adopt	-10.2815
▁investigate	-10.2819
▁communitie	-10.2819
▁flee	-10.282
▁accident	-10.2835
▁parent	-10.284
▁happens	-10.284
▁nearby	-10.2841
▁design	-10.2853
state	-10.2856
▁Fi	-10.2856
▁beach	-10.2861
▁stick	-10.2862
▁wish	-10.2862
▁margin	-10.2871
▁Antonin	-10.2871
▁Giants	-10.2887
▁Kellyanne	-10.289
▁responsibilit	-10.289
▁pilot	-10.289
▁abandon	-10.289
▁secure	-10.2891
▁threaten	-10.29
▁movies	-10.2907
▁payment	-10.2908
▁Zuckerberg	-10.2909
▁alarm	-10.2909
▁investor	-10.2918
▁sick	-10.2919
▁prepared	-10.2919
▁mock	-10.2922
▁stands	-10.2922
night	-10.2925
▁unlikely	-10.2927
▁disrupt	-10.2927
▁pipeline	-10.2928
▁Te	-10.2931
place	-10.2945
▁Class	-10.2946
▁Image	-10.2946
top	-10.2949
▁Old	-10.2949
▁prepare	-10.2949
▁prop	-10.295
▁replacement	-10.2954
▁Rand	-10.2954
▁Pakistan	-10.2957
▁begins	-10.2958
ax	-10.2962
▁harm	-10.2968
▁surrounding	-10.2968
tre	-10.2971
▁object	-10.2973
▁Ann	-10.2973
▁pregnant	-10.2984
▁twice	-10.2984
gre	-10.2987
▁anger	-10.2997
▁dig	-10.2999
▁concerned	-10.3002
▁marijuana	-10.3003
▁nationwide	-10.3005
▁Calls	-10.3007
▁32	-10.3009
▁ice	-10.3011
▁ignor	-10.3014
▁endors	-10.3016
▁Little	-10.3022
▁internal	-10.3022
▁bond	-10.3022
▁finance	-10.3026
▁stores	-10.3027
▁league	-10.3031
▁laugh	-10.3034
▁Research	-10.3041
▁Charlotte	-10.3041
▁Price	-10.3044
▁documentar	-10.3054
▁Jack	-10.3056
▁gre	-10.3063
▁involve	-10.3068
ix	-10.307
▁stunning	-10.3071
▁capture	-10.3077
▁challenges	-10.3078
▁Moore	-10.3081
▁NEWS	-10.3085
▁33	-10.3085
ball	-10.3086
▁startup	-10.3088
▁Christians	-10.3094
▁dad	-10.3096
▁cultural	-10.3098
▁terribl	-10.3098
cal	-10.3106
▁Steven	-10.311
▁active	-10.3112
▁hat	-10.3113
▁explosion	-10.3118
▁Arrest	-10.3118
▁Too	-10.3121
▁complain	-10.3123
▁additional	-10.3129
▁Student	-10.3131
▁rescue	-10.3131
▁positive	-10.3137
▁Sports	-10.3138
▁cheer	-10.3139
▁journal	-10.3146
▁heads	-10.3149
▁conspiracy	-10.3156
▁Calif	-10.3157
▁Action	-10.3164
tu	-10.3167
▁Thousand	-10.3175
AM	-10.3188
▁Khan	-10.3213
▁Record	-10.3214
▁expectations	-10.3215
▁Hi	-10.3217
ox	-10.3223
book	-10.3227
▁danger	-10.3232
▁Water	-10.3234
▁DeVos	-10.3234
▁Detroit	-10.3234
▁Network	-10.3234
▁democracy	-10.3234
▁environmental	-10.3235
cher	-10.3236
fin	-10.3249
▁progress	-10.325
drew	-10.3251
▁lady	-10.3253
▁crew	-10.3256
▁quit	-10.3262
▁videos	-10.3265
▁Grand	-10.3266
▁Ni	-10.3268
▁benefit	-10.3271
▁marri	-10.3272
▁Dylan	-10.3273
▁Guardian	-10.3274
ari	-10.3275
▁Economic	-10.3276
▁Side	-10.3276
ean	-10.3277
▁Nazi	-10.3278
▁analysts	-10.3281
▁inmate	-10.3281
▁Tell	-10.3282
▁Beck	-10.3283
▁sport	-10.3286
▁Vegas	-10.3292
dic	-10.3293
▁individuals	-10.3295
▁Gre	-10.3295
▁sw	-10.3306
ott	-10.3321
▁Rich	-10.3326
▁Eastern	-10.3326
▁escalat	-10.3331
▁moderate	-10.3335
▁operat	-10.3351
▁electoral	-10.3351
cus	-10.3351
itt	-10.337
▁yesterday	-10.3371
▁task	-10.3371
▁Club	-10.3371
▁Philippines	-10.3377
▁Gary	-10.3377
▁readers	-10.3384
▁appoint	-10.3386
▁Macro	-10.3387
▁shape	-10.3389
▁Cal	-10.339
▁explosive	-10.339
▁disappear	-10.339
▁Par	-10.3396
▁Fan	-10.3402
▁Mother	-10.3405
▁territory	-10.341
▁seriously	-10.3413
▁bust	-10.3415
▁upset	-10.3416
▁Sub	-10.342
▁weak	-10.3421
▁leaked	-10.3428
▁feed	-10.3429
▁sun	-10.3429
▁boat	-10.343
▁activity	-10.3431
employment	-10.3433
▁visa	-10.3438
▁statements	-10.3447
▁Cuomo	-10.345
▁Missouri	-10.345
▁Next	-10.345
▁square	-10.345
▁Critic	-10.345
▁Organization	-10.3451
▁transcript	-10.347
▁Gi	-10.347
tric	-10.3473
▁Fort	-10.3478
▁weight	-10.3479
▁Boy	-10.3488
▁engag	-10.3489
▁Hamilton	-10.349
▁ethic	-10.349
▁Come	-10.3491
lated	-10.3492
▁memo	-10.3495
▁executives	-10.3502
▁breath	-10.3509
▁bodie	-10.351
▁du	-10.3515
chin	-10.3522
▁PM	-10.3522
▁headed	-10.3523
▁Lake	-10.3528
▁Puerto	-10.3529
▁housing	-10.353
▁worry	-10.3531
oun	-10.3536
▁ending	-10.3536
▁Stein	-10.3537
▁quick	-10.3542
body	-10.3546
▁Netanyahu	-10.355
▁custody	-10.355
▁forecast	-10.355
lot	-10.3553
▁Dem	-10.3555
▁min	-10.3556
▁Fre	-10.3558
ration	-10.356
▁Justin	-10.3562
▁shooter	-10.3562
▁pal	-10.3563
▁challeng	-10.3568
▁surveill	-10.357
▁maintain	-10.3571
▁weather	-10.359
▁benefits	-10.3592
▁photographer	-10.3594
Kevin	-10.3596
▁manufactur	-10.3597
▁Ja	-10.3601
▁organizations	-10.3604
▁owners	-10.3605
▁Crime	-10.361
▁pool	-10.361
▁Musk	-10.361
▁routine	-10.361
▁Email	-10.3612
▁NYC	-10.3612
▁inform	-10.3613
▁Got	-10.3615
tter	-10.3617
▁rank	-10.3625
▁positions	-10.3627
▁signature	-10.363
▁Point	-10.363
▁gu	-10.3631
▁failing	-10.3633
▁2005	-10.3634
▁prais	-10.3638
▁mainstream	-10.3651
▁Services	-10.3657
▁constitutional	-10.3659
▁Kaepernick	-10.3671
▁gift	-10.3671
▁Mid	-10.3684
cation	-10.3685
▁vision	-10.3687
▁degree	-10.3691
▁division	-10.3691
▁Own	-10.3692
▁Harry	-10.3696
▁plot	-10.3701
▁Investigation	-10.3716
▁thank	-10.3727
ility	-10.3731
▁Hard	-10.3731
▁Laur	-10.3743
tru	-10.3748
▁confront	-10.3749
▁viewers	-10.3753
▁consumer	-10.3755
▁walking	-10.3757
▁Teen	-10.3759
▁classic	-10.3775
▁regular	-10.3787
▁resign	-10.3789
▁Ronald	-10.3793
▁Davis	-10.3793
how	-10.3796
▁blam	-10.3803
▁Harvard	-10.3814
▁massacre	-10.3814
form	-10.3818
sky	-10.3822
▁Gri	-10.3822
▁marked	-10.3823
▁heat	-10.3829
▁Pacific	-10.3834
▁Battle	-10.3835
▁Nearly	-10.3837
▁Story	-10.3841
▁hedge	-10.3846
▁Shooting	-10.3854
▁devices	-10.3854
▁negotiat	-10.3856
▁rocket	-10.3862
▁Colin	-10.3863
▁mess	-10.3872
▁treated	-10.3875
▁Radio	-10.3875
▁Cabinet	-10.3876
▁shout	-10.3877
▁bull	-10.3881
TA	-10.3889
▁covered	-10.389
RA	-10.3891
care	-10.3892
▁happening	-10.3895
▁changing	-10.3897
▁steal	-10.3897
▁Talk	-10.3908
of	-10.391
pped	-10.3911
▁Caucus	-10.3917
▁Illegal	-10.3917
▁knock	-10.3918
▁Fast	-10.3918
▁Games	-10.3918
▁43	-10.3918
▁para	-10.392
hold	-10.392
▁nations	-10.3924
▁Dar	-10.3929
▁command	-10.3956
my	-10.3957
▁crude	-10.396
▁Brian	-10.3968
▁pe	-10.3976
▁Vermont	-10.398
▁Field	-10.398
▁solid	-10.3981
▁Vox	-10.3983
▁auto	-10.3986
▁emotional	-10.3988
▁handl	-10.3992
dor	-10.4
▁Children	-10.4001
▁immigrant	-10.4002
▁device	-10.4007
▁medal	-10.4008
nes	-10.4008
▁Oil	-10.4013
▁Ram	-10.4015
▁Illinois	-10.4022
▁currenc	-10.4022
▁37	-10.4027
▁boo	-10.4037
▁Protester	-10.4046
▁Majority	-10.4046
▁48	-10.4048
▁Things	-10.406
▁Start	-10.406
arch	-10.4062
▁chaos	-10.4064
▁shopping	-10.4064
▁Town	-10.4064
ification	-10.4065
▁collection	-10.4076
▁Micros	-10.4079
zer	-10.4079
▁Za	-10.4084
▁monitor	-10.4085
▁climb	-10.4085
▁tape	-10.4088
▁primaries	-10.4091
uthorities	-10.4098
▁slight	-10.4104
▁recruit	-10.4106
water	-10.4107
▁Lady	-10.4108
▁Mary	-10.4114
tag	-10.4116
bil	-10.4116
▁Berlin	-10.413
▁expert	-10.4133
▁42	-10.4136
▁musical	-10.4137
▁places	-10.4146
▁retailer	-10.4148
▁frequent	-10.4149
▁Flint	-10.4149
▁basketball	-10.4149
▁Leave	-10.4149
▁surviv	-10.415
▁supporter	-10.4153
▁larger	-10.4155
▁Imp	-10.4156
▁pot	-10.4169
▁Mass	-10.417
▁Access	-10.417
▁diplomat	-10.417
▁Jay	-10.417
▁deportation	-10.4172
▁hole	-10.4172
rated	-10.4178
born	-10.4179
eb	-10.4188
▁Medicaid	-10.4192
▁candidac	-10.4192
▁mogul	-10.4192
▁Susan	-10.4193
▁theater	-10.4194
▁tradition	-10.42
▁Mad	-10.4205
▁Latino	-10.4208
▁warm	-10.4209
▁pointed	-10.4209
▁belong	-10.421
▁Dun	-10.4211
▁essential	-10.4213
▁Patrol	-10.4213
▁sad	-10.4215
▁begun	-10.4226
▁Tri	-10.4229
▁polling	-10.423
▁Hurricane	-10.4234
▁leaves	-10.4237
long	-10.4255
▁Reporter	-10.4256
▁EPA	-10.4256
▁Aaron	-10.4256
▁punch	-10.4256
▁welcome	-10.4261
▁Carter	-10.4262
▁Fear	-10.427
▁negotiation	-10.4276
▁Samsung	-10.4278
RI	-10.4278
▁Among	-10.4278
▁Graham	-10.4279
burg	-10.4279
▁Reg	-10.428
▁tight	-10.4281
▁dump	-10.4284
▁NEW	-10.4293
▁facts	-10.4295
▁outlets	-10.4296
▁bomber	-10.4298
▁Mate	-10.4298
▁Hawaii	-10.4299
▁strategist	-10.4299
▁rapid	-10.4302
▁Treasury	-10.4305
▁sue	-10.4307
▁citizen	-10.4309
▁comedian	-10.4321
cious	-10.4322
bin	-10.4326
▁Glenn	-10.4328
▁Found	-10.433
▁breaking	-10.4338
▁Megyn	-10.4342
▁Slideshow	-10.4342
▁Target	-10.4342
onway	-10.4352
▁LA	-10.4353
▁improve	-10.4362
▁Hospital	-10.4364
▁Seattle	-10.4364
▁airstrike	-10.4364
▁Sweden	-10.4364
▁Palin	-10.4367
tical	-10.437
▁cycle	-10.4371
▁44	-10.4373
roll	-10.4375
▁earn	-10.4375
▁withdraw	-10.4376
illa	-10.4379
ery	-10.4381
▁Cash	-10.4383
▁negative	-10.4386
▁Film	-10.4386
▁Sachs	-10.4388
▁Wells	-10.4391
▁Mitt	-10.4392
▁govern	-10.4397
▁item	-10.44
▁Conference	-10.4408
▁encounter	-10.4408
▁split	-10.4408
away	-10.4409
wan	-10.4412
▁laid	-10.4413
▁meaning	-10.4421
▁Had	-10.4425
▁worker	-10.4432
▁refuse	-10.4433
▁cool	-10.4439
▁Hope	-10.4441
era	-10.4448
ese	-10.4449
bor	-10.4449
▁Budget	-10.4452
▁coal	-10.4452
▁attacker	-10.4454
▁fail	-10.4457
▁hero	-10.446
ji	-10.4474
spread	-10.4474
▁Connecti	-10.4476
▁commander	-10.4477
▁spokeswom	-10.4478
▁plea	-10.4479
▁deals	-10.4491
▁firms	-10.4492
tuck	-10.4495
▁Erdogan	-10.4496
▁Ukraine	-10.4496
▁outcome	-10.4496
▁Gay	-10.4503
▁Dute	-10.4504
▁150	-10.4508
igh	-10.451
run	-10.4515
▁stress	-10.4522
▁revolution	-10.4538
▁studio	-10.454
▁collapse	-10.4543
▁populist	-10.4544
lie	-10.4554
tha	-10.4554
LE	-10.4556
▁recommend	-10.4558
▁luxury	-10.4562
▁infrastructure	-10.4562
▁mobile	-10.4562
tanbu	-10.4563
▁blog	-10.4568
▁38	-10.4572
▁passing	-10.4583
▁facility	-10.4583
▁Capital	-10.4584
▁festival	-10.4584
▁viral	-10.4584
▁code	-10.4587
▁Insider	-10.4598
▁Mississippi	-10.4606
▁beautiful	-10.4606
▁riot	-10.4607
▁dictator	-10.4608
▁BBC	-10.4609
ncient	-10.4609
▁fish	-10.4611
50	-10.462
▁adults	-10.4629
▁resort	-10.4629
▁transform	-10.4629
▁Fake	-10.463
▁spott	-10.4632
▁Board	-10.4632
mond	-10.4637
▁exercise	-10.4651
▁overhaul	-10.4651
▁Min	-10.4652
▁gains	-10.4653
▁historical	-10.4658
▁disappoint	-10.4671
ologist	-10.4673
▁element	-10.4674
▁plent	-10.4674
aff	-10.4674
▁Nancy	-10.4674
▁talent	-10.4675
▁Brazilian	-10.4678
hill	-10.4684
▁column	-10.4691
ome	-10.4693
▁diagnos	-10.4696
▁Medical	-10.4696
▁Suspect	-10.4697
▁assistant	-10.4697
▁kid	-10.4706
▁counsel	-10.471
gate	-10.4716
▁argue	-10.4717
▁Judicia	-10.4719
▁Appeal	-10.4719
▁Fu	-10.4719
▁rivals	-10.4725
roadway	-10.4726
uous	-10.4726
aries	-10.4727
att	-10.4727
▁34	-10.473
▁violation	-10.4732
▁i	-10.4743
▁western	-10.4744
▁flying	-10.4754
IS	-10.4758
▁Guard	-10.476
▁Alaska	-10.4764
▁felon	-10.4764
▁Cooper	-10.4764
▁Bashar	-10.4765
▁representative	-10.4765
▁guide	-10.4767
▁non	-10.4771
oy	-10.4776
▁tens	-10.4776
▁settle	-10.4778
▁Major	-10.4783
▁earnings	-10.479
cle	-10.4801
▁Pick	-10.4802
▁sight	-10.4805
ient	-10.4805
▁Warn	-10.4807
▁Murder	-10.4809
▁Senior	-10.4809
▁mount	-10.4809
20	-10.4814
▁downtown	-10.482
▁edition	-10.482
▁Ze	-10.4824
▁Jimm	-10.483
▁Energy	-10.4832
▁solution	-10.4832
▁map	-10.4835
▁scor	-10.4835
▁iconic	-10.4837
▁Las	-10.4842
▁praise	-10.4846
▁equal	-10.4856
▁divided	-10.4857
▁Tour	-10.4871
Memo	-10.4878
▁supply	-10.4878
▁contribut	-10.4878
▁Birth	-10.4879
▁194	-10.4882
▁rallies	-10.4887
▁Jets	-10.4889
▁immediate	-10.4899
▁Stra	-10.49
▁encourage	-10.4901
▁Lewis	-10.4901
▁discrimination	-10.4904
▁trick	-10.4908
▁interests	-10.491
▁society	-10.4911
▁summit	-10.4924
▁cheap	-10.4924
▁Accus	-10.4924
▁wedding	-10.4934
▁39	-10.4934
▁paint	-10.4936
▁Lt	-10.4939
▁suburb	-10.4941
▁counts	-10.4942
▁values	-10.4943
▁Being	-10.4945
▁Snapchat	-10.4947
▁Manning	-10.4949
▁index	-10.495
▁hired	-10.4952
▁net	-10.4953
▁shoot	-10.4955
ular	-10.4964
▁Girl	-10.4965
▁apart	-10.4965
▁Jerr	-10.4968
▁Taiwan	-10.497
▁length	-10.497
▁Custom	-10.497
▁retail	-10.497
▁strange	-10.4973
▁bright	-10.4977
▁Eve	-10.4981
▁spy	-10.4983
▁shocking	-10.4984
sistance	-10.4987
▁tend	-10.499
▁ten	-10.499
▁Podesta	-10.4993
▁crucial	-10.4993
▁presence	-10.4993
▁gap	-10.4997
ueens	-10.4999
▁Bre	-10.5013
▁acknowledg	-10.5014
ala	-10.5014
▁Lynch	-10.5016
▁Set	-10.5022
ria	-10.5026
▁schedule	-10.5028
▁Inter	-10.5031
▁haven	-10.5032
gent	-10.5038
▁Beyonc	-10.5039
▁glass	-10.5039
▁racism	-10.5039
▁Sept	-10.5047
▁Nick	-10.5049
▁Feb	-10.5053
▁le	-10.5055
▁Child	-10.5056
▁mountain	-10.5063
erkeley	-10.5063
▁donors	-10.5064
▁insult	-10.5068
▁fla	-10.5071
▁Stan	-10.5074
▁Welcome	-10.5086
▁alternative	-10.5086
▁extremist	-10.5086
▁string	-10.5086
▁resignation	-10.5091
▁required	-10.5093
▁gathering	-10.5094
▁analyst	-10.51
▁estimat	-10.5102
▁Cup	-10.5105
▁privacy	-10.5109
▁Through	-10.5109
equality	-10.5112
▁minor	-10.512
▁celebrity	-10.5127
▁van	-10.5127
▁revelation	-10.5134
US	-10.5139
▁endorse	-10.5151
▁Father	-10.5157
▁Pop	-10.5161
▁theory	-10.5161
▁Friends	-10.5163
▁Supporter	-10.5164
▁Facts	-10.5167
▁Run	-10.5169
ara	-10.5175
▁Scar	-10.5186
▁Put	-10.5188
▁skin	-10.5192
worn	-10.5195
▁teach	-10.5198
▁rural	-10.5204
▁temporarily	-10.5204
▁client	-10.5204
ries	-10.5213
▁rent	-10.5215
▁destroyed	-10.5216
▁execution	-10.5227
▁fifth	-10.5227
▁Earlie	-10.5227
▁loan	-10.5228
▁Doctor	-10.5229
▁Marlow	-10.523
▁alert	-10.5231
▁coup	-10.524
▁Rod	-10.5246
▁promote	-10.5252
▁locat	-10.5254
bal	-10.5254
▁pledg	-10.5257
▁Tony	-10.5269
▁necessary	-10.5273
▁desperate	-10.5275
▁knowledge	-10.5275
▁farm	-10.5277
HS	-10.5279
SA	-10.528
▁miss	-10.5293
▁invest	-10.5293
▁east	-10.5298
▁Front	-10.5299
▁permit	-10.5301
▁Hotel	-10.5301
▁tank	-10.531
▁celebration	-10.531
▁designer	-10.5315
▁west	-10.5316
▁Fidel	-10.5323
▁Grow	-10.5329
▁Barr	-10.533
▁Amid	-10.5331
▁receiv	-10.5331
fall	-10.5333
▁Santa	-10.5341
play	-10.5343
▁flu	-10.5346
ood	-10.5352
▁reverse	-10.5353
hn	-10.5357
▁consumers	-10.5359
mor	-10.536
▁inquir	-10.5365
documented	-10.5367
▁Mars	-10.5368
▁Dieg	-10.537
▁temporar	-10.537
▁affiliate	-10.5371
▁horror	-10.5371
▁Market	-10.5383
▁Eli	-10.5388
▁advertising	-10.5395
▁implement	-10.5395
▁zone	-10.5395
▁Joseph	-10.5396
▁questioned	-10.5396
▁management	-10.5404
ella	-10.5406
▁Wars	-10.5407
TM	-10.541
▁announc	-10.541
▁Ham	-10.5416
▁pen	-10.5417
▁purpose	-10.5419
▁Edward	-10.542
▁adult	-10.5424
▁combin	-10.5431
▁cry	-10.5432
▁link	-10.5447
▁route	-10.5451
▁McDonald	-10.5467
▁backlash	-10.5468
▁bias	-10.5469
▁recount	-10.5471
▁prisoner	-10.5473
▁tonight	-10.5477
▁deny	-10.5481
▁oppose	-10.5482
▁Give	-10.5482
▁observ	-10.5482
▁Candidate	-10.5492
▁heavily	-10.5492
▁Staff	-10.5495
tepped	-10.5501
▁Fin	-10.5504
ova	-10.5507
▁Hell	-10.5508
▁troubl	-10.5511
▁soft	-10.5512
▁Cook	-10.5514
▁extraordinar	-10.5516
▁soccer	-10.5516
▁legislative	-10.552
▁Warner	-10.5524
hrew	-10.5526
▁stolen	-10.5531
▁Victor	-10.5533
lap	-10.5538
▁section	-10.5541
▁moral	-10.5543
▁determined	-10.5548
▁options	-10.5551
▁Gold	-10.5558
▁Going	-10.556
▁core	-10.5562
▁province	-10.5565
▁Assad	-10.5566
▁drivers	-10.5567
▁assets	-10.5567
▁demonstration	-10.5577
▁McC	-10.5581
rum	-10.5582
11	-10.5585
▁Hit	-10.5587
▁advantage	-10.559
▁franchise	-10.559
▁Repeal	-10.559
▁41	-10.5593
upp	-10.5593
▁columnist	-10.5595
ology	-10.5599
▁ripp	-10.56
▁homeless	-10.56
▁promot	-10.5603
ground	-10.5603
FC	-10.5604
▁Republic	-10.5608
point	-10.5611
▁Once	-10.5614
▁studie	-10.5614
ifying	-10.5615
▁Road	-10.562
▁pages	-10.5629
ui	-10.563
▁extend	-10.5633
▁Kingdom	-10.564
▁Roug	-10.5644
▁shown	-10.5649
tting	-10.5654
▁Asian	-10.5655
▁heading	-10.566
▁none	-10.5661
▁depend	-10.5663
▁Columbia	-10.5664
▁nature	-10.5665
▁Hunt	-10.5669
ani	-10.5675
▁Oak	-10.5683
RO	-10.5683
▁Arkansa	-10.5689
▁identify	-10.5689
▁afford	-10.5689
▁resigned	-10.5689
Without	-10.5693
▁hopeful	-10.5699
▁Rice	-10.5701
▁Mer	-10.5703
▁Cho	-10.5709
▁Museum	-10.5713
▁Gulf	-10.5713
▁urging	-10.5715
▁direction	-10.5716
▁visitor	-10.5719
▁jihadist	-10.572
▁parliament	-10.5729
TE	-10.5729
▁conviction	-10.5733
▁resist	-10.5737
▁BRIEF	-10.5738
▁rebels	-10.574
rin	-10.5741
ray	-10.5745
▁shar	-10.5745
bit	-10.5747
▁caucuses	-10.5755
▁penalty	-10.5758
▁Memorial	-10.5763
▁crush	-10.5763
▁commitment	-10.5766
▁unique	-10.5767
▁advisers	-10.5767
▁Fat	-10.5783
stein	-10.5786
▁Motor	-10.5789
▁Seven	-10.5791
▁Country	-10.5791
▁Hol	-10.5795
▁surger	-10.5798
AD	-10.5814
▁birthday	-10.5815
▁Mitch	-10.582
▁caucus	-10.5822
▁myster	-10.5833
▁lies	-10.5833
▁Yo	-10.5838
▁bottom	-10.5839
▁striking	-10.5839
▁drove	-10.5839
▁regret	-10.5839
▁Short	-10.584
▁Hack	-10.5847
▁Beat	-10.586
▁confidence	-10.5864
▁Fisher	-10.5864
▁Ocean	-10.5864
▁Talib	-10.5865
front	-10.5868
▁Cost	-10.5869
▁finger	-10.5873
▁Jong	-10.5873
▁donation	-10.5879
▁Behind	-10.5889
▁Victim	-10.5889
▁coordinat	-10.5889
▁denounc	-10.5889
▁Dies	-10.5892
▁critic	-10.5892
▁imagine	-10.5898
▁tur	-10.5904
ncy	-10.5905
▁Pri	-10.5907
▁option	-10.591
▁prior	-10.591
teen	-10.5911
▁distribut	-10.5915
▁boycott	-10.5915
▁generat	-10.5916
▁remind	-10.5917
▁1980	-10.5919
▁2007	-10.5919
▁foundation	-10.5924
▁overwhelming	-10.5924
▁symbol	-10.5932
▁profile	-10.594
▁loud	-10.5943
▁subway	-10.5943
broad	-10.5944
ado	-10.5946
▁Dow	-10.5953
▁seeming	-10.5954
▁losses	-10.5959
▁intense	-10.5966
▁ha	-10.5967
▁veterans	-10.5973
▁greater	-10.5976
▁Port	-10.5985
▁deploy	-10.5988
▁Financial	-10.5991
▁breach	-10.5991
▁defect	-10.5991
▁mosque	-10.5991
▁Sun	-10.5992
▁Environmental	-10.5993
▁toll	-10.6001
▁Worker	-10.601
pat	-10.6011
▁Hate	-10.6013
▁Ste	-10.6013
▁Malaysia	-10.6017
▁impossible	-10.6017
▁Kong	-10.6021
▁mere	-10.6024
▁spin	-10.6024
▁produced	-10.6025
▁outbreak	-10.6027
▁alive	-10.6028
Z	-10.6029
bar	-10.6034
TV	-10.6037
▁Roman	-10.6041
▁Hispanic	-10.6043
▁Defend	-10.6043
▁expensive	-10.6043
▁arrive	-10.6047
▁overall	-10.6048
▁ensure	-10.6049
▁hang	-10.605
▁Kris	-10.6051
▁shake	-10.6051
▁Terror	-10.6052
▁Move	-10.6054
▁Tre	-10.6056
▁yes	-10.6057
▁survive	-10.6064
▁environment	-10.6066
▁sky	-10.6066
▁speeches	-10.6068
▁subscriber	-10.6068
▁sheriff	-10.6068
▁Oscars	-10.6069
▁RNC	-10.607
▁fate	-10.6071
▁Penn	-10.6074
▁oversee	-10.6078
▁Tea	-10.6078
▁Any	-10.6082
▁targets	-10.6089
▁busy	-10.6093
▁Parliament	-10.6094
▁electronic	-10.6094
▁chant	-10.6095
▁affected	-10.6104
▁fly	-10.6109
▁lying	-10.6113
▁Pur	-10.6114
▁Hundred	-10.612
▁asylum	-10.612
▁Full	-10.6125
▁Matti	-10.6126
▁absolutely	-10.6138
▁Je	-10.6139
▁rebel	-10.6145
▁Circuit	-10.6146
▁succeed	-10.6146
▁habit	-10.6146
▁equip	-10.6146
▁master	-10.6149
▁Hong	-10.6151
▁Making	-10.6151
▁Elon	-10.6151
aj	-10.6156
▁authority	-10.6158
▁reli	-10.6158
▁flat	-10.6162
▁beating	-10.6168
▁Photo	-10.6172
▁religion	-10.6172
▁Deput	-10.6174
▁solar	-10.6183
ato	-10.6187
▁Much	-10.619
▁pose	-10.6193
▁CA	-10.6194
▁commit	-10.6196
▁advisor	-10.6198
▁scrutiny	-10.6198
▁erupt	-10.6198
▁girlfriend	-10.6199
▁comic	-10.6199
▁65	-10.6203
▁2001	-10.6203
▁behalf	-10.6224
▁bizarre	-10.6224
▁Travel	-10.6224
▁twist	-10.6225
▁Dog	-10.6227
anagement	-10.6232
▁county	-10.6239
▁icon	-10.6251
▁numer	-10.6251
▁merger	-10.6251
▁web	-10.6255
▁Money	-10.6257
▁Pet	-10.6263
▁cook	-10.6265
▁Cut	-10.6272
▁plays	-10.6276
▁lesson	-10.6277
▁Oval	-10.6283
ories	-10.6285
▁pan	-10.6285
▁Pass	-10.629
don	-10.6291
▁rail	-10.6293
pot	-10.6295
▁determine	-10.6296
▁extended	-10.6299
▁explor	-10.6301
▁inde	-10.6302
▁lunch	-10.6303
▁handle	-10.631
▁Nor	-10.6318
▁scale	-10.6318
▁Bla	-10.6319
▁powers	-10.6319
▁appli	-10.6321
ington	-10.6323
for	-10.6328
▁NY	-10.6328
▁commut	-10.633
▁publication	-10.6342
▁pace	-10.6345
▁surface	-10.6351
▁volunteer	-10.6356
▁scrambl	-10.6356
▁Consider	-10.6356
▁loom	-10.6357
▁Future	-10.6357
▁participat	-10.6357
▁sounds	-10.6362
▁sued	-10.6369
▁Though	-10.637
▁Severa	-10.6371
▁convince	-10.6383
▁Nunes	-10.6383
▁dominat	-10.6384
▁strength	-10.6386
▁commission	-10.6387
▁Bell	-10.6387
▁package	-10.639
Care	-10.6395
▁marks	-10.6397
ica	-10.6398
▁surprised	-10.6401
▁Use	-10.6417
▁Baton	-10.6421
▁Ray	-10.6428
▁warrant	-10.6436
▁Terry	-10.6436
▁prize	-10.6437
▁deserve	-10.6444
▁deadline	-10.6446
▁47	-10.6447
▁Latin	-10.6447
▁examin	-10.6448
war	-10.6459
ison	-10.646
▁closely	-10.646
rov	-10.6461
▁indict	-10.6462
▁crazy	-10.6463
▁expansion	-10.6463
▁silence	-10.6463
▁matters	-10.6467
dating	-10.647
▁politically	-10.647
atar	-10.6471
▁Omar	-10.6472
▁prov	-10.6473
tick	-10.6477
▁46	-10.6478
▁legend	-10.6484
▁Ross	-10.6487
▁Maybe	-10.6489
▁Pelosi	-10.649
▁Tweet	-10.649
itarian	-10.649
▁Colombia	-10.649
▁departure	-10.649
▁fierce	-10.6491
▁river	-10.6491
▁facilit	-10.6493
▁memory	-10.6494
▁consequences	-10.6497
▁Fair	-10.6498
▁restriction	-10.6503
▁ear	-10.6504
▁produce	-10.6507
load	-10.6515
▁tower	-10.6516
▁cabinet	-10.6517
▁coffee	-10.6517
▁motivat	-10.6517
▁permanent	-10.6517
cast	-10.6517
▁Chair	-10.6518
▁Hitler	-10.6518
▁industrial	-10.6521
▁explains	-10.6522
▁Wood	-10.6526
▁Tak	-10.6529
▁Creat	-10.6536
ini	-10.6537
▁Military	-10.6544
▁vacation	-10.6546
rid	-10.655
pen	-10.655
▁Brother	-10.6551
OS	-10.6551
▁dealing	-10.6551
▁songs	-10.6553
▁apologize	-10.6555
EL	-10.6557
▁Try	-10.6564
▁surround	-10.6566
▁Model	-10.6571
▁relief	-10.6572
▁ballistic	-10.6572
nce	-10.6575
▁hung	-10.6575
▁proud	-10.6577
▁pictures	-10.6577
▁Bets	-10.6578
▁Sand	-10.6584
▁addition	-10.6584
▁judges	-10.6591
▁thrill	-10.6598
▁Summer	-10.6598
tom	-10.6601
▁1990	-10.6602
▁Ball	-10.6603
▁55	-10.6625
▁Gawker	-10.6626
▁LONDON	-10.6626
▁slash	-10.6626
▁Patrick	-10.6626
▁landmark	-10.6627
▁aside	-10.6631
▁Rico	-10.6632
mann	-10.6636
▁covering	-10.6639
▁bound	-10.664
▁teams	-10.6643
▁Burn	-10.6645
olo	-10.6653
▁feminist	-10.6653
▁Collins	-10.6653
▁hell	-10.6654
ttled	-10.6658
▁testing	-10.6658
▁Kath	-10.6659
▁Walk	-10.666
▁Talking	-10.6665
▁suffering	-10.668
▁Bernardin	-10.668
▁Vietnam	-10.668
▁structure	-10.668
▁Veteran	-10.668
▁sustain	-10.668
▁horse	-10.6681
▁clinic	-10.6681
▁AT	-10.6683
car	-10.6691
credible	-10.6704
▁punish	-10.6705
▁militia	-10.6708
▁fiction	-10.6708
▁proceed	-10.6708
▁developed	-10.6709
▁Prison	-10.6711
▁cutting	-10.672
▁restrict	-10.6722
bbie	-10.6725
▁impos	-10.6738
▁Plu	-10.6749
▁careful	-10.6751
▁manage	-10.6752
▁Bengha	-10.6763
▁Liberal	-10.6763
▁promising	-10.6763
▁remote	-10.6763
▁Thanksgiving	-10.6763
▁cartel	-10.6763
▁Host	-10.6767
▁Swedi	-10.6767
ties	-10.6768
▁diet	-10.6776
AT	-10.6778
▁missed	-10.6781
▁port	-10.6782
▁Char	-10.6789
▁Tel	-10.6794
▁survivor	-10.6794
ennis	-10.6797
▁lie	-10.6798
▁Block	-10.6799
▁Check	-10.6802
▁graduate	-10.6804
▁Bull	-10.6805
▁chat	-10.6808
▁Spanish	-10.6818
▁categor	-10.6818
▁aftermath	-10.6819
▁Authorit	-10.682
▁commentator	-10.6821
▁remarkabl	-10.6821
▁lit	-10.6829
▁Girls	-10.6836
▁tip	-10.6839
▁Harris	-10.6839
▁51	-10.6845
Between	-10.6846
▁Coulter	-10.6846
▁partisan	-10.6846
▁Ethic	-10.6847
▁hostage	-10.6849
▁Brand	-10.6854
▁Maine	-10.6857
▁Ron	-10.6857
TO	-10.6864
▁grown	-10.6864
▁interesting	-10.6869
▁temperature	-10.6874
▁curb	-10.6874
▁trillion	-10.6874
▁belief	-10.6874
▁literally	-10.6874
▁scheme	-10.6875
▁stance	-10.6883
▁Mom	-10.6888
▁wood	-10.6892
▁Kh	-10.6892
CH	-10.6892
▁Less	-10.6896
▁minimum	-10.6902
▁Met	-10.6904
▁Dam	-10.6907
▁53	-10.6908
ctor	-10.6914
▁Cat	-10.6928
▁journey	-10.693
▁beauty	-10.693
▁alliance	-10.693
▁neck	-10.6931
▁shouldn	-10.6933
▁bullet	-10.6935
▁pu	-10.6947
▁conversations	-10.6947
hor	-10.6952
▁drawing	-10.6953
▁sanctuar	-10.6958
ORK	-10.696
▁complicated	-10.6964
▁Line	-10.6965
box	-10.6971
▁Core	-10.6981
▁wing	-10.6985
▁Benjamin	-10.6987
▁Taylor	-10.6987
▁Marshall	-10.6987
▁replac	-10.6987
▁bridge	-10.6989
▁infect	-10.6994
▁Flight	-10.6996
▁dance	-10.6999
▁height	-10.7012
▁experiment	-10.7015
▁euro	-10.7019
▁bat	-10.7021
ough	-10.7021
mph	-10.7022
▁Problem	-10.7022
▁pet	-10.7027
GE	-10.703
▁Mel	-10.7031
▁Heart	-10.7037
rit	-10.7039
▁boom	-10.7039
▁nor	-10.704
▁cancel	-10.7041
▁Tu	-10.7042
▁Kurdish	-10.7043
▁newsletter	-10.7043
▁Evan	-10.7048
▁fallen	-10.7051
▁controll	-10.7053
▁prayer	-10.7055
▁Station	-10.7056
ark	-10.7056
ED	-10.707
▁Violence	-10.7072
▁boast	-10.7072
▁principle	-10.7072
▁Bronx	-10.7072
▁spirit	-10.7072
▁meddl	-10.7072
▁narrative	-10.7073
▁initiative	-10.7073
ski	-10.7075
▁reference	-10.7075
tell	-10.7082
▁Nice	-10.7089
▁earthquake	-10.7101
▁Austin	-10.7101
▁cloud	-10.7101
▁Garland	-10.7104
▁Web	-10.7105
▁Cur	-10.7115
ress	-10.7118
▁Add	-10.7127
▁Return	-10.7129
▁Sentence	-10.7129
ux	-10.713
▁Fo	-10.714
▁Perry	-10.7141
lov	-10.7143
▁earned	-10.7147
▁Made	-10.7154
▁Ambassador	-10.7158
▁overseas	-10.7158
ei	-10.7158
▁conclusion	-10.7158
▁Push	-10.7161
▁flash	-10.7161
NA	-10.7165
▁Whe	-10.7168
▁fled	-10.7171
uk	-10.7171
▁devastating	-10.7172
▁Terrorist	-10.7173
▁standoff	-10.718
▁tear	-10.7183
▁phrase	-10.7187
▁amazing	-10.7187
▁Early	-10.7187
▁Stock	-10.7192
▁myself	-10.7193
like	-10.7201
▁print	-10.7202
▁pour	-10.7206
▁approve	-10.721
▁Aile	-10.7211
▁clip	-10.7216
▁Boeing	-10.7217
▁musician	-10.7223
▁bitter	-10.7224
ending	-10.7225
▁ski	-10.7231
avi	-10.7231
▁recording	-10.7234
gel	-10.7237
▁phones	-10.7239
▁Allen	-10.724
▁Antonio	-10.7245
▁shadow	-10.7245
▁Ministr	-10.7245
▁52	-10.725
FP	-10.7266
▁shoe	-10.7267
▁Adviser	-10.7274
▁Garden	-10.7275
ong	-10.7277
▁fought	-10.7283
▁tall	-10.7285
▁youth	-10.7288
▁awards	-10.7289
▁Greg	-10.73
▁Kremlin	-10.7303
▁otherwise	-10.7303
▁championship	-10.7305
▁Better	-10.7307
▁2000	-10.7308
▁finished	-10.7311
▁Share	-10.7319
▁Brit	-10.7324
▁SAN	-10.733
▁tout	-10.7332
▁VIDEO	-10.7332
▁resource	-10.7332
▁Globe	-10.7332
▁PAC	-10.7333
mir	-10.7334
▁Reid	-10.7336
▁appointment	-10.7337
cra	-10.7337
▁dogs	-10.7337
▁answers	-10.7337
▁Charge	-10.7341
▁moon	-10.7346
▁Marc	-10.7354
▁risks	-10.7356
some	-10.7358
▁updated	-10.7359
▁self	-10.7361
▁reputation	-10.7361
WATCH	-10.7361
▁Douglas	-10.7361
▁error	-10.7361
▁funeral	-10.7361
▁anthem	-10.7362
borough	-10.7362
▁Close	-10.7364
▁Mis	-10.7367
hook	-10.7368
▁Oh	-10.7386
ada	-10.739
▁Muhammad	-10.7391
▁Project	-10.7391
▁fundamental	-10.7391
▁Dutch	-10.7392
▁congressman	-10.7393
▁canceled	-10.7393
▁editorial	-10.7395
▁Bat	-10.7401
▁regional	-10.7403
▁concluded	-10.7403
▁popul	-10.7417
erson	-10.7417
▁assembl	-10.742
▁Larry	-10.742
worth	-10.7422
▁reduc	-10.7424
▁suspend	-10.7425
▁litera	-10.743
asse	-10.7431
▁Dear	-10.7435
▁dar	-10.7436
▁Jose	-10.7438
llusion	-10.744
▁robber	-10.7442
▁stat	-10.7443
▁Picture	-10.745
▁audio	-10.745
▁portray	-10.745
▁Haiti	-10.7451
▁smoke	-10.7452
▁parade	-10.7461
▁soldier	-10.7464
▁Enforcement	-10.748
▁Hannity	-10.748
▁knife	-10.748
▁hint	-10.748
wear	-10.7482
hir	-10.7485
▁harder	-10.7486
▁injury	-10.7492
▁root	-10.7495
▁offend	-10.7501
▁nationalist	-10.7504
▁Howard	-10.7505
▁Warriors	-10.7509
▁developer	-10.751
▁Must	-10.7511
▁Maher	-10.7512
▁tighten	-10.7512
▁Parent	-10.7512
▁Bolt	-10.7531
▁Sav	-10.7536
▁Company	-10.7539
▁celebrit	-10.7548
▁prefer	-10.7554
▁entry	-10.7558
▁willing	-10.7561
cat	-10.7563
▁inaugura	-10.7568
hitting	-10.7568
▁scientific	-10.7569
▁repli	-10.7572
▁bin	-10.7572
▁warming	-10.7579
▁Eight	-10.7579
▁license	-10.7587
Keith	-10.7589
▁OK	-10.759
▁Mari	-10.759
lib	-10.7593
writ	-10.7596
▁tap	-10.7598
▁bipartisan	-10.7599
▁overturn	-10.7599
▁podcast	-10.7599
▁Dream	-10.7599
▁THE	-10.76
▁bottle	-10.76
▁pursue	-10.7619
▁Festival	-10.7629
▁divorce	-10.7629
▁Briefing	-10.7629
▁babies	-10.7629
▁Reince	-10.763
ME	-10.7633
▁operative	-10.7634
▁Actor	-10.7643
▁balance	-10.765
gie	-10.7651
▁explode	-10.7659
▁scream	-10.7659
▁Weiner	-10.766
▁hire	-10.766
▁native	-10.766
▁calm	-10.766
▁Maria	-10.7675
▁aware	-10.7684
▁mouth	-10.7689
▁Holocaust	-10.769
▁Thrones	-10.769
▁alcohol	-10.769
▁species	-10.769
▁Activist	-10.769
▁Cross	-10.769
▁rumor	-10.769
▁Sexual	-10.7691
▁cent	-10.7693
▁Egyptian	-10.7693
UR	-10.77
▁basis	-10.7703
IA	-10.7709
▁Were	-10.7718
▁Communication	-10.772
▁depict	-10.772
▁Hold	-10.7723
quality	-10.7724
▁minute	-10.7742
▁percentage	-10.7743
▁mourn	-10.7751
▁grave	-10.7751
▁Wins	-10.7753
▁nice	-10.7754
ord	-10.7757
grad	-10.7762
cover	-10.7767
▁veto	-10.7781
▁Hale	-10.7783
▁pill	-10.7785
▁parking	-10.7792
▁exception	-10.7794
▁Shot	-10.7797
▁Cap	-10.7797
ura	-10.7809
▁2020	-10.7815
▁lur	-10.7816
llen	-10.7816
▁Prosecutor	-10.7818
▁employer	-10.7825
put	-10.7825
▁Criminal	-10.7843
▁beloved	-10.7843
▁hiring	-10.7845
nam	-10.7845
▁Reform	-10.7847
▁2004	-10.7847
▁saving	-10.7848
▁Stand	-10.7851
▁equity	-10.7857
▁slipp	-10.7857
trust	-10.7858
▁twin	-10.7863
▁Max	-10.7863
▁pin	-10.7864
▁exposed	-10.7868
▁confus	-10.7869
▁improv	-10.7872
▁Austria	-10.7874
▁predecessor	-10.7874
▁illness	-10.7876
▁doors	-10.7876
▁testify	-10.788
▁user	-10.7883
▁Boo	-10.7886
▁125	-10.7887
▁Sho	-10.7895
▁tale	-10.7898
van	-10.7899
▁Rat	-10.7899
▁Pu	-10.7903
▁Industr	-10.7905
▁honest	-10.7905
▁Dur	-10.7906
▁Jonath	-10.7906
▁Ging	-10.7916
▁Mor	-10.7918
▁links	-10.7934
▁Alt	-10.7935
▁nightmare	-10.7936
▁Charlie	-10.7936
▁boyfriend	-10.7936
die	-10.7936
▁switch	-10.7936
▁oust	-10.7939
▁playoff	-10.7941
▁hail	-10.7942
▁violated	-10.7942
▁hoped	-10.7945
▁Days	-10.795
▁Jill	-10.7952
▁artists	-10.7964
▁alleg	-10.7964
▁compromis	-10.7967
▁patrol	-10.7967
▁Clark	-10.7967
▁bankruptcy	-10.7968
▁traffick	-10.7969
craft	-10.7978
IT	-10.7984
SE	-10.7985
▁undermine	-10.7987
▁Abe	-10.7991
▁endur	-10.7996
▁council	-10.7998
▁epidemic	-10.7998
▁opioid	-10.7998
▁weird	-10.7998
▁isolat	-10.8002
▁barrel	-10.8007
▁Tro	-10.8013
▁restaurants	-10.802
▁chart	-10.8022
▁meat	-10.8027
▁explanation	-10.8029
▁bold	-10.8032
▁peaceful	-10.8036
▁slam	-10.8041
▁ID	-10.8045
▁ends	-10.8055
▁Page	-10.8056
▁Count	-10.8057
dom	-10.806
▁Electoral	-10.8061
▁Lewandowski	-10.8061
▁emissions	-10.8061
▁notorious	-10.8061
▁roof	-10.8061
hand	-10.8063
▁waters	-10.8065
▁Anderson	-10.8067
▁gear	-10.8071
▁54	-10.8076
▁Sur	-10.8079
▁contender	-10.8081
je	-10.8082
▁Standing	-10.8083
▁tone	-10.809
▁consistent	-10.809
▁sees	-10.809
▁creator	-10.8091
▁Tehran	-10.8092
▁activities	-10.8092
▁offense	-10.8093
▁odd	-10.8094
▁speculation	-10.8096
▁humans	-10.8107
▁Doesn	-10.8107
OJ	-10.8112
▁teenage	-10.8113
▁Joy	-10.8122
▁shirt	-10.8124
▁spotlight	-10.8125
▁Rise	-10.8125
▁Deep	-10.8126
▁Them	-10.8127
▁forget	-10.8128
▁advanc	-10.8138
▁insider	-10.8143
▁Gray	-10.8145
▁mine	-10.8148
▁Pra	-10.8154
▁Lincoln	-10.8156
▁economist	-10.8156
▁strategic	-10.8156
▁auction	-10.8156
▁Light	-10.8161
▁ally	-10.8171
▁strip	-10.8178
BA	-10.8182
▁recovery	-10.8183
▁divide	-10.8187
▁Crisis	-10.8188
▁circle	-10.8188
▁grocer	-10.8188
▁museum	-10.8188
▁Abortion	-10.8188
▁tribute	-10.8188
▁mysterious	-10.8189
▁Portland	-10.819
bol	-10.8193
AND	-10.8206
▁Legal	-10.8214
▁Disease	-10.8219
▁Remember	-10.8219
▁ugl	-10.822
▁Inauguration	-10.822
▁Colbert	-10.822
▁correspondent	-10.8221
▁export	-10.8222
▁TEL	-10.8224
▁Ger	-10.8227
▁established	-10.8231
while	-10.8237
▁panic	-10.8242
▁tapp	-10.8249
▁branch	-10.8252
▁Takes	-10.8254
nati	-10.8259
▁Rap	-10.8267
▁Shar	-10.8269
▁burn	-10.827
▁57	-10.8277
ntil	-10.8281
▁Jenni	-10.8283
▁tournament	-10.8284
▁archive	-10.8284
▁Assault	-10.8284
▁learning	-10.8284
▁statistic	-10.8284
▁Cameron	-10.8284
▁mall	-10.8285
▁chip	-10.8285
▁whatever	-10.8291
▁Capt	-10.8293
▁Bal	-10.8294
bury	-10.8296
▁disturbing	-10.8299
gui	-10.8305
▁yourself	-10.831
▁Been	-10.8312
▁install	-10.8313
▁experienc	-10.8314
▁Fail	-10.8316
VIV	-10.8316
▁Transgender	-10.8316
▁Jesus	-10.8316
▁Abedin	-10.8317
▁instruct	-10.8319
▁1970	-10.832
▁Snap	-10.8321
▁taste	-10.8323
▁ruin	-10.8326
▁Intel	-10.8338
eck	-10.834
▁embrace	-10.8342
▁chamber	-10.8348
▁prohibit	-10.8348
▁unanimous	-10.8348
▁Jacob	-10.8348
▁Nixon	-10.8348
▁Nu	-10.8349
▁impeachment	-10.835
▁completed	-10.8364
▁Mag	-10.8367
found	-10.8374
▁mosquito	-10.8381
▁influential	-10.8381
▁Nobel	-10.8381
▁Visit	-10.8381
▁elder	-10.8381
▁soar	-10.8383
▁Roof	-10.8383
▁Jake	-10.8383
▁Song	-10.8384
▁600	-10.8386
▁greet	-10.8387
▁hyp	-10.8389
rk	-10.8389
▁Members	-10.8389
break	-10.8389
▁Threat	-10.839
▁Refugees	-10.839
▁stabb	-10.8398
▁Abu	-10.841
▁Liberty	-10.8413
▁Nuclear	-10.8413
▁accuse	-10.8417
▁Bring	-10.8417
errick	-10.8419
▁Rape	-10.8421
▁heroin	-10.8426
kh	-10.8428
MA	-10.8439
▁odds	-10.8444
▁Dick	-10.8445
▁unknown	-10.8446
▁Safety	-10.8447
▁rapper	-10.8448
▁Sky	-10.8448
▁fundrais	-10.8449
▁quot	-10.8473
keep	-10.8474
▁ocean	-10.8479
▁segment	-10.8479
▁entertainment	-10.8482
▁vs	-10.8485
▁retirement	-10.8487
▁99	-10.849
▁Getty	-10.8497
iling	-10.8498
Th	-10.8501
▁affairs	-10.8511
▁Affair	-10.8512
▁System	-10.8512
shot	-10.8512
▁Morgan	-10.8515
▁everywhere	-10.8516
▁Place	-10.8517
▁Rome	-10.8527
ivity	-10.853
▁Minority	-10.8545
▁smuggl	-10.8545
▁selection	-10.8547
cker	-10.855
fund	-10.8555
▁highway	-10.8561
▁guys	-10.8561
older	-10.857
▁pois	-10.8571
NE	-10.8573
▁Manafort	-10.8578
▁taxpayer	-10.8578
▁Around	-10.8578
▁Which	-10.858
more	-10.858
▁emerg	-10.8581
▁IS	-10.8582
▁takeover	-10.8589
▁organized	-10.8595
cid	-10.8599
▁provider	-10.8603
▁broker	-10.8606
▁declar	-10.8611
▁chronic	-10.8611
▁harsh	-10.8611
▁Madison	-10.8611
▁rigged	-10.8612
TER	-10.8618
▁outlin	-10.8639
▁85	-10.8642
▁fiscal	-10.8644
▁sweet	-10.8645
▁provision	-10.8645
▁contentious	-10.8646
▁unclea	-10.8647
▁clock	-10.8649
▁Gil	-10.8649
▁Master	-10.8653
▁fur	-10.8657
ogue	-10.8663
▁procedure	-10.8678
▁unfair	-10.8678
▁float	-10.8678
▁Prize	-10.8679
▁Kids	-10.8679
▁Release	-10.8681
▁posting	-10.8681
▁meal	-10.8682
▁bombs	-10.8687
▁handed	-10.8687
▁GM	-10.8699
▁Str	-10.8699
▁Jobs	-10.8704
▁acquisition	-10.8711
▁triumph	-10.8711
▁unfold	-10.8711
▁DE	-10.8711
ssange	-10.8713
▁sugar	-10.8714
▁Harve	-10.8716
ola	-10.8719
▁alter	-10.8721
▁MO	-10.8724
▁sole	-10.8726
▁Name	-10.8726
▁carrier	-10.8727
▁Op	-10.8727
▁epic	-10.8729
▁drawn	-10.8731
▁craft	-10.8732
kill	-10.8734
empt	-10.8736
▁Command	-10.8745
▁privilege	-10.8745
▁Culture	-10.8745
▁eager	-10.8745
▁Study	-10.8745
▁desert	-10.8745
▁advertisement	-10.8746
▁Orange	-10.8747
▁tenure	-10.8747
▁peak	-10.8748
▁Bruc	-10.8748
▁folks	-10.8748
▁apply	-10.8758
▁Cover	-10.8759
▁Rules	-10.876
▁trailer	-10.876
view	-10.8761
▁quote	-10.8763
ception	-10.877
▁Camp	-10.8776
▁Bangladesh	-10.8779
▁constant	-10.8779
▁pundit	-10.8779
▁insurer	-10.878
▁dubb	-10.878
▁explore	-10.8782
▁cheat	-10.8782
▁Few	-10.8799
▁apologiz	-10.88
bot	-10.8803
cade	-10.8806
▁occasion	-10.8807
▁rifle	-10.8813
▁unleash	-10.8813
▁feud	-10.8813
▁anonymous	-10.8814
▁plac	-10.8817
▁Dems	-10.8819
▁Native	-10.8822
▁realize	-10.8825
▁250	-10.8826
▁premiere	-10.8828
▁shutt	-10.8828
▁settled	-10.8831
▁Track	-10.8831
▁Month	-10.8831
▁Juan	-10.8835
GA	-10.8838
Year	-10.8842
▁qualifi	-10.8846
▁Emmanuel	-10.8847
▁Verizon	-10.8847
▁ambitious	-10.8847
▁Hernand	-10.8847
▁ICE	-10.8847
▁Football	-10.8847
vit	-10.8848
HA	-10.8856
rod	-10.8857
▁Kar	-10.8866
ueen	-10.8872
▁delegate	-10.8874
▁scenes	-10.8877
▁travelers	-10.8877
▁Univers	-10.8878
▁propaganda	-10.8881
▁wrestl	-10.8881
▁venture	-10.8881
▁Citizen	-10.8887
▁Season	-10.8891
uestions	-10.8898
▁rang	-10.8906
▁Baker	-10.891
▁Peace	-10.8915
▁Christoph	-10.8915
▁shelter	-10.8915
▁Murra	-10.8916
▁everybody	-10.892
▁59	-10.8931
▁VP	-10.8933
TI	-10.8941
▁Broad	-10.8941
▁operator	-10.8941
season	-10.8948
zo	-10.8948
▁architect	-10.895
▁guarantee	-10.895
▁poverty	-10.895
▁dedicat	-10.895
▁Pok	-10.8958
▁Sometime	-10.8958
LA	-10.8963
▁Train	-10.897
▁Julian	-10.8979
▁Huma	-10.8979
▁detect	-10.8981
▁soul	-10.8982
▁urban	-10.8984
▁bird	-10.8984
▁Serge	-10.8984
▁Cold	-10.8985
fraid	-10.8987
▁emba	-10.8995
ith	-10.9005
ential	-10.9009
▁accord	-10.9009
▁Drop	-10.9012
▁Baby	-10.9013
▁surg	-10.9016
▁AM	-10.9016
▁confident	-10.9018
▁Commerc	-10.9019
▁Community	-10.9019
▁Orleans	-10.9019
▁clothes	-10.9019
▁interrupt	-10.9019
▁Pulse	-10.9019
ulation	-10.9019
▁desire	-10.9019
▁Wolf	-10.902
▁Northern	-10.902
▁magic	-10.902
▁Nothing	-10.902
▁Blame	-10.9026
miss	-10.9031
▁66	-10.9034
▁ST	-10.9042
▁Almost	-10.9043
▁Alien	-10.9043
▁List	-10.9046
ological	-10.905
▁regulation	-10.9052
riv	-10.9053
▁Indonesia	-10.9053
▁pattern	-10.9053
▁suspension	-10.9053
▁extensive	-10.9053
▁Past	-10.9053
▁Cohen	-10.9053
▁rubb	-10.9053
app	-10.9054
▁Program	-10.9054
▁variet	-10.9055
▁disclose	-10.9056
▁grabb	-10.9058
▁Commissioner	-10.9058
▁Cinc	-10.906
▁Tonight	-10.9066
western	-10.9068
▁ignore	-10.9068
▁span	-10.907
hem	-10.9073
ritage	-10.9075
▁except	-10.9075
▁Econom	-10.9082
▁desk	-10.9091
▁Lawyer	-10.9091
▁admir	-10.9093
▁iron	-10.9094
▁roundup	-10.9094
▁poison	-10.9096
fra	-10.9099
▁Low	-10.9106
▁56	-10.911
sburg	-10.9113
▁porn	-10.9118
▁Carrie	-10.9119
PEC	-10.912
▁bet	-10.9121
▁tears	-10.9121
▁artificial	-10.9123
▁chicken	-10.9123
▁enormous	-10.9123
▁premium	-10.9123
▁disclosure	-10.9124
▁affair	-10.9124
▁nominate	-10.9127
▁Serie	-10.9131
gli	-10.9139
▁Seek	-10.9148
▁infection	-10.915
▁endanger	-10.9158
▁application	-10.9159
▁reserv	-10.916
▁resume	-10.9162
▁195	-10.9165
▁delet	-10.9168
▁evacuat	-10.9176
▁Amy	-10.9187
eryl	-10.9189
BS	-10.9191
▁loyal	-10.9192
▁Giuliani	-10.9193
▁helicopter	-10.9193
▁Alleged	-10.9194
▁Sudan	-10.9194
▁stronghold	-10.9196
▁motion	-10.9196
10	-10.9202
ama	-10.9207
ati	-10.9211
▁opt	-10.9214
▁shame	-10.9218
oz	-10.9219
▁Corps	-10.922
▁Walker	-10.9227
▁Confirm	-10.9229
▁abrupt	-10.9229
▁anxiet	-10.9229
▁buzz	-10.9229
▁Rachel	-10.9229
flew	-10.9231
▁household	-10.9231
▁chill	-10.9232
▁anymore	-10.9232
▁intention	-10.9236
under	-10.9241
▁restore	-10.9245
▁Charlesto	-10.9245
char	-10.9246
▁Ve	-10.9248
ago	-10.9253
selves	-10.926
▁excit	-10.9264
▁Professor	-10.9264
▁democratic	-10.9264
▁Wrong	-10.9264
▁inflation	-10.9267
▁tea	-10.927
erling	-10.9274
ault	-10.9275
▁pit	-10.9275
▁concept	-10.9281
▁Tan	-10.9284
▁Rally	-10.9294
▁stor	-10.9298
▁infamous	-10.93
▁Tayyi	-10.93
▁Endorse	-10.9301
▁academic	-10.9302
▁egg	-10.9304
standing	-10.9312
▁dying	-10.9313
▁Bor	-10.932
▁fat	-10.9324
▁Woods	-10.933
▁monument	-10.9336
▁Happen	-10.9336
▁drunk	-10.9336
▁Denver	-10.9336
▁follower	-10.934
▁dragg	-10.9343
▁nobody	-10.9347
ali	-10.9349
▁abus	-10.9353
▁lowest	-10.9353
▁Treat	-10.9354
▁declare	-10.9358
horn	-10.936
▁portion	-10.9361
▁immun	-10.9371
▁tragedy	-10.9371
▁method	-10.9371
verage	-10.9372
▁Hours	-10.9372
▁pile	-10.9373
▁700	-10.9375
▁din	-10.9383
▁ill	-10.9383
▁enemy	-10.9407
▁entitl	-10.9407
▁Dozen	-10.9407
▁Strike	-10.9407
▁Greek	-10.9408
▁uncertainty	-10.941
▁Duke	-10.9412
▁Cu	-10.9413
▁imagin	-10.9414
▁Christ	-10.9417
▁operate	-10.9428
▁defi	-10.9431
idi	-10.9431
▁appropriate	-10.9443
▁Alexander	-10.9443
▁repeat	-10.9444
▁empty	-10.9444
▁arrival	-10.9446
▁sensitiv	-10.946
▁Scot	-10.9467
▁Lou	-10.9468
NT	-10.9468
▁personality	-10.9469
▁Threaten	-10.947
▁Ferr	-10.9472
70	-10.9474
▁Oct	-10.9477
▁clothing	-10.948
▁memorial	-10.948
morrow	-10.9481
▁Philip	-10.9481
▁manufacturer	-10.9503
▁Yorkers	-10.9505
II	-10.9506
▁Pittsburgh	-10.9516
▁wreck	-10.9516
ITY	-10.9517
▁buri	-10.9519
▁800	-10.952
▁strict	-10.9521
▁banker	-10.9523
▁collective	-10.9523
▁myth	-10.9525
▁orbit	-10.9533
▁copy	-10.954
▁customer	-10.9548
oll	-10.9548
▁Fri	-10.9549
▁Hav	-10.9549
▁brothers	-10.9551
▁scrap	-10.9551
▁McCarthy	-10.9553
vision	-10.9553
▁Tiger	-10.9555
▁clue	-10.9556
▁mandate	-10.9561
▁Ave	-10.957
▁recognize	-10.9571
NL	-10.9574
▁shell	-10.9577
▁Hor	-10.9581
▁troll	-10.9585
▁Dad	-10.9589
▁universities	-10.9589
▁fame	-10.9589
PS	-10.959
▁Local	-10.9591
authorized	-10.9591
▁Wonder	-10.9592
▁crowded	-10.9594
▁animat	-10.9596
blaze	-10.9596
uz	-10.9597
▁legendar	-10.9598
▁Farm	-10.9608
▁injur	-10.9612
▁connected	-10.9615
▁mob	-10.9625
▁steady	-10.9626
▁sentiment	-10.9626
▁Thai	-10.9626
▁smash	-10.9626
▁starr	-10.9633
pac	-10.9635
verything	-10.9636
▁UC	-10.9643
oke	-10.9646
▁Easter	-10.9649
moil	-10.9649
▁ease	-10.9651
ode	-10.9655
polis	-10.9662
▁Chancellor	-10.9663
▁Stadium	-10.9663
▁uniform	-10.9663
▁disorder	-10.9663
▁venue	-10.9663
▁automaker	-10.9664
▁petition	-10.9664
▁forgot	-10.9664
▁Voting	-10.9664
▁wrapp	-10.9666
NC	-10.9667
▁tackle	-10.9668
▁ramp	-10.9669
▁Bald	-10.9676
▁Listen	-10.9689
▁Mail	-10.9691
▁Fame	-10.9697
▁Ya	-10.9698
▁Exchange	-10.97
▁Trudeau	-10.97
▁Village	-10.97
▁counterpart	-10.97
▁Thi	-10.97
▁battleground	-10.9702
▁1960	-10.9704
elson	-10.9704
▁Ac	-10.9708
▁employ	-10.9716
▁defin	-10.9727
▁hide	-10.9731
▁indicate	-10.9735
▁Magazine	-10.9737
▁circulat	-10.9737
▁Mueller	-10.9737
▁TPM	-10.9737
▁essay	-10.9737
▁Reveal	-10.9737
▁Demand	-10.9739
▁Lawmaker	-10.9739
▁nei	-10.9739
yang	-10.9743
▁requirement	-10.9745
▁boot	-10.9747
▁leaks	-10.9747
read	-10.9748
▁emerge	-10.9751
▁knee	-10.9759
endo	-10.9763
▁stranger	-10.9769
▁sponsor	-10.9771
▁Belgian	-10.9774
▁Society	-10.9774
▁admission	-10.9774
▁detention	-10.9774
▁pivot	-10.9774
▁Launch	-10.9774
▁Greece	-10.9774
▁Promise	-10.9774
▁Jeffrey	-10.9774
▁transfer	-10.9775
▁confess	-10.9775
▁spill	-10.9776
▁echo	-10.9776
▁Euro	-10.9776
▁trapp	-10.9778
▁Ill	-10.9779
▁Haram	-10.9782
▁mad	-10.9793
law	-10.9797
▁crossing	-10.9801
hav	-10.9804
▁Milwaukee	-10.9812
▁Phoeni	-10.9812
motive	-10.9813
▁McG	-10.9816
▁Pla	-10.9816
▁NSA	-10.9817
▁Data	-10.9822
▁flaw	-10.9822
storm	-10.9824
▁load	-10.9827
▁farmer	-10.9827
▁marking	-10.9827
▁Vin	-10.9836
▁contradict	-10.9849
▁function	-10.9849
▁spokesperson	-10.9849
▁loose	-10.985
▁opposite	-10.9851
▁Agent	-10.9855
▁Lie	-10.9864
▁output	-10.9865
▁Feel	-10.9865
▁forever	-10.9872
▁overnight	-10.9874
▁Dave	-10.9879
▁dropping	-10.9885
▁grab	-10.9887
▁Auto	-10.9887
▁Baghdad	-10.9887
▁entrepreneur	-10.9887
▁descend	-10.9887
▁compete	-10.9888
▁impose	-10.989
▁stall	-10.989
▁sacr	-10.9894
▁suffer	-10.9899
▁Johnny	-10.9899
what	-10.9901
▁contractor	-10.9907
▁Save	-10.9908
▁waste	-10.9915
▁Billionaire	-10.9925
▁Scandal	-10.9925
▁globe	-10.9925
▁satellite	-10.9925
▁Challenge	-10.9925
▁drill	-10.9925
▁eligib	-10.9925
▁unarm	-10.9925
▁Melissa	-10.9925
▁mut	-10.9927
▁Area	-10.9927
▁Shoot	-10.9928
▁engine	-10.9929
▁bell	-10.9931
▁Bai	-10.9935
▁embass	-10.9936
▁refer	-10.9936
rri	-10.9942
▁origin	-10.9947
▁gut	-10.9952
▁Lot	-10.9958
Old	-10.9962
▁civilian	-10.9962
▁Gorka	-10.9963
▁blind	-10.9963
▁Rangers	-10.9964
▁painting	-10.9964
▁Issue	-10.9964
▁911	-10.9967
▁metal	-10.9971
bli	-10.9972
▁Stay	-10.9975
▁62	-10.9982
mpson	-10.999
▁Spring	-10.9992
▁homicide	-11.0001
▁Pyong	-11.0001
▁conceal	-11.0001
▁Montana	-11.0002
▁partnership	-11.0004
mail	-11.0008
▁84	-11.0013
▁utter	-11.0015
▁strengthen	-11.0035
▁landscape	-11.004
▁exploit	-11.004
▁permission	-11.004
▁comeback	-11.0048
bre	-11.0049
▁Update	-11.005
▁badly	-11.0054
laughter	-11.0056
▁sailor	-11.0059
action	-11.0062
cross	-11.0071
ique	-11.0077
CLUSIVE	-11.0078
▁fascinat	-11.0078
▁Tapper	-11.0078
▁apology	-11.0078
▁evil	-11.0078
▁zero	-11.0078
▁silent	-11.0078
▁Nikk	-11.0079
▁funny	-11.0082
matic	-11.0085
▁condo	-11.009
▁landing	-11.009
▁Elli	-11.0091
▁spreading	-11.0091
▁Moment	-11.0102
▁selfie	-11.0102
▁assert	-11.0103
ecurities	-11.0106
▁worrie	-11.0108
▁Lost	-11.0112
▁participate	-11.0115
▁plastic	-11.0117
▁SEAL	-11.0117
▁Common	-11.0117
▁Henry	-11.0117
▁slogan	-11.0117
▁Labour	-11.0117
▁secur	-11.012
▁indictment	-11.0121
▁yard	-11.0124
▁Age	-11.0128
urk	-11.013
▁74	-11.0131
▁Slam	-11.0134
▁Step	-11.0137
▁statue	-11.0138
▁violate	-11.014
▁Gett	-11.0142
▁connect	-11.015
▁witnesse	-11.015
▁accidental	-11.0152
▁Gene	-11.0153
▁Galaxy	-11.0155
▁breast	-11.0155
▁innocent	-11.0155
▁Cartel	-11.0155
▁Griffi	-11.0156
▁continent	-11.0156
▁Redstone	-11.0157
▁assessment	-11.0158
▁childhood	-11.0159
▁2003	-11.0162
▁sink	-11.0162
pain	-11.0167
▁Merc	-11.0172
▁Event	-11.0188
▁Conn	-11.019
erhaps	-11.0192
▁battl	-11.0194
▁Grammy	-11.0194
▁purport	-11.0194
▁Source	-11.0194
▁plus	-11.0197
▁Word	-11.0199
dia	-11.02
adi	-11.02
▁confrontation	-11.0202
▁earth	-11.0202
▁hanging	-11.021
▁creation	-11.0212
▁fence	-11.0214
card	-11.0219
▁demonstrator	-11.0221
▁delivery	-11.0225
ipping	-11.0227
ku	-11.0228
▁Fashion	-11.0233
▁Swiss	-11.0233
▁awkward	-11.0233
▁contrast	-11.0233
▁toxic	-11.0235
▁Killing	-11.0236
▁punishment	-11.0238
▁Bel	-11.024
▁resolve	-11.0241
▁organis	-11.0246
▁Refugee	-11.0253
▁Online	-11.0269
▁migration	-11.0273
▁Leonard	-11.0273
▁deliberate	-11.0273
▁Partial	-11.0275
▁danc	-11.0281
▁Bou	-11.0283
▁sixth	-11.0285
▁personne	-11.0286
▁tune	-11.0289
▁Koch	-11.0292
▁Chan	-11.0296
▁bike	-11.0296
urg	-11.0302
press	-11.0306
▁suggestion	-11.0309
▁Investor	-11.0312
▁legislature	-11.0312
▁distance	-11.0312
▁Interest	-11.0319
▁recommendation	-11.0319
▁Hugh	-11.0319
latter	-11.0319
unny	-11.0325
▁Nigeria	-11.0325
▁bro	-11.0331
▁Ash	-11.034
▁seal	-11.0344
▁Award	-11.0346
▁Kate	-11.0347
▁consult	-11.0349
▁tactics	-11.0351
▁Viacom	-11.0351
▁occupie	-11.0351
▁Silver	-11.0351
▁Click	-11.0351
▁Bundy	-11.0352
▁Voice	-11.0352
▁distract	-11.0354
▁weaken	-11.0359
▁passage	-11.0362
▁Offer	-11.0363
key	-11.0363
▁refuge	-11.0381
▁disagree	-11.0388
IR	-11.0389
▁residence	-11.0391
▁scholar	-11.0391
beat	-11.0406
▁Tem	-11.041
▁creative	-11.041
▁Buck	-11.0412
▁eliminate	-11.0415
▁Card	-11.0416
▁successor	-11.0418
▁millennials	-11.0426
▁underway	-11.0428
▁slave	-11.043
IG	-11.0431
▁philosoph	-11.0431
▁Celebrit	-11.0431
▁Expert	-11.0431
▁Primary	-11.0431
▁deficit	-11.0431
▁distinct	-11.0431
▁tunnel	-11.0431
▁cruise	-11.0431
▁burst	-11.0431
▁Address	-11.0431
▁Huffing	-11.0432
▁fault	-11.0433
▁battery	-11.0441
▁rage	-11.0449
ody	-11.0453
plan	-11.0456
▁outlet	-11.0468
▁Buffett	-11.0471
▁Pipeline	-11.0471
▁medicine	-11.0471
▁preliminar	-11.0471
▁kitchen	-11.0471
▁technical	-11.0471
▁cartoon	-11.0471
▁trauma	-11.0471
▁Honor	-11.0471
▁Buy	-11.0475
▁advoca	-11.0476
▁Springs	-11.0481
aeda	-11.0484
▁buck	-11.0484
▁Leak	-11.0487
▁stabbing	-11.049
ico	-11.0492
▁audit	-11.0495
▁Rid	-11.0497
▁firearms	-11.0501
▁Building	-11.0502
▁substantial	-11.0511
▁watchdog	-11.0511
▁yield	-11.0511
▁retreat	-11.0511
▁inevitabl	-11.0511
▁Learn	-11.0511
▁Self	-11.0511
▁mask	-11.0512
▁Coming	-11.0513
▁Michel	-11.0525
▁193	-11.0536
▁reviv	-11.0538
▁Bee	-11.0548
▁entertain	-11.0551
▁Belgium	-11.0551
▁Stewart	-11.0551
▁corporation	-11.0551
▁moderator	-11.0551
▁perspective	-11.0551
▁Maduro	-11.0551
▁Researcher	-11.0552
▁Teacher	-11.0552
wo	-11.0552
▁Soros	-11.0553
▁guess	-11.0553
▁Panama	-11.0553
▁Hal	-11.0554
gt	-11.0555
▁shareholders	-11.0556
▁compet	-11.0557
▁yell	-11.0561
▁lab	-11.0561
▁Steel	-11.0563
▁Hero	-11.057
▁programm	-11.0576
▁Mall	-11.0578
▁grade	-11.0579
▁bloody	-11.059
▁Suicide	-11.0592
▁accurate	-11.0592
▁explicit	-11.0592
▁ordinary	-11.0592
▁Soviet	-11.0592
▁manipulat	-11.0592
▁Andrea	-11.0592
▁infant	-11.0593
▁proof	-11.0594
▁Schult	-11.0595
▁MI	-11.0596
▁Wallac	-11.0599
▁Break	-11.0602
tlantic	-11.0608
▁burning	-11.0615
▁Mick	-11.0621
▁fam	-11.0631
▁fantasy	-11.0633
▁verdict	-11.0633
▁laptop	-11.0633
ban	-11.0633
▁await	-11.0633
▁Baseball	-11.0633
▁Percent	-11.0635
▁Room	-11.0643
▁allege	-11.0651
▁heated	-11.0652
▁deported	-11.0652
▁Bible	-11.0652
▁listening	-11.0665
▁Job	-11.067
▁fundraiser	-11.067
▁transport	-11.0671
▁Rodrig	-11.0672
OW	-11.0672
rav	-11.0673
▁Pruitt	-11.0673
mnesty	-11.0674
▁instance	-11.0675
▁Actress	-11.0676
▁duty	-11.0676
▁Recep	-11.0678
▁modest	-11.0679
▁Rolling	-11.0691
▁Gang	-11.0694
iat	-11.0699
pending	-11.0702
▁Immigrants	-11.0703
ipped	-11.0704
▁lone	-11.0704
▁Sir	-11.0705
▁compos	-11.0705
▁collapsed	-11.071
▁nonprofit	-11.0714
▁Jerem	-11.0714
▁fruit	-11.0717
▁wip	-11.0724
▁organiz	-11.0725
▁suburban	-11.0725
▁rot	-11.0727
▁smile	-11.0743
▁cav	-11.0748
iness	-11.0748
▁batter	-11.0748
▁discriminat	-11.0749
▁Charg	-11.0749
▁Sure	-11.0752
▁understanding	-11.0754
▁lean	-11.0754
▁Famili	-11.0756
▁interpret	-11.0756
▁suspicion	-11.0756
▁Begin	-11.0756
▁Development	-11.0757
▁Fresh	-11.076
▁Reality	-11.0774
▁Ana	-11.0778
▁Brooks	-11.0782
▁pad	-11.0783
▁Billion	-11.0784
bean	-11.079
▁shin	-11.0794
▁Starbucks	-11.0797
▁cellphone	-11.0797
▁pronounc	-11.0797
▁horribl	-11.0797
▁phase	-11.0797
▁Clear	-11.0797
▁kiss	-11.0798
▁comparison	-11.0798
▁Lorett	-11.0798
▁shutdown	-11.0799
▁Sher	-11.0803
owitz	-11.0804
▁membership	-11.0804
▁organizers	-11.0804
▁define	-11.0807
▁brac	-11.0821
▁Noah	-11.0824
▁deport	-11.0826
▁gig	-11.0827
▁Inde	-11.0829
▁Lev	-11.0831
▁Revolution	-11.0833
▁Racist	-11.0838
▁Ireland	-11.0838
▁yellow	-11.0839
itz	-11.084
▁bump	-11.0848
▁Near	-11.0851
▁revive	-11.0854
▁recogniz	-11.0859
▁Bon	-11.0863
▁anyway	-11.0869
▁loser	-11.0871
▁occur	-11.0879
Independence	-11.088
▁Oliver	-11.088
▁accelerat	-11.088
▁Mountain	-11.088
▁trash	-11.088
▁dominate	-11.0881
▁trie	-11.0881
▁Mobil	-11.0884
▁Edge	-11.0891
▁Join	-11.0891
▁Poland	-11.0892
▁Jenner	-11.0893
▁executed	-11.0895
▁realiz	-11.0896
▁socialist	-11.0899
▁Shut	-11.09
▁dust	-11.0906
▁Yu	-11.0911
▁acquire	-11.0912
▁Breaking	-11.0913
▁Ph	-11.0915
▁deadlie	-11.0916
▁73	-11.0916
▁multi	-11.0921
▁Dangerous	-11.0922
▁Zealand	-11.0922
▁disgrac	-11.0922
▁misconduct	-11.0922
▁Fifth	-11.0922
▁Wilson	-11.0922
▁vessel	-11.0922
▁Tale	-11.0922
▁Storm	-11.0922
▁tumbl	-11.0924
woman	-11.0925
▁occasional	-11.0929
▁wiretapp	-11.0931
▁plung	-11.0934
▁kn	-11.0937
▁deem	-11.0946
▁grip	-11.0955
▁leftist	-11.0959
▁Confederate	-11.0964
▁Consumer	-11.0964
▁Ferguson	-11.0964
▁NCAA	-11.0964
▁administrator	-11.0964
▁brilliant	-11.0964
▁sprawl	-11.0964
▁Happy	-11.0964
▁Cast	-11.0964
▁ministr	-11.0965
▁ridiculous	-11.0965
▁Search	-11.0965
▁subsid	-11.0965
sumption	-11.0968
▁Meeting	-11.0969
▁Mnu	-11.0971
▁shark	-11.0971
CP	-11.0974
▁Guy	-11.0975
uestion	-11.0983
▁Hot	-11.0994
▁financ	-11.0996
▁dish	-11.0997
▁Protect	-11.0998
▁thin	-11.1002
▁Announce	-11.1006
▁Libertarian	-11.1006
▁Vatican	-11.1006
▁Kanye	-11.1006
▁Writing	-11.1006
▁Become	-11.1006
▁colon	-11.1006
▁enact	-11.1008
▁Movement	-11.1011
▁Delta	-11.1013
▁Fact	-11.1017
▁torture	-11.1021
▁anticipated	-11.1031
▁comfort	-11.1044
▁script	-11.1046
▁context	-11.1048
▁competitor	-11.1048
▁Guzm	-11.1054
▁NRA	-11.1055
VE	-11.1055
▁Mont	-11.106
▁ideal	-11.1061
apoli	-11.108
▁Kardashian	-11.1091
▁Technology	-11.1091
▁divisive	-11.1091
▁empire	-11.1091
▁Information	-11.1091
▁SUV	-11.1091
▁Movie	-11.1091
▁definite	-11.1092
▁72	-11.1093
▁Stanley	-11.1094
▁Campus	-11.1095
▁vers	-11.1096
▁Row	-11.1101
▁vulnerab	-11.1103
GO	-11.1108
▁Voter	-11.111
easing	-11.1115
ransportation	-11.1116
▁Raise	-11.1119
▁corrupt	-11.1127
▁Strange	-11.1127
NY	-11.1129
▁slip	-11.113
▁indicated	-11.113
▁harass	-11.1131
▁bureau	-11.1134
▁Wikileaks	-11.1134
▁tired	-11.1138
east	-11.114
mine	-11.1145
▁hip	-11.1149
▁reader	-11.115
▁burned	-11.1157
▁Parker	-11.1164
▁Rule	-11.1167
▁bio	-11.1169
▁Cit	-11.1173
▁ethnic	-11.1177
▁principal	-11.1177
▁reign	-11.1177
▁cab	-11.1179
fight	-11.1182
▁Journalist	-11.1183
▁Bryan	-11.1185
▁mood	-11.1193
▁establish	-11.1202
▁violat	-11.1203
▁introduce	-11.1209
▁Tur	-11.1214
▁escap	-11.1215
▁Arctic	-11.122
▁Century	-11.122
▁Female	-11.122
▁independence	-11.122
▁swift	-11.122
▁IPO	-11.122
▁Surviv	-11.122
▁fortune	-11.122
▁Third	-11.122
▁swimmer	-11.1221
▁painful	-11.1225
▁priority	-11.1226
▁lash	-11.1231
iac	-11.1233
▁regularly	-11.1233
▁Nine	-11.1235
▁Came	-11.1242
▁Forum	-11.1249
▁Fill	-11.1251
▁Venezuelan	-11.1253
▁invent	-11.1257
▁Assembly	-11.1263
▁Fiorina	-11.1263
▁gym	-11.1263
▁gate	-11.1264
▁furious	-11.1264
▁Leban	-11.1265
▁Prevention	-11.1266
▁Dark	-11.1276
▁76	-11.1283
rano	-11.1285
▁Half	-11.1287
▁supplie	-11.1287
▁wheel	-11.1291
▁shak	-11.1298
▁bench	-11.1305
▁chapter	-11.1307
▁enemies	-11.1307
▁Nominee	-11.1307
▁bunch	-11.1307
▁Whit	-11.1307
▁teammate	-11.1307
▁achievement	-11.131
▁peer	-11.1311
▁legally	-11.1315
▁snap	-11.1316
▁consum	-11.1319
▁Yell	-11.1322
▁norm	-11.1324
▁Turner	-11.133
▁conservat	-11.1347
▁caution	-11.135
▁crackdown	-11.1352
▁joy	-11.1354
▁Terrorism	-11.1355
▁Yale	-11.1356
▁Kenya	-11.1359
▁Barbar	-11.1364
▁69	-11.1364
▁exec	-11.1372
▁partial	-11.1375
▁heels	-11.1378
▁thousand	-11.1388
▁bail	-11.1392
▁Simpson	-11.1394
▁circumstances	-11.1394
▁inappropriate	-11.1394
▁intervention	-11.1394
▁universe	-11.1394
▁hashtag	-11.1394
▁Account	-11.1394
▁spell	-11.1395
▁Dean	-11.1395
▁steel	-11.1395
▁genetic	-11.1396
▁Correspondent	-11.1399
▁relat	-11.1401
▁2002	-11.1404
▁plain	-11.1404
▁indication	-11.141
▁observer	-11.1412
▁58	-11.1414
▁Bear	-11.1416
▁Fac	-11.142
▁solve	-11.1425
▁edit	-11.1433
▁zoo	-11.1436
▁Interior	-11.1438
▁filibuster	-11.1438
▁illustrat	-11.1438
▁Lindsey	-11.1438
▁BEI	-11.1438
▁Klein	-11.1438
▁excuse	-11.1439
▁breakfast	-11.144
▁Kati	-11.1442
▁addiction	-11.1444
▁Working	-11.1446
▁pregnancy	-11.1446
▁Winter	-11.1447
but	-11.1456
▁stole	-11.1457
▁opportunities	-11.1457
▁Mind	-11.1463
IRO	-11.147
▁welcom	-11.1476
▁Mediterran	-11.1482
▁absurd	-11.1482
▁destruction	-11.1482
▁pocket	-11.1482
▁Russell	-11.1482
▁Rhode	-11.1482
▁naked	-11.1483
▁stepping	-11.1483
▁Tar	-11.1485
unnam	-11.1489
▁Trust	-11.149
▁Rush	-11.1495
iffe	-11.1495
▁contribution	-11.1499
▁stunn	-11.1502
▁Holding	-11.1516
▁Hampton	-11.1527
▁Independent	-11.1527
▁Blood	-11.1527
▁Legend	-11.1527
▁Royal	-11.1527
▁consideration	-11.1528
▁Schwei	-11.1528
▁wine	-11.1531
▁Upper	-11.1535
verse	-11.1537
stage	-11.1538
▁Fran	-11.1542
▁Somalia	-11.1548
post	-11.1548
blew	-11.1555
▁superhero	-11.1561
▁Nint	-11.1567
▁patriot	-11.1571
▁Chaffe	-11.1571
▁Establishment	-11.1571
▁Craig	-11.1571
▁derail	-11.1571
▁graphic	-11.1572
▁compel	-11.1572
▁Strong	-11.1573
▁Carib	-11.1574
▁assist	-11.1575
▁recession	-11.1577
▁Jail	-11.1578
iter	-11.1579
▁Rest	-11.1583
▁custom	-11.1588
▁88	-11.1591
▁collaborat	-11.1616
▁Marvel	-11.1616
▁Mount	-11.1616
▁Small	-11.1616
▁prosecution	-11.1626
▁Guant	-11.163
▁Comment	-11.1631
▁64	-11.1632
▁Risk	-11.1639
▁bone	-11.1649
▁amendment	-11.1661
▁shield	-11.1661
▁priest	-11.1661
▁overdose	-11.1662
face	-11.1667
▁Might	-11.1675
▁Luther	-11.1678
▁chas	-11.1679
▁hello	-11.168
▁stark	-11.1682
▁lifetime	-11.1685
▁intent	-11.1691
dale	-11.1693
▁obsess	-11.1697
▁wor	-11.1703
▁devoted	-11.1707
▁nervous	-11.1707
▁Opinion	-11.1707
▁Falcon	-11.1707
▁Kirk	-11.1707
▁ceasefire	-11.1707
▁Castile	-11.1707
▁Juli	-11.1716
▁Outside	-11.1716
▁fad	-11.1728
▁conventional	-11.1732
▁contributor	-11.1734
▁ranking	-11.1738
▁82	-11.1739
▁Vo	-11.1748
▁intellectual	-11.1752
▁lecture	-11.1752
▁substance	-11.1752
▁restrain	-11.1752
▁Remain	-11.1752
▁Toronto	-11.1752
▁brown	-11.1752
▁Irish	-11.1752
BC	-11.1753
▁instant	-11.1754
▁horrific	-11.1754
▁Crash	-11.1754
▁Hawk	-11.1755
▁barrier	-11.1755
▁mail	-11.1755
▁Nobody	-11.1759
▁hub	-11.1765
▁showdown	-11.1772
▁devastat	-11.1776
▁disclos	-11.1788
▁Twin	-11.1791
LES	-11.1793
gram	-11.1797
▁Partnership	-11.1798
▁frustration	-11.1798
▁damaging	-11.1798
▁firefighter	-11.1798
▁swimming	-11.1798
▁Lawsuit	-11.1798
▁jewel	-11.1798
▁Believe	-11.1798
▁vital	-11.1798
▁refusal	-11.18
▁Archive	-11.18
▁Mitchell	-11.1801
ridge	-11.1802
▁bloc	-11.1803
▁Lose	-11.1815
▁denie	-11.1817
▁Aug	-11.1833
▁Whi	-11.1833
productive	-11.1833
▁golden	-11.1836
accompanied	-11.1844
▁PARIS	-11.1844
▁compound	-11.1844
▁phenomenon	-11.1844
▁stadium	-11.1844
▁gross	-11.1844
▁excited	-11.1844
▁bedroom	-11.1844
anda	-11.1846
▁Levin	-11.1848
▁Grant	-11.1848
▁Eat	-11.1849
▁DNA	-11.1852
▁associat	-11.1853
▁setback	-11.1856
▁insight	-11.1856
▁protester	-11.1862
EA	-11.1865
osa	-11.1869
▁approximate	-11.1871
▁manner	-11.1875
▁consensus	-11.189
▁defensive	-11.189
▁resembl	-11.189
▁calcul	-11.189
▁worship	-11.1891
▁Cubs	-11.1891
▁rampage	-11.1893
▁Devin	-11.1898
claim	-11.1899
▁Simon	-11.1901
▁Driver	-11.1903
▁Blast	-11.1906
▁prediction	-11.1908
▁pig	-11.1909
IE	-11.192
25	-11.1929
▁concrete	-11.1936
▁prescription	-11.1936
▁persuad	-11.1936
▁revised	-11.1936
▁Tribun	-11.1936
▁corps	-11.1936
▁analyz	-11.1936
▁Interview	-11.1936
▁awful	-11.1938
▁impressive	-11.1938
▁77	-11.1938
▁CPAC	-11.194
piece	-11.1946
▁mansion	-11.1954
▁sympath	-11.1954
▁Safe	-11.1958
▁embarrass	-11.1963
bert	-11.1981
▁Columbus	-11.1982
▁Religious	-11.1982
▁consecutive	-11.1982
▁misleading	-11.1982
▁surrogate	-11.1982
▁invasion	-11.1982
▁Soon	-11.1983
▁Nat	-11.1983
essica	-11.1986
▁glor	-11.1987
▁workplace	-11.1989
▁respective	-11.1993
▁pump	-11.1994
▁Eye	-11.1995
▁undergo	-11.1996
▁Roll	-11.1998
▁abduct	-11.2004
▁hospitaliz	-11.2005
▁120	-11.2008
hole	-11.2014
▁78	-11.2014
▁AG	-11.2023
▁61	-11.2026
comm	-11.2027
▁Lochte	-11.2029
▁censor	-11.2029
▁fossil	-11.2029
▁unpopular	-11.2029
▁vaccine	-11.2029
▁Summit	-11.2029
▁Hudson	-11.2029
▁crown	-11.2029
▁sweat	-11.203
▁sidewalk	-11.203
▁enroll	-11.203
▁pause	-11.2031
▁stamp	-11.2033
,	-11.2033
▁Thiel	-11.2035
▁achieve	-11.2038
▁embrac	-11.2038
TH	-11.204
In	-11.2041
▁94	-11.2047
▁Sound	-11.2047
▁eliminat	-11.2048
▁WH	-11.2049
▁shoulder	-11.2049
▁95	-11.2062
▁sexist	-11.2068
▁engage	-11.2072
▁creep	-11.2076
▁ideological	-11.2076
▁bribe	-11.2076
▁silver	-11.2076
▁requir	-11.2077
▁strain	-11.2077
▁pride	-11.2078
▁skills	-11.2081
▁faction	-11.2084
▁assign	-11.2089
▁89	-11.209
IRS	-11.2091
▁bow	-11.2092
ata	-11.2096
▁Trip	-11.2096
▁Congressman	-11.21
▁tense	-11.2102
▁testifie	-11.2102
▁rag	-11.2104
▁pollster	-11.2104
owski	-11.2111
▁Truth	-11.212
▁chaotic	-11.2123
▁tragic	-11.2123
▁Relations	-11.2123
▁urgent	-11.213
▁Compani	-11.2131
▁combination	-11.2131
▁shore	-11.2137
▁automat	-11.2139
ario	-11.214
▁Jean	-11.2148
merc	-11.2153
earing	-11.2163
▁accomplish	-11.2168
▁Investigat	-11.2171
▁Alphabet	-11.2171
▁competitive	-11.2171
▁portrait	-11.2171
▁poet	-11.2172
▁outsider	-11.2174
▁Vale	-11.2175
▁incredibl	-11.2178
▁unlike	-11.2179
▁courtroom	-11.2179
▁deter	-11.218
▁ditch	-11.2184
▁Said	-11.219
▁bully	-11.2195
▁Harle	-11.2207
▁plate	-11.2211
▁Number	-11.2218
▁Rousseff	-11.2218
▁supremacist	-11.2218
▁repair	-11.2218
▁banner	-11.2219
▁priorities	-11.222
▁Standard	-11.222
▁Wayne	-11.2226
▁Walter	-11.2227
▁Paper	-11.2227
▁Letter	-11.2234
▁Oc	-11.2235
▁hometown	-11.2236
▁cow	-11.2247
▁Anne	-11.2247
▁freeze	-11.2257
▁reminder	-11.2261
▁evangelical	-11.2266
▁compensat	-11.2266
▁attach	-11.2267
▁entrance	-11.2268
▁conven	-11.2273
DC	-11.2273
▁indicat	-11.2274
▁lease	-11.2275
▁rack	-11.2279
▁wire	-11.2287
▁Jam	-11.2295
▁67	-11.2304
▁Ellis	-11.2305
burn	-11.2309
▁scenario	-11.2314
ILLE	-11.2314
▁adjust	-11.2314
▁shrink	-11.2314
▁sorry	-11.2316
▁Rou	-11.2318
▁filmmaker	-11.232
▁Beast	-11.232
▁Goe	-11.2323
▁Coach	-11.233
taking	-11.2332
▁releas	-11.2333
▁expression	-11.2343
▁Sell	-11.2348
▁pink	-11.2361
▁Imagine	-11.2363
▁supreme	-11.2363
▁beneath	-11.2363
▁cream	-11.2363
▁happi	-11.2363
▁Large	-11.2365
▁Lind	-11.237
▁Dennis	-11.2372
▁confusion	-11.2373
▁Surge	-11.2377
▁Store	-11.2377
▁Whole	-11.2379
▁Zoo	-11.238
▁disabl	-11.2397
▁Tru	-11.2401
▁Elect	-11.2404
▁encrypt	-11.2411
▁glimpse	-11.2411
▁Dollar	-11.2411
▁freak	-11.2411
▁visual	-11.2411
▁carbon	-11.2411
▁genre	-11.2411
▁conced	-11.2412
▁Hir	-11.2426
▁Audi	-11.2428
▁Nash	-11.2437
ockey	-11.2443
▁plott	-11.2445
▁Alan	-11.2446
▁trader	-11.2456
▁encouraging	-11.246
▁implication	-11.246
▁legislator	-11.246
▁Jinp	-11.246
▁Golf	-11.246
Arthur	-11.246
▁chef	-11.2461
▁math	-11.2462
▁Unlike	-11.2462
▁vanish	-11.2463
▁68	-11.2464
ilateral	-11.2465
▁linger	-11.2472
▁Unit	-11.2473
▁rescu	-11.2477
▁premier	-11.2487
▁enabl	-11.2492
▁removal	-11.2496
▁humanity	-11.2497
▁drag	-11.2498
▁donate	-11.2503
eased	-11.2508
▁Concern	-11.2509
▁insurgent	-11.2509
▁Limba	-11.2509
▁rebuke	-11.2509
▁fulfill	-11.2509
▁streak	-11.2509
var	-11.2509
LEVEL	-11.2509
▁Medicare	-11.2509
▁Seth	-11.2509
▁oath	-11.251
▁Agreement	-11.2511
PHI	-11.2514
▁Vol	-11.2516
▁140	-11.2521
▁rant	-11.2524
▁Victoria	-11.2527
rench	-11.253
power	-11.2531
aya	-11.2543
▁pray	-11.2547
▁Argentina	-11.2558
▁Beyond	-11.2558
▁ambition	-11.2558
▁judgment	-11.2558
▁pioneer	-11.2558
▁wisdom	-11.2558
▁bolster	-11.2558
▁milk	-11.2558
▁Crowd	-11.2558
▁consent	-11.2559
▁LeBr	-11.2561
▁Albert	-11.2561
▁Horn	-11.2561
▁consultant	-11.2561
▁possession	-11.2566
bro	-11.2568
lace	-11.2571
▁Carrier	-11.2573
▁Nam	-11.2578
▁eve	-11.2578
▁midst	-11.258
▁popularity	-11.2588
ista	-11.2593
▁hostil	-11.2595
▁Storie	-11.2595
▁Championship	-11.2608
▁Document	-11.2608
▁expense	-11.2608
▁humiliat	-11.2608
▁tattoo	-11.2608
▁outlook	-11.2608
▁Dinner	-11.2608
▁Eagle	-11.2608
▁hammer	-11.2608
▁nasty	-11.2608
eninsula	-11.2608
▁attendees	-11.2608
▁confidential	-11.2609
residential	-11.2609
▁uncover	-11.2616
▁cooperat	-11.2621
▁separat	-11.2625
▁legaliz	-11.2633
▁Philippine	-11.2642
▁Investigator	-11.2646
▁Nicol	-11.2647
▁lett	-11.2647
▁challenger	-11.2649
pm	-11.2652
▁Switzer	-11.2657
▁valuable	-11.2657
▁Exxon	-11.2657
▁precise	-11.2657
EC	-11.2659
▁assess	-11.2661
▁nut	-11.2662
▁creature	-11.2664
▁assume	-11.2664
▁assertion	-11.2681
▁evacuation	-11.2681
▁expose	-11.269
▁Personal	-11.2691
▁diploma	-11.2692
kyo	-11.2697
▁Volkswag	-11.2707
▁toddler	-11.2707
▁fool	-11.2708
▁kidnapped	-11.2708
▁cleric	-11.2708
▁random	-11.2708
LB	-11.271
▁haz	-11.271
▁existence	-11.2714
▁cooperation	-11.2714
itation	-11.2716
▁grim	-11.272
▁skeptical	-11.2728
bound	-11.2728
▁satir	-11.2728
▁disma	-11.2729
guard	-11.2733
▁Barry	-11.2733
▁Player	-11.2742
▁Citi	-11.2743
viation	-11.2746
▁Pew	-11.2749
▁depart	-11.2754
▁reward	-11.2758
▁Private	-11.2758
▁blockbuster	-11.2758
▁treasur	-11.2758
▁classes	-11.2758
▁Snowd	-11.2763
stitution	-11.2763
▁invitation	-11.277
▁robb	-11.2775
▁Tyle	-11.278
▁hotte	-11.2781
▁Sandy	-11.2807
ntertainment	-11.2808
▁optimis	-11.2808
▁astronaut	-11.2808
▁Cancer	-11.2809
▁Cadde	-11.281
▁extradit	-11.2813
▁pursu	-11.2822
▁embarrassing	-11.2829
▁Grande	-11.2832
▁feat	-11.2835
▁messag	-11.285
▁disgust	-11.2859
▁terrifying	-11.2859
▁royal	-11.2859
▁Animal	-11.2859
▁teeth	-11.2859
▁convert	-11.2859
▁borrow	-11.2859
▁bounc	-11.2859
▁proclaim	-11.286
▁steam	-11.2862
▁LOS	-11.2864
ybody	-11.2866
▁Ruth	-11.2874
▁tribe	-11.2878
▁Div	-11.2882
▁Base	-11.2907
▁Cavalier	-11.291
▁commemorat	-11.291
▁cruel	-11.291
▁Radical	-11.291
▁guidelines	-11.291
▁Reason	-11.291
▁griev	-11.291
▁Photograph	-11.291
▁Wait	-11.2911
▁Retir	-11.2911
▁Harbor	-11.2911
▁wildfire	-11.2912
▁memoir	-11.2915
▁acknowledge	-11.2915
▁stump	-11.2916
▁chase	-11.2919
▁casualt	-11.2921
▁Lab	-11.2924
▁Dana	-11.2932
▁Fur	-11.2936
▁Spie	-11.2941
▁87	-11.2949
▁shareholder	-11.2955
▁Snow	-11.2956
▁attitude	-11.2961
▁participant	-11.2961
▁librar	-11.2961
▁monster	-11.2961
▁reopen	-11.2961
▁profound	-11.2963
▁Pull	-11.2964
▁legitimate	-11.2964
▁citizenship	-11.2964
▁grass	-11.2964
▁Leg	-11.2968
▁True	-11.2972
▁Trail	-11.2976
▁Mich	-11.2984
▁inches	-11.299
▁emotion	-11.2992
▁slide	-11.2992
ISCO	-11.3013
▁guidance	-11.3013
▁Resident	-11.3013
▁Operation	-11.3013
▁FO	-11.3014
▁Bowie	-11.3014
▁Travi	-11.3016
NO	-11.3018
▁judicial	-11.3021
▁Appear	-11.3024
▁MP	-11.3035
▁beef	-11.3043
▁shortage	-11.3043
▁designat	-11.3046
▁owe	-11.3047
▁widen	-11.306
▁Empire	-11.3065
▁HIV	-11.3065
▁Expect	-11.3065
▁navigat	-11.3065
▁clinch	-11.3065
▁drown	-11.3065
▁Worth	-11.3065
▁grappl	-11.3065
ALL	-11.3065
▁Cox	-11.3073
▁Recent	-11.3074
▁anywhere	-11.3077
▁Author	-11.3077
▁acceptance	-11.308
▁poster	-11.3089
▁Arena	-11.309
▁Curr	-11.311
▁seventh	-11.3116
▁FRANC	-11.3117
▁description	-11.3117
▁prestig	-11.3117
▁telephone	-11.3117
▁Urban	-11.3117
▁Weather	-11.3117
▁pension	-11.3118
▁Choice	-11.3118
▁classroom	-11.3119
▁Tribe	-11.3121
▁detective	-11.3122
▁decid	-11.3124
▁Batman	-11.3124
▁Allow	-11.3138
▁Given	-11.3144
etta	-11.3146
BM	-11.3148
force	-11.3157
▁Netherlands	-11.3169
▁Swift	-11.3169
▁Wasserman	-11.3169
▁pizza	-11.3169
▁suspicious	-11.3169
▁Nomination	-11.3169
▁pollution	-11.3169
▁Weapon	-11.3169
▁flames	-11.3169
▁exceed	-11.3169
▁Comedy	-11.317
▁Propos	-11.317
▁Franklin	-11.3172
▁tactic	-11.3173
▁grill	-11.3175
▁aspir	-11.3181
▁parliamentar	-11.3189
▁Fourth	-11.3191
▁Wade	-11.3193
▁mode	-11.3194
nnie	-11.3201
hall	-11.3203
ida	-11.3203
▁Poor	-11.3209
▁nurse	-11.3216
▁pav	-11.3216
▁Carol	-11.322
▁Gabriel	-11.3222
▁Nebraska	-11.3222
▁decisive	-11.3222
▁intimidat	-11.3222
▁Seoul	-11.3222
▁smooth	-11.3222
▁ANGE	-11.3222
▁stumbl	-11.3222
▁Saint	-11.3222
▁Damasc	-11.3222
▁Partners	-11.3222
▁sneak	-11.3222
▁salary	-11.3223
ennial	-11.3224
▁squad	-11.3224
▁serial	-11.3224
▁Boko	-11.3224
▁assassination	-11.3227
▁Massive	-11.323
▁intentional	-11.3235
▁Also	-11.3236
▁retain	-11.325
▁mile	-11.3253
illi	-11.3255
American	-11.3258
▁quest	-11.3268
PE	-11.327
▁Jur	-11.3272
▁Deutsche	-11.3275
▁properties	-11.3275
▁thorough	-11.3275
▁Valentin	-11.3275
nsurance	-11.3276
▁destination	-11.3277
▁MS	-11.3279
▁Actual	-11.3283
▁Lord	-11.3283
▁Myster	-11.329
▁ranch	-11.3311
▁damn	-11.3314
▁commissioner	-11.3319
▁bubble	-11.3328
▁frustrated	-11.3328
▁volatil	-11.3328
▁Spencer	-11.3328
▁Moon	-11.3328
▁plagu	-11.3328
▁Presidency	-11.3329
▁captiv	-11.3331
▁crop	-11.3331
▁swim	-11.3334
▁Huck	-11.3344
UL	-11.3356
▁doubl	-11.3356
▁Box	-11.3356
▁mandat	-11.3359
▁83	-11.3362
▁Niet	-11.3365
▁plunge	-11.3366
weight	-11.3368
▁undo	-11.3371
▁impeach	-11.3378
▁compli	-11.3381
▁Reynolds	-11.3381
▁SCOTUS	-11.3381
▁frozen	-11.3381
▁obscur	-11.3381
▁declining	-11.3381
▁Running	-11.3382
▁smell	-11.3383
▁chest	-11.3383
▁leap	-11.3384
▁Nicola	-11.3394
▁Chance	-11.3396
abee	-11.3396
▁Joint	-11.3399
acher	-11.3412
▁drought	-11.3416
▁shipp	-11.3419
▁Sue	-11.3424
▁Factor	-11.3425
▁longest	-11.3429
unconstitutional	-11.3435
▁airplane	-11.3435
▁haunt	-11.3435
versight	-11.3435
▁slump	-11.3436
▁Cancel	-11.3438
▁Potter	-11.3438
▁impression	-11.3444
▁rip	-11.345
▁hum	-11.3459
▁pastor	-11.3466
▁Abuse	-11.3477
▁construct	-11.3482
▁spike	-11.3488
▁Delaware	-11.3489
▁bombshell	-11.3489
▁hypocri	-11.3489
▁rebuild	-11.3489
▁unconscious	-11.3489
▁vandal	-11.3489
▁sniper	-11.3489
▁misdemeanor	-11.3489
▁ransom	-11.3489
▁micro	-11.3489
▁Hamas	-11.349
▁shap	-11.3496
▁dismantle	-11.3513
▁meme	-11.3518
▁prosecut	-11.3526
▁Janet	-11.3528
▁Grass	-11.3529
NBC	-11.3533
▁Employee	-11.3543
▁Resign	-11.3543
▁nickname	-11.3543
▁volume	-11.3543
▁surrender	-11.3543
▁kidnapping	-11.3543
▁steep	-11.3543
▁vocal	-11.3543
▁Aviv	-11.3544
▁underscor	-11.3544
▁Something	-11.3544
▁Remov	-11.3544
▁Possibl	-11.3544
▁handgun	-11.3545
▁mega	-11.3545
▁Glas	-11.3546
space	-11.3548
traction	-11.3548
bag	-11.3551
▁terminat	-11.3555
tech	-11.3555
otify	-11.3559
▁Later	-11.3561
▁pact	-11.3561
▁transportation	-11.3573
▁motor	-11.3586
▁Apprentice	-11.3598
▁Zillow	-11.3598
▁exhaust	-11.3598
▁universal	-11.3598
▁reckless	-11.3598
▁Anthem	-11.3598
▁Defeat	-11.3598
▁Hulk	-11.3598
▁Hollande	-11.3598
▁stroke	-11.3598
▁outfit	-11.3599
▁predominant	-11.3599
▁spray	-11.3599
▁Express	-11.36
▁engagement	-11.3604
▁wag	-11.3606
▁Sharp	-11.3611
▁visible	-11.3611
▁Urge	-11.3617
▁enforce	-11.3621
▁Arch	-11.3622
▁Trial	-11.3624
▁Dept	-11.3638
olu	-11.3638
▁demonstrat	-11.364
▁psych	-11.3646
mula	-11.3649
▁Ground	-11.3651
▁purchas	-11.3653
▁Effort	-11.3653
▁cocaine	-11.3653
▁neutral	-11.3653
▁Kabul	-11.3653
▁unidentifi	-11.3653
▁shatter	-11.3653
▁sensation	-11.3653
▁milestone	-11.3654
▁Hil	-11.3655
▁obstruction	-11.3657
▁Brock	-11.3657
▁comfortable	-11.3658
▁turnout	-11.3659
▁Robot	-11.3661
▁popp	-11.3662
▁79	-11.3671
▁assum	-11.3671
▁promotion	-11.3677
▁Brain	-11.368
▁assistance	-11.3684
▁Nei	-11.3689
▁Bret	-11.3693
OP	-11.3694
orte	-11.3697
▁Shkreli	-11.3708
▁plummet	-11.3708
▁subsequent	-11.3708
▁Bachelor	-11.3708
▁capacit	-11.3709
▁Edition	-11.3711
▁necessar	-11.3712
▁Twi	-11.3715
lift	-11.3715
▁Bond	-11.3715
▁preparation	-11.372
▁Kassa	-11.3729
▁anticipat	-11.373
▁Gain	-11.3732
▁Wilders	-11.3732
▁Pakistani	-11.3733
▁Democrac	-11.3734
cott	-11.3739
onica	-11.3747
▁examine	-11.3748
▁Raqqa	-11.3764
▁demographic	-11.3764
▁absence	-11.3764
▁overlook	-11.3764
▁Manuel	-11.3764
▁oversight	-11.3765
▁Flag	-11.3769
▁Sad	-11.3773
NS	-11.3784
▁rental	-11.3788
▁Shap	-11.3791
▁cris	-11.3792
▁choos	-11.3799
▁Jacki	-11.3801
▁Curt	-11.3802
▁Karen	-11.3803
▁locker	-11.3811
ahami	-11.3812
▁Tama	-11.3812
▁televis	-11.3812
▁Mohammed	-11.382
▁Sebastia	-11.382
▁sequel	-11.382
▁technique	-11.382
▁Historic	-11.382
▁Struggl	-11.382
▁blunt	-11.382
▁guitar	-11.382
▁interior	-11.382
llegiance	-11.382
▁charm	-11.382
▁sample	-11.3822
▁Brent	-11.3823
▁humor	-11.3825
BUL	-11.3827
▁Cam	-11.3831
▁Chao	-11.3833
▁EST	-11.3835
▁practical	-11.3836
▁submitt	-11.3837
▁Fix	-11.3838
▁invok	-11.3839
▁Planet	-11.3841
▁Lyf	-11.3845
▁preferr	-11.3855
▁epi	-11.3873
RC	-11.3873
▁Advisor	-11.3876
▁spectacular	-11.3876
▁tremendous	-11.3876
▁Idaho	-11.3876
▁Forget	-11.3876
▁exten	-11.3876
chang	-11.3879
▁Populis	-11.3879
ropical	-11.388
othy	-11.3884
▁donor	-11.3885
▁gala	-11.3888
▁acquir	-11.3889
▁countless	-11.3889
unich	-11.3895
tress	-11.3896
▁runway	-11.3902
▁Metro	-11.3904
▁buyers	-11.3906
▁Zi	-11.3919
▁sovereign	-11.3932
Embassy	-11.3932
▁Continue	-11.3932
▁jacket	-11.3932
▁electorate	-11.3932
▁Delegate	-11.3932
▁Design	-11.3932
▁Predict	-11.3932
▁Nigel	-11.3933
folk	-11.3933
▁demonstrate	-11.3936
▁woke	-11.3936
▁slavery	-11.3937
▁thus	-11.3939
▁Brook	-11.394
▁cup	-11.394
▁rebound	-11.3942
▁contestant	-11.3947
▁sideline	-11.395
▁Jet	-11.3957
▁penn	-11.3959
word	-11.3959
▁130	-11.3962
▁Compar	-11.3972
hol	-11.3973
▁63	-11.3973
▁anonym	-11.3987
ecca	-11.3988
▁Ahmad	-11.3989
▁Emergency	-11.3989
▁assailant	-11.3989
▁historian	-11.3989
▁Ecuador	-11.3989
▁burden	-11.3989
▁evolv	-11.3989
▁Premier	-11.3989
▁Message	-11.3989
▁compil	-11.399
▁terminal	-11.399
▁Havana	-11.399
▁queen	-11.3992
▁depression	-11.3995
▁psycholog	-11.3996
▁vetting	-11.3997
elli	-11.3999
▁endless	-11.4001
loud	-11.4008
▁mini	-11.4012
▁defendant	-11.4014
▁Drag	-11.4032
▁Colombian	-11.4046
▁Communist	-11.4046
▁Reject	-11.4046
▁congratulat	-11.4046
▁deplorable	-11.4046
▁Metropoli	-11.4046
▁Comic	-11.4047
▁whip	-11.4048
▁Portug	-11.4049
▁Progressive	-11.4049
▁1994	-11.4052
▁Guide	-11.4055
▁communicat	-11.4067
▁scam	-11.4068
▁Chase	-11.4071
▁Hat	-11.4072
▁southwest	-11.4088
▁characteriz	-11.4092
▁conclude	-11.4098
alais	-11.4101
▁extremism	-11.4104
▁physician	-11.4104
▁attribut	-11.4104
▁carpet	-11.4104
▁expir	-11.4104
▁thick	-11.4104
▁swamp	-11.4106
▁lane	-11.4107
▁commentar	-11.4107
▁unrest	-11.4109
▁Serv	-11.4111
▁centre	-11.4131
▁Tam	-11.4136
▁rig	-11.4142
▁broadcaster	-11.4143
▁Daw	-11.4146
▁rattl	-11.4148
hani	-11.4149
▁Code	-11.4155
▁dry	-11.4159
▁Airbnb	-11.4162
▁relevant	-11.4162
▁align	-11.4162
▁drain	-11.4162
▁lethal	-11.4162
▁stunt	-11.4162
▁sketch	-11.4162
▁transaction	-11.4162
▁presum	-11.4162
▁Bhara	-11.4164
▁advertiser	-11.4178
▁Karl	-11.4185
uin	-11.4189
▁Yate	-11.4191
▁fallout	-11.4195
▁Born	-11.4198
count	-11.4207
▁Evidence	-11.422
▁Violent	-11.422
▁landslide	-11.422
▁subpoena	-11.422
▁imprison	-11.422
▁revenge	-11.422
▁ideology	-11.422
stream	-11.422
▁captain	-11.4222
▁doping	-11.4223
▁Margar	-11.4224
▁detonat	-11.4225
▁gray	-11.4227
▁firework	-11.4227
▁Estate	-11.4232
▁belt	-11.4235
▁Lock	-11.4241
▁Domin	-11.4242
▁Readers	-11.425
▁cycl	-11.4261
▁Bud	-11.4263
▁Dor	-11.4264
▁denial	-11.4272
▁casino	-11.4278
▁excellen	-11.4278
▁liberty	-11.4278
▁patch	-11.4279
▁Cyber	-11.4279
▁Studie	-11.4279
▁pure	-11.4279
19	-11.428
▁lifestyle	-11.4281
▁Least	-11.4282
▁Franco	-11.4283
▁wonderful	-11.4288
▁costume	-11.4289
▁Belt	-11.4295
▁180	-11.43
scribe	-11.4305
▁CBO	-11.431
▁Jihad	-11.4315
▁preserve	-11.4316
▁Jup	-11.4325
▁Path	-11.4329
clusion	-11.4336
▁Emirate	-11.4337
▁Rosenstein	-11.4337
▁curious	-11.4337
▁rookie	-11.4337
▁Living	-11.4337
▁Pearl	-11.4337
▁Emmy	-11.4338
▁postpon	-11.4339
▁bash	-11.434
▁pursuit	-11.4341
▁colorful	-11.4345
▁Body	-11.4346
fil	-11.4348
▁Vet	-11.4351
▁Artist	-11.4361
▁86	-11.4361
▁File	-11.4372
▁dirty	-11.4376
▁fleet	-11.4379
▁Mock	-11.4381
▁lucky	-11.4385
▁Shock	-11.4391
▁evaluat	-11.4396
▁coincid	-11.4396
▁Together	-11.4396
▁farewell	-11.4396
▁Otto	-11.4396
▁manslaughter	-11.4397
▁vicious	-11.4397
▁nerve	-11.4398
▁Division	-11.4398
mouth	-11.4399
▁gunshot	-11.44
▁shootout	-11.4403
▁Solar	-11.4407
▁Idea	-11.441
▁unlock	-11.4414
▁Sorr	-11.4414
MZ	-11.4432
bach	-11.4439
▁sail	-11.444
▁Bak	-11.4442
▁exhibit	-11.4447
▁Gore	-11.4455
:45	-11.4456
▁Chipotle	-11.4456
▁Survey	-11.4456
▁cousin	-11.4456
▁concentrat	-11.4456
▁cheese	-11.4456
▁patent	-11.4456
▁Injur	-11.4457
▁nude	-11.4457
▁Jamie	-11.4458
▁pants	-11.4459
script	-11.446
▁graduation	-11.446
▁click	-11.446
▁declaration	-11.4463
▁Sister	-11.4464
▁Winner	-11.4465
graph	-11.4469
▁Lav	-11.4469
▁grop	-11.447
▁lament	-11.4472
▁Riot	-11.4474
▁advised	-11.4479
▁skeptic	-11.4492
trophy	-11.4503
▁addict	-11.4508
Air	-11.451
▁Progress	-11.4512
▁uncertain	-11.4514
AFTA	-11.4516
▁Cowboys	-11.4516
▁Sanctuar	-11.4516
▁bacteria	-11.4516
▁elaborate	-11.4516
▁emphasiz	-11.4516
▁pedestrian	-11.4516
▁Already	-11.4516
▁aggravat	-11.4516
▁muscle	-11.4516
▁offshore	-11.4516
▁puzzl	-11.4516
▁juror	-11.4516
▁swirl	-11.4516
▁pretend	-11.4516
▁lyric	-11.4517
▁discount	-11.4517
feld	-11.4529
▁Anna	-11.4536
▁coat	-11.4542
▁NYT	-11.4544
▁Mason	-11.4545
▁ensu	-11.4552
▁pitcher	-11.4565
▁Murphy	-11.4576
▁Restaurant	-11.4576
▁atmosphere	-11.4576
▁comprehensive	-11.4576
▁mortgage	-11.4576
▁outspoken	-11.4576
▁balloon	-11.4576
▁Minutes	-11.4576
▁clown	-11.4576
▁integrat	-11.4576
▁warehouse	-11.4576
▁Credit	-11.4576
▁comply	-11.4576
▁brave	-11.4581
▁Finance	-11.4582
▁bread	-11.4582
▁Meyer	-11.4583
ID	-11.4585
▁Carlo	-11.4589
▁Wright	-11.4592
▁lineup	-11.4593
making	-11.4597
▁Luis	-11.4603
WE	-11.4614
▁Lisa	-11.4615
▁primari	-11.462
▁91	-11.4632
▁snapp	-11.4633
▁Philando	-11.4636
▁medication	-11.4636
▁stupid	-11.4636
▁Natural	-11.4636
▁deposit	-11.4636
▁superstar	-11.4636
▁siege	-11.4637
▁registration	-11.4638
▁displac	-11.4639
▁hatred	-11.4639
▁haul	-11.4642
▁Hearing	-11.4643
▁detainee	-11.4643
▁Apologize	-11.4647
▁Link	-11.4651
▁Hacker	-11.4654
heim	-11.4655
▁Thought	-11.4668
▁Height	-11.4669
▁Success	-11.4697
▁brawl	-11.4697
▁lesbian	-11.4697
▁romantic	-11.4697
▁Faith	-11.4697
▁Modern	-11.4697
hit	-11.4698
▁perceiv	-11.4698
▁Value	-11.4698
▁optimistic	-11.4699
▁decorat	-11.47
▁Tuls	-11.4701
▁Tiny	-11.4702
▁tail	-11.4702
▁aisle	-11.4703
▁Theater	-11.4704
▁Dann	-11.4706
▁Rein	-11.4707
▁81	-11.471
▁Somali	-11.473
▁duo	-11.4735
BI	-11.4746
▁Southeast	-11.4757
▁Bathroom	-11.4759
▁Cologne	-11.4759
▁Marriage	-11.4759
▁Millennials	-11.4759
▁Politician	-11.4759
▁hurricane	-11.4759
▁Ignor	-11.4759
▁Lawrence	-11.4759
▁Answer	-11.4759
▁oppress	-11.4759
▁suppress	-11.4759
▁ceiling	-11.4759
▁Focus	-11.476
▁garb	-11.476
▁toilet	-11.4762
▁restor	-11.4766
▁Along	-11.4772
▁pickup	-11.4778
▁Probe	-11.4779
▁gambl	-11.478
▁Era	-11.4781
▁counselor	-11.4783
▁SEC	-11.4785
Bot	-11.4793
▁barb	-11.4809
far	-11.4815
▁Gal	-11.4815
▁basket	-11.482
:15	-11.482
▁Freddie	-11.482
▁disastrous	-11.482
▁realDonaldTrump	-11.482
▁unfortunate	-11.482
▁vigil	-11.482
▁Soldier	-11.4821
▁retake	-11.4821
▁collid	-11.4821
▁Realtor	-11.4821
▁bragg	-11.4821
▁Enough	-11.4822
▁preview	-11.4822
▁900	-11.4829
▁supervis	-11.4831
▁taxi	-11.4835
▁charter	-11.4836
band	-11.4845
▁Minne	-11.4851
▁Saman	-11.486
▁disabilit	-11.4862
▁Stree	-11.4867
▁incit	-11.4882
yndrome	-11.4883
▁Conflict	-11.4883
▁Convict	-11.4883
▁Ghostbuster	-11.4883
▁Publish	-11.4883
▁TRUMP	-11.4883
▁equivalent	-11.4883
▁maximum	-11.4883
▁prince	-11.4883
▁provocative	-11.4883
▁sandwich	-11.4883
▁recipe	-11.4883
▁acclaim	-11.4883
▁Mosque	-11.4883
▁Clean	-11.4883
▁Weekend	-11.4883
▁cinema	-11.4883
▁reinstat	-11.4885
▁acre	-11.4887
▁Gaza	-11.4889
▁flagship	-11.4889
▁Highway	-11.4894
▁Refuge	-11.4896
▁190	-11.4897
▁Drive	-11.4903
▁Reach	-11.4905
▁Hum	-11.4919
▁soda	-11.4928
▁smil	-11.4932
▁elevat	-11.4936
EM	-11.4937
▁Antarctic	-11.4945
▁Joaqu	-11.4945
▁counterterroris	-11.4945
▁Serious	-11.4945
▁Statu	-11.4946
▁Flood	-11.4946
▁authoritarian	-11.4947
▁93	-11.4948
▁memorabl	-11.495
▁outrageous	-11.4952
▁undis	-11.4964
▁fever	-11.4965
▁Term	-11.497
▁Arian	-11.499
▁Emil	-11.499
▁Person	-11.4997
demo	-11.5007
▁Nasdaq	-11.5008
▁Respond	-11.5008
▁closure	-11.5008
▁escort	-11.5008
▁imminent	-11.5008
▁ghost	-11.5008
▁bruis	-11.5008
▁Double	-11.5008
▁dawn	-11.5008
▁smoking	-11.5008
▁benchmark	-11.5009
▁Housing	-11.5009
▁definition	-11.5009
▁Singer	-11.5011
▁cake	-11.5012
▁1995	-11.5016
▁friendship	-11.5017
▁inspiration	-11.5024
▁prostitut	-11.5031
▁Map	-11.5033
witt	-11.5049
▁Product	-11.5051
▁Pac	-11.5058
▁Lower	-11.5065
▁Destroy	-11.5071
▁Explain	-11.5071
▁dynamic	-11.5071
▁Ginsburg	-11.5071
▁jazz	-11.5071
▁premise	-11.5071
▁Reddit	-11.5071
▁JANE	-11.5071
▁Worst	-11.5071
▁lung	-11.5072
▁dumb	-11.5073
▁Rebel	-11.5074
▁wireless	-11.5074
▁Admit	-11.5075
VER	-11.5076
▁transit	-11.5077
▁everyday	-11.5079
CC	-11.5087
week	-11.509
▁arguabl	-11.5095
LAND	-11.5099
heart	-11.5105
▁noise	-11.5108
▁wider	-11.5122
▁Virgin	-11.5123
▁Bow	-11.5123
▁accommodat	-11.5135
▁Ukrainian	-11.5135
▁agricultur	-11.5135
▁discipline	-11.5135
▁centrist	-11.5135
▁strand	-11.5135
▁Guilt	-11.5135
kov	-11.5143
▁1992	-11.5144
▁Build	-11.515
laza	-11.5156
▁spr	-11.5157
▁interaction	-11.5163
▁Kor	-11.5167
▁Barb	-11.5171
▁achiev	-11.5183
▁Simone	-11.5184
anamo	-11.5187
▁misogyn	-11.5199
▁Unfortunate	-11.5199
▁ambush	-11.5199
▁calendar	-11.5199
▁marathon	-11.5199
▁symptom	-11.5199
▁PHIL	-11.5199
▁regain	-11.5199
▁Crown	-11.5199
▁assured	-11.52
▁Rudy	-11.52
▁distress	-11.52
▁NeverTrump	-11.5201
▁Hurt	-11.5202
▁restroom	-11.5202
▁betray	-11.5202
▁spare	-11.5202
▁facult	-11.5202
▁Gender	-11.5206
▁Crack	-11.5207
issa	-11.5211
bok	-11.5212
▁luck	-11.5213
▁delight	-11.5216
▁understood	-11.5221
PP	-11.5222
▁Mission	-11.5235
▁Julia	-11.5239
▁Nigerian	-11.5243
▁71	-11.5256
▁Chang	-11.5256
▁Mario	-11.5261
▁Enrique	-11.5264
▁grandmother	-11.5264
▁bargain	-11.5264
▁gymnast	-11.5264
▁perpetrat	-11.5264
▁reboot	-11.5264
▁besieg	-11.5264
▁shoppers	-11.5264
▁Watergate	-11.5265
▁Bez	-11.5265
▁cult	-11.5268
▁Role	-11.5273
▁Medal	-11.5277
▁160	-11.5277
UD	-11.5282
▁stripp	-11.5285
Life	-11.5287
▁peril	-11.5297
wash	-11.5298
▁skipp	-11.53
▁resettl	-11.5301
bank	-11.5322
▁congress	-11.5324
▁podium	-11.5329
▁dispatch	-11.5329
▁Detail	-11.5329
▁Article	-11.5329
▁Serena	-11.5329
▁liquid	-11.5329
▁False	-11.5329
ADEL	-11.5329
▁bestsell	-11.533
▁Jesse	-11.533
▁Bab	-11.533
▁Jefferson	-11.5331
▁blogger	-11.5331
▁Phone	-11.5333
▁1950	-11.5334
einstein	-11.5345
▁lend	-11.5351
uick	-11.5352
▁Bobb	-11.5356
▁Clare	-11.536
▁capabilit	-11.5363
▁Revolutionar	-11.5366
▁Lena	-11.5368
▁speculat	-11.5387
▁reliev	-11.539
aki	-11.5391
▁Counsel	-11.5394
▁Effect	-11.5394
▁Emanuel	-11.5394
▁Singapore	-11.5394
▁conspir	-11.5394
▁elephant	-11.5394
▁hurdle	-11.5394
▁Fraud	-11.5394
▁Marathon	-11.5394
▁brush	-11.5394
▁tumult	-11.5394
▁stomach	-11.5394
▁relax	-11.5394
▁Studio	-11.5394
▁paragraph	-11.5394
▁Broadcast	-11.5394
fill	-11.5395
▁Morris	-11.5395
▁orange	-11.5395
▁Goldberg	-11.5395
▁excessive	-11.5396
▁workforce	-11.5398
▁Wife	-11.5398
▁thriv	-11.5398
▁grace	-11.5401
▁Norman	-11.5404
▁improvement	-11.5405
▁Luke	-11.5405
▁utilit	-11.5413
▁Thing	-11.5415
▁association	-11.5415
nkara	-11.5422
▁fier	-11.5423
▁Cause	-11.5424
▁enforc	-11.5428
▁Corco	-11.5429
▁Socialist	-11.5433
▁startling	-11.5441
▁casual	-11.5445
▁bug	-11.5451
rice	-11.5456
▁Investment	-11.546
▁Raheem	-11.546
▁autonomous	-11.546
▁breakthrough	-11.546
▁cigarette	-11.546
▁constituent	-11.546
▁engulf	-11.546
▁mirror	-11.546
▁Android	-11.546
▁radar	-11.546
▁complication	-11.546
▁Rescue	-11.5461
▁Ramada	-11.5461
▁passionate	-11.5462
▁Rodrigue	-11.5463
▁retaliation	-11.5464
▁exam	-11.5467
▁Knight	-11.5473
▁trace	-11.5473
▁Elite	-11.5475
▁firearm	-11.5476
▁dam	-11.5483
made	-11.5492
▁intercept	-11.5516
▁correspond	-11.5524
▁Alexandria	-11.5526
▁dishonest	-11.5526
▁widow	-11.5526
▁Traffic	-11.5526
▁Gross	-11.5526
▁Librar	-11.5526
▁trove	-11.5527
▁Buzz	-11.5528
▁Boris	-11.5533
▁upend	-11.5537
▁download	-11.5538
▁cement	-11.5538
▁arrang	-11.554
▁Immigrant	-11.5544
security	-11.555
▁Joan	-11.5557
nytime	-11.5567
▁Gall	-11.5591
▁territori	-11.5593
▁Murdoch	-11.5593
▁portfolio	-11.5593
▁transparenc	-11.5593
▁Ahmed	-11.5593
▁hijack	-11.5593
▁database	-11.5593
▁Machine	-11.5593
▁whale	-11.5593
▁Mohamed	-11.5593
▁passport	-11.5596
▁Elementa	-11.5596
▁steer	-11.5601
▁Laden	-11.5608
▁FDA	-11.5609
▁penalt	-11.5609
▁Medi	-11.5612
▁attendant	-11.5614
▁gam	-11.5622
gun	-11.5627
▁preach	-11.5657
▁Carmelo	-11.566
▁Response	-11.566
▁Soccer	-11.566
▁Warmbier	-11.566
▁administrative	-11.566
▁contaminat	-11.566
▁Arnold	-11.566
▁array	-11.566
▁defiant	-11.5664
▁dread	-11.5667
Style	-11.5667
▁Wheel	-11.5673
▁bowl	-11.568
▁passe	-11.5681
▁Denie	-11.5686
randa	-11.5691
▁flipp	-11.5692
▁allegation	-11.5692
▁expos	-11.5695
ocrat	-11.5699
etti	-11.5718
▁complet	-11.5722
▁Feminist	-11.5727
▁Kalanick	-11.5727
▁Multiple	-11.5727
▁Stockholm	-11.5727
▁Suggest	-11.5727
▁contemporar	-11.5727
▁Madonna	-11.5727
▁ritual	-11.5727
▁anxious	-11.5727
▁convoy	-11.5727
▁abolish	-11.5727
▁galler	-11.5727
▁Troubl	-11.5727
▁stemm	-11.5728
▁empower	-11.5728
▁Discover	-11.5729
▁hoax	-11.573
▁Technologi	-11.573
▁Limit	-11.5731
▁Beckham	-11.5731
▁McK	-11.5732
▁uncomfortable	-11.5733
▁Kind	-11.5733
▁Emma	-11.5734
▁weakness	-11.5735
▁presid	-11.5737
RIO	-11.5742
▁tube	-11.5747
▁vari	-11.5748
▁Round	-11.5748
▁dash	-11.5748
▁plow	-11.5752
Russia	-11.5756
▁passion	-11.5759
▁Flee	-11.5762
ubai	-11.5765
▁uphold	-11.5766
manda	-11.5766
wick	-11.5786
▁revel	-11.5792
13	-11.5795
▁Roosevelt	-11.5795
▁ingredient	-11.5795
▁vegetable	-11.5795
▁gorilla	-11.5795
▁Krautham	-11.5795
▁envoy	-11.5795
▁frighten	-11.5795
▁Biggest	-11.5795
▁Bronco	-11.5795
▁Pride	-11.5796
▁dissent	-11.5796
▁memories	-11.5796
FCC	-11.5797
▁Shinz	-11.5798
▁Bird	-11.5799
▁Troop	-11.5799
▁Harper	-11.5801
▁hover	-11.5806
▁pornograph	-11.5807
▁yog	-11.5808
▁Vow	-11.5819
▁cargo	-11.5825
closed	-11.5833
▁conf	-11.5847
▁Shakespeare	-11.5864
▁commencement	-11.5864
▁genius	-11.5864
▁recipient	-11.5864
▁centuries	-11.5864
▁reshap	-11.5864
▁Writer	-11.5864
▁verge	-11.5864
▁polariz	-11.5869
▁trademark	-11.587
▁marketplace	-11.587
▁Schill	-11.587
▁Linda	-11.5881
▁Luck	-11.5887
▁Doug	-11.5897
▁Polic	-11.5907
▁duti	-11.5923
▁influ	-11.5932
▁Buffalo	-11.5933
▁Kellogg	-11.5933
▁McMaster	-11.5933
▁Original	-11.5933
▁occupation	-11.5933
▁recognition	-11.5933
▁Draft	-11.5933
▁valid	-11.5933
▁Boycott	-11.5933
▁Option	-11.5935
▁sitcom	-11.5935
▁Nike	-11.5938
▁correctness	-11.5942
▁lender	-11.5945
▁filter	-11.5957
▁liar	-11.5958
rpool	-11.5964
▁withdrawal	-11.5965
world	-11.5966
▁Lack	-11.5968
ilma	-11.598
trak	-11.5989
▁Maur	-11.5992
▁recess	-11.5994
▁Abdul	-11.6002
▁Agricultur	-11.6002
▁Berkshire	-11.6002
▁extinct	-11.6002
▁villain	-11.6002
▁courage	-11.6002
▁Caesar	-11.6002
▁kingdom	-11.6002
▁enhanc	-11.6003
▁inspector	-11.6003
▁Failure	-11.6004
▁Tinder	-11.6004
▁transferr	-11.6005
▁frank	-11.6006
▁Mulv	-11.6006
▁Kristo	-11.6016
80	-11.6017
▁Total	-11.6019
▁Luci	-11.6023
▁absolute	-11.6025
▁duck	-11.6033
▁foe	-11.6034
▁slim	-11.6038
▁interact	-11.6046
▁Alec	-11.6049
▁gene	-11.6058
▁industri	-11.6062
▁Elliot	-11.6067
▁genuine	-11.6072
▁Screen	-11.6072
dominant	-11.6072
▁Favor	-11.6072
▁garner	-11.6072
▁Tampa	-11.6073
▁exempt	-11.6074
▁smear	-11.6074
▁subtle	-11.6075
▁swipe	-11.6075
▁Praise	-11.6076
▁TPP	-11.6076
▁melt	-11.6079
▁Zone	-11.6093
▁symbolic	-11.6094
▁produc	-11.6102
▁basement	-11.6106
▁Madri	-11.6112
▁objection	-11.6112
▁Modi	-11.6128
▁Digital	-11.6143
▁Tebow	-11.6143
▁Television	-11.6143
▁genocide	-11.6143
▁pneumonia	-11.6143
▁surpass	-11.6143
▁stirr	-11.6143
▁fragil	-11.6143
cock	-11.6143
▁Attend	-11.6143
▁cafe	-11.6143
▁summon	-11.6143
▁defy	-11.6143
▁Clay	-11.6143
cliff	-11.6144
uarter	-11.6144
▁spurr	-11.6145
HL	-11.6151
▁Gabb	-11.6152
anziel	-11.6155
▁surfac	-11.6159
▁Harrison	-11.6162
▁presentation	-11.6174
▁provok	-11.618
▁hug	-11.6187
bidding	-11.6188
style	-11.619
walk	-11.619
▁Divid	-11.6195
▁depress	-11.6213
▁astonishing	-11.6213
▁exclud	-11.6213
▁genital	-11.6213
▁iPad	-11.6213
▁junior	-11.6213
▁qualify	-11.6213
▁voluntar	-11.6213
▁Attempt	-11.6213
▁sophisticat	-11.6213
▁Federation	-11.6214
▁lewd	-11.6214
▁bonus	-11.6214
▁integrity	-11.6214
▁goodbye	-11.6214
▁layoffs	-11.6214
▁obes	-11.6214
▁roster	-11.6214
▁pardon	-11.6215
▁Hassan	-11.6217
▁mono	-11.6226
▁brick	-11.6229
▁diesel	-11.6233
▁NJ	-11.6235
▁Nathan	-11.6237
▁phon	-11.6238
▁polic	-11.6243
▁rallie	-11.6257
▁Tough	-11.6257
▁Hoga	-11.6274
▁inventor	-11.628
▁republic	-11.6285
▁reversal	-11.6285
▁Legacy	-11.6285
▁instrument	-11.6285
▁simultaneous	-11.6285
▁Cardinal	-11.6285
▁overcome	-11.6285
▁millionaire	-11.6286
▁Captain	-11.6286
▁consist	-11.6287
▁northeast	-11.6289
▁deployment	-11.6293
▁flock	-11.6294
▁Correction	-11.6296
▁slur	-11.6298
▁Moral	-11.6303
▁kit	-11.6307
atherine	-11.6309
▁Rip	-11.6312
▁forceful	-11.6313
ulip	-11.6316
rtheastern	-11.6321
▁rapist	-11.6356
▁Medicine	-11.6357
▁adventure	-11.6357
▁pharmaceutical	-11.6357
▁unpredictable	-11.6357
▁Apparent	-11.6357
▁vague	-11.6357
▁ignit	-11.6357
▁Daughter	-11.6357
racle	-11.6358
▁liberat	-11.6359
▁Alban	-11.636
▁Title	-11.6361
▁wrap	-11.6362
▁clarify	-11.6363
▁installment	-11.6364
▁Lesson	-11.6378
refore	-11.6383
▁contend	-11.6384
▁skip	-11.6413
▁possess	-11.6417
paid	-11.6423
▁jeopard	-11.6429
▁Tunisia	-11.6429
▁collision	-11.6429
▁incumbent	-11.6429
▁Corbyn	-11.6429
▁Jamaica	-11.6429
▁proportion	-11.6429
▁Coalition	-11.6429
▁reassure	-11.6429
▁distant	-11.6429
▁Contest	-11.6429
▁conscious	-11.6429
▁Holt	-11.6431
▁Mental	-11.6432
▁cancelled	-11.6433
▁adaptation	-11.6433
▁shov	-11.6438
▁reduction	-11.644
▁Drama	-11.6443
▁Dodge	-11.6448
▁Jenn	-11.6451
▁Clem	-11.6453
▁flip	-11.6468
range	-11.6475
▁Member	-11.6484
▁cure	-11.6487
▁React	-11.6496
resumptive	-11.6499
▁Earnest	-11.6502
▁Engineer	-11.6502
▁concession	-11.6502
▁conglomerate	-11.6502
▁innovation	-11.6502
▁motorcycle	-11.6502
▁outdoor	-11.6502
▁Manager	-11.6502
▁warplane	-11.6502
▁Marlins	-11.6503
▁marry	-11.6503
▁Patient	-11.6504
▁Ivy	-11.6504
▁loyalty	-11.6505
▁curs	-11.6506
▁Palac	-11.6508
▁breed	-11.651
▁northwest	-11.651
▁Truck	-11.6514
▁nin	-11.6519
▁Score	-11.652
▁Pitt	-11.6521
▁nail	-11.6527
—	-11.6548
fest	-11.6553
▁Gonzal	-11.6576
▁JPMorgan	-11.6576
▁chocolate	-11.6576
▁delegation	-11.6576
▁incarcerat	-11.6576
▁staggering	-11.6576
▁thwart	-11.6576
▁Decision	-11.6576
▁absent	-11.6576
▁Simmon	-11.6576
▁Racial	-11.6576
▁Outrage	-11.6576
Semit	-11.6578
▁gentle	-11.658
▁burger	-11.6581
▁battlefield	-11.6583
▁boring	-11.6585
▁Hook	-11.6591
▁Tub	-11.6591
▁condemnation	-11.6594
▁Single	-11.6597
PI	-11.6602
▁Tie	-11.6607
Berry	-11.6609
▁supplier	-11.6609
dolph	-11.6616
▁humbl	-11.6616
▁hardline	-11.6619
▁surf	-11.6621
▁Catch	-11.6622
▁stok	-11.6623
▁submit	-11.6629
▁jihadi	-11.6638
▁Celebrate	-11.665
▁Electronic	-11.665
▁Pulitzer	-11.665
▁Yesterday	-11.665
▁component	-11.665
▁incorrect	-11.665
▁persecut	-11.665
▁predator	-11.665
▁Racism	-11.665
▁Islamophobi	-11.665
munition	-11.665
▁Kislya	-11.665
▁Hallowe	-11.6651
▁autism	-11.6651
▁Kyle	-11.6652
▁limb	-11.6653
▁Shiite	-11.6653
▁revolutionary	-11.6654
▁1998	-11.6657
▁stack	-11.6661
▁furni	-11.6661
calise	-11.667
▁Boyle	-11.6685
NAA	-11.671
▁Southwest	-11.6716
▁neuro	-11.6724
▁diabet	-11.6725
▁commodit	-11.6725
▁enthusiasm	-11.6725
▁generous	-11.6725
▁fractur	-11.6725
▁unfit	-11.6725
▁penthouse	-11.6725
▁monet	-11.6726
▁mild	-11.6727
:20	-11.6728
▁roil	-11.6729
▁frenz	-11.673
▁glow	-11.6732
▁Sharia	-11.6735
▁Katy	-11.6737
EP	-11.6744
▁Congo	-11.6745
wives	-11.6749
▁rode	-11.675
▁Wats	-11.6751
▁spectr	-11.6751
▁Kick	-11.6755
▁neo	-11.6769
lzhe	-11.6779
girl	-11.6783
FF	-11.6783
▁triple	-11.6789
▁clar	-11.6795
▁Assistant	-11.68
▁EpiPen	-11.68
▁Melbourn	-11.68
▁Phelps	-11.68
▁credentials	-11.68
▁obstacle	-11.68
▁KKK	-11.68
▁Comedian	-11.68
▁Schiff	-11.68
▁Electric	-11.68
▁Holmes	-11.68
▁telecom	-11.68
▁Wake	-11.68
▁reiterat	-11.68
Robinson	-11.68
▁reunit	-11.6801
▁relocat	-11.6803
▁communist	-11.6805
▁salt	-11.6809
▁Marcus	-11.6813
▁drum	-11.6814
▁attendance	-11.6825
▁Klan	-11.6827
latt	-11.6828
▁Puz	-11.6845
▁Erin	-11.6847
▁Amber	-11.6856
▁Sioux	-11.6875
▁acquitt	-11.6875
▁catastrophic	-11.6875
▁cyberattack	-11.6875
▁sculpt	-11.6875
▁spectacle	-11.6875
▁vulgar	-11.6875
▁remake	-11.6875
▁intimate	-11.6876
▁Silence	-11.6876
▁garden	-11.6876
▁quake	-11.6876
▁vacan	-11.6876
▁spree	-11.6876
▁mutual	-11.6877
▁rational	-11.6877
▁Declare	-11.6878
▁stroll	-11.6878
▁swath	-11.688
▁exhibition	-11.6887
▁Trek	-11.6888
▁Deport	-11.6888
▁Grace	-11.6889
▁Kenne	-11.6898
▁Pressure	-11.6901
heroes	-11.6903
eslie	-11.6904
▁dorm	-11.6911
▁constitution	-11.6921
arrett	-11.6926
▁impress	-11.6938
▁dire	-11.6941
▁Direct	-11.6946
▁Absolute	-11.6952
▁Advocate	-11.6952
▁Clooney	-11.6952
▁Salvador	-11.6952
▁maneuver	-11.6952
▁supermarket	-11.6952
▁Rafael	-11.6952
▁gesture	-11.6952
▁foul	-11.6952
▁Deliver	-11.6952
▁Adele	-11.6952
avoc	-11.6954
▁checkpoint	-11.6954
▁Midwest	-11.6954
▁flurr	-11.6955
▁reluctant	-11.6956
▁curat	-11.6958
▁disappointment	-11.6962
▁lake	-11.6963
▁Enter	-11.6968
upert	-11.6969
▁Dress	-11.6973
▁Donna	-11.6983
▁Region	-11.6984
▁disturb	-11.6992
▁Strip	-11.6996
version	-11.7004
▁Understand	-11.7006
▁Plea	-11.7025
ographic	-11.7026
▁Brzezin	-11.7029
▁Lloyd	-11.7029
▁Surprise	-11.7029
▁credibility	-11.7029
▁throat	-11.7029
▁Ghost	-11.7029
▁Pregnan	-11.7029
▁taunt	-11.7029
▁Sweet	-11.7029
▁burglar	-11.7029
▁patron	-11.7029
▁wander	-11.7029
utter	-11.7029
▁Result	-11.7029
▁Popular	-11.703
▁saga	-11.7033
▁lord	-11.7033
▁Nature	-11.7036
Driving	-11.7037
▁injection	-11.7047
▁shy	-11.7084
▁Playbo	-11.7091
tomic	-11.7102
athedral	-11.7106
▁appreciate	-11.7106
▁homeowner	-11.7106
▁spiral	-11.7106
▁grief	-11.7106
▁improper	-11.7106
▁Rifle	-11.7106
▁debri	-11.7106
▁Avoid	-11.7106
CLU	-11.7106
▁psychiatr	-11.7106
▁warrior	-11.7106
ALEM	-11.7107
▁blanket	-11.7108
▁revok	-11.7108
▁Foot	-11.7109
RUT	-11.7113
▁pole	-11.7113
▁batch	-11.7117
▁elevator	-11.7118
nyone	-11.7121
▁obsession	-11.7122
EF	-11.7156
duction	-11.7165
▁Organiz	-11.718
ontinental	-11.7183
▁Hungar	-11.7183
▁consolidat	-11.7184
▁feminism	-11.7184
▁precedent	-11.7184
▁Abbott	-11.7184
▁pepper	-11.7184
▁Kimmel	-11.7184
▁Tucker	-11.7185
▁issuing	-11.7185
▁psychological	-11.7186
▁Porn	-11.7186
FK	-11.7187
▁Foster	-11.7188
▁junk	-11.7188
▁Worse	-11.719
▁spie	-11.7217
▁Petra	-11.7223
▁quo	-11.7237
RAN	-11.7244
▁controversi	-11.7248
▁Agree	-11.7257
agnitude	-11.7263
▁Boehner	-11.7263
▁Ethiopia	-11.7263
▁Sacrament	-11.7263
▁dinosaur	-11.7263
▁robust	-11.7263
▁Sleep	-11.7263
▁Texan	-11.7263
▁dossier	-11.7263
▁splash	-11.7263
▁foster	-11.7263
▁classmate	-11.7263
McCrory	-11.7263
▁Advanc	-11.7264
▁Magic	-11.7264
▁inflat	-11.7265
▁boil	-11.7265
▁Rapper	-11.7266
▁Parade	-11.7266
▁Trend	-11.7267
▁enthusiastic	-11.7269
▁Lamar	-11.7277
▁dirt	-11.7293
▁capabl	-11.7311
▁woo	-11.732
strong	-11.7326
agh	-11.7332
▁adapt	-11.7339
pocalypse	-11.7342
▁cautious	-11.7342
▁disapprov	-11.7342
▁manhunt	-11.7342
▁relentless	-11.7342
▁Cornell	-11.7342
▁bureaucrat	-11.7343
▁backdrop	-11.7343
▁dashboard	-11.7343
▁trait	-11.7343
vasive	-11.7344
▁budd	-11.7344
polar	-11.7349
▁Sears	-11.7354
▁figur	-11.7355
▁semi	-11.7364
▁gunme	-11.7382
▁Genev	-11.7397
check	-11.7401
▁dodg	-11.7416
▁Diversity	-11.7422
▁Evangelical	-11.7422
▁drastic	-11.7422
▁inflict	-11.7422
▁municipal	-11.7422
▁unacceptable	-11.7422
▁Hidden	-11.7422
▁Lopez	-11.7422
ISTAN	-11.7422
▁Ebola	-11.7422
▁unravel	-11.7422
▁mishandl	-11.7423
▁Polish	-11.7423
▁Missile	-11.7426
▁disagreement	-11.7429
▁merit	-11.7434
HI	-11.7443
ONG	-11.7449
▁identit	-11.7451
▁upgrade	-11.7456
ountries	-11.7462
▁Templ	-11.7474
▁Trevor	-11.7503
▁critique	-11.7503
▁retweet	-11.7503
▁Chemical	-11.7503
▁prevail	-11.7503
▁crippl	-11.7503
▁uproar	-11.7503
▁glut	-11.7503
▁screw	-11.7503
▁contrar	-11.7504
▁obligation	-11.7505
▁Skip	-11.7506
▁Sugar	-11.7506
▁millennial	-11.7513
▁Giant	-11.7523
▁rob	-11.7528
Horse	-11.7545
roots	-11.7546
▁jam	-11.7566
SBURG	-11.7584
▁Pepsi	-11.7584
▁instinct	-11.7584
▁reelection	-11.7584
▁valuation	-11.7584
▁Corporation	-11.7584
▁wrongdoing	-11.7585
▁Drake	-11.7585
▁scatter	-11.7585
▁exposure	-11.7585
▁Firing	-11.7586
▁Gallup	-11.7586
▁WHO	-11.7588
▁Harass	-11.7588
▁Deportation	-11.7589
▁Gregor	-11.7595
▁Scout	-11.7597
▁Garci	-11.7598
▁typ	-11.7604
▁Gaff	-11.7604
▁fraternit	-11.7614
skirts	-11.7621
▁logic	-11.7626
▁Shark	-11.7628
▁Northeast	-11.7629
▁overwhelm	-11.7635
▁inject	-11.7647
costa	-11.7652
▁swap	-11.7655
▁instruction	-11.7659
▁initiat	-11.7664
▁recaptur	-11.7666
▁raucous	-11.7666
▁transplant	-11.7666
▁FARC	-11.7666
▁Oxford	-11.7666
▁Thunder	-11.7666
▁Census	-11.7666
▁Chamber	-11.7666
▁Gordon	-11.7666
▁headphone	-11.7666
▁scratch	-11.7666
▁Riyad	-11.7666
▁Throw	-11.7666
▁Alliance	-11.7666
▁contracepti	-11.7667
▁inherit	-11.7667
▁emoji	-11.7667
▁Beaut	-11.7667
▁arrangement	-11.7667
▁heartbreak	-11.7669
▁Davo	-11.7673
▁confine	-11.7687
▁fianc	-11.7688
▁invad	-11.769
▁Tank	-11.7707
▁tele	-11.7707
abilities	-11.7714
AMA	-11.7732
:00	-11.7749
▁Fernand	-11.7749
▁Surveill	-11.7749
▁Redskins	-11.7749
▁LLC	-11.7749
▁decreas	-11.7749
▁tariff	-11.7749
▁Variet	-11.7749
▁Ackman	-11.7749
▁verbal	-11.7749
▁sibling	-11.7749
UKIP	-11.7749
▁Propert	-11.7749
▁Includ	-11.775
▁password	-11.775
▁Mormon	-11.7752
▁choke	-11.7752
▁seizure	-11.7754
▁truce	-11.776
▁motorist	-11.7767
▁NOT	-11.7777
▁Schla	-11.7779
▁Opera	-11.7789
▁reliabl	-11.7793
▁Maddo	-11.7795
foot	-11.7829
▁LinkedIn	-11.7832
▁McAul	-11.7832
▁culminat	-11.7832
▁plaintiff	-11.7832
▁revolt	-11.7832
▁segregat	-11.7832
▁sufficient	-11.7832
▁turbulen	-11.7832
▁blond	-11.7832
▁Sudden	-11.7832
▁Pompe	-11.7832
▁Clash	-11.7832
▁Cotton	-11.7833
▁UCLA	-11.7833
▁rift	-11.7833
▁heavyweight	-11.7833
▁Denton	-11.7833
▁logo	-11.7835
ullivan	-11.7838
▁Bias	-11.784
chester	-11.7843
outheastern	-11.7843
ERLIN	-11.7849
▁Micro	-11.7859
▁Alice	-11.7861
▁Argu	-11.7862
▁slid	-11.7885
▁toppl	-11.7889
▁Potential	-11.7916
▁conscience	-11.7916
▁default	-11.7916
▁economies	-11.7916
▁favour	-11.7916
▁jersey	-11.7916
▁painkiller	-11.7916
▁diamond	-11.7916
▁Gianf	-11.7916
▁Samuel	-11.7916
▁atrocit	-11.7917
▁Collect	-11.7917
▁plug	-11.7917
▁embark	-11.7917
▁reinforc	-11.7917
▁Clapp	-11.7918
▁civilization	-11.7922
▁appall	-11.7925
▁TSA	-11.7929
kovic	-11.7952
fried	-11.7972
assignment	-11.7978
▁launche	-11.7982
ullah	-11.7984
▁affirm	-11.7985
▁Shake	-11.799
uiet	-11.7993
▁Neighbor	-11.8001
▁circum	-11.8001
▁Enterprise	-11.8001
▁blizzard	-11.8001
▁cocktail	-11.8001
▁fugitive	-11.8001
▁Adolf	-11.8001
▁Register	-11.8001
▁Couple	-11.8001
▁Suspend	-11.8001
▁Abbas	-11.8001
▁Moonlight	-11.8002
▁Slave	-11.8002
▁Herald	-11.8002
▁intensifie	-11.8002
▁persistent	-11.8003
▁annoy	-11.8004
▁appointee	-11.8008
▁pipe	-11.8008
▁Joke	-11.8012
▁Root	-11.8018
▁cord	-11.8024
TED	-11.8057
PAC	-11.8075
▁Baptist	-11.8087
▁HOUS	-11.8087
▁applaud	-11.8087
▁cemeter	-11.8087
▁contemplat	-11.8087
▁exaggerat	-11.8087
▁lavish	-11.8087
▁microcephal	-11.8087
▁chancellor	-11.8087
▁glance	-11.8087
▁Phillip	-11.8087
▁Pledge	-11.8087
▁staple	-11.8087
▁freezing	-11.8087
▁Eddie	-11.8088
▁Rican	-11.8091
▁entr	-11.8094
▁regulate	-11.8113
▁Renz	-11.8129
code	-11.8141
▁pok	-11.8142
▁judicia	-11.8159
AKE	-11.8164
▁academ	-11.8169
▁southeast	-11.817
▁Oppos	-11.8173
▁Initiative	-11.8173
▁Nordstrom	-11.8173
▁Olympian	-11.8173
▁athletic	-11.8173
▁grandfather	-11.8173
▁lucrative	-11.8173
▁nutrition	-11.8173
▁transmission	-11.8173
▁Circle	-11.8173
▁steadi	-11.8173
▁depth	-11.8173
HCA	-11.8173
BP	-11.8173
▁Sydne	-11.8174
▁Generation	-11.8174
▁Wimb	-11.8176
▁Sunni	-11.8177
▁Adult	-11.8177
▁matchup	-11.8182
▁opera	-11.8182
▁coward	-11.8188
▁350	-11.8193
▁advise	-11.8215
▁corn	-11.8217
eparation	-11.822
▁Commentar	-11.823
▁Holiday	-11.826
▁Lauderdale	-11.826
▁Rihanna	-11.826
▁defamation	-11.826
utopilot	-11.826
▁Disaster	-11.826
▁gasoline	-11.826
▁estrang	-11.826
▁Nehl	-11.826
▁Donnell	-11.826
▁Iceland	-11.826
▁Internal	-11.826
▁Inspir	-11.826
▁Moving	-11.826
▁Scene	-11.8263
▁bailout	-11.8265
▁Fallow	-11.8265
▁accomplishment	-11.8265
competent	-11.827
▁destin	-11.8306
▁cookie	-11.8311
aternity	-11.8316
pinning	-11.8318
▁Carne	-11.8338
▁assassinat	-11.8339
▁hijab	-11.8347
▁overshadow	-11.8347
▁tissue	-11.8347
▁Pokemon	-11.8348
▁homosexual	-11.8348
▁Brenna	-11.8348
▁ponder	-11.8348
▁Nepal	-11.8348
▁chunk	-11.8348
▁tolerance	-11.8348
amount	-11.8348
▁Furious	-11.8349
▁snake	-11.835
▁firestorm	-11.8352
Right	-11.8356
class	-11.8359
ITT	-11.8365
▁vulnerabilit	-11.8412
▁Except	-11.8417
▁Wyomi	-11.8422
▁ridicul	-11.8434
▁despair	-11.8436
▁disrespect	-11.8436
▁excerpt	-11.8436
▁grasp	-11.8436
▁nostalgi	-11.8436
▁surreal	-11.8436
▁syndicat	-11.8436
▁pilgrim	-11.8436
▁Diamond	-11.8436
▁bulk	-11.8436
▁Sanction	-11.8436
▁Probabl	-11.8437
▁awake	-11.8437
▁dislike	-11.844
▁playlist	-11.8443
▁slapp	-11.8446
▁torch	-11.8448
▁Wave	-11.845
▁evolution	-11.8456
▁Norwa	-11.846
▁Huge	-11.8483
AMI	-11.8505
▁Different	-11.8525
▁Examiner	-11.8525
▁Toyota	-11.8525
▁mathematic	-11.8525
▁metaphor	-11.8525
▁retiring	-11.8525
▁Spirit	-11.8525
▁Tradition	-11.8525
▁Alicia	-11.8525
▁gradual	-11.8525
▁Increase	-11.8525
▁thread	-11.8526
▁headache	-11.8526
▁roar	-11.8527
▁Yellow	-11.8527
▁persist	-11.8528
▁Shift	-11.8529
▁slowdown	-11.853
naval	-11.8533
OUL	-11.8533
qualifi	-11.8536
▁cease	-11.8552
▁Litera	-11.8568
▁tackl	-11.8607
▁bankrupt	-11.8614
orthodox	-11.8615
▁Benefit	-11.8615
▁DiCaprio	-11.8615
▁Montgomer	-11.8615
▁dialogue	-11.8615
▁injunction	-11.8615
▁skyscraper	-11.8615
▁wield	-11.8615
▁adversar	-11.8615
▁palace	-11.8615
▁Firm	-11.8615
▁Centre	-11.8616
▁Promot	-11.8616
▁vacancy	-11.8617
▁marine	-11.8617
▁Hungarian	-11.8617
▁autops	-11.8619
▁arson	-11.8625
▁unemploy	-11.8628
▁Westmins	-11.8633
AGO	-11.8672
▁Equal	-11.868
▁profess	-11.8698
▁earlie	-11.8704
▁Dispatch	-11.8706
▁Cultural	-11.8706
▁Porzingis	-11.8706
▁circuit	-11.8706
▁convenience	-11.8706
▁definitive	-11.8706
▁enterprise	-11.8706
▁huddl	-11.8706
▁jurisdiction	-11.8706
▁scathing	-11.8706
▁Prayer	-11.8707
▁dispos	-11.8708
prehensi	-11.8708
▁blend	-11.871
▁reservation	-11.8716
▁Allie	-11.8722
safe	-11.8724
egger	-11.8725
▁ceremoni	-11.8798
▁Detective	-11.8798
▁Falluja	-11.8798
▁Migration	-11.8798
▁Observer	-11.8798
▁Settlement	-11.8798
▁bigotry	-11.8798
▁brazen	-11.8798
▁convincing	-11.8798
▁microphone	-11.8798
▁occupy	-11.8798
▁subscription	-11.8798
▁tentative	-11.8798
▁Computer	-11.8798
▁joking	-11.8798
▁clerk	-11.8798
▁Normal	-11.8798
▁Opposition	-11.8799
▁Tyson	-11.8799
▁titan	-11.8799
▁Nordli	-11.88
▁FoxNews	-11.88
▁allerg	-11.88
▁Teres	-11.8801
▁Spark	-11.8801
▁tiger	-11.8803
▁thug	-11.8803
▁Stephan	-11.8804
▁propell	-11.8807
emise	-11.881
▁hostilit	-11.8818
▁copie	-11.882
▁Jihadi	-11.8832
▁Gag	-11.8842
▁referenc	-11.8884
▁Prevent	-11.8884
▁accompany	-11.8891
▁certificate	-11.8891
▁fantastic	-11.8891
▁juvenile	-11.8891
▁neglect	-11.8891
▁brink	-11.8891
▁Analyst	-11.8891
▁Lynn	-11.8891
▁Discuss	-11.8891
▁molest	-11.8891
EACH	-11.8891
▁meltdown	-11.8891
▁blur	-11.8892
Klux	-11.8892
▁greenhouse	-11.8894
▁jean	-11.8894
▁introduction	-11.8897
Elect	-11.8901
oxide	-11.8902
▁Beverl	-11.8906
watch	-11.8907
▁Grill	-11.8914
scale	-11.8951
regulat	-11.8962
▁resolv	-11.8966
▁Previous	-11.8984
▁appropriation	-11.8984
▁efficient	-11.8984
▁staunch	-11.8984
▁Expand	-11.8984
▁Abraham	-11.8984
▁alligator	-11.8984
▁Superior	-11.8984
▁Friedman	-11.8984
▁gown	-11.8985
▁rogue	-11.8985
▁fond	-11.8985
▁loft	-11.8986
▁Ashley	-11.8988
▁Visa	-11.9016
▁Haye	-11.9035
iya	-11.9036
bull	-11.9038
ography	-11.9052
▁jihad	-11.9069
▁Este	-11.907
isinformation	-11.9078
▁Campbell	-11.9078
▁Chronicle	-11.9078
▁Lemonade	-11.9078
▁asteroid	-11.9078
▁catastrophe	-11.9078
▁automatically	-11.9078
▁caliph	-11.9078
▁Blitz	-11.9078
▁Bieber	-11.9078
▁uprising	-11.9079
▁covet	-11.9079
▁Jazz	-11.908
▁shelve	-11.9081
▁Current	-11.9082
▁playground	-11.9083
▁Packer	-11.9084
▁nurs	-11.909
sleep	-11.9093
▁institut	-11.9145
▁obstruct	-11.9167
▁Episode	-11.9174
▁Hussein	-11.9174
▁PHOTOS	-11.9174
▁applause	-11.9174
▁diminish	-11.9174
▁dysfunction	-11.9174
▁intersection	-11.9174
▁precinct	-11.9174
▁temperament	-11.9174
▁terrified	-11.9174
▁unlawful	-11.9174
▁Monument	-11.9174
▁arsenal	-11.9174
▁unmask	-11.9174
▁mastermind	-11.9174
▁revamp	-11.9174
▁Explor	-11.9174
▁hydro	-11.9174
▁manifest	-11.9174
▁grain	-11.9174
▁pleasure	-11.9174
▁snatch	-11.9174
▁botch	-11.9174
▁bleeding	-11.9174
▁descent	-11.9174
atitude	-11.9174
▁Raider	-11.9175
▁Spread	-11.9176
▁rabbi	-11.9177
Time	-11.9198
okay	-11.9199
▁prescrib	-11.9202
friend	-11.9237
rigid	-11.9248
▁forbid	-11.926
▁Alternative	-11.927
▁Bahrain	-11.927
▁discredit	-11.927
▁evident	-11.927
▁tornado	-11.927
▁Passenger	-11.927
▁Schwarzen	-11.927
▁Bishop	-11.927
▁Switch	-11.927
▁Czech	-11.927
▁flick	-11.927
▁Natali	-11.9272
▁perception	-11.9273
▁Prett	-11.9274
▁terra	-11.9305
▁simulat	-11.9307
▁graduat	-11.9315
▁skirt	-11.9325
▁preserv	-11.9328
▁Glen	-11.9335
▁rout	-11.934
▁forgive	-11.9341
▁Spend	-11.9352
▁leverag	-11.9362
▁neighbour	-11.9367
▁Identity	-11.9367
▁Resort	-11.9367
▁Transcript	-11.9367
▁algorithm	-11.9367
▁applicants	-11.9367
▁emphasis	-11.9367
▁protocol	-11.9367
▁renown	-11.9367
▁rescind	-11.9367
▁Revenue	-11.9367
▁Barcelo	-11.9367
▁PORT	-11.9367
▁pistol	-11.9367
▁Angry	-11.9367
▁garage	-11.9367
▁Gilbert	-11.9367
▁hurl	-11.9367
▁savage	-11.9367
▁grind	-11.9368
▁glad	-11.9368
▁leaf	-11.9369
▁Annual	-11.937
brook	-11.937
▁Glori	-11.9372
▁Univisi	-11.9376
▁mull	-11.9411
▁execute	-11.9431
▁retaliat	-11.9458
▁Allegation	-11.9465
▁Norwegian	-11.9465
▁Religion	-11.9465
▁constitute	-11.9465
▁infiltrat	-11.9465
▁Drudge	-11.9465
▁Impeach	-11.9465
▁indefinite	-11.9465
▁stockpile	-11.9465
▁Shadow	-11.9465
▁spouse	-11.9465
▁Claus	-11.9465
▁thunder	-11.9465
▁swarm	-11.9465
▁Lucas	-11.9465
▁turkey	-11.9466
▁Spike	-11.9466
▁erect	-11.9471
▁Cair	-11.9485
worm	-11.9486
▁solv	-11.9501
▁dismantl	-11.952
naiss	-11.9562
▁Nichola	-11.9564
▁fraudulent	-11.9564
▁thrust	-11.9564
▁whistleblower	-11.9564
▁xenophobi	-11.9564
▁deteriorat	-11.9564
▁unhapp	-11.9564
▁defence	-11.9564
▁gossip	-11.9564
▁skull	-11.9564
▁biological	-11.9564
▁frantic	-11.9564
▁backyard	-11.9565
2:30	-11.9565
▁loot	-11.9565
▁Text	-11.9565
Pablo	-11.9566
▁Violat	-11.9567
▁aerial	-11.957
▁appare	-11.9578
▁rug	-11.9588
▁Psycho	-11.9593
▁commun	-11.9629
▁Controvers	-11.9635
▁spit	-11.9649
▁ExxonMobil	-11.9664
▁authentic	-11.9664
▁circus	-11.9664
▁debunk	-11.9664
▁graffiti	-11.9664
▁hysteria	-11.9664
▁skyrocket	-11.9664
▁swallow	-11.9664
▁contempt	-11.9664
▁interrogat	-11.9664
▁bitcoin	-11.9664
▁mortal	-11.9664
AMPA	-11.9664
▁Crazy	-11.9664
▁strangl	-11.9664
▁Serbia	-11.9664
▁tuition	-11.9664
▁Anything	-11.9664
▁nonsens	-11.9664
▁fertil	-11.9665
▁spate	-11.9668
Profit	-11.9671
▁Accept	-11.9687
children	-11.969
▁unsettl	-11.9707
:40	-11.9765
▁Asylum	-11.9765
▁Hathaway	-11.9765
▁Seahawk	-11.9765
▁companion	-11.9765
▁Arsenal	-11.9765
▁bystander	-11.9765
▁inflammat	-11.9765
▁miracle	-11.9765
▁transmitt	-11.9765
▁Window	-11.9765
▁CHIC	-11.9765
▁outreach	-11.9765
▁gaffe	-11.9765
▁Aetna	-11.9765
▁meteor	-11.9765
▁accent	-11.9766
▁straw	-11.9766
▁woes	-11.9766
▁brass	-11.9767
▁Christina	-11.9767
▁scour	-11.9768
▁Pamel	-11.977
▁Inquir	-11.9772
Work	-11.9793
izzy	-11.9796
▁verifi	-11.9837
▁Cespedes	-11.9867
▁Hopkins	-11.9867
▁Obvious	-11.9867
▁POTUS	-11.9867
▁Shanghai	-11.9867
▁chorus	-11.9867
▁determination	-11.9867
▁enclave	-11.9867
▁indigenous	-11.9867
▁significance	-11.9867
▁tobacco	-11.9867
▁Mistake	-11.9867
▁superior	-11.9867
▁Rodgers	-11.9867
▁Debt	-11.9867
▁ladies	-11.9867
▁stiff	-11.9868
▁Featur	-11.9868
RNING	-11.9869
▁parole	-11.987
▁Kendal	-11.9876
▁decree	-11.9879
screen	-11.9896
▁fringe	-11.9943
asper	-11.9948
timulus	-11.997
▁Conspiracy	-11.997
▁hilarious	-11.997
▁horrifying	-11.997
▁reaffirm	-11.997
▁tabloid	-11.997
▁threshold	-11.997
▁thumb	-11.997
▁Poverty	-11.997
▁clause	-11.997
▁Famous	-11.997
▁GDP	-11.997
▁Snyder	-11.997
▁cancellation	-11.997
▁handcuff	-11.997
▁rethink	-11.997
▁intensify	-11.997
▁organic	-11.997
▁bride	-11.9971
▁Squad	-11.9971
▁Cecil	-11.9971
▁Vincent	-11.9971
rrowing	-11.9984
▁Osam	-12.0068
mpromptu	-12.0074
▁gruesome	-12.0074
▁horizon	-12.0074
▁unnecessar	-12.0074
▁Pizza	-12.0074
▁homophobi	-12.0074
▁songwriter	-12.0074
▁Retail	-12.0074
▁Terminal	-12.0074
▁Wilbur	-12.0074
▁harbor	-12.0074
▁bleak	-12.0075
▁calorie	-12.0075
1:30	-12.0075
▁Santor	-12.0082
arnival	-12.0082
▁Stern	-12.0083
leaguer	-12.0129
▁Correct	-12.0162
▁celeb	-12.0166
▁champ	-12.0168
▁Conservat	-12.0176
▁torrent	-12.0178
▁Chrysler	-12.018
▁Language	-12.018
▁Opioid	-12.018
▁Perfect	-12.018
▁antibiotic	-12.018
▁confidant	-12.018
▁dilemma	-12.018
▁neurosurge	-12.018
▁Disrupt	-12.018
▁Massacre	-12.018
▁libertarian	-12.018
▁grateful	-12.018
▁recreational	-12.018
▁drift	-12.018
▁Cruise	-12.018
▁fetus	-12.018
▁dignity	-12.018
▁crumbl	-12.018
▁Heather	-12.018
▁chopp	-12.0181
▁launder	-12.0181
▁biograph	-12.0182
▁tendenc	-12.0182
▁dense	-12.0191
▁Comca	-12.0194
▁etc	-12.0203
Clinton	-12.0218
▁abort	-12.0278
▁collaps	-12.0282
▁excess	-12.0283
▁renegotiat	-12.0286
ubcommittee	-12.0286
▁Basketball	-12.0286
▁innovative	-12.0286
▁patriarch	-12.0286
▁tycoon	-12.0286
▁Album	-12.0286
▁buoy	-12.0286
▁bronze	-12.0286
▁Inspector	-12.0286
▁domain	-12.0286
▁Birm	-12.0286
▁Derby	-12.0286
▁Geller	-12.0286
▁Denis	-12.0314
▁modifi	-12.0319
White	-12.0325
reakfast	-12.0392
▁WaPo	-12.0393
▁Concert	-12.0393
▁Conversation	-12.0393
▁Experience	-12.0393
▁Gambia	-12.0393
▁Hiroshi	-12.0393
▁aggression	-12.0393
▁blistering	-12.0393
▁distinguish	-12.0393
▁distort	-12.0393
▁eclips	-12.0393
▁gadget	-12.0393
▁monologue	-12.0393
▁nonpartisan	-12.0393
▁sergeant	-12.0393
▁flavor	-12.0393
▁Agenda	-12.0393
▁cluster	-12.0393
▁Owens	-12.0393
▁temper	-12.0393
▁Physic	-12.0393
▁Sheikh	-12.0393
▁monkey	-12.0393
▁Spokes	-12.0393
▁lieutenant	-12.0394
▁Easy	-12.0394
▁annotat	-12.0394
ummary	-12.0394
▁Fitzg	-12.0394
▁roommate	-12.0394
▁incentive	-12.0394
▁Twenty	-12.0394
▁ascend	-12.0394
aggot	-12.0395
▁Emerg	-12.0396
▁Torre	-12.042
Relat	-12.047
▁Important	-12.0502
▁Marijuana	-12.0502
▁Opportunit	-12.0502
▁Privacy	-12.0502
▁altogether	-12.0502
▁discourag	-12.0502
▁patience	-12.0502
▁supplement	-12.0502
▁undecided	-12.0502
▁Arrival	-12.0502
▁Bennett	-12.0502
▁Request	-12.0502
▁intrigue	-12.0502
▁Dorsey	-12.0502
▁monarch	-12.0502
▁dairy	-12.0502
▁Anchor	-12.0502
▁Blind	-12.0503
▁Heavy	-12.0503
▁retriev	-12.0503
fancy	-12.054
Tune	-12.0554
▁practic	-12.0563
▁wiretap	-12.0589
▁outcr	-12.0589
▁fabricat	-12.0589
oulevard	-12.0612
▁Advertis	-12.0612
▁McGregor	-12.0612
▁Morocco	-12.0612
▁disavow	-12.0612
▁exploding	-12.0612
▁eyebrow	-12.0612
▁insurgenc	-12.0612
▁necessit	-12.0612
▁pricing	-12.0612
▁unconventional	-12.0612
disproportionate	-12.0612
rbitration	-12.0612
▁affluen	-12.0612
▁Censor	-12.0612
▁Hastert	-12.0612
▁Renew	-12.0612
▁Consult	-12.0612
▁crawl	-12.0612
Crooked	-12.0616
Pierre	-12.0617
▁believ	-12.0682
▁flourish	-12.0723
▁Apollo	-12.0723
▁Bitcoin	-12.0723
▁Buchanan	-12.0723
▁Explosion	-12.0723
▁Resource	-12.0723
▁Schneider	-12.0723
▁ambulance	-12.0723
▁apprehend	-12.0723
▁kilometer	-12.0723
▁litigation	-12.0723
▁loophole	-12.0723
▁premature	-12.0723
▁reconsider	-12.0723
▁Coffee	-12.0723
▁Blumen	-12.0723
▁Henderson	-12.0723
▁roast	-12.0723
▁AIDS	-12.0723
▁renovat	-12.0723
▁outsourc	-12.0723
▁Blank	-12.0723
▁alternate	-12.0723
▁entities	-12.0724
▁Cannon	-12.0724
▁Receiv	-12.0726
▁Ventur	-12.0729
▁Politi	-12.0729
▁LiveWire	-12.0835
▁Cambridge	-12.0835
▁Recession	-12.0835
▁consequential	-12.0835
▁unofficial	-12.0835
▁Corporate	-12.0835
▁Observat	-12.0835
▁Ticket	-12.0835
▁Fifty	-12.0836
▁Khalid	-12.0836
▁martial	-12.0836
▁McAd	-12.0836
▁Okay	-12.0836
▁expedit	-12.0836
unshine	-12.0836
▁Persian	-12.0836
▁sensor	-12.0843
terdam	-12.0844
▁logg	-12.0849
MORE	-12.0865
represent	-12.0887
▁feta	-12.0924
▁legitima	-12.0943
▁Combat	-12.0949
▁Hezbollah	-12.0949
▁Legislature	-12.0949
▁Province	-12.0949
▁Statistics	-12.0949
▁Stephanopoulo	-12.0949
▁delicate	-12.0949
▁envelop	-12.0949
▁gorgeous	-12.0949
▁restructuring	-12.0949
▁tsunami	-12.0949
▁bogus	-12.0949
▁faint	-12.0949
▁Figure	-12.0949
▁advising	-12.0949
▁tirade	-12.0949
▁minimal	-12.0949
▁eradicat	-12.095
▁glove	-12.095
▁Stefan	-12.095
▁roam	-12.095
settling	-12.0968
▁Sophi	-12.0974
▁equit	-12.1013
ignifi	-12.102
▁quiz	-12.1053
▁revisit	-12.1064
▁Capsule	-12.1064
▁Condemn	-12.1064
▁Embrace	-12.1064
▁Enquirer	-12.1064
▁Orthodox	-12.1064
▁Virtual	-12.1064
▁Zimbabwe	-12.1064
▁discours	-12.1064
▁elusive	-12.1064
▁unbelievabl	-12.1064
▁unsuccessful	-12.1064
▁Claire	-12.1064
▁intensive	-12.1064
▁Mahmo	-12.1064
▁Bentley	-12.1064
▁crystal	-12.1064
▁scoop	-12.1065
▁peddl	-12.1065
▁Wilmo	-12.1081
▁Constan	-12.1093
▁Agenc	-12.1136
▁advertise	-12.1144
▁apologi	-12.1159
RUSS	-12.118
▁Accident	-12.118
▁Bahamas	-12.118
▁Corruption	-12.118
▁Episcopal	-12.118
▁Spotlight	-12.118
▁Telegraph	-12.118
▁compris	-12.118
▁erratic	-12.118
▁inaccurate	-12.118
▁negligen	-12.118
▁straightforward	-12.118
▁turnaround	-12.118
▁bisexual	-12.118
▁collud	-12.118
▁polite	-12.118
▁awesome	-12.118
▁Rousey	-12.118
▁Eugen	-12.118
▁Evil	-12.118
▁uninsur	-12.1181
▁paranoi	-12.1181
▁Repeat	-12.1184
▁stride	-12.1186
▁impassi	-12.1196
▁fabric	-12.1204
▁Rahm	-12.1217
▁Contract	-12.1217
terror	-12.124
respondents	-12.1245
▁societ	-12.1246
free	-12.1249
sexual	-12.1258
certainty	-12.1287
uinnip	-12.1298
▁Barclay	-12.1298
▁Fitzpatrick	-12.1298
▁McIlr	-12.1298
▁Strategy	-12.1298
▁appetite	-12.1298
▁dystopia	-12.1298
▁identification	-12.1298
▁injustice	-12.1298
▁invisible	-12.1298
▁ruthless	-12.1298
▁servant	-12.1298
▁unthinkabl	-12.1298
▁Dominican	-12.1298
▁Darrell	-12.1298
▁infring	-12.1298
▁implant	-12.1298
▁Wealth	-12.1299
▁Clinic	-12.13
▁ravag	-12.1301
▁miserabl	-12.1326
▁Sadiq	-12.1348
group	-12.1361
▁Northwest	-12.1384
▁Inaugura	-12.1416
emembrance	-12.1417
▁Mainstream	-12.1417
▁Pharmaceutical	-12.1417
▁delicious	-12.1417
▁prolific	-12.1417
▁strategies	-12.1417
▁submarine	-12.1417
▁unsubstantiated	-12.1417
▁vigorous	-12.1417
▁Depression	-12.1417
▁Pharma	-12.1417
▁ancestor	-12.1417
▁helmet	-12.1417
▁resilien	-12.1417
▁idiot	-12.1417
▁converg	-12.1417
▁Complete	-12.1418
▁equat	-12.1419
▁purge	-12.1435
▁Clint	-12.153
▁narrat	-12.1536
nthetic	-12.1536
▁Extreme	-12.1538
▁Hondura	-12.1538
▁Paralympic	-12.1538
▁Privilege	-12.1538
▁glamor	-12.1538
▁harvest	-12.1538
▁paralyzed	-12.1538
▁procedural	-12.1538
▁satisfy	-12.1538
▁substantive	-12.1538
▁Athlete	-12.1538
▁Solution	-12.1538
▁secular	-12.1538
▁Horror	-12.1538
▁falter	-12.1538
▁Wound	-12.1538
▁Certain	-12.1538
▁cheek	-12.1538
▁jolt	-12.1538
▁Indict	-12.1538
▁foil	-12.1538
▁Engag	-12.1539
▁forcibl	-12.1541
▁craze	-12.1552
▁sanction	-12.1589
▁Vienn	-12.1589
shift	-12.161
onnie	-12.1649
▁horrifi	-12.1654
vaccinat	-12.1659
▁Kuwait	-12.1659
▁Specific	-12.1659
▁Podcast	-12.1659
▁confiscat	-12.1659
▁temple	-12.1659
▁tweak	-12.1659
▁Jungle	-12.1659
▁decapitat	-12.1659
▁Wrestl	-12.166
▁Lobby	-12.166
▁reckon	-12.166
▁Infant	-12.166
▁Federer	-12.166
▁Flower	-12.1661
▁disarm	-12.1661
acklash	-12.1663
▁Shann	-12.1686
enchant	-12.1698
▁licens	-12.1709
▁tortur	-12.1741
▁vacat	-12.1774
▁differ	-12.1775
▁embroil	-12.1783
▁Architect	-12.1783
▁Domestic	-12.1783
▁Earthquake	-12.1783
▁arraign	-12.1783
▁dissident	-12.1783
▁embedd	-12.1783
▁inclusive	-12.1783
▁obsolete	-12.1783
▁stubborn	-12.1783
▁unearth	-12.1783
▁dubious	-12.1783
▁charisma	-12.1783
▁Lockheed	-12.1783
▁sabotag	-12.1783
▁landlord	-12.1783
▁Commit	-12.1783
▁disguis	-12.1783
▁lugg	-12.1783
▁Stake	-12.1789
▁catalog	-12.179
▁resonat	-12.1793
proxy	-12.1797
▁recit	-12.1799
▁Affleck	-12.1908
▁Guatemala	-12.1908
▁corridor	-12.1908
▁flexib	-12.1908
▁frustrating	-12.1908
▁immense	-12.1908
▁improbabl	-12.1908
▁jungle	-12.1908
▁ominous	-12.1908
▁resurrect	-12.1908
▁spawn	-12.1908
▁stabiliz	-12.1908
▁Brutal	-12.1908
▁Mirror	-12.1908
▁bluster	-12.1908
▁dwarf	-12.1908
▁assurance	-12.1908
?	-15.2924
)	-15.2925
(	-15.2926
”	-15.2927
!	-15.2928
’	-15.2928
