<unk>	0
<s>	0
</s>	0
▁,	-3.22441
▁the	-3.24135
▁	-3.39556
s	-3.42765
▁.	-3.58595
▁a	-3.87864
▁to	-3.96123
▁of	-4.03986
’	-4.07461
ed	-4.14331
▁in	-4.18557
▁and	-4.27734
ing	-4.42464
▁s	-4.4332
▁"	-4.552
"	-4.68757
▁on	-4.81288
▁for	-4.94197
▁that	-4.9694
.	-4.99469
▁is	-5.13825
▁”	-5.15774
ly	-5.29945
y	-5.32104
▁trump	-5.32797
▁it	-5.35986
▁with	-5.36133
▁was	-5.42284
▁be	-5.4513
▁at	-5.52302
▁—	-5.58158
“	-5.60058
▁his	-5.60382
▁as	-5.66307
▁he	-5.67305
▁from	-5.6901
▁by	-5.74997
▁has	-5.76987
▁an	-5.80107
▁:	-5.82669
d	-5.89292
▁are	-6.0285
▁said	-6.03793
▁who	-6.05233
▁new	-6.06446
▁have	-6.06456
▁this	-6.08608
▁but	-6.10314
▁after	-6.15217
▁i	-6.15741
▁t	-6.18704
▁not	-6.20738
en	-6.22094
▁about	-6.22133
▁",	-6.23803
▁president	-6.2553
▁her	-6.29853
▁will	-6.34828
▁u	-6.36349
▁donald	-6.37498
n	-6.38367
▁one	-6.39019
▁their	-6.40294
e	-6.40504
▁you	-6.4423
▁more	-6.49412
▁they	-6.49433
▁over	-6.53025
▁its	-6.53092
▁had	-6.53502
▁we	-6.57058
▁when	-6.57128
▁up	-6.58754
▁(	-6.58936
▁)	-6.5971
▁out	-6.5998
▁?	-6.60012
▁were	-6.63905
-	-6.65576
▁she	-6.66065
▁or	-6.68063
▁what	-6.68147
▁people	-6.68595
▁first	-6.72008
▁would	-6.74797
▁than	-6.76402
▁clinton	-6.79067
▁into	-6.79371
▁two	-6.8217
▁state	-6.82745
▁which	-6.82794
er	-6.83229
▁us	-6.83985
$	-6.85746
▁some	-6.85879
▁all	-6.86527
▁last	-6.87779
▁can	-6.89203
▁how	-6.89661
▁house	-6.91328
a	-6.92158
▁no	-6.94829
▁year	-6.95583
▁there	-6.95705
▁years	-6.9631
▁week	-6.96769
▁just	-6.97987
▁time	-7.02413
▁could	-7.03012
es	-7.04141
▁most	-7.05292
▁if	-7.06584
▁obama	-7.08324
▁like	-7.08603
▁so	-7.09339
▁now	-7.12586
▁police	-7.13387
▁republican	-7.13716
▁campaign	-7.13802
‘	-7.15118
▁white	-7.16106
▁news	-7.19805
▁him	-7.20714
▁tuesday	-7.21712
▁world	-7.22167
▁presidential	-7.22335
ies	-7.22913
l	-7.2332
▁against	-7.23439
▁election	-7.23592
▁before	-7.25399
▁court	-7.25653
▁friday	-7.26997
▁other	-7.27819
▁says	-7.27927
▁may	-7.28073
▁day	-7.28943
▁thursday	-7.29104
▁according	-7.29283
▁man	-7.29313
▁back	-7.29525
▁m	-7.31866
▁monday	-7.34089
▁national	-7.3451
▁city	-7.34725
▁former	-7.36395
▁hillary	-7.36673
ld	-7.36762
▁american	-7.36796
▁wednesday	-7.3707
▁million	-7.37587
r	-7.38155
on	-7.39887
▁do	-7.40598
t	-7.41031
▁re	-7.41292
▁during	-7.41541
▁show	-7.4197
▁them	-7.42672
▁did	-7.42853
▁government	-7.43462
▁down	-7.44231
▁my	-7.44818
▁states	-7.45821
▁even	-7.46704
▁your	-7.47574
▁our	-7.48
▁federal	-7.48291
▁many	-7.49806
▁united	-7.5015
▁washington	-7.50717
▁night	-7.51201
▁york	-7.51565
▁while	-7.52142
▁get	-7.52859
▁off	-7.52986
o	-7.53232
▁country	-7.54133
▁where	-7.546
▁made	-7.55699
▁also	-7.56228
▁take	-7.5678
▁here	-7.57183
▁say	-7.57677
▁percent	-7.57917
▁bill	-7.59271
▁since	-7.60055
man	-7.62172
▁late	-7.62413
▁make	-7.62696
▁sunday	-7.62862
▁w	-7.63016
▁women	-7.63063
▁three	-7.63773
▁post	-7.63775
▁america	-7.64934
▁home	-7.65414
▁call	-7.65731
▁health	-7.65749
▁under	-7.65833
▁company	-7.65868
▁through	-7.65981
▁public	-7.66467
▁party	-7.671
▁want	-7.67521
▁political	-7.68456
▁need	-7.70124
▁look	-7.70232
▁why	-7.70437
▁because	-7.70511
▁way	-7.70928
▁end	-7.71077
▁administration	-7.71222
▁officials	-7.71499
▁media	-7.72207
▁group	-7.72505
▁only	-7.72506
▁report	-7.73679
st	-7.73804
▁1	-7.74061
▁saturday	-7.74497
▁part	-7.74523
▁being	-7.75057
▁great	-7.75447
▁found	-7.76059
▁vote	-7.76274
▁north	-7.76647
▁attack	-7.77163
▁help	-7.77294
between	-7.77892
▁law	-7.77937
▁un	-7.78427
▁long	-7.79277
▁democratic	-7.80019
▁office	-7.80147
▁much	-7.80234
▁department	-7.80273
▁still	-7.80832
▁should	-7.81409
▁days	-7.82245
▁around	-7.82642
▁2016	-7.83176
▁big	-7.83677
▁recent	-7.83916
▁next	-7.85231
▁order	-7.85732
▁case	-7.86596
▁death	-7.86729
▁any	-7.87037
▁war	-7.87098
▁those	-7.87155
▁black	-7.8736
▁school	-7.87502
▁includ	-7.87752
▁security	-7.87902
▁does	-7.87961
▁me	-7.88308
▁deal	-7.88505
▁life	-7.88544
▁high	-7.88712
▁good	-7.88967
▁every	-7.88969
▁reported	-7.89573
▁month	-7.89884
▁don	-7.90215
▁senate	-7.90783
▁d	-7.90919
▁own	-7.91772
▁top	-7.92202
▁called	-7.92398
▁another	-7.92418
th	-7.92524
▁know	-7.92779
▁republicans	-7.93119
in	-7.94309
▁right	-7.9437
▁000	-7.95538
▁please	-7.95726
▁russia	-7.96439
▁support	-7.96458
▁killed	-7.97054
▁few	-7.97276
▁go	-7.97307
▁work	-7.97379
able	-7.97579
▁woman	-7.9777
▁force	-7.9845
m	-7.98992
▁gop	-7.9944
▁turn	-7.99717
▁south	-7.99961
▁face	-8.0062
▁ago	-8.01054
▁2	-8.01289
▁team	-8.01934
al	-8.02038
▁won	-8.02448
▁final	-8.02631
▁these	-8.02864
▁family	-8.03327
▁think	-8.03424
▁sanders	-8.03433
▁ads	-8.04216
▁move	-8.04328
▁policy	-8.05086
▁left	-8.05274
▁care	-8.05895
▁billion	-8.06004
▁least	-8.06409
▁fight	-8.06866
▁four	-8.07073
▁executive	-8.07099
▁nominee	-8.07396
▁going	-8.07721
▁both	-8.07754
▁plan	-8.07778
▁see	-8.07902
▁p	-8.07935
▁announced	-8.07983
▁debate	-8.08107
▁months	-8.08129
▁russian	-8.08383
▁act	-8.08763
▁morning	-8.08994
▁business	-8.09283
▁lead	-8.09584
▁press	-8.0961
▁service	-8.09728
▁well	-8.09981
▁open	-8.10045
▁video	-8.10099
▁might	-8.10179
▁ve	-8.1047
▁chief	-8.10501
▁far	-8.10569
▁major	-8.10627
very	-8.10756
▁head	-8.11196
▁past	-8.12043
▁place	-8.13401
▁general	-8.13992
▁set	-8.14428
▁dead	-8.14475
▁start	-8.14788
▁justice	-8.14947
▁second	-8.14959
▁china	-8.14974
▁di	-8.15088
▁secretary	-8.15985
▁play	-8.16432
▁sign	-8.16604
▁never	-8.16716
▁block	-8.16732
▁university	-8.16954
▁follow	-8.17148
▁judge	-8.1728
▁americans	-8.17514
▁try	-8.17568
▁took	-8.17594
▁early	-8.17718
▁air	-8.17994
▁conservative	-8.18289
est	-8.18607
▁best	-8.1867
▁candidate	-8.1904
▁live	-8.19308
▁record	-8.19397
▁5	-8.19765
▁democrats	-8.20003
▁street	-8.2074
▁use	-8.20743
▁john	-8.20769
▁10	-8.20831
▁win	-8.20861
hether	-8.20896
▁released	-8.20989
▁race	-8.21192
▁charge	-8.21203
▁then	-8.21249
▁congress	-8.21873
▁become	-8.21876
▁men	-8.22023
▁point	-8.22055
▁times	-8.2212
▁history	-8.22186
▁got	-8.22227
▁supreme	-8.22681
▁seem	-8.22748
▁3	-8.22993
▁c	-8.23637
▁change	-8.237
▁nearly	-8.24049
▁come	-8.24179
ment	-8.24328
across	-8.24379
ion	-8.24548
ity	-8.24814
▁director	-8.24984
▁continue	-8.2515
▁among	-8.25177
▁fbi	-8.25358
▁hit	-8.26128
▁appear	-8.26151
▁de	-8.26313
▁too	-8.26575
▁cruz	-8.2668
▁speech	-8.26858
one	-8.26911
▁wall	-8.27009
▁five	-8.27136
▁story	-8.27375
▁came	-8.27443
▁season	-8.27931
▁car	-8.28121
▁such	-8.28518
▁investigation	-8.28598
▁committee	-8.29162
▁real	-8.29994
▁pay	-8.301
i	-8.3017
▁military	-8.30319
▁name	-8.31024
▁star	-8.31138
▁arrest	-8.31237
▁away	-8.31495
▁fall	-8.31612
▁little	-8.31885
▁voters	-8.31986
▁ever	-8.32004
▁center	-8.32338
▁statement	-8.32385
▁put	-8.32459
▁asked	-8.32467
▁young	-8.33057
▁power	-8.33259
an	-8.33385
▁price	-8.33978
▁issue	-8.34202
▁keep	-8.3433
▁interview	-8.34347
▁again	-8.34796
▁leader	-8.34928
▁stories	-8.34937
▁market	-8.35035
▁decision	-8.35172
▁find	-8.35206
▁known	-8.35722
▁return	-8.35742
▁fox	-8.35776
▁twitter	-8.3618
▁used	-8.3665
▁making	-8.36696
▁near	-8.3683
▁game	-8.37097
▁foreign	-8.3727
▁syria	-8.37386
▁20	-8.37462
▁4	-8.37686
▁global	-8.37847
without	-8.38204
▁yet	-8.38322
▁tax	-8.38393
▁today	-8.38518
▁facebook	-8.38997
▁run	-8.39025
le	-8.39645
▁system	-8.39766
▁question	-8.40229
▁clear	-8.40258
▁meeting	-8.40476
▁k	-8.40567
▁shooting	-8.40643
▁moment	-8.40648
▁behind	-8.41149
▁shot	-8.41164
▁lot	-8.41562
▁social	-8.41735
▁remain	-8.41753
▁march	-8.41866
▁politics	-8.41985
▁children	-8.42017
▁share	-8.42116
▁close	-8.42207
▁really	-8.42225
▁california	-8.42283
▁old	-8.42459
▁already	-8.42595
▁severa	-8.42602
▁international	-8.43681
ers	-8.44088
▁effort	-8.44237
▁things	-8.44791
▁same	-8.44927
▁cut	-8.44945
▁bank	-8.45142
▁official	-8.45632
▁members	-8.4592
▁trade	-8.46471
▁series	-8.46529
▁tell	-8.46539
▁west	-8.47274
▁nation	-8.47546
▁film	-8.47677
▁less	-8.47749
▁something	-8.47953
▁rights	-8.48112
▁victor	-8.48436
▁attorney	-8.48497
▁mean	-8.49145
▁watch	-8.49156
▁stop	-8.4916
▁writing	-8.49257
▁gun	-8.49285
▁ban	-8.49296
▁money	-8.49775
▁fire	-8.49804
▁once	-8.49883
▁small	-8.49903
▁hours	-8.50079
▁intelligence	-8.50085
▁college	-8.50206
▁economic	-8.50207
▁job	-8.50259
▁tv	-8.50428
▁islamic	-8.50471
▁minister	-8.50475
▁human	-8.50483
▁korea	-8.50698
▁agency	-8.50865
▁consider	-8.50973
▁james	-8.51334
▁below	-8.51392
▁leave	-8.51477
▁six	-8.51497
▁accus	-8.51698
▁hard	-8.51735
▁obamacare	-8.5175
▁reports	-8.51763
▁sources	-8.52015
▁program	-8.52578
▁likely	-8.53069
▁give	-8.53185
▁n	-8.53875
▁bad	-8.53888
▁saying	-8.53907
▁texas	-8.53925
▁thousand	-8.54294
▁oil	-8.5435
▁sexual	-8.54444
se	-8.5467
▁officer	-8.54673
▁weeks	-8.55134
▁number	-8.55368
▁companies	-8.55569
▁bernie	-8.5557
▁concern	-8.55581
▁local	-8.5573
▁senator	-8.55731
▁later	-8.55915
▁following	-8.55991
▁host	-8.56036
▁florida	-8.56213
▁union	-8.56381
▁steps	-8.56458
▁went	-8.56634
▁earlie	-8.5676
▁claim	-8.56777
▁launch	-8.56786
▁matter	-8.56786
▁immigration	-8.56816
▁sen	-8.56899
▁almost	-8.57079
▁ask	-8.57109
w	-8.5728
▁better	-8.57364
▁email	-8.57373
▁full	-8.57703
▁los	-8.57764
▁apple	-8.5796
▁reporter	-8.58003
▁let	-8.58114
▁display	-8.58116
▁push	-8.58128
▁b	-8.58218
▁gett	-8.58279
▁comes	-8.58367
▁pick	-8.58469
▁control	-8.58552
▁7	-8.58698
▁authorities	-8.58722
▁private	-8.58783
▁test	-8.59048
▁rate	-8.59217
▁along	-8.59654
▁seen	-8.597
▁suspect	-8.59775
ic	-8.59846
▁leaders	-8.60072
▁food	-8.60146
▁town	-8.60217
ance	-8.60253
▁stock	-8.60322
▁action	-8.60396
ce	-8.6057
▁plans	-8.60775
▁love	-8.60818
son	-8.60935
▁key	-8.61022
▁data	-8.61058
▁expected	-8.6117
ness	-8.61329
▁conference	-8.61376
▁barack	-8.61463
▁murder	-8.61749
▁park	-8.61875
▁taking	-8.61922
▁water	-8.61992
▁biggest	-8.62094
▁future	-8.62205
▁weekend	-8.62264
▁travel	-8.62734
▁himself	-8.62985
▁students	-8.63064
▁book	-8.6314
▁thing	-8.6325
▁6	-8.63494
▁select	-8.63717
▁financial	-8.63991
▁shows	-8.64044
▁talk	-8.64396
▁building	-8.64406
ally	-8.64552
▁j	-8.64695
▁each	-8.64868
▁large	-8.6494
▁primary	-8.64986
▁european	-8.65061
▁alleged	-8.65644
▁free	-8.65644
▁seek	-8.65721
▁believe	-8.65822
▁8	-8.66007
▁100	-8.66166
▁sex	-8.66258
▁poll	-8.6646
▁comey	-8.66857
▁attempt	-8.66884
▁syrian	-8.6713
▁outside	-8.6718
▁began	-8.67304
▁san	-8.67307
▁east	-8.67469
until	-8.6783
▁assault	-8.67988
▁carolina	-8.6815
▁bring	-8.68327
▁hope	-8.68471
▁attacks	-8.68504
▁legal	-8.68518
▁firm	-8.68758
▁suggest	-8.68955
▁despite	-8.69126
▁short	-8.69329
▁potential	-8.69371
▁publish	-8.69561
▁2015	-8.69679
ism	-8.69702
▁countries	-8.6974
▁spend	-8.69968
▁michael	-8.70075
▁movie	-8.7017
us	-8.70313
▁supporter	-8.70364
▁actual	-8.70856
▁paul	-8.7161
▁current	-8.71697
▁ll	-8.71929
▁enough	-8.72047
▁visit	-8.72074
▁information	-8.72554
▁line	-8.72616
▁st	-8.72789
▁special	-8.72834
▁working	-8.73006
▁county	-8.73019
▁threat	-8.73053
▁read	-8.73055
▁lost	-8.73139
▁thought	-8.73165
▁often	-8.73383
▁drug	-8.73435
▁economy	-8.73572
▁hand	-8.73898
▁network	-8.74151
▁ryan	-8.74344
▁fund	-8.74417
▁running	-8.74475
▁questions	-8.74583
▁join	-8.74674
ever	-8.74744
▁though	-8.748
▁climate	-8.74811
▁lawsuit	-8.74991
▁study	-8.75071
having	-8.75137
▁meet	-8.75172
▁mexico	-8.75239
▁cop	-8.75396
▁reach	-8.75424
▁iran	-8.75509
▁online	-8.7568
▁british	-8.75774
▁convention	-8.75898
▁inside	-8.75969
▁co	-8.76193
▁interest	-8.76335
▁buy	-8.76834
▁student	-8.76959
▁side	-8.76975
▁extension	-8.77091
▁defense	-8.77106
ry	-8.77338
▁isn	-8.77478
▁battle	-8.77533
▁half	-8.77612
▁prison	-8.77705
▁music	-8.77874
▁district	-8.77896
▁parent	-8.77982
▁muslim	-8.78042
▁officers	-8.78045
▁agree	-8.78107
▁prime	-8.78426
▁fail	-8.78461
▁repeal	-8.78696
▁review	-8.79566
▁address	-8.79608
▁david	-8.79864
▁inc	-8.80459
▁different	-8.80807
▁wants	-8.80905
▁mother	-8.81106
▁15	-8.81175
▁central	-8.8136
▁industry	-8.81429
▁view	-8.81445
less	-8.81615
▁claims	-8.81635
▁wife	-8.81656
▁offer	-8.82005
▁seven	-8.8218
▁space	-8.82379
▁room	-8.82474
▁island	-8.82545
▁image	-8.82613
▁jobs	-8.82641
▁taken	-8.82721
▁nomination	-8.82814
▁summer	-8.82842
▁always	-8.82965
▁allow	-8.83076
▁30	-8.83131
▁capital	-8.83345
▁decades	-8.83387
▁crisis	-8.8346
▁age	-8.83623
▁boy	-8.83671
▁role	-8.83691
came	-8.83807
▁largest	-8.83952
▁lawmaker	-8.83959
▁list	-8.84326
▁soon	-8.84468
▁held	-8.84496
▁workers	-8.84525
▁front	-8.84636
coming	-8.84693
▁f	-8.85048
▁possible	-8.85074
▁problem	-8.85085
▁border	-8.85478
▁ahead	-8.8551
▁reason	-8.85565
▁dollar	-8.85697
▁coming	-8.8592
▁9	-8.85938
▁letter	-8.8614
▁rival	-8.86183
▁led	-8.86184
▁killing	-8.86223
▁person	-8.8624
▁risk	-8.86258
h	-8.86308
▁dozen	-8.86328
▁son	-8.8659
▁strong	-8.866
▁document	-8.8663
▁scientist	-8.86692
▁site	-8.86692
▁amid	-8.86706
▁hundred	-8.86765
▁isis	-8.86956
▁middle	-8.87059
c	-8.87171
▁sell	-8.87477
▁toward	-8.8756
▁rule	-8.87668
▁civil	-8.88549
▁started	-8.88706
▁11	-8.88943
▁event	-8.89045
▁personal	-8.89347
▁lives	-8.89479
▁fact	-8.89562
▁lawyer	-8.89587
▁feel	-8.89638
▁50	-8.89686
▁hold	-8.89862
▁secret	-8.89883
▁speak	-8.90086
▁o	-8.90097
▁must	-8.90179
▁london	-8.90487
▁land	-8.90591
▁nuclear	-8.90653
▁target	-8.90657
▁demand	-8.90738
▁technolog	-8.90922
▁deep	-8.9106
▁others	-8.91213
▁governor	-8.91281
▁senior	-8.91325
▁rally	-8.91417
▁release	-8.9147
▁mass	-8.91512
▁daily	-8.91632
▁focus	-8.92103
▁board	-8.92189
▁process	-8.92281
▁popular	-8.92327
stead	-8.92499
▁course	-8.92782
▁al	-8.92833
▁rise	-8.92925
▁father	-8.93129
▁internet	-8.93271
ton	-8.93519
▁third	-8.93599
▁rules	-8.93648
k	-8.93725
▁kind	-8.9388
▁mark	-8.94065
▁protest	-8.94164
▁hospital	-8.94516
▁12	-8.94633
▁ju	-8.94659
▁sent	-8.94664
▁afternoon	-8.94906
▁presidenc	-8.94936
ley	-8.95036
▁am	-8.95178
▁wrote	-8.95258
▁important	-8.95305
▁access	-8.95346
▁stay	-8.95386
▁child	-8.95746
▁april	-8.96102
▁explain	-8.96445
▁mr	-8.96514
▁reuters	-8.96585
▁gov	-8.96597
um	-8.96609
▁sea	-8.97071
▁hearing	-8.97139
▁candidates	-8.97185
▁tweet	-8.97197
▁increase	-8.97232
▁activist	-8.97318
▁project	-8.97383
▁previous	-8.97476
▁2017	-8.9772
time	-8.97748
▁body	-8.97805
▁staff	-8.9781
▁french	-8.97883
▁super	-8.9793
▁evidence	-8.98128
▁ceo	-8.98132
▁enter	-8.98212
▁appeal	-8.98314
land	-8.98365
▁doctor	-8.98622
is	-8.98683
▁green	-8.98908
▁congressional	-8.9895
▁crowd	-8.99119
▁update	-8.99179
▁tri	-8.99542
▁makes	-8.99739
▁daughter	-8.99889
▁search	-8.99991
▁girl	-9.00001
▁europe	-9.00024
▁2014	-9.0003
▁community	-9.00199
▁response	-9.00447
▁britain	-9.00699
▁brief	-9.00933
▁eight	-9.00959
▁note	-9.01197
▁violence	-9.01218
▁confirmed	-9.01311
▁november	-9.01543
▁la	-9.01605
▁aim	-9.01654
▁break	-9.01789
▁research	-9.01886
▁red	-9.02154
▁begin	-9.02307
▁rubio	-9.02308
▁promise	-9.02407
▁budget	-9.0249
▁strike	-9.02697
▁education	-9.02907
▁heart	-9.0298
pent	-9.03003
▁chance	-9.03255
▁science	-9.03301
▁charg	-9.03325
▁sales	-9.0337
▁phone	-9.03535
▁words	-9.03862
▁warn	-9.03879
▁adviser	-9.03914
▁given	-9.03964
▁iraq	-9.03979
▁ted	-9.03979
▁together	-9.04071
▁cause	-9.04192
▁fac	-9.0456
way	-9.04611
▁airport	-9.04644
▁couple	-9.04827
▁energy	-9.0484
▁talking	-9.05034
▁nothing	-9.05172
▁certain	-9.05253
▁mike	-9.05519
▁spokes	-9.057
▁scandal	-9.05706
▁wrong	-9.05948
▁june	-9.0603
▁station	-9.06035
▁friend	-9.06038
▁defend	-9.06042
▁putin	-9.06059
▁member	-9.06079
▁met	-9.06121
▁uber	-9.06392
▁com	-9.06448
▁happened	-9.0658
▁mayor	-9.06868
▁area	-9.06961
▁field	-9.07102
▁discover	-9.07446
▁fil	-9.07695
▁include	-9.07912
▁growing	-9.07978
▁friends	-9.08261
▁january	-9.08288
▁olympic	-9.08288
▁broad	-9.08292
▁editor	-9.08296
▁bid	-9.08517
▁low	-9.08551
▁doing	-9.08903
▁25	-9.08956
▁driver	-9.09067
▁kill	-9.09068
▁growth	-9.09163
▁everything	-9.09199
▁rock	-9.0921
▁investors	-9.09333
▁hack	-9.09513
▁issues	-9.09531
out	-9.09658
▁gold	-9.09662
▁living	-9.09762
▁medical	-9.09897
▁talks	-9.10076
▁kids	-9.10165
▁fired	-9.10191
▁majority	-9.10301
▁sure	-9.10301
▁george	-9.10301
▁resident	-9.10481
▁stage	-9.10485
▁chicago	-9.10765
▁france	-9.10776
▁career	-9.10854
▁afford	-9.11255
▁chairman	-9.11265
▁idea	-9.11317
▁paris	-9.11579
▁brought	-9.11606
▁hotel	-9.11985
▁gave	-9.12075
▁wide	-9.12164
▁groups	-9.12285
▁walk	-9.1235
▁illegal	-9.12357
▁ground	-9.12479
▁per	-9.12593
▁message	-9.12855
▁step	-9.1291
▁criminal	-9.12921
▁probabl	-9.12967
▁manhattan	-9.1302
▁church	-9.1316
▁fear	-9.13398
▁bush	-9.13452
▁planned	-9.13555
▁iowa	-9.13591
▁annual	-9.13616
▁figure	-9.13653
▁missile	-9.13922
▁turkey	-9.14003
▁direct	-9.14144
▁manager	-9.14216
▁angeles	-9.14279
▁comments	-9.14285
▁results	-9.14424
▁loss	-9.1471
▁cnn	-9.14842
▁light	-9.15034
▁npr	-9.15037
▁chinese	-9.15229
▁class	-9.15239
▁cost	-9.15342
▁source	-9.1539
▁google	-9.15752
▁heard	-9.15998
▁probe	-9.16078
▁reform	-9.16157
▁creat	-9.16168
to	-9.16307
▁agreement	-9.16342
ability	-9.164
▁dog	-9.16567
▁virginia	-9.16809
▁wild	-9.16954
▁measure	-9.17008
▁trial	-9.1721
▁40	-9.17254
▁single	-9.17416
▁anti	-9.17538
x	-9.17709
▁18	-9.1775
▁reality	-9.1795
▁giant	-9.18141
▁g	-9.18155
▁enforcement	-9.18189
▁minutes	-9.18193
▁incident	-9.18293
ous	-9.18304
▁crash	-9.18486
▁cars	-9.18601
▁massive	-9.18701
▁ap	-9.18716
▁received	-9.19017
p	-9.19054
▁rose	-9.19266
▁request	-9.19293
▁army	-9.19342
▁evening	-9.1935
▁hall	-9.19428
▁respond	-9.19541
▁entire	-9.19597
▁raise	-9.19613
ive	-9.1968
▁answer	-9.20064
▁saw	-9.20084
▁add	-9.20259
▁zika	-9.2031
▁rep	-9.20392
▁bas	-9.20513
▁female	-9.20538
▁employees	-9.20589
▁wound	-9.20621
▁fell	-9.20669
▁condition	-9.2085
▁elect	-9.20895
▁ohio	-9.20926
▁main	-9.20962
▁prevent	-9.21028
▁vehicle	-9.21131
▁done	-9.21152
▁organization	-9.21268
▁gets	-9.21272
▁roll	-9.21367
▁particular	-9.2144
ation	-9.21459
▁operation	-9.21792
▁vice	-9.21872
▁protect	-9.21974
▁husband	-9.22062
▁discuss	-9.22134
▁fans	-9.2218
▁club	-9.22338
▁television	-9.22379
b	-9.22428
▁fee	-9.22447
▁worst	-9.22495
▁check	-9.22541
▁experience	-9.22661
ought	-9.22784
▁seat	-9.22811
▁longer	-9.22936
▁tech	-9.22978
▁total	-9.23014
▁crime	-9.236
▁insurance	-9.23666
▁result	-9.23774
▁restaurant	-9.23846
▁labor	-9.23848
▁goes	-9.24132
▁serious	-9.24196
▁polls	-9.24206
▁miles	-9.24294
▁track	-9.24335
gan	-9.24466
f	-9.24482
▁quarter	-9.24543
▁themselves	-9.246
▁coast	-9.24714
▁choice	-9.24732
▁liberal	-9.25018
▁conflict	-9.25027
▁saudi	-9.25042
▁emails	-9.25189
▁voting	-9.25261
▁protesters	-9.25284
▁remember	-9.2534
▁fed	-9.2579
▁cover	-9.25828
▁league	-9.25831
▁robert	-9.25876
▁title	-9.25953
▁attention	-9.25995
▁500	-9.26066
▁gay	-9.26087
▁policies	-9.26213
▁abortion	-9.26278
▁leav	-9.26816
▁worth	-9.2693
▁declar	-9.26962
▁jersey	-9.26965
▁pence	-9.27068
▁manage	-9.2774
▁drive	-9.2784
▁stand	-9.27866
▁unit	-9.27898
▁provide	-9.27953
▁coverage	-9.27961
▁consumer	-9.27996
▁king	-9.28001
▁account	-9.28027
▁approach	-9.28095
▁base	-9.28121
▁southern	-9.28174
▁journalist	-9.28346
▁train	-9.28499
▁hollywood	-9.28617
▁jail	-9.28732
▁art	-9.28761
▁treat	-9.28816
▁relationship	-9.28839
▁billionaire	-9.2884
▁receive	-9.29022
▁feature	-9.29243
▁jeff	-9.29509
▁17	-9.29543
▁position	-9.29787
▁count	-9.29821
▁reveal	-9.29845
▁fashion	-9.29847
▁episode	-9.29851
▁r	-9.29916
▁refugees	-9.29996
▁looks	-9.30003
▁politician	-9.30071
ware	-9.30082
▁13	-9.30123
▁decided	-9.30127
▁disease	-9.30184
▁familiar	-9.30216
▁brexit	-9.3026
▁avoid	-9.30367
▁round	-9.30367
▁chris	-9.30445
▁flight	-9.30459
▁passed	-9.3047
▁increasing	-9.30523
▁investment	-9.30531
▁controversial	-9.30547
▁movement	-9.3064
▁lose	-9.30691
▁culture	-9.30783
▁due	-9.30824
▁challenge	-9.30907
▁plane	-9.30964
▁opposition	-9.3109
▁expect	-9.31093
▁paper	-9.31099
▁replace	-9.31168
▁sessions	-9.31175
▁website	-9.31204
▁victims	-9.31398
▁learned	-9.31497
▁exchange	-9.31564
▁road	-9.31627
▁cities	-9.31635
▁slow	-9.31754
▁iphone	-9.31893
▁drop	-9.31913
▁itself	-9.31999
▁estate	-9.32006
▁anything	-9.32007
▁tough	-9.32078
▁warning	-9.32108
▁send	-9.32133
▁describ	-9.32168
▁cast	-9.32415
▁common	-9.3247
▁partners	-9.32533
▁brooklyn	-9.32919
▁proposal	-9.32958
▁word	-9.32967
▁experts	-9.33055
▁lower	-9.33087
ney	-9.33142
▁cash	-9.33507
▁expand	-9.3351
▁militant	-9.3351
▁cancer	-9.33627
▁et	-9.33648
▁flynn	-9.33861
▁immigrants	-9.34045
▁critic	-9.34084
▁further	-9.34095
▁exact	-9.34096
▁nations	-9.34161
▁surprise	-9.34391
▁storm	-9.34454
cy	-9.34475
▁voice	-9.3451
▁paid	-9.34519
▁pressure	-9.34644
▁winning	-9.34801
▁fake	-9.35085
▁researcher	-9.35151
▁journal	-9.35154
▁rare	-9.35159
▁terrorist	-9.3539
▁japan	-9.35391
▁speaker	-9.35453
▁scott	-9.35465
▁model	-9.35504
▁14	-9.35572
self	-9.35719
▁true	-9.35779
▁else	-9.3589
▁represent	-9.35893
▁rich	-9.36159
▁german	-9.36224
▁gas	-9.3625
▁form	-9.3636
▁scene	-9.36377
▁camp	-9.36384
▁attend	-9.36463
▁brazil	-9.36703
ary	-9.36735
▁details	-9.36751
▁piece	-9.3692
▁perhaps	-9.3695
▁radio	-9.36959
▁beach	-9.37063
▁article	-9.37192
▁huge	-9.37243
▁ready	-9.37272
▁effect	-9.37301
▁famous	-9.37314
▁raised	-9.37466
▁original	-9.37527
▁council	-9.37556
▁conversation	-9.37677
▁safe	-9.37888
▁contest	-9.37919
▁protection	-9.37939
▁16	-9.37977
▁hear	-9.37996
▁holding	-9.38035
▁nam	-9.38101
▁square	-9.38154
▁israel	-9.38264
▁protests	-9.38439
▁19	-9.38602
▁h	-9.38714
▁hot	-9.38873
▁especial	-9.389
▁character	-9.38995
▁baby	-9.39072
▁remark	-9.39118
▁ruling	-9.39149
▁fatal	-9.39153
▁bar	-9.39229
▁date	-9.39371
▁magazine	-9.39422
re	-9.39469
▁anyone	-9.39641
▁powerful	-9.39662
▁21	-9.39857
▁hands	-9.39951
▁region	-9.39961
▁serve	-9.40044
▁canada	-9.40107
▁games	-9.40156
▁vow	-9.40158
▁gain	-9.40189
▁trip	-9.40212
▁safety	-9.4027
▁sometime	-9.403
▁decade	-9.40393
▁cit	-9.40403
▁practice	-9.40437
▁defeat	-9.40513
▁earth	-9.4055
▁injured	-9.40613
▁freedom	-9.40641
▁learn	-9.40707
▁revealed	-9.40765
▁inauguration	-9.40765
▁coach	-9.40767
▁peace	-9.40889
▁significant	-9.40927
▁eu	-9.40936
▁born	-9.40954
▁fast	-9.40964
▁beat	-9.41045
▁commission	-9.41108
▁2012	-9.41142
▁events	-9.41208
▁level	-9.41249
▁fair	-9.4146
▁24	-9.41491
▁performance	-9.41533
▁investigat	-9.41541
▁rath	-9.41615
▁bit	-9.41634
▁december	-9.41645
z	-9.41744
▁northern	-9.419
▁animal	-9.419
▁suicide	-9.42126
giving	-9.42146
▁propos	-9.42585
ra	-9.4277
▁mind	-9.4299
▁pull	-9.43015
▁votes	-9.43172
▁guilty	-9.4321
▁create	-9.43288
ville	-9.4333
▁passenger	-9.43433
▁fresh	-9.43525
▁transgender	-9.43622
▁caus	-9.43692
▁sound	-9.43694
▁allegations	-9.43717
age	-9.43828
g	-9.44008
▁iraqi	-9.44025
▁poor	-9.44097
▁opening	-9.44121
▁photo	-9.44175
▁quickly	-9.44194
new	-9.44282
▁western	-9.44467
▁sports	-9.44513
▁le	-9.44532
▁birth	-9.44598
▁legislati	-9.44675
▁representative	-9.4473
▁teacher	-9.44813
▁term	-9.44931
▁cleveland	-9.45252
▁bomb	-9.45256
▁winner	-9.45271
▁store	-9.4528
▁nfl	-9.45336
▁football	-9.45515
▁apartment	-9.45525
▁build	-9.45534
ez	-9.45589
▁forward	-9.45654
ritten	-9.45659
ell	-9.45773
▁pro	-9.46049
2	-9.46056
▁orlando	-9.46174
▁artist	-9.46181
▁democrat	-9.4634
▁jan	-9.46492
▁johnson	-9.46509
▁terror	-9.46568
▁abuse	-9.4657
▁hate	-9.46714
▁yes	-9.46801
▁able	-9.4688
▁korean	-9.46882
▁2013	-9.46973
▁spicer	-9.46979
▁owner	-9.47022
▁century	-9.47265
▁chair	-9.47285
▁boost	-9.47363
▁families	-9.47372
▁album	-9.47372
▁save	-9.47467
▁pretty	-9.47506
▁shift	-9.47728
▁22	-9.48013
▁spoke	-9.48099
▁prosecutors	-9.4825
▁nine	-9.4838
na	-9.48639
▁accept	-9.48664
▁sale	-9.48723
▁drink	-9.48726
▁players	-9.4897
▁sense	-9.49014
▁individual	-9.49129
▁tower	-9.49156
▁spot	-9.49172
▁missing	-9.49255
▁regulator	-9.49291
▁mexican	-9.49575
▁immediately	-9.49621
▁sanctions	-9.49671
▁profit	-9.49683
▁brown	-9.49739
▁floor	-9.49858
▁patient	-9.50015
▁mid	-9.5012
▁foundation	-9.50144
▁marine	-9.50197
▁wave	-9.50237
▁emergency	-9.50255
▁reject	-9.50352
▁rest	-9.50408
▁present	-9.50414
▁mosu	-9.50417
▁conduct	-9.50518
▁campus	-9.50525
▁joe	-9.50558
▁bowl	-9.50571
▁february	-9.5064
tic	-9.50649
▁transition	-9.50785
ie	-9.50811
▁teen	-9.50841
▁worked	-9.50879
ish	-9.51081
▁gone	-9.51214
▁germany	-9.51346
▁fill	-9.5146
▁religious	-9.51491
▁arriv	-9.51508
▁francisco	-9.51616
▁river	-9.51639
side	-9.51749
▁problems	-9.51919
▁device	-9.52034
uch	-9.52083
▁updat	-9.52115
▁struggl	-9.52135
▁buzzfeed	-9.52174
▁maybe	-9.52219
▁beyond	-9.52315
▁higher	-9.52445
▁throw	-9.52453
▁ex	-9.52559
▁blue	-9.52599
▁usual	-9.52604
or	-9.52684
▁octob	-9.52738
▁professor	-9.52867
▁60	-9.52947
▁holiday	-9.53021
▁yankees	-9.53148
▁computer	-9.53187
▁virus	-9.53228
▁app	-9.53333
▁amazon	-9.53449
▁leak	-9.53474
▁steve	-9.53515
▁criticism	-9.53613
▁ways	-9.53615
▁pass	-9.53667
hire	-9.53683
▁tom	-9.53879
▁associat	-9.54012
▁soft	-9.54025
▁rio	-9.5403
ful	-9.54103
▁september	-9.54305
▁blame	-9.54357
▁refus	-9.54364
▁wake	-9.54466
▁armed	-9.54502
▁easy	-9.54575
▁michi	-9.54717
▁initial	-9.54882
▁photos	-9.55006
▁broke	-9.55083
▁girls	-9.55169
▁exclusive	-9.55172
▁kim	-9.55219
▁markets	-9.55251
▁sean	-9.55338
▁sharp	-9.55362
▁mom	-9.55366
▁agenc	-9.55397
▁whole	-9.55526
▁blasio	-9.55751
▁changes	-9.55816
▁tour	-9.5586
▁african	-9.55861
▁changed	-9.55878
▁fellow	-9.55896
▁prompt	-9.55897
▁comment	-9.55951
▁caught	-9.56051
▁pennsylvania	-9.56336
▁dangerous	-9.56488
▁average	-9.56495
u	-9.56587
▁rape	-9.5659
▁aren	-9.56682
▁reserve	-9.56721
▁moving	-9.56776
▁aid	-9.56806
▁version	-9.5684
▁apparently	-9.56921
▁debt	-9.56927
▁understand	-9.56979
▁dark	-9.57034
▁picture	-9.5707
▁martin	-9.57074
▁subject	-9.57208
▁provid	-9.57217
▁spring	-9.5722
▁recall	-9.57223
▁dropp	-9.57363
▁favorite	-9.57369
▁needs	-9.57462
▁wonder	-9.57504
▁tim	-9.5754
▁similar	-9.57574
▁deliver	-9.57678
▁brand	-9.5778
▁multiple	-9.57801
▁jump	-9.57889
go	-9.57902
▁success	-9.57934
ia	-9.58016
▁schools	-9.58218
rising	-9.58247
▁marco	-9.58356
▁actor	-9.58416
▁parties	-9.58419
▁either	-9.5847
▁repeated	-9.58509
▁author	-9.58521
▁offered	-9.5868
▁independent	-9.58724
old	-9.58972
▁weapons	-9.58996
▁kelly	-9.59045
▁modern	-9.59078
▁users	-9.59225
▁banks	-9.59401
truck	-9.59433
▁analyst	-9.59461
▁simple	-9.59499
▁favor	-9.59523
▁truck	-9.59603
▁hour	-9.59673
▁historic	-9.59713
▁grant	-9.59771
▁honor	-9.59865
▁write	-9.60037
▁oregon	-9.60062
▁exist	-9.60188
▁aleppo	-9.6022
▁prince	-9.60266
▁trad	-9.60346
▁perfect	-9.60346
▁express	-9.60569
▁added	-9.60595
▁standing	-9.60639
▁page	-9.6066
▁wins	-9.60823
▁quiet	-9.60832
▁showing	-9.6095
▁numbers	-9.61109
▁communication	-9.61141
▁august	-9.61446
▁eastern	-9.61459
▁terrorism	-9.61461
▁finding	-9.61519
▁christmas	-9.616
▁blast	-9.61604
town	-9.61699
▁difficult	-9.61755
▁argument	-9.61779
▁involved	-9.61782
▁tie	-9.61791
▁credit	-9.61807
▁brain	-9.61835
▁el	-9.61994
▁blood	-9.62084
el	-9.62127
▁mets	-9.62327
▁plant	-9.62425
▁contract	-9.62477
▁identified	-9.62494
▁ambassador	-9.62527
▁jr	-9.62555
▁standard	-9.62831
▁survey	-9.62843
▁lack	-9.62891
▁gather	-9.62895
▁victim	-9.6305
▁rebel	-9.63073
▁sheriff	-9.63181
▁nbc	-9.63207
year	-9.6327
▁draft	-9.63284
▁bus	-9.63307
▁ben	-9.63369
▁grand	-9.63435
▁audience	-9.63471
▁announcement	-9.6349
▁happen	-9.63601
▁citizens	-9.63605
▁violent	-9.63628
▁signal	-9.63646
▁nav	-9.63695
▁hill	-9.63881
▁dies	-9.63989
▁whom	-9.64073
▁suit	-9.6411
▁founder	-9.6419
▁23	-9.64194
berg	-9.64378
▁thanks	-9.644
▁rough	-9.64421
▁indiana	-9.64443
▁dress	-9.64511
ty	-9.64553
▁deput	-9.64579
▁stopp	-9.64616
▁guard	-9.64711
▁above	-9.64897
▁supposed	-9.64913
▁contain	-9.64977
▁arabia	-9.64991
▁settlement	-9.65071
▁treatment	-9.65095
▁pulled	-9.65102
▁worse	-9.65216
▁straight	-9.65217
▁dallas	-9.66021
▁90	-9.66041
▁eyes	-9.66133
▁pop	-9.66201
▁convict	-9.66309
▁georgia	-9.66344
▁lady	-9.66359
ford	-9.66441
▁fraud	-9.66551
▁briefing	-9.66576
▁producer	-9.66595
▁funding	-9.66602
▁mosco	-9.66668
▁dream	-9.66766
▁village	-9.66768
▁via	-9.66793
▁guy	-9.6681
▁investigator	-9.66885
▁felt	-9.67075
▁pipeline	-9.67158
quite	-9.6722
▁door	-9.67242
▁camera	-9.67262
▁delay	-9.6727
▁customers	-9.67295
▁sudden	-9.67321
▁perform	-9.67371
▁wait	-9.67385
▁truth	-9.67404
▁era	-9.67635
▁trail	-9.67806
▁award	-9.67848
▁pre	-9.67973
▁voter	-9.68107
▁winter	-9.68152
▁doubt	-9.68195
▁deni	-9.68199
▁development	-9.68222
▁fuel	-9.68242
▁sold	-9.68263
off	-9.68292
▁wisconsin	-9.68306
▁civilian	-9.68319
▁scali	-9.68338
▁specific	-9.68473
▁extend	-9.68532
▁environmental	-9.6862
▁hamps	-9.68638
▁christian	-9.68702
▁canadian	-9.68803
▁shock	-9.68821
▁domestic	-9.68875
5	-9.68909
▁gors	-9.68981
ier	-9.6905
▁dinner	-9.69137
▁factor	-9.69159
▁sponsors	-9.69171
▁argu	-9.69193
▁laws	-9.69295
▁richard	-9.69296
chester	-9.69326
▁critical	-9.69348
▁stephen	-9.69482
▁peter	-9.69658
▁digital	-9.69663
▁uk	-9.69681
▁valley	-9.69816
▁fourth	-9.69988
▁urg	-9.70139
▁books	-9.70272
▁confirmation	-9.70317
▁dramatic	-9.70318
▁kick	-9.70359
▁sleep	-9.70402
▁stream	-9.70586
▁hurt	-9.70657
▁wealth	-9.7071
▁beginning	-9.70819
▁alone	-9.70883
▁atlantic	-9.7107
▁band	-9.71372
imply	-9.71456
▁v	-9.71492
▁avenue	-9.71495
▁turns	-9.71522
▁fit	-9.71569
▁tru	-9.71572
▁streets	-9.71662
▁opponent	-9.71836
▁limit	-9.71963
▁period	-9.72019
▁production	-9.72027
▁traditional	-9.72064
▁sister	-9.72095
▁stake	-9.72169
▁song	-9.72184
ence	-9.72198
▁200	-9.72216
▁appearance	-9.7243
▁india	-9.72439
▁du	-9.72488
▁27	-9.72497
▁relations	-9.72498
▁dr	-9.725
▁bann	-9.72542
▁amount	-9.72636
▁cold	-9.72653
▁israeli	-9.72654
▁player	-9.72821
▁philadelphia	-9.72868
▁newspaper	-9.72891
▁jones	-9.72914
▁path	-9.72995
▁planet	-9.73004
▁drama	-9.73029
▁continu	-9.7303
▁impact	-9.73041
▁built	-9.7317
▁dakota	-9.73214
▁chao	-9.73278
▁relative	-9.73434
▁sentence	-9.7345
▁drugs	-9.73518
▁cross	-9.73537
▁agenda	-9.73563
▁gender	-9.73656
ta	-9.73685
▁joint	-9.73726
▁capitol	-9.73742
▁giants	-9.73818
▁affair	-9.73848
▁boss	-9.73855
▁lift	-9.73982
▁businesses	-9.74035
▁fighter	-9.74049
▁afghanistan	-9.74086
▁2008	-9.7409
▁ran	-9.74211
▁closed	-9.74247
▁score	-9.74402
▁26	-9.74452
▁influence	-9.74464
▁panel	-9.74487
▁blow	-9.74519
▁driving	-9.74614
though	-9.74728
▁complete	-9.74737
▁baseball	-9.74791
▁advocate	-9.74876
▁delegates	-9.74958
▁platform	-9.74964
▁exit	-9.74969
▁dad	-9.75026
ten	-9.75046
▁easi	-9.75102
▁bathroom	-9.75141
▁bridge	-9.75173
▁delivered	-9.75249
j	-9.75497
▁forc	-9.75506
▁retir	-9.75527
▁notice	-9.75535
▁extreme	-9.75673
▁strategy	-9.75673
▁affect	-9.7573
night	-9.75759
▁revenue	-9.75851
▁maker	-9.76024
▁complaint	-9.76052
▁miss	-9.76154
▁sweep	-9.76207
▁marriage	-9.76213
▁basic	-9.76435
▁box	-9.7648
ian	-9.76486
▁pledge	-9.76498
ar	-9.76517
▁normal	-9.76558
▁advance	-9.76665
▁allowed	-9.76825
▁damage	-9.76838
▁rush	-9.76857
▁successful	-9.76934
▁tiny	-9.76934
1	-9.77007
▁confirm	-9.77144
▁accounts	-9.77181
▁prospect	-9.77286
▁ticket	-9.77287
▁anthon	-9.77288
▁unveil	-9.77466
▁racist	-9.77468
▁putting	-9.77479
▁terms	-9.77619
▁leadership	-9.7767
▁sit	-9.77732
▁struggle	-9.7788
▁regard	-9.77883
▁insist	-9.77933
▁jackson	-9.78025
▁discussion	-9.78078
▁turkish	-9.78193
▁ethic	-9.78414
▁fla	-9.78462
▁example	-9.78558
▁vladimir	-9.78559
et	-9.78584
▁association	-9.78592
▁debut	-9.78743
▁wear	-9.78918
▁bay	-9.78964
▁headline	-9.7901
▁telling	-9.79027
▁effective	-9.79124
id	-9.79213
ve	-9.79308
▁believed	-9.7932
life	-9.79358
▁wage	-9.79363
▁traffic	-9.79435
▁28	-9.79485
▁troops	-9.79507
▁cia	-9.79549
▁pentagon	-9.79848
▁hair	-9.79915
craft	-9.80019
▁cabinet	-9.80034
▁spark	-9.80089
▁jury	-9.80112
▁jets	-9.80214
▁electoral	-9.8022
▁false	-9.80221
▁population	-9.80225
▁29	-9.80258
taxes	-9.80344
▁corp	-9.80554
▁related	-9.80757
▁lines	-9.80772
▁listen	-9.80787
▁35	-9.80838
▁van	-9.8084
▁awards	-9.80941
▁value	-9.81116
▁knicks	-9.81163
▁christie	-9.81198
▁god	-9.81241
▁rais	-9.81318
▁surprising	-9.81342
▁decline	-9.81383
▁prove	-9.81402
▁ice	-9.81474
▁allie	-9.81799
▁generation	-9.81855
▁contact	-9.81908
▁criticiz	-9.81971
▁spread	-9.81972
▁mission	-9.82053
▁shut	-9.82055
▁neighbor	-9.82118
▁brother	-9.82143
▁describe	-9.82247
▁goal	-9.82272
▁disaster	-9.82287
itting	-9.82354
▁offering	-9.82356
▁dispute	-9.82428
▁pair	-9.82687
ant	-9.82691
▁net	-9.827
▁refugee	-9.82803
▁breaking	-9.82814
▁trend	-9.82823
▁veteran	-9.82856
▁electric	-9.82859
▁photograph	-9.82891
▁die	-9.82917
▁tiller	-9.82951
▁smith	-9.83009
▁sector	-9.8305
co	-9.83181
men	-9.83197
▁gre	-9.83252
▁schedul	-9.83263
▁property	-9.83394
kept	-9.83402
▁facilit	-9.83412
▁situation	-9.83434
▁file	-9.83434
▁lee	-9.83505
going	-9.83513
▁edge	-9.83531
▁cuba	-9.83532
▁indian	-9.8372
▁shared	-9.83738
▁grow	-9.83742
▁controversy	-9.83818
▁machine	-9.83856
▁establishment	-9.83866
▁predict	-9.83909
▁happy	-9.84011
▁planning	-9.84023
▁clean	-9.84179
▁singer	-9.84296
▁cancel	-9.84396
▁products	-9.84433
▁neighborhood	-9.84445
▁approved	-9.84559
▁eye	-9.84733
▁formal	-9.84792
▁70	-9.84951
▁colleague	-9.84982
▁opinion	-9.84982
▁language	-9.85026
▁eat	-9.85262
▁sun	-9.85265
▁welcome	-9.85345
▁golden	-9.85441
▁unusual	-9.85569
▁classified	-9.85572
▁reading	-9.856
▁male	-9.85634
▁arm	-9.85652
▁brussels	-9.85765
▁england	-9.85765
▁chemical	-9.85803
▁stars	-9.85825
▁cyber	-9.85962
▁andrew	-9.86016
▁mental	-9.86086
▁halt	-9.86265
▁pack	-9.8631
▁thinking	-9.86506
▁publisher	-9.86518
▁feeling	-9.86555
▁content	-9.86619
▁tweets	-9.8675
▁corporate	-9.86754
▁pen	-9.86761
▁sort	-9.86778
served	-9.86798
▁channel	-9.87009
▁airlines	-9.87097
▁ivanka	-9.87152
▁highest	-9.87156
▁2010	-9.87157
▁match	-9.87271
ner	-9.87346
▁writer	-9.87506
▁mate	-9.87515
▁racial	-9.87772
▁caucus	-9.87817
▁weigh	-9.87843
tz	-9.87878
stood	-9.87969
▁prize	-9.88245
▁works	-9.88259
▁obtain	-9.88355
▁institute	-9.88465
▁areas	-9.88583
▁color	-9.88592
▁corruption	-9.88618
▁45	-9.8867
▁regulations	-9.88679
▁snow	-9.88731
▁gunman	-9.88755
▁arizona	-9.8876
▁mis	-9.88844
up	-9.88871
▁fine	-9.88876
▁festival	-9.88964
▁2011	-9.88971
▁names	-9.88991
▁radical	-9.89036
▁bureau	-9.89166
▁miami	-9.89166
▁trust	-9.89399
▁80	-9.89521
▁combat	-9.89538
▁healthcare	-9.89598
▁material	-9.89652
▁declin	-9.8974
▁trigger	-9.89778
▁range	-9.8994
▁approval	-9.89983
▁require	-9.90056
▁training	-9.90154
▁engineer	-9.90166
▁aide	-9.90275
▁fears	-9.90382
▁slideshow	-9.90394
▁celebrat	-9.90507
▁natural	-9.90759
▁designed	-9.90766
woman	-9.90769
▁finance	-9.90798
▁tesla	-9.90807
▁boston	-9.9081
▁agents	-9.90825
▁william	-9.90871
▁asset	-9.90894
▁opportunit	-9.90941
▁highlight	-9.91024
▁parliament	-9.91132
▁31	-9.9116
▁complex	-9.91219
▁regular	-9.91221
▁continues	-9.9136
▁core	-9.91366
▁japanese	-9.91642
▁ocean	-9.91742
▁label	-9.91805
▁costs	-9.91934
▁failure	-9.91938
▁prosecutor	-9.91947
▁server	-9.91974
▁pope	-9.92028
▁offensive	-9.92055
▁views	-9.92071
▁iranian	-9.92073
▁setting	-9.92077
▁kasich	-9.92103
conway	-9.9213
▁remov	-9.92263
▁ceremon	-9.92265
▁nov	-9.92302
▁decide	-9.92596
ling	-9.92619
▁sue	-9.92639
▁matthew	-9.92686
▁lock	-9.92764
▁income	-9.92831
te	-9.92894
▁housing	-9.92899
▁detail	-9.93035
▁l	-9.93078
▁raid	-9.93113
▁expectation	-9.93126
▁connection	-9.93156
promised	-9.93165
▁unexpected	-9.9332
▁prominent	-9.93325
▁professional	-9.93339
▁speed	-9.93409
ge	-9.9346
▁ideas	-9.93482
▁crude	-9.93533
▁web	-9.93707
▁cable	-9.93796
▁waiting	-9.93814
▁museum	-9.93871
▁josh	-9.94003
▁meant	-9.94016
▁harassment	-9.94022
▁broken	-9.94044
▁carry	-9.94054
▁hacker	-9.94059
▁reflect	-9.94133
▁announce	-9.94152
▁catch	-9.94209
▁shar	-9.94213
▁primari	-9.94217
▁mad	-9.94598
▁threaten	-9.94626
▁australia	-9.94646
▁0	-9.94651
▁obvious	-9.94816
▁sat	-9.9482
▁levels	-9.94987
▁agent	-9.94997
▁bag	-9.95009
▁migrant	-9.95031
▁thomas	-9.95031
▁table	-9.95036
▁academ	-9.95201
▁filing	-9.95259
▁fan	-9.95261
▁advi	-9.95442
▁jewish	-9.95467
▁charles	-9.95496
7	-9.95557
▁surge	-9.95579
▁happens	-9.95587
▁commercial	-9.95682
▁nba	-9.95691
▁mar	-9.95704
▁comedy	-9.95707
▁identity	-9.95755
▁chain	-9.95865
▁smartphone	-9.95898
▁warren	-9.95899
▁sentenc	-9.95943
▁enjoy	-9.96116
▁ballot	-9.96174
▁closer	-9.96189
▁killer	-9.96231
▁native	-9.96355
▁cook	-9.9641
▁respect	-9.96537
▁fix	-9.96703
ory	-9.96746
▁develop	-9.96813
▁kansa	-9.96993
▁venezuela	-9.97042
▁pm	-9.97069
▁size	-9.97135
▁nypd	-9.97212
▁imagine	-9.97243
▁warm	-9.97302
where	-9.97327
▁ship	-9.97354
▁intend	-9.97439
▁mount	-9.97445
▁hike	-9.97513
▁weather	-9.97591
▁walking	-9.97593
▁vox	-9.97658
▁legacy	-9.97671
▁payment	-9.97684
▁archive	-9.97762
nc	-9.97912
▁fifth	-9.98104
▁teenager	-9.98131
▁brad	-9.98177
▁celebrate	-9.98179
la	-9.98208
▁partner	-9.98238
▁hop	-9.98291
▁division	-9.9833
▁draw	-9.98336
▁touch	-9.98445
▁tension	-9.98448
▁separate	-9.98449
▁ball	-9.98534
▁crack	-9.98544
▁bannon	-9.98627
▁bare	-9.98675
▁nominat	-9.98701
▁readers	-9.9882
▁chose	-9.98856
▁soldiers	-9.98956
▁beijing	-9.98992
▁unprecedented	-9.98992
▁va	-9.99062
▁style	-9.99158
▁bob	-9.99186
▁construction	-9.99202
nato	-9.99399
▁li	-9.99443
▁virtual	-9.99495
▁africa	-9.99498
▁row	-9.99507
wearing	-9.99564
▁carrying	-9.99583
▁shop	-9.99656
▁yahoo	-9.99668
▁na	-9.99679
▁progress	-9.99737
▁staffer	-9.99782
▁rom	-9.99818
▁stan	-9.99875
ur	-9.99882
ch	-9.99892
▁dc	-9.99979
▁williams	-10.0001
▁reduce	-10.0003
line	-10.0009
4	-10.002
▁pregnant	-10.0035
▁angry	-10.0035
▁firing	-10.0035
▁democracy	-10.0039
▁cell	-10.004
▁linked	-10.0043
ma	-10.0049
▁novel	-10.0049
▁import	-10.0057
▁alabam	-10.0058
▁status	-10.0058
▁involv	-10.0074
▁reagan	-10.008
▁stepp	-10.0086
▁dismiss	-10.0087
▁plead	-10.009
▁heavy	-10.0103
▁typical	-10.0104
ard	-10.0106
▁bear	-10.0107
▁foot	-10.0112
▁territor	-10.0113
▁tree	-10.0119
▁ali	-10.0126
▁amendment	-10.0127
▁pain	-10.0133
▁homes	-10.0135
▁coalition	-10.0149
▁flood	-10.0152
▁cbs	-10.0153
▁cultural	-10.0172
▁narrow	-10.0172
▁robot	-10.0186
▁remove	-10.0192
▁broadcast	-10.0195
▁helping	-10.0196
▁mention	-10.0196
▁internal	-10.0201
▁stone	-10.0204
▁nice	-10.0213
▁constitution	-10.022
▁manag	-10.0224
▁card	-10.0227
ne	-10.023
▁pitch	-10.0232
▁prepare	-10.0239
▁nevada	-10.0242
▁emerged	-10.0249
▁nasa	-10.0258
▁tourist	-10.027
▁jet	-10.0278
ham	-10.0284
am	-10.0287
▁suspended	-10.029
▁threatened	-10.0297
▁michelle	-10.0313
▁replacement	-10.0317
▁thank	-10.0318
▁associate	-10.0332
3	-10.0341
▁studio	-10.0341
▁vast	-10.0341
▁institution	-10.0358
da	-10.036
▁sending	-10.0362
▁ultimate	-10.0366
▁weak	-10.0371
▁session	-10.0412
▁unlikely	-10.0413
▁suffered	-10.0414
▁guns	-10.0419
▁choose	-10.042
▁louis	-10.0425
▁kushner	-10.0429
▁colorado	-10.0429
ist	-10.0431
▁crew	-10.0437
...	-10.0438
▁captur	-10.0444
8	-10.0445
▁athlete	-10.0453
▁nor	-10.0464
▁musical	-10.0481
▁authority	-10.0481
▁upon	-10.0488
▁entertain	-10.049
board	-10.0491
▁code	-10.0498
▁presumptive	-10.0501
▁yesterday	-10.0501
▁heat	-10.051
▁marri	-10.0522
▁fish	-10.0528
▁severe	-10.0529
▁anger	-10.0533
▁homeland	-10.0538
▁strange	-10.0566
▁minority	-10.0591
▁brutal	-10.0591
▁competition	-10.0596
▁theater	-10.0596
▁49	-10.0599
▁jim	-10.0608
▁investor	-10.061
▁referendum	-10.062
▁worried	-10.0623
▁300	-10.0623
fire	-10.0629
▁weight	-10.0634
▁crimes	-10.064
▁estimate	-10.064
▁leg	-10.067
▁gains	-10.067
▁mo	-10.0679
▁footage	-10.0694
▁lake	-10.0707
▁chelsea	-10.0717
▁2009	-10.0718
drew	-10.0718
▁wood	-10.0723
▁jar	-10.0724
▁knows	-10.0733
▁silicon	-10.0742
▁society	-10.0746
▁rescue	-10.075
▁trouble	-10.0763
▁responsibl	-10.0766
▁double	-10.0782
▁actress	-10.0791
▁sick	-10.0803
▁nightclub	-10.0816
▁champion	-10.0835
▁nyc	-10.0836
▁product	-10.0836
ab	-10.0855
▁compared	-10.0862
▁element	-10.0865
▁globe	-10.0865
▁analysis	-10.0865
▁neil	-10.0883
▁louisiana	-10.0889
▁hell	-10.0897
▁officially	-10.0898
▁rhetoric	-10.0911
▁aggressive	-10.0914
▁location	-10.0916
▁swing	-10.0918
▁admitted	-10.0932
▁outrage	-10.0963
▁cuomo	-10.0964
▁netflix	-10.0964
▁involve	-10.097
▁possibl	-10.0973
wood	-10.0973
▁resist	-10.0975
▁arms	-10.0976
▁aides	-10.0977
▁stick	-10.0988
▁testimon	-10.0989
▁loan	-10.0991
▁palm	-10.1006
▁flag	-10.1011
▁egypt	-10.1014
▁detain	-10.1014
▁danger	-10.1014
▁calif	-10.1015
▁owners	-10.1016
▁myster	-10.1017
▁golf	-10.1032
▁collect	-10.1033
▁luxury	-10.1039
▁possibilit	-10.1039
▁castro	-10.104
▁difference	-10.1056
▁400	-10.1064
▁resort	-10.1064
▁apparent	-10.1065
▁investigate	-10.1076
▁text	-10.1077
▁matt	-10.1078
▁overhaul	-10.109
▁wikileaks	-10.109
▁seriously	-10.1108
▁completely	-10.1112
▁condemn	-10.1114
▁pilot	-10.1115
▁theresa	-10.1123
▁escape	-10.1125
▁map	-10.1133
▁australian	-10.1135
▁dec	-10.1137
▁studie	-10.1139
▁treasury	-10.1142
▁mobile	-10.1156
▁rex	-10.1157
▁spy	-10.1164
▁earning	-10.1169
▁revolution	-10.1185
▁reaction	-10.1187
▁finish	-10.1187
▁flint	-10.1191
▁rapid	-10.1192
▁rallie	-10.1192
▁mess	-10.1194
▁benefits	-10.1206
▁mcca	-10.1215
▁currenc	-10.1217
▁subway	-10.1217
▁bombing	-10.122
▁oscar	-10.1225
structure	-10.1234
▁haven	-10.1239
▁bust	-10.124
▁baltimore	-10.1243
▁physical	-10.1243
▁samsung	-10.1243
▁surveill	-10.1243
▁photographer	-10.1244
▁eric	-10.1245
▁coal	-10.1246
▁abc	-10.1284
▁frank	-10.1288
▁stores	-10.1293
▁hole	-10.1297
▁solar	-10.1298
▁tens	-10.1302
▁messages	-10.1304
▁benefit	-10.1305
▁celebrity	-10.1319
▁summit	-10.132
▁regime	-10.1322
▁recover	-10.1325
▁diplomatic	-10.1327
▁classic	-10.133
▁absolute	-10.1346
▁millennial	-10.1346
▁forecast	-10.1356
ship	-10.1359
▁guest	-10.1373
▁ii	-10.1377
▁capture	-10.1382
▁electronic	-10.1398
▁ending	-10.1409
▁none	-10.1412
▁confus	-10.1412
▁mal	-10.142
▁con	-10.1423
▁privacy	-10.1424
▁twice	-10.1424
▁stuff	-10.1424
▁jack	-10.1424
▁newly	-10.1425
▁inspir	-10.1426
▁screen	-10.1427
▁claiming	-10.1428
▁flee	-10.144
▁infra	-10.1445
▁referr	-10.1449
▁atlant	-10.145
▁task	-10.145
▁kennedy	-10.145
▁lies	-10.1451
▁conspiracy	-10.1452
▁endorsement	-10.1452
▁collection	-10.1453
▁carri	-10.146
▁comic	-10.1462
▁tonight	-10.1469
▁sport	-10.1474
▁marijuana	-10.1476
▁closing	-10.1477
▁quarterback	-10.1477
▁gap	-10.1487
▁fun	-10.1489
▁happening	-10.1492
▁wind	-10.15
▁abandon	-10.1503
▁facts	-10.151
▁quick	-10.1512
ily	-10.1512
▁songs	-10.1519
▁various	-10.1529
▁featur	-10.1539
▁cup	-10.1546
▁port	-10.1546
▁elite	-10.1548
▁vegas	-10.1556
v	-10.1568
▁chuck	-10.157
▁availab	-10.1578
ka	-10.1587
▁inmate	-10.1598
▁bond	-10.1606
▁medicaid	-10.1609
▁min	-10.1609
▁counter	-10.1616
▁visa	-10.1616
▁watched	-10.1619
▁sky	-10.162
▁retailer	-10.1621
▁challenges	-10.1625
ca	-10.1626
▁instagram	-10.1635
▁memo	-10.1652
▁documentar	-10.1658
▁sides	-10.1659
▁catholic	-10.1689
▁elizabeth	-10.1689
▁nearby	-10.1691
nature	-10.1699
▁disney	-10.1716
▁guardian	-10.1742
▁responsibilit	-10.1743
▁bodi	-10.1756
▁seal	-10.1764
▁counsel	-10.1768
▁horror	-10.177
▁assistant	-10.177
▁stands	-10.1782
▁prepared	-10.1794
▁english	-10.1797
▁explosion	-10.1797
etts	-10.1803
▁smart	-10.1806
▁stretch	-10.1813
▁asia	-10.1817
▁anniversar	-10.1824
▁purchase	-10.1827
▁garden	-10.1829
▁moderate	-10.1833
▁sentences	-10.1838
▁weapon	-10.1846
▁failing	-10.1847
▁constitutional	-10.185
▁bright	-10.186
▁behavior	-10.1864
▁videos	-10.1866
▁witness	-10.1867
▁wedding	-10.1882
▁accident	-10.1891
▁retail	-10.1894
▁command	-10.19
▁design	-10.1905
▁guide	-10.1905
▁alternative	-10.1906
▁beautiful	-10.1906
▁signature	-10.1906
▁theory	-10.1908
▁headquarters	-10.1915
▁improve	-10.1916
▁designer	-10.1931
▁afghan	-10.1933
▁monitor	-10.1933
▁cheap	-10.1934
▁su	-10.1939
▁resign	-10.194
il	-10.195
▁vision	-10.1952
▁patriot	-10.1954
▁lay	-10.196
▁hurricane	-10.1961
▁surface	-10.1961
▁beauty	-10.1961
achus	-10.1961
▁italian	-10.1962
▁additional	-10.1969
▁injuries	-10.1972
▁macro	-10.1978
▁stunning	-10.1981
▁puerto	-10.1989
▁cool	-10.1994
▁employee	-10.1996
▁serving	-10.1999
▁slight	-10.201
▁daniel	-10.2012
▁minnesota	-10.2016
▁soccer	-10.2016
▁espn	-10.2017
▁parenthood	-10.2017
▁hedge	-10.2018
▁rick	-10.2023
▁oppos	-10.203
▁prepar	-10.204
▁ride	-10.2045
▁rank	-10.2049
▁usa	-10.2065
▁essential	-10.2072
▁register	-10.2072
▁yell	-10.2075
▁activit	-10.2093
▁jay	-10.2095
▁merger	-10.2103
by	-10.2111
▁corner	-10.2111
▁progressive	-10.2113
▁positive	-10.2113
▁threatening	-10.2123
▁tight	-10.2124
▁introduc	-10.2127
▁supply	-10.2128
▁cheer	-10.2134
▁operat	-10.2145
▁custod	-10.2155
▁pr	-10.2157
▁diet	-10.2161
▁correct	-10.2179
▁houston	-10.2184
▁devos	-10.2184
▁harm	-10.2186
▁refuge	-10.2187
▁negotiation	-10.2187
▁melani	-10.2189
▁secure	-10.219
▁outlet	-10.219
▁eve	-10.2197
▁string	-10.2199
▁tradition	-10.2204
▁forget	-10.221
▁cycle	-10.2212
▁basketball	-10.2212
▁resolution	-10.2213
▁wars	-10.2216
▁quit	-10.2223
▁rain	-10.2229
▁cuban	-10.2238
▁ring	-10.2239
▁oklahoma	-10.2241
▁utah	-10.2241
▁talent	-10.2241
▁jason	-10.2241
▁vi	-10.2244
back	-10.225
▁topic	-10.2256
▁settle	-10.226
▁yorker	-10.2268
▁concert	-10.2268
▁plenty	-10.2269
▁gang	-10.2271
▁homeless	-10.2279
▁downtown	-10.228
▁rap	-10.2281
▁flow	-10.2293
▁75	-10.2293
▁maintain	-10.2298
▁options	-10.2298
do	-10.2301
▁changing	-10.2306
▁solution	-10.231
▁degree	-10.2335
▁sugar	-10.2335
it	-10.2351
▁split	-10.2355
▁plot	-10.236
▁faith	-10.2368
▁discrimination	-10.237
▁bets	-10.239
▁lesson	-10.2393
▁committed	-10.2398
▁zone	-10.2408
▁establish	-10.241
▁coffee	-10.2412
▁rural	-10.2412
▁dear	-10.2431
▁boat	-10.2434
▁republic	-10.2441
▁2018	-10.2441
▁emotional	-10.2458
▁joke	-10.2466
▁diplomat	-10.2468
ized	-10.2468
▁roof	-10.247
▁industrial	-10.2472
▁twin	-10.2491
right	-10.2494
▁refuse	-10.2497
▁worker	-10.2508
▁mcconn	-10.2529
▁veterans	-10.2529
▁sarah	-10.2529
▁antonin	-10.253
▁adults	-10.2534
ro	-10.2535
▁z	-10.2539
▁lgbt	-10.2547
▁expert	-10.2555
▁francis	-10.2557
6	-10.2559
▁auto	-10.2561
▁rent	-10.2562
▁shopping	-10.2564
▁rid	-10.2566
▁divided	-10.2568
▁moon	-10.2572
▁deals	-10.2574
▁schumer	-10.2587
▁youtube	-10.2587
▁kingdom	-10.2587
▁maryland	-10.2588
▁pri	-10.2589
▁collapse	-10.2596
▁ital	-10.2596
▁queens	-10.2597
▁msnbc	-10.2616
ho	-10.2629
▁medal	-10.2646
▁stadium	-10.2646
▁pool	-10.2648
▁phil	-10.2654
▁mall	-10.2664
ine	-10.2667
▁shoot	-10.267
▁adopt	-10.2673
▁hamilton	-10.2676
▁upset	-10.2676
▁feb	-10.2676
▁admit	-10.2682
▁gott	-10.2685
▁exercise	-10.2691
▁click	-10.2705
▁terrible	-10.2708
▁carrier	-10.2709
▁cap	-10.2723
▁explosive	-10.2735
▁nationwide	-10.2736
▁desperate	-10.2736
▁standoff	-10.2737
▁non	-10.2742
▁nobody	-10.2742
▁govern	-10.2746
▁roger	-10.2751
▁confront	-10.2764
▁opioid	-10.2765
▁gray	-10.2776
▁bomber	-10.2784
▁frequent	-10.2795
▁urban	-10.2795
▁massacre	-10.2795
▁destroy	-10.2797
▁ancient	-10.2825
▁loom	-10.2825
kevin	-10.2826
▁worry	-10.283
▁viewers	-10.2836
ey	-10.2853
▁shape	-10.2854
▁kerry	-10.2862
▁ministr	-10.2862
▁priorit	-10.287
▁dan	-10.2872
fer	-10.2873
▁fame	-10.2877
▁gift	-10.2878
▁toll	-10.2882
▁kentuck	-10.2885
▁alert	-10.2886
▁larger	-10.2887
▁route	-10.2901
▁covered	-10.2905
ious	-10.2914
▁snap	-10.2917
▁palestinian	-10.2928
▁todd	-10.2931
▁carrie	-10.294
▁commander	-10.2943
▁crazy	-10.2946
▁swift	-10.2946
▁bottom	-10.2946
▁routine	-10.2946
▁ag	-10.2948
▁flying	-10.2955
▁detroit	-10.2976
▁item	-10.2977
▁kid	-10.2977
▁tale	-10.2985
▁stolen	-10.3016
▁surger	-10.3018
▁occurred	-10.3018
the	-10.3024
▁memorial	-10.3027
▁micro	-10.3032
▁positions	-10.3035
▁client	-10.3038
▁communities	-10.3038
▁islam	-10.3048
▁las	-10.3052
▁clash	-10.3053
▁blog	-10.3059
▁self	-10.3066
▁appoint	-10.3067
▁consequence	-10.3068
▁missouri	-10.3068
tanbu	-10.3068
▁sounds	-10.3072
▁seiz	-10.3097
▁dump	-10.3099
▁circuit	-10.3102
▁harry	-10.3103
▁33	-10.3121
▁yemen	-10.3125
▁ukraine	-10.313
▁index	-10.3133
▁type	-10.3137
▁inter	-10.3144
▁rocket	-10.3146
▁hero	-10.3158
▁deportation	-10.3162
▁fate	-10.3164
▁36	-10.3173
▁urge	-10.3174
▁landmark	-10.3193
▁championship	-10.3193
▁begun	-10.3198
fare	-10.3204
▁marked	-10.3213
▁execution	-10.3213
▁eating	-10.3218
▁viral	-10.3224
mo	-10.3224
▁worldwide	-10.3226
▁carter	-10.3229
▁immediate	-10.3236
▁window	-10.3244
▁alliance	-10.3255
▁dy	-10.3258
▁mac	-10.3268
▁produc	-10.3273
▁caucuse	-10.3276
▁blam	-10.3276
ak	-10.3277
▁extra	-10.3279
▁deadline	-10.329
ial	-10.3293
epa	-10.3301
▁survive	-10.3311
▁sept	-10.332
▁hired	-10.3341
nt	-10.3341
▁active	-10.3342
▁jeb	-10.3351
▁moral	-10.3351
▁restriction	-10.3354
▁bigg	-10.3357
iest	-10.3362
▁spott	-10.3371
▁sad	-10.3373
field	-10.3389
▁eventually	-10.3392
▁terrorists	-10.3393
▁adult	-10.3395
▁pacific	-10.3398
▁charlotte	-10.3413
▁survivor	-10.3416
▁shocking	-10.342
▁attacker	-10.3443
▁davis	-10.3445
▁biden	-10.3452
▁drone	-10.3461
▁manufactur	-10.3469
▁apart	-10.3469
▁manning	-10.3475
▁disappear	-10.3475
▁illino	-10.3478
▁chap	-10.348
▁background	-10.3481
▁penn	-10.3483
▁confidenc	-10.349
▁regional	-10.3491
▁pose	-10.35
▁required	-10.3506
▁crucial	-10.3509
▁franchise	-10.3509
▁kellyanne	-10.351
▁relief	-10.351
▁loved	-10.3515
ga	-10.3525
ir	-10.3525
spread	-10.3529
▁statements	-10.353
▁shouldn	-10.3531
▁tony	-10.3534
▁mary	-10.3535
▁suburb	-10.3539
▁tennessee	-10.3542
▁parade	-10.3542
▁twist	-10.3543
▁laid	-10.3544
▁violation	-10.3544
▁brian	-10.3546
▁visitor	-10.356
▁equity	-10.3565
▁32	-10.3568
▁withdraw	-10.3571
▁vermont	-10.3574
▁option	-10.3575
▁bitter	-10.3575
▁reil	-10.3578
▁mountain	-10.3583
▁shooter	-10.3583
▁produce	-10.3587
▁arab	-10.3595
▁steal	-10.3599
▁tank	-10.3603
ler	-10.3603
▁counts	-10.3604
▁powers	-10.3605
▁surrounding	-10.3609
▁flat	-10.3635
▁cloud	-10.3637
▁marshall	-10.3641
oval	-10.3643
▁province	-10.3643
▁advisor	-10.3649
▁mistake	-10.3656
▁pic	-10.3657
▁gathering	-10.3661
▁recommend	-10.3671
▁striking	-10.3672
▁taiwan	-10.3672
▁attract	-10.3673
▁legislative	-10.3673
▁lie	-10.3679
▁destroyed	-10.368
▁sued	-10.3681
▁advertising	-10.3683
▁penalty	-10.369
▁inquir	-10.3699
▁prisoner	-10.37
▁zucker	-10.3704
▁outcome	-10.3705
▁oak	-10.3706
▁memory	-10.3707
▁limited	-10.3711
▁legend	-10.3737
▁brazilian	-10.3739
▁citizen	-10.3752
▁pos	-10.3763
▁humans	-10.3765
▁disrupt	-10.3767
▁queen	-10.3767
▁feminist	-10.377
▁bronx	-10.377
▁airstrike	-10.377
▁seattle	-10.3771
▁birthday	-10.3771
▁iconic	-10.3773
▁hunt	-10.3774
▁handl	-10.3776
▁literally	-10.3778
▁passing	-10.3785
▁oversee	-10.3801
▁mogul	-10.3803
▁columbia	-10.3805
▁heavily	-10.3808
▁trie	-10.3809
▁liberty	-10.3811
▁justin	-10.3815
▁object	-10.3831
▁weird	-10.3837
▁orange	-10.3837
▁backlash	-10.3837
▁medicine	-10.3838
▁pace	-10.3854
▁climb	-10.3858
older	-10.3859
▁150	-10.3861
ol	-10.3867
▁bizarre	-10.387
▁mississippi	-10.387
▁mainstream	-10.387
▁silver	-10.387
▁negative	-10.3871
▁expansion	-10.3871
hbo	-10.3872
▁airline	-10.3878
stone	-10.3878
▁values	-10.388
▁steven	-10.3881
▁margin	-10.3886
▁bars	-10.3889
▁anchor	-10.3903
▁mcdonald	-10.3904
▁pictures	-10.3904
▁resignation	-10.3905
▁bias	-10.3906
ri	-10.3908
▁militia	-10.3919
▁praise	-10.3923
▁minimum	-10.3937
▁chamber	-10.3937
▁saving	-10.3938
▁link	-10.3939
▁glass	-10.3947
▁strength	-10.3951
▁scrutin	-10.3952
▁advantage	-10.3971
▁gross	-10.3973
▁aside	-10.3975
▁startup	-10.3978
dating	-10.3982
sby	-10.3985
▁argue	-10.3987
▁girlfriend	-10.3997
▁outbreak	-10.4005
▁2005	-10.4006
▁bankruptcy	-10.4008
▁endorse	-10.4014
▁highway	-10.4019
▁cutting	-10.403
▁miller	-10.4031
ization	-10.4032
▁expensive	-10.4038
▁spotlight	-10.4039
▁racism	-10.4039
▁upper	-10.4043
▁circle	-10.4053
at	-10.4058
▁punch	-10.4064
▁recruit	-10.4067
▁resigned	-10.4068
▁column	-10.4072
▁ronald	-10.4072
▁ignor	-10.4072
▁impossible	-10.4073
▁peak	-10.4085
▁deny	-10.409
▁cry	-10.4101
▁pakistan	-10.4102
▁remote	-10.4107
▁merkel	-10.4107
▁comedian	-10.4107
▁deport	-10.4107
▁insurer	-10.4111
▁interfer	-10.4113
▁conviction	-10.4114
▁adam	-10.4114
▁congressman	-10.4116
▁boom	-10.412
▁greater	-10.4123
▁master	-10.4131
▁fat	-10.4132
▁inde	-10.414
▁harvard	-10.4141
▁knowledge	-10.4141
▁direction	-10.4152
▁barr	-10.4156
▁mars	-10.4158
mon	-10.4167
▁harder	-10.4178
▁species	-10.4184
▁pages	-10.4187
▁interests	-10.4188
▁warner	-10.419
▁skin	-10.4193
▁except	-10.4206
▁alive	-10.4208
▁moore	-10.4212
▁rob	-10.422
▁environment	-10.4228
▁ti	-10.4233
▁volunteer	-10.4244
▁commitment	-10.4246
▁edition	-10.4246
▁flights	-10.425
▁porn	-10.4253
▁scientific	-10.4254
▁curb	-10.4264
▁coup	-10.4264
▁partisan	-10.4271
▁mil	-10.4272
▁recovery	-10.4275
▁dow	-10.4276
▁resource	-10.4279
▁trillion	-10.4279
▁edward	-10.4282
▁advisers	-10.4295
▁schedule	-10.4319
▁overall	-10.432
▁wal	-10.432
▁stranger	-10.4323
▁sach	-10.4349
▁wells	-10.4349
▁temperature	-10.4349
▁busy	-10.4354
▁punish	-10.4357
▁infect	-10.4357
day	-10.4367
▁riot	-10.4372
▁taste	-10.4374
▁testing	-10.4375
▁targets	-10.4375
▁laugh	-10.4377
▁48	-10.4377
▁dealing	-10.4379
▁succeed	-10.4384
▁lobby	-10.4385
▁commissioner	-10.4393
▁heads	-10.4397
▁complicated	-10.4404
▁endors	-10.4409
▁pa	-10.4416
▁invest	-10.4418
▁bloomberg	-10.4419
▁babies	-10.442
▁slamm	-10.443
▁libya	-10.4437
cut	-10.4438
▁tighten	-10.4444
▁wish	-10.4446
▁identify	-10.4454
▁drove	-10.4454
▁mosque	-10.4454
▁candidac	-10.4454
▁recount	-10.4455
▁scheme	-10.4457
▁graduate	-10.4464
9	-10.4471
▁empire	-10.449
▁unique	-10.4491
well	-10.4507
either	-10.4511
▁dance	-10.4512
▁douglas	-10.4525
▁journey	-10.4526
▁warrant	-10.4526
▁mere	-10.4531
▁approve	-10.4532
▁arrive	-10.4544
broad	-10.4548
▁ratings	-10.456
▁permanent	-10.4561
▁1980	-10.4561
▁hail	-10.4567
▁euro	-10.4569
trump	-10.4573
points	-10.4577
nd	-10.4578
▁oh	-10.459
▁premier	-10.4594
▁temporarily	-10.4597
▁fierce	-10.4598
▁desk	-10.4598
▁feed	-10.4602
▁witnesse	-10.4613
▁44	-10.4615
▁oppose	-10.4615
▁beating	-10.4618
▁bernardin	-10.4622
▁employer	-10.4629
▁jordan	-10.4632
▁temporar	-10.4633
▁implement	-10.4633
▁encourage	-10.4633
▁breitbart	-10.4639
▁poverty	-10.464
ities	-10.4651
▁silence	-10.4655
▁acknowledg	-10.4656
▁farm	-10.4657
▁mix	-10.4659
▁mc	-10.4664
▁convince	-10.4669
▁tape	-10.467
▁clinic	-10.4675
▁pledg	-10.4683
▁organizations	-10.4688
seas	-10.4699
▁determined	-10.47
▁throne	-10.4706
▁purpose	-10.471
▁mourn	-10.4716
orry	-10.4727
▁necessary	-10.4728
ble	-10.4732
▁phones	-10.4732
▁switch	-10.4736
▁podcast	-10.4742
▁diversity	-10.4742
▁overwhelming	-10.4744
▁takeover	-10.4744
▁chicken	-10.4745
▁playoff	-10.4748
▁interesting	-10.475
▁emissions	-10.4751
▁tapp	-10.4752
▁balance	-10.4752
▁carl	-10.4753
▁sustain	-10.4754
▁remind	-10.4759
▁cat	-10.476
tha	-10.4773
▁funeral	-10.4778
▁revelation	-10.4779
▁islamist	-10.4779
▁economist	-10.478
▁intense	-10.4781
▁independence	-10.4791
▁plus	-10.4796
like	-10.4799
▁fisher	-10.4804
▁length	-10.4815
▁tout	-10.4818
▁collins	-10.4827
▁ok	-10.4838
▁ma	-10.4838
▁shadow	-10.4839
▁sixth	-10.4841
▁categor	-10.4843
▁lab	-10.4846
▁package	-10.4849
▁indict	-10.4849
▁export	-10.4849
▁snapchat	-10.4852
▁vacation	-10.4852
▁transportation	-10.4852
me	-10.4852
▁paint	-10.4854
▁brothers	-10.4857
▁42	-10.486
▁section	-10.4862
▁34	-10.4862
▁height	-10.488
▁judges	-10.4884
▁deploy	-10.4886
▁insider	-10.4887
▁keeps	-10.4892
io	-10.4895
▁getty	-10.4898
▁invit	-10.4906
▁fort	-10.4907
▁tone	-10.4921
▁felon	-10.4925
▁handle	-10.4927
▁rico	-10.4949
▁answers	-10.496
▁lewis	-10.4964
▁populist	-10.4965
▁slam	-10.4972
▁marks	-10.4974
▁shown	-10.4995
gary	-10.4996
▁gen	-10.4997
▁ballistic	-10.5
▁garland	-10.5001
▁jong	-10.5002
▁ruin	-10.5006
▁meal	-10.5009
▁advanc	-10.5011
▁divorce	-10.5013
▁reduc	-10.5016
▁43	-10.502
▁alaska	-10.502
▁zoo	-10.5021
▁closely	-10.5026
▁judicia	-10.503
▁mosquito	-10.5037
▁austin	-10.5037
▁chi	-10.504
▁hint	-10.504
▁berlin	-10.5047
▁explains	-10.505
▁sweet	-10.5053
▁print	-10.5066
▁tpm	-10.5072
▁rifle	-10.5075
▁joseph	-10.5075
▁jimmy	-10.5075
▁mysterious	-10.5076
▁charity	-10.5076
▁surviv	-10.5077
▁replac	-10.5081
▁amazing	-10.5083
▁careful	-10.5083
▁apologize	-10.5091
▁stuck	-10.5092
▁prais	-10.5092
fc	-10.5096
iles	-10.5104
▁presence	-10.5113
▁musk	-10.5113
▁fly	-10.512
▁politically	-10.5127
▁trans	-10.5127
▁alarm	-10.5131
▁shell	-10.5137
▁rice	-10.5142
▁unlike	-10.5143
▁encounter	-10.5144
▁immigrant	-10.5147
▁hidden	-10.5151
▁yellow	-10.5151
▁2007	-10.5152
▁nightmare	-10.5155
▁restrict	-10.5157
soft	-10.5158
errick	-10.5167
▁solid	-10.5189
▁epidemic	-10.5189
▁royal	-10.5191
▁drawing	-10.5203
▁accusations	-10.5213
▁leads	-10.5215
▁uncertaint	-10.5219
hitting	-10.522
▁audio	-10.5225
▁reputation	-10.5227
▁remarkabl	-10.523
▁declare	-10.5231
▁determine	-10.5243
▁accuse	-10.5256
▁stress	-10.5262
▁arkansa	-10.5265
▁pois	-10.5268
▁da	-10.5276
▁theme	-10.5277
▁suffering	-10.5287
▁connecti	-10.5296
▁shake	-10.5301
▁universe	-10.5304
▁acquisition	-10.5304
▁initiative	-10.5304
▁boycott	-10.5304
▁boyfriend	-10.5304
▁pat	-10.531
▁depend	-10.5311
hi	-10.5312
ebus	-10.532
▁surprised	-10.5322
▁pour	-10.5323
▁basha	-10.5324
lin	-10.5325
▁chart	-10.533
▁suspend	-10.5339
▁patrol	-10.5341
▁jon	-10.5344
▁pointed	-10.5348
▁questioned	-10.5353
▁alex	-10.5355
▁metro	-10.5362
hrew	-10.5381
▁promot	-10.5382
▁hopeful	-10.5386
▁inflation	-10.5386
za	-10.5386
▁barrel	-10.5392
▁transform	-10.5393
▁meat	-10.54
▁lying	-10.5402
▁debates	-10.5405
▁sight	-10.5405
▁asian	-10.5415
▁surround	-10.5417
▁calm	-10.5417
▁hawaii	-10.5417
▁beloved	-10.542
▁provider	-10.542
▁strategic	-10.542
▁subscriber	-10.5422
▁susan	-10.5424
▁gate	-10.5424
▁sw	-10.543
▁grown	-10.5443
ate	-10.5447
▁ten	-10.545
▁alcohol	-10.5457
▁terry	-10.5465
▁elder	-10.5466
ties	-10.5466
▁developed	-10.5475
▁odd	-10.5479
▁tend	-10.5479
▁soul	-10.548
▁colombia	-10.5481
▁symbol	-10.5481
▁ross	-10.5485
how	-10.5488
be	-10.5493
▁tehran	-10.5498
▁mitch	-10.5498
opec	-10.5499
▁hiring	-10.5499
▁starr	-10.553
mond	-10.5532
▁lunch	-10.5538
▁cheat	-10.5538
▁missed	-10.5542
▁philippines	-10.5561
lo	-10.5562
▁donors	-10.5567
▁tribe	-10.5573
▁desert	-10.5577
▁retirement	-10.5579
▁thanksgiving	-10.5579
▁demonstration	-10.5579
▁lane	-10.5592
▁oscars	-10.5603
▁jane	-10.5604
▁stance	-10.5605
▁links	-10.5606
▁kain	-10.5613
▁banker	-10.5614
▁proud	-10.5617
▁ugl	-10.5624
▁entry	-10.5628
▁cease	-10.5628
▁38	-10.5632
▁alien	-10.5634
▁chase	-10.5638
▁youth	-10.564
▁wor	-10.5646
gate	-10.5649
care	-10.565
ou	-10.5653
▁bipartisan	-10.5657
▁1990	-10.5657
▁output	-10.5658
▁37	-10.566
▁embrace	-10.5662
▁rod	-10.5663
▁seeming	-10.5664
▁controll	-10.5681
▁mouth	-10.5683
▁pe	-10.5685
ture	-10.5686
▁strip	-10.5692
▁explanation	-10.5697
▁complet	-10.5703
▁writers	-10.5708
▁sees	-10.5715
▁ensure	-10.5715
▁santa	-10.5716
▁soar	-10.5716
▁nationalist	-10.5725
▁ill	-10.573
▁maine	-10.5731
▁license	-10.5731
▁trick	-10.5733
▁newsletter	-10.5737
▁aftermath	-10.5737
▁legislature	-10.5737
▁feud	-10.5737
▁frontrunner	-10.5737
▁puts	-10.5739
▁structure	-10.574
▁xi	-10.5748
▁odds	-10.5748
▁donation	-10.5754
▁assad	-10.5756
▁dylan	-10.5758
▁reader	-10.5766
▁finished	-10.5771
▁nick	-10.5773
▁erupt	-10.5774
▁grocer	-10.5777
▁oversight	-10.5777
▁zero	-10.5777
▁clock	-10.5778
▁partnership	-10.5778
▁otherwise	-10.5778
▁illness	-10.5779
▁galaxy	-10.578
▁everybody	-10.5782
▁habit	-10.5783
▁bold	-10.5785
▁tea	-10.5788
▁prayer	-10.5796
▁tur	-10.58
▁anticipat	-10.5804
▁plea	-10.5807
▁devastating	-10.5812
▁mi	-10.5814
▁announc	-10.5817
▁kremlin	-10.5818
▁predecessor	-10.5818
▁pounds	-10.5822
▁fought	-10.5823
▁extraordinary	-10.5824
▁scale	-10.5828
▁myself	-10.5838
▁litera	-10.5842
▁inform	-10.5844
ig	-10.5848
▁earned	-10.5849
half	-10.5853
▁ignore	-10.5858
▁interior	-10.5858
▁talib	-10.5859
▁operator	-10.5861
▁icon	-10.587
der	-10.5873
ad	-10.5875
▁breach	-10.5876
▁promising	-10.5884
▁pursue	-10.5897
▁undocumented	-10.5899
▁departure	-10.5899
▁waters	-10.5901
▁reverse	-10.5931
▁anxiet	-10.594
▁religion	-10.594
▁qatar	-10.594
▁shelter	-10.594
▁notorious	-10.594
▁gulf	-10.594
▁madison	-10.594
▁rumor	-10.5941
▁robber	-10.5953
▁bull	-10.5959
ter	-10.5959
▁tackle	-10.5962
▁plays	-10.5968
▁rating	-10.5973
▁auction	-10.5981
▁http	-10.5981
rich	-10.5984
▁mitt	-10.5987
▁developer	-10.6002
▁minor	-10.6005
▁estimat	-10.6008
▁tournament	-10.6022
▁patrick	-10.6023
▁warming	-10.6023
▁gear	-10.6025
▁covering	-10.6029
▁creator	-10.603
▁soldier	-10.6031
▁mon	-10.6038
▁meaning	-10.6048
▁grab	-10.6063
▁earthquake	-10.6064
▁privilege	-10.6072
win	-10.6076
body	-10.6078
▁stall	-10.6082
▁khan	-10.6084
▁grass	-10.6097
▁regret	-10.6105
▁aaron	-10.6106
▁corps	-10.6115
and	-10.6115
▁tiger	-10.6118
▁bell	-10.6124
▁arena	-10.6126
▁disturbing	-10.6128
ina	-10.6133
▁39	-10.6137
▁wine	-10.6141
▁automaker	-10.6148
▁narrative	-10.6148
▁kei	-10.6149
▁impos	-10.6153
▁hang	-10.6159
▁travelers	-10.6167
▁del	-10.6171
nger	-10.6174
▁dominat	-10.618
▁explore	-10.6181
▁pot	-10.6184
▁verizon	-10.619
▁recording	-10.6198
nancy	-10.6204
▁hello	-10.6204
▁promote	-10.6216
▁clothes	-10.6218
▁phrase	-10.6232
▁jerry	-10.6232
▁guys	-10.6232
▁chef	-10.6232
▁iron	-10.6233
▁loud	-10.6235
▁accord	-10.6239
▁socialist	-10.624
▁tool	-10.624
▁bee	-10.6241
▁graham	-10.6249
▁violated	-10.6253
▁pok	-10.6262
diego	-10.6267
▁teams	-10.6272
▁conclusion	-10.6274
▁politico	-10.6276
▁sever	-10.6277
ha	-10.6278
▁65	-10.628
▁rangers	-10.628
ran	-10.6281
▁spin	-10.6298
▁insult	-10.6299
▁slash	-10.6302
▁viacom	-10.6317
▁engag	-10.6319
▁parking	-10.6319
▁prior	-10.6323
▁buyer	-10.6323
▁jew	-10.6327
▁meddl	-10.6335
▁renewed	-10.6337
▁organiz	-10.6348
terte	-10.6358
▁influential	-10.6359
▁unknown	-10.636
▁fidel	-10.6361
▁infection	-10.6364
▁lynch	-10.6366
▁emerg	-10.6371
▁regulation	-10.6373
▁repeat	-10.6376
▁milk	-10.6378
house	-10.6383
▁rigged	-10.6391
▁swor	-10.6392
▁kurdish	-10.6403
▁recession	-10.6404
▁strategist	-10.6404
▁nunes	-10.6406
▁receiv	-10.6407
▁everywhere	-10.641
▁pride	-10.6411
ept	-10.6415
▁basis	-10.6419
▁commerc	-10.6419
▁greg	-10.6423
▁neck	-10.6426
▁hung	-10.643
ese	-10.6436
▁dust	-10.6438
▁alleg	-10.644
▁epic	-10.6445
▁error	-10.6446
▁offense	-10.6446
long	-10.6447
▁crown	-10.6455
▁chant	-10.6462
▁shareholders	-10.6478
▁transfer	-10.648
▁teenage	-10.6486
▁artificial	-10.6489
▁pundit	-10.6489
▁kitchen	-10.6489
▁erdogan	-10.6489
▁jazz	-10.6489
▁speculation	-10.6489
▁anonymous	-10.6489
▁finger	-10.6492
ger	-10.6496
▁ease	-10.6507
▁apply	-10.6512
▁ally	-10.6517
▁monument	-10.6521
▁fiscal	-10.6532
▁shots	-10.6538
▁custom	-10.6539
▁testify	-10.6541
▁boeing	-10.6544
▁howard	-10.6552
▁blind	-10.6563
▁locat	-10.6566
▁tap	-10.6571
▁chancellor	-10.6576
▁2000	-10.6576
▁gawker	-10.6576
▁detective	-10.6577
▁settled	-10.6577
▁elli	-10.6586
▁variet	-10.6591
▁motor	-10.6599
▁beyonc	-10.6603
head	-10.6609
sburg	-10.662
▁jerusalem	-10.662
▁endanger	-10.662
▁impeachment	-10.6621
▁sensitiv	-10.6625
▁hospitals	-10.6625
▁belong	-10.6631
bot	-10.6639
▁guid	-10.665
▁steel	-10.6652
▁genetic	-10.6663
▁spirit	-10.6664
▁corporation	-10.6664
▁vietnam	-10.6664
▁forgot	-10.6664
em	-10.6665
▁tragedy	-10.667
▁participat	-10.667
▁plastic	-10.6671
▁ramp	-10.668
▁forest	-10.6684
▁hoped	-10.6704
▁worrie	-10.6705
▁explode	-10.6708
▁agricultur	-10.6709
▁addiction	-10.671
▁emerge	-10.6711
▁baton	-10.6714
▁taylor	-10.6715
▁saved	-10.6717
▁salt	-10.672
▁colin	-10.6721
▁disclosure	-10.6723
▁numero	-10.6724
▁skill	-10.6726
▁observer	-10.6729
ni	-10.6734
▁equal	-10.6737
▁latin	-10.6738
▁ta	-10.6739
▁sam	-10.6749
▁equip	-10.6751
▁childhood	-10.6754
▁guess	-10.6754
▁redstone	-10.6754
▁publication	-10.6773
▁troubled	-10.6773
▁motion	-10.6793
▁experiment	-10.6794
▁furious	-10.6797
▁nobel	-10.6797
▁fault	-10.6797
▁tennis	-10.6798
▁legendary	-10.6798
▁editorial	-10.6799
▁profile	-10.6801
▁orbit	-10.6801
▁ray	-10.6813
▁mixed	-10.6814
while	-10.6821
▁stein	-10.6829
▁exposed	-10.6831
▁heroin	-10.6838
▁matti	-10.684
▁confident	-10.6842
▁ambitious	-10.6842
▁harsh	-10.6842
▁ny	-10.6844
▁appointment	-10.6846
▁arrival	-10.6852
▁shark	-10.6854
lan	-10.6857
▁consistent	-10.6861
ade	-10.6868
▁cooper	-10.6868
▁christians	-10.687
▁vs	-10.687
▁smoke	-10.6871
▁buzz	-10.6879
▁awkward	-10.6887
▁funny	-10.6887
▁palin	-10.6889
▁shak	-10.689
▁scor	-10.6893
▁injur	-10.6899
▁cha	-10.6901
▁revive	-10.6902
▁disclose	-10.691
▁gm	-10.6916
▁41	-10.6927
▁fundamental	-10.6931
▁concluded	-10.6932
▁challenging	-10.6932
▁procedure	-10.6932
ut	-10.6935
▁lad	-10.6952
▁wel	-10.6953
work	-10.6956
▁addition	-10.6965
▁sand	-10.6978
▁stronghold	-10.6978
▁2001	-10.6979
▁anthem	-10.698
▁troll	-10.6985
▁contender	-10.6995
▁dragg	-10.6995
▁flash	-10.6995
mart	-10.7005
▁lo	-10.7011
▁drawn	-10.7013
yahu	-10.7013
▁tears	-10.7023
▁abrupt	-10.7023
▁bundy	-10.7023
▁shap	-10.7033
▁improv	-10.7034
▁technical	-10.7069
▁folks	-10.707
▁bone	-10.7076
▁55	-10.7077
▁understanding	-10.7077
▁crush	-10.7079
▁steady	-10.7079
▁baker	-10.7086
ah	-10.7093
▁bet	-10.7098
angela	-10.7102
▁ro	-10.711
▁knife	-10.7115
▁x	-10.7117
▁minute	-10.7117
▁intel	-10.7118
▁craft	-10.7119
▁percentage	-10.7134
▁foods	-10.7139
ster	-10.7148
▁slipp	-10.7148
▁hire	-10.7149
▁scenes	-10.7153
▁mandate	-10.7159
▁fantasy	-10.7162
▁unleash	-10.7162
▁spanish	-10.7162
▁forever	-10.7164
▁constant	-10.7164
▁peaceful	-10.7164
▁quote	-10.7167
▁wheel	-10.7168
▁academic	-10.7172
▁sum	-10.7173
cc	-10.7192
rd	-10.7195
▁52	-10.72
▁divide	-10.7203
▁orleans	-10.7208
▁eager	-10.7208
▁delegate	-10.721
▁indicat	-10.7214
▁complain	-10.7231
yong	-10.7233
▁lincoln	-10.7255
▁empty	-10.7255
▁dubb	-10.7255
▁drill	-10.7256
▁suffer	-10.7259
▁hostage	-10.7262
▁ken	-10.7274
▁47	-10.7297
▁realize	-10.7298
▁breakfast	-10.7302
▁1970	-10.7302
▁rouge	-10.7302
▁comeback	-10.7306
erling	-10.7325
▁broker	-10.7337
ul	-10.7345
▁wreck	-10.7349
▁load	-10.735
▁anymore	-10.7352
▁mock	-10.7361
▁inaugura	-10.7363
bi	-10.7364
▁reference	-10.7373
▁bo	-10.7379
▁float	-10.7381
▁fiction	-10.7384
▁allen	-10.7392
▁premium	-10.7396
▁strict	-10.7396
▁unanimous	-10.7396
▁taxpayer	-10.7397
▁principal	-10.7397
▁rage	-10.7403
▁securities	-10.7404
▁600	-10.7407
▁tear	-10.7419
▁defin	-10.7434
▁shore	-10.7435
dale	-10.7442
▁doors	-10.7444
▁pittsburgh	-10.7444
▁dutch	-10.7444
▁combin	-10.7447
▁household	-10.7448
▁mu	-10.7448
▁requirement	-10.745
▁mail	-10.746
▁sweden	-10.7461
▁pad	-10.7463
▁customer	-10.7465
▁dem	-10.7466
▁teens	-10.747
▁pac	-10.7475
▁proof	-10.7477
▁horn	-10.7479
▁53	-10.748
▁christoph	-10.7492
▁hispanic	-10.7492
▁depression	-10.7493
▁portland	-10.7494
▁eliminate	-10.7494
▁46	-10.7501
▁contribut	-10.7509
▁elon	-10.7516
▁joy	-10.7517
▁accidental	-10.7518
ci	-10.7521
▁react	-10.7536
▁abus	-10.7538
▁disorder	-10.754
▁cellphone	-10.754
▁permission	-10.754
▁hitler	-10.7544
▁cohen	-10.7544
▁doom	-10.7545
▁activities	-10.7552
▁delivery	-10.7555
▁wire	-10.7559
▁fruit	-10.7571
ti	-10.7571
▁burst	-10.7573
▁lord	-10.7579
▁bird	-10.758
▁harris	-10.7582
iro	-10.7587
▁slave	-10.7587
▁satellite	-10.7588
▁tribute	-10.7588
▁apolog	-10.7598
▁painting	-10.7601
▁smash	-10.7606
▁pink	-10.7609
kong	-10.7629
▁listening	-10.7631
▁colbert	-10.7637
▁denver	-10.7637
▁captain	-10.7637
▁shutdown	-10.7637
▁smile	-10.7638
▁2004	-10.7638
▁pattern	-10.764
▁nazi	-10.7652
▁continent	-10.7659
▁sets	-10.7672
▁bombs	-10.7673
▁enemy	-10.768
▁nin	-10.7684
quality	-10.7685
▁emmanuel	-10.7686
▁sanctuar	-10.7686
▁grabb	-10.7688
▁contractor	-10.7693
▁toxic	-10.7712
ting	-10.7719
▁undermine	-10.7722
ps	-10.7728
▁denie	-10.7731
▁unfortunate	-10.7735
▁desire	-10.7735
▁alt	-10.7742
▁creative	-10.7743
▁fortune	-10.7745
▁personalit	-10.7756
▁ku	-10.7765
▁torture	-10.7777
▁forum	-10.7779
▁librar	-10.7783
▁detention	-10.7784
▁antonio	-10.7785
▁jihadist	-10.7786
▁cards	-10.7799
▁lowest	-10.78
▁commentar	-10.7818
▁51	-10.7825
▁follower	-10.7829
▁rand	-10.7833
▁application	-10.7833
▁serial	-10.7834
sky	-10.7839
ted	-10.7844
signed	-10.7858
ility	-10.7858
▁roads	-10.7858
▁fields	-10.7866
▁knock	-10.7873
▁latino	-10.7877
▁farmers	-10.7879
▁pioneer	-10.7883
▁enormous	-10.7883
▁naked	-10.7883
▁crackdown	-10.7883
▁morgan	-10.7883
ball	-10.7894
▁bald	-10.7899
▁waste	-10.7908
hood	-10.7909
▁math	-10.791
ves	-10.791
▁fundrais	-10.7911
im	-10.7912
▁ra	-10.7921
▁utter	-10.7931
▁57	-10.7933
▁manafort	-10.7933
▁essay	-10.7934
▁bbc	-10.7934
▁barrier	-10.7934
▁secrets	-10.7939
ean	-10.7949
▁arts	-10.7949
▁assembly	-10.796
▁selection	-10.7984
▁vital	-10.7985
▁roundup	-10.7986
▁1.	-10.7994
▁hid	-10.8006
▁restore	-10.8009
▁manufacturer	-10.801
▁strengthen	-10.8013
▁resolve	-10.8015
▁loose	-10.8017
▁nominate	-10.8021
ke	-10.8028
▁terminal	-10.8034
▁brilliant	-10.8034
▁larry	-10.8034
▁battleground	-10.8035
▁sailor	-10.8036
▁lease	-10.8046
▁yield	-10.8047
▁jose	-10.8048
▁dean	-10.8049
▁burning	-10.805
▁oct	-10.8053
▁dur	-10.8054
▁revolutionar	-10.8062
▁permit	-10.8064
▁veto	-10.8066
▁negotiat	-10.8073
▁emba	-10.8074
▁leaks	-10.8076
▁panic	-10.8083
▁infant	-10.8083
▁propaganda	-10.8085
▁shield	-10.8085
▁watchdog	-10.8085
▁stump	-10.8085
ba	-10.8085
▁columnist	-10.8086
▁showdown	-10.8088
▁occasional	-10.8089
▁firefighter	-10.8093
▁historical	-10.8096
▁fled	-10.8097
▁await	-10.811
▁woods	-10.8111
▁jenni	-10.8117
▁battery	-10.8117
▁escalat	-10.812
▁burger	-10.8122
▁actors	-10.8126
▁op	-10.8126
▁weaken	-10.8128
▁clip	-10.8131
▁occasion	-10.8131
▁portrait	-10.8136
▁silent	-10.8136
▁phase	-10.8136
▁celebrit	-10.8138
▁modest	-10.8139
▁impose	-10.8139
ify	-10.8147
▁experienc	-10.8149
▁creation	-10.8151
▁dropping	-10.8155
▁engine	-10.8158
▁din	-10.8159
▁resume	-10.8162
▁lit	-10.8163
ttled	-10.8173
ox	-10.8184
▁baghdad	-10.8187
▁deficit	-10.8187
▁pizza	-10.8187
▁harve	-10.8187
memo	-10.8196
▁mine	-10.8203
era	-10.8209
▁hong	-10.8219
▁shout	-10.8222
▁gig	-10.8224
▁fires	-10.8225
embassy	-10.8234
▁stark	-10.8237
▁trader	-10.8237
▁suspension	-10.8238
▁chapter	-10.8239
▁southeast	-10.8239
han	-10.8241
itarian	-10.8242
pp	-10.8242
▁circulat	-10.8244
▁54	-10.8246
▁charter	-10.8259
▁clothing	-10.8264
▁angel	-10.8266
que	-10.8273
▁par	-10.8274
▁compete	-10.8283
election	-10.8289
▁transcript	-10.829
▁evil	-10.829
▁opposite	-10.829
▁monster	-10.8291
▁2006	-10.8291
▁mood	-10.8293
ow	-10.8298
▁66	-10.8302
▁conventional	-10.8304
▁bin	-10.8308
atlantic	-10.832
▁appropriate	-10.8323
▁battl	-10.8324
▁venture	-10.833
▁oust	-10.8335
aught	-10.8335
▁celebration	-10.8335
▁spill	-10.8342
▁helicopter	-10.8342
▁trash	-10.8342
▁grill	-10.8343
▁omar	-10.8344
▁rang	-10.8344
▁successor	-10.8346
▁bloody	-10.835
▁statistic	-10.8354
▁magic	-10.8355
▁aware	-10.8365
▁humanity	-10.8369
▁boast	-10.8378
▁judicial	-10.8382
▁transport	-10.8394
▁triumph	-10.8394
▁infamous	-10.8395
▁1960	-10.8395
▁bound	-10.8398
moil	-10.8399
▁install	-10.8401
▁echo	-10.8402
▁goals	-10.8404
▁jokes	-10.8406
held	-10.8412
armed	-10.8417
▁warriors	-10.8418
▁vulnerab	-10.8425
▁herita	-10.8427
11	-10.843
▁metal	-10.8434
▁retreat	-10.8447
▁uniform	-10.8447
▁ridiculous	-10.8447
▁definite	-10.8447
▁duke	-10.8448
▁outlook	-10.8449
▁johnny	-10.845
lain	-10.845
▁honest	-10.845
▁suburban	-10.8451
▁ordinary	-10.8451
▁vaccine	-10.8459
▁inevitabl	-10.8459
▁maduro	-10.8467
▁lights	-10.8478
what	-10.8483
▁meme	-10.8485
▁clue	-10.8488
▁56	-10.8494
▁violate	-10.8495
▁bachelor	-10.85
▁megyn	-10.85
▁instant	-10.85
▁pension	-10.85
▁pile	-10.8501
▁flaw	-10.8505
▁burn	-10.8506
▁belt	-10.8506
▁collapsed	-10.8508
▁provision	-10.8513
▁windows	-10.852
▁lett	-10.8529
▁violat	-10.8532
▁commentator	-10.8554
▁mansion	-10.8557
▁hat	-10.8567
▁rail	-10.8577
▁commit	-10.8581
▁lu	-10.8592
▁flower	-10.8599
▁hanging	-10.86
▁disagree	-10.8604
▁filibuster	-10.8607
▁intellectual	-10.8607
▁confrontation	-10.8609
▁norm	-10.8613
▁85	-10.8617
▁charlesto	-10.8619
▁unclea	-10.8625
▁spreading	-10.8632
▁jean	-10.8633
▁universal	-10.8638
▁tactics	-10.8646
▁dick	-10.8648
▁drag	-10.8651
▁descend	-10.866
▁fossil	-10.8661
▁alexander	-10.8661
▁landscape	-10.8661
▁workplace	-10.8663
▁demonstrator	-10.8663
▁connected	-10.8667
▁organizers	-10.8668
jury	-10.867
▁peer	-10.8676
▁models	-10.8678
ical	-10.8683
▁lifetime	-10.8686
▁stronger	-10.8687
▁ko	-10.8691
▁jewel	-10.8692
▁shirt	-10.87
▁indicate	-10.8701
conduct	-10.8704
▁employment	-10.8705
▁kaepernick	-10.8715
▁grace	-10.8715
▁premiere	-10.872
▁rein	-10.872
▁realiz	-10.8721
▁portion	-10.8723
▁holo	-10.8724
▁operate	-10.8729
▁dig	-10.8732
no	-10.8733
ett	-10.8733
mi	-10.8745
▁59	-10.8751
yang	-10.876
fe	-10.876
▁prohibit	-10.8766
▁phoeni	-10.8769
▁bunch	-10.8769
▁sprawl	-10.877
▁operative	-10.8771
▁connect	-10.8771
▁jonath	-10.8774
▁tired	-10.8774
▁carbon	-10.8775
▁allege	-10.8779
ill	-10.8786
ground	-10.8806
▁stabb	-10.8813
▁asylum	-10.8824
▁nonprofit	-10.8824
▁sudan	-10.8824
▁weiner	-10.8824
▁greek	-10.8824
▁rapper	-10.8828
▁branch	-10.883
▁supplie	-10.8831
▁noah	-10.8835
▁beer	-10.8849
▁plung	-10.8854
flew	-10.8855
▁launche	-10.8856
▁scrambl	-10.8861
▁cream	-10.8867
▁99	-10.8868
▁marvel	-10.8878
▁arctic	-10.8879
▁memoir	-10.8879
▁diverse	-10.888
oo	-10.8881
ington	-10.8884
sistance	-10.8887
▁deadlie	-10.889
▁jo	-10.8896
▁bruc	-10.8904
▁250	-10.8905
ize	-10.8906
▁southwest	-10.8911
▁opt	-10.8914
lb	-10.8921
▁ipo	-10.8927
▁benjamin	-10.8934
▁zillow	-10.8934
▁greece	-10.8934
▁clark	-10.8934
▁tunnel	-10.8934
▁wisdom	-10.8934
▁bedroom	-10.8934
▁hampton	-10.8934
▁painful	-10.8936
▁passage	-10.8937
▁swed	-10.894
▁universit	-10.894
▁enem	-10.8943
▁quest	-10.8946
▁anderson	-10.8947
deau	-10.8952
air	-10.8952
▁fence	-10.8953
▁nasty	-10.8956
▁walker	-10.8958
▁ron	-10.8969
▁grave	-10.8971
hogan	-10.8971
▁tay	-10.8973
▁cruise	-10.8975
▁transit	-10.8987
▁caution	-10.8989
▁verdict	-10.8989
▁pulse	-10.8989
▁harbor	-10.899
▁excuse	-10.899
▁cooperation	-10.8991
▁indictment	-10.8993
▁punishment	-10.8994
▁collective	-10.8997
▁plain	-10.9
▁ga	-10.9001
▁courtes	-10.9004
bn	-10.902
▁escap	-10.9024
more	-10.9024
▁seize	-10.9024
▁preliminar	-10.9045
▁exploit	-10.9045
▁melissa	-10.9045
▁dawn	-10.9048
▁pieces	-10.9049
▁trailer	-10.9051
▁statue	-10.9053
caust	-10.9056
▁root	-10.9056
▁dominate	-10.9062
▁bottle	-10.9071
▁recognize	-10.9074
▁seventh	-10.9074
port	-10.9075
▁mile	-10.9081
▁context	-10.9101
▁tenure	-10.9102
▁assessment	-10.9104
▁id	-10.9105
▁pregnancy	-10.9109
▁hostil	-10.9109
emer	-10.9114
▁shareholder	-10.9115
▁repair	-10.9119
▁heels	-10.9127
▁henry	-10.9128
▁define	-10.9131
▁hunting	-10.9134
ap	-10.9137
▁perry	-10.9137
▁gag	-10.9152
▁shrink	-10.9158
▁nixon	-10.916
▁wildfire	-10.916
▁insight	-10.916
▁eligib	-10.9162
▁prescription	-10.9163
▁glenn	-10.9165
▁killings	-10.9167
▁soviet	-10.9169
un	-10.9175
▁explor	-10.9179
▁earn	-10.9183
waukee	-10.9189
▁winds	-10.9189
▁suggestion	-10.9192
hazi	-10.9197
▁max	-10.9213
▁genius	-10.9215
▁accurate	-10.9215
▁hook	-10.9215
▁contentious	-10.9216
▁belgian	-10.9217
▁firearms	-10.9217
▁springs	-10.9219
▁murra	-10.9224
▁thin	-10.9224
▁partial	-10.9224
▁eli	-10.9224
▁kate	-10.9226
ex	-10.9227
▁soda	-10.9236
▁testifie	-10.926
▁muhammad	-10.9272
▁thompson	-10.9272
▁jeffrey	-10.9272
▁eagle	-10.9272
▁montana	-10.9272
▁cameron	-10.9274
▁intention	-10.9274
▁pharmaceutical	-10.9275
▁gut	-10.9278
▁q	-10.928
▁user	-10.9287
▁sp	-10.9287
▁banner	-10.9288
▁beef	-10.9295
▁buri	-10.9295
▁drunk	-10.9309
▁ave	-10.931
▁wrapp	-10.9312
▁amy	-10.9313
▁bow	-10.9325
▁extensive	-10.9329
▁laptop	-10.9329
▁solve	-10.9331
▁borders	-10.9333
▁chip	-10.9333
▁afra	-10.9337
:30	-10.9345
▁tall	-10.9346
▁pet	-10.9355
▁recogniz	-10.9358
▁solo	-10.936
▁compet	-10.9364
▁grounds	-10.9364
▁har	-10.9377
▁beng	-10.9378
▁rome	-10.9378
▁hale	-10.9381
▁trapp	-10.9387
▁admission	-10.9387
▁homicide	-10.9387
▁nervous	-10.9387
▁dedicat	-10.9387
▁gym	-10.9388
▁defi	-10.9392
▁oliver	-10.9393
▁coordinat	-10.9397
▁mari	-10.9401
▁prediction	-10.9401
▁landing	-10.9406
▁nas	-10.9412
point	-10.9415
pain	-10.9427
ent	-10.9428
▁bribe	-10.9435
▁brands	-10.9438
▁substantial	-10.9445
▁guidelines	-10.9445
▁seoul	-10.9445
▁swiss	-10.9445
▁awful	-10.9446
▁800	-10.9446
▁scar	-10.9446
▁911	-10.9447
ories	-10.9454
▁achievement	-10.9457
▁toronto	-10.946
▁deliberate	-10.9465
▁michel	-10.9465
▁cheese	-10.9479
▁simpson	-10.9504
▁casino	-10.9504
▁saint	-10.9504
▁charlie	-10.9504
▁foster	-10.9504
led	-10.9508
▁tomorrow	-10.9513
▁acquire	-10.9513
▁shi	-10.9525
li	-10.9533
▁disclos	-10.9538
▁abe	-10.9538
▁edit	-10.954
▁detect	-10.9545
▁crossing	-10.9556
▁tools	-10.9561
▁greet	-10.9561
▁marathon	-10.9563
▁perspective	-10.9563
▁podesta	-10.9563
▁revenge	-10.9563
▁zealand	-10.9563
▁slump	-10.9563
▁random	-10.9563
▁toddler	-10.9563
▁northeast	-10.9564
▁innocent	-10.9564
wear	-10.9565
▁outsider	-10.9565
▁ha	-10.9569
▁ghost	-10.9573
water	-10.9577
pped	-10.9577
▁bail	-10.9578
▁marking	-10.9579
kyo	-10.9588
▁knee	-10.9598
▁bat	-10.9603
▁shoes	-10.9606
▁thu	-10.9611
▁distance	-10.9622
▁trauma	-10.9622
▁2003	-10.9623
▁poison	-10.963
▁700	-10.9631
▁monet	-10.9631
▁bash	-10.9633
▁bully	-10.9634
uchin	-10.9637
▁horse	-10.9638
▁stabbing	-10.9641
ek	-10.9642
0	-10.9642
▁84	-10.9646
▁bench	-10.9649
▁ba	-10.965
▁easter	-10.9651
▁strain	-10.9662
▁propose	-10.9663
po	-10.967
▁forth	-10.9675
▁freeze	-10.9676
▁depict	-10.9677
▁freak	-10.968
▁script	-10.9681
▁astronaut	-10.9681
▁tattoo	-10.9681
▁bolster	-10.9681
▁counterpart	-10.9682
▁contrast	-10.9682
▁creature	-10.9682
▁speaks	-10.9684
▁crowds	-10.9701
▁fulfill	-10.9702
▁hills	-10.9707
▁sole	-10.9709
▁screening	-10.9718
equality	-10.9719
▁signing	-10.9723
unnam	-10.9728
▁spike	-10.9732
▁tense	-10.9735
▁evan	-10.9736
▁pocket	-10.9741
▁unpopular	-10.9741
worth	-10.9741
▁burned	-10.9744
▁courtroom	-10.9745
▁thai	-10.9747
▁historically	-10.9747
▁dar	-10.9754
di	-10.9762
oc	-10.9766
▁rely	-10.9769
▁teach	-10.9786
▁revised	-10.9787
▁surg	-10.9793
tv	-10.9798
▁sentiment	-10.9798
▁cow	-10.98
▁dreams	-10.9801
▁explicit	-10.9801
▁streak	-10.9802
▁medicare	-10.9802
▁petition	-10.9802
▁patent	-10.9802
▁buffett	-10.9803
▁dispatch	-10.9803
▁frozen	-10.9803
ison	-10.9805
▁seed	-10.9805
top	-10.9811
▁denounc	-10.9812
▁beneath	-10.9812
▁wash	-10.9815
▁damaged	-10.9817
▁rat	-10.9828
▁venue	-10.9831
reid	-10.984
▁duty	-10.9841
▁consensus	-10.9848
blew	-10.9848
om	-10.9858
▁squad	-10.9862
▁alphabet	-10.9862
▁substance	-10.9862
▁ireland	-10.9862
▁wiretapp	-10.9863
▁urgent	-10.9863
▁egyptian	-10.9863
▁recommendation	-10.9864
▁membership	-10.9865
bean	-10.9884
▁appli	-10.9884
▁dirty	-10.989
▁incredible	-10.9892
▁reminder	-10.9895
iii	-10.9898
▁dictator	-10.9899
▁correspondents	-10.99
▁intervention	-10.9904
▁stor	-10.9906
▁nose	-10.9907
▁grade	-10.9912
▁kath	-10.9914
▁realtor	-10.9923
▁bombings	-10.9923
▁spokesperson	-10.9923
▁confidential	-10.9923
▁hudson	-10.9923
▁nurse	-10.9926
ko	-10.993
▁sub	-10.9931
▁hawk	-10.9936
▁deutsche	-10.994
▁barring	-10.9944
▁dna	-10.9945
▁robb	-10.9947
▁bump	-10.9959
▁generat	-10.9962
▁corrupt	-10.9982
▁damn	-10.9984
▁bangladesh	-10.9984
▁defensive	-10.9984
▁glimpse	-10.9984
▁ideological	-10.9984
▁consent	-10.9984
▁irish	-10.9984
▁leonard	-10.9985
▁2020	-10.9986
▁loves	-10.9994
▁maria	-11.0008
▁dam	-11.0024
▁traffick	-11.0024
▁propert	-11.0026
▁breast	-11.0029
ua	-11.0029
▁mich	-11.0036
▁participate	-11.0038
▁starbucks	-11.0046
▁rachel	-11.0046
▁hulk	-11.0046
▁apologiz	-11.0046
▁defender	-11.0047
▁setback	-11.0052
▁duck	-11.0053
▁cubs	-11.0055
▁grip	-11.006
▁pit	-11.0076
▁shoulder	-11.0077
▁bi	-11.0086
▁phenomen	-11.009
▁method	-11.0091
ated	-11.0097
▁blocks	-11.0098
▁gu	-11.0098
▁portray	-11.0105
▁ambition	-11.0108
▁compound	-11.0108
▁mask	-11.0109
▁carib	-11.0112
▁indication	-11.0113
▁circumstances	-11.0145
▁ditch	-11.0149
▁lucky	-11.0155
ev	-11.0156
▁superhero	-11.0161
▁embrac	-11.0162
▁disabl	-11.0166
ible	-11.0167
▁derail	-11.0169
▁volkswag	-11.0171
▁segment	-11.0171
▁volatil	-11.0171
▁labour	-11.0171
▁delta	-11.0172
▁tampa	-11.0175
▁drought	-11.0175
▁swimmer	-11.0177
▁62	-11.0179
▁residence	-11.0182
▁competitive	-11.0185
▁opportunities	-11.0193
yip	-11.0193
▁function	-11.0194
ft	-11.0203
▁graphic	-11.0205
ver	-11.0205
▁lind	-11.0212
▁equality	-11.0213
▁stole	-11.022
ck	-11.022
▁pi	-11.0224
▁optimis	-11.0227
▁industri	-11.023
▁blunt	-11.0234
▁arsenal	-11.0234
▁legislator	-11.0234
▁ideal	-11.0237
▁exception	-11.0238
▁terrifying	-11.0239
▁shortage	-11.0242
▁pact	-11.0243
▁legally	-11.0253
▁scot	-11.0255
let	-11.026
▁plunge	-11.0262
▁danc	-11.0262
▁nsa	-11.0262
ova	-11.0263
▁columb	-11.0271
▁roles	-11.0283
▁roman	-11.0286
▁concept	-11.0291
▁addict	-11.0294
▁wolf	-11.0295
▁divisive	-11.0297
▁ferguson	-11.0297
▁kardashian	-11.0297
▁mccarthy	-11.0297
▁destruction	-11.0297
▁inappropriate	-11.0297
▁jerem	-11.0297
▁classroom	-11.0298
▁dave	-11.0298
▁jill	-11.0299
▁employ	-11.0301
▁julian	-11.0302
▁steam	-11.0305
▁sideline	-11.0305
▁consideration	-11.0309
some	-11.0314
▁damag	-11.0327
,000	-11.0332
▁dumb	-11.0337
▁requir	-11.0337
of	-11.0341
▁des	-11.0343
erson	-11.0351
▁affiliate	-11.0353
▁intent	-11.0357
▁exec	-11.0361
▁apps	-11.0361
▁teeth	-11.0362
▁musician	-11.0362
▁rampage	-11.0362
▁guzm	-11.0362
kin	-11.037
▁hometown	-11.038
▁pal	-11.0383
▁fleet	-11.0386
▁disappointing	-11.0391
▁turner	-11.0393
▁widen	-11.0397
▁dis	-11.0402
▁span	-11.0417
ette	-11.0417
▁mueller	-11.0425
▁bitcoin	-11.0425
▁steep	-11.0425
▁inspector	-11.0425
▁unlock	-11.0426
▁sha	-11.0429
▁volume	-11.043
▁plate	-11.0432
▁proceed	-11.0433
▁devastat	-11.0434
▁sink	-11.0435
▁devoted	-11.0436
▁mn	-11.0439
▁nominations	-11.0442
▁minds	-11.0448
▁rocky	-11.0448
daq	-11.0448
▁alter	-11.0449
▁tune	-11.0449
ac	-11.045
▁rac	-11.0455
▁diagnos	-11.0461
▁simon	-11.0467
nati	-11.0477
▁kiss	-11.0484
▁popp	-11.0487
assange	-11.0488
▁rousseff	-11.0489
▁jesus	-11.0489
▁palace	-11.0489
▁grim	-11.0489
▁communist	-11.049
▁bryan	-11.0491
▁bible	-11.0492
▁expose	-11.0493
▁smell	-11.0494
▁enact	-11.0496
▁guards	-11.0521
▁barry	-11.0525
▁gar	-11.0526
▁deepen	-11.0529
▁wade	-11.0535
▁egg	-11.0536
com	-11.0536
▁rant	-11.0539
▁assistance	-11.0541
cast	-11.0545
selves	-11.0548
▁aug	-11.0549
con	-11.0549
pe	-11.0553
▁chaffe	-11.0554
▁transaction	-11.0554
▁comparison	-11.0554
▁sidewalk	-11.0555
▁prosecution	-11.0555
▁overlook	-11.0556
▁pursu	-11.0557
▁precise	-11.056
▁contribution	-11.0561
▁correction	-11.0563
ov	-11.0564
▁interrupt	-11.0567
gt	-11.0573
▁pastor	-11.0575
▁jacob	-11.0576
▁wing	-11.0581
▁cal	-11.0586
▁mob	-11.0589
▁underway	-11.059
▁luck	-11.06
▁malaysia	-11.0602
icah	-11.061
▁hammer	-11.0617
▁haiti	-11.0617
▁guant	-11.062
▁refusal	-11.0635
▁aspect	-11.0636
▁passe	-11.0653
▁protected	-11.0657
▁holder	-11.066
▁casualt	-11.0662
▁bubble	-11.0663
▁personne	-11.0666
our	-11.0666
▁beast	-11.0681
▁imp	-11.0681
▁flags	-11.0683
▁cartoon	-11.0684
▁pump	-11.0685
▁participant	-11.0685
▁scenario	-11.0685
▁splash	-11.0685
▁oath	-11.0686
▁berke	-11.0686
▁examin	-11.0687
▁cent	-11.069
▁bur	-11.0694
▁skeptical	-11.0695
▁instance	-11.0696
▁misleading	-11.0696
▁bang	-11.0698
▁yen	-11.0705
▁flames	-11.0706
▁kirk	-11.0708
▁prefer	-11.0709
▁teammate	-11.0709
▁lands	-11.0717
▁tracks	-11.0725
ila	-11.0726
▁overturn	-11.0732
maker	-11.0733
pa	-11.0739
caa	-11.0751
▁competitor	-11.0752
▁swimming	-11.0752
▁supremacist	-11.0752
▁tragic	-11.0752
▁vessel	-11.0752
▁impressive	-11.0752
▁assess	-11.0755
▁extremist	-11.0758
▁hiv	-11.0758
ward	-11.0759
▁posting	-11.076
▁practical	-11.076
▁choices	-11.0768
▁somalia	-11.0769
▁roots	-11.077
▁posts	-11.0773
▁burden	-11.0776
▁em	-11.0786
▁58	-11.0791
ification	-11.0797
▁sheet	-11.0798
▁sexist	-11.0802
▁executed	-11.0802
▁diploma	-11.0805
▁tip	-11.0807
▁coat	-11.0808
▁parker	-11.0811
▁accomplish	-11.0816
driving	-11.0817
▁mirror	-11.0818
▁recipe	-11.0818
▁russell	-11.0818
▁insurgent	-11.0818
▁damasc	-11.0818
▁horrific	-11.0819
▁castile	-11.0819
▁bowie	-11.0819
▁diesel	-11.0821
▁introduce	-11.0821
▁backer	-11.0823
▁bullet	-11.0824
▁reward	-11.0824
▁advertiser	-11.0832
▁camps	-11.0837
▁wh	-11.0838
▁ranking	-11.0841
▁cafe	-11.0842
▁principle	-11.0843
▁complained	-11.0843
▁shipp	-11.0845
▁motors	-11.0847
ee	-11.0864
western	-11.0869
uitt	-11.0874
▁acquir	-11.0875
▁excited	-11.088
▁revers	-11.0882
▁rebuild	-11.0885
▁invasion	-11.0885
▁milestone	-11.0886
▁moderator	-11.0886
▁scrap	-11.0886
▁leap	-11.0886
▁evacuation	-11.0888
▁deem	-11.089
proved	-11.0907
ei	-11.0909
▁jacket	-11.0909
ik	-11.091
▁drones	-11.0931
▁wilder	-11.0931
ino	-11.0931
▁bread	-11.0934
▁neighborhoods	-11.0937
▁polluti	-11.0944
▁hunter	-11.095
▁concrete	-11.0953
▁juror	-11.0953
▁combination	-11.0954
▁reince	-11.0955
▁priest	-11.096
▁sandy	-11.0961
▁cinc	-11.0962
▁absurd	-11.0962
▁medi	-11.0963
▁wrestl	-11.0966
▁blaze	-11.0967
▁abedin	-11.0969
▁offender	-11.0992
▁endless	-11.0997
ot	-11.1
▁minorit	-11.1004
spoken	-11.1004
az	-11.1007
▁barbar	-11.1017
▁pend	-11.1017
▁exxon	-11.1021
▁suspicion	-11.1021
▁jessica	-11.1021
▁farewell	-11.1021
▁nude	-11.1022
▁judgment	-11.1022
▁centre	-11.1023
▁contestant	-11.1024
▁2002	-11.1024
▁sniper	-11.1024
▁rnc	-11.1025
▁unemploy	-11.1027
▁declaration	-11.1027
▁nash	-11.1036
▁82	-11.1036
trust	-11.104
▁pan	-11.1046
ise	-11.1047
▁stem	-11.1061
▁hide	-11.1078
▁beck	-11.1078
▁pure	-11.108
va	-11.1082
▁harass	-11.1087
▁teaching	-11.1089
▁physician	-11.1089
▁surrogate	-11.1089
▁ransom	-11.1089
▁cinema	-11.109
harlem	-11.1096
▁notion	-11.1097
▁koch	-11.1101
▁embarrassing	-11.1107
▁spell	-11.1107
▁midst	-11.1124
reli	-11.1126
▁guarantee	-11.1129
▁northwest	-11.1135
▁ver	-11.114
ng	-11.1143
▁breath	-11.1144
▁stable	-11.1151
▁owe	-11.1152
polis	-11.1157
▁blockbuster	-11.1158
▁pretend	-11.1158
cher	-11.116
▁wilson	-11.116
▁dems	-11.1161
▁removal	-11.1169
▁occupie	-11.1171
▁denial	-11.1172
▁runway	-11.1176
▁comfort	-11.1182
▁turnout	-11.1183
▁troubl	-11.1184
▁valuable	-11.1184
▁avail	-11.1191
▁garb	-11.1194
▁spur	-11.1202
pac	-11.1206
▁mountains	-11.1209
▁loyal	-11.1214
▁virgin	-11.1225
▁que	-11.1225
▁bargain	-11.1228
▁frustration	-11.1228
▁superior	-11.1228
▁autism	-11.1228
▁frustrated	-11.1229
▁brent	-11.1229
▁implication	-11.1229
▁nicola	-11.1231
▁rental	-11.1236
▁releas	-11.1236
employment	-11.1237
▁brave	-11.1245
▁evolution	-11.1256
▁submit	-11.1278
▁stat	-11.1282
▁melt	-11.1288
rah	-11.1289
▁forms	-11.1295
▁obstruction	-11.1296
unconstitutional	-11.1298
▁occupation	-11.1298
▁surrender	-11.1298
▁toilet	-11.1298
▁hernand	-11.1302
▁gene	-11.1304
▁everyday	-11.1305
▁enterprise	-11.1306
▁stunn	-11.1308
▁bro	-11.1309
▁dismantle	-11.1314
▁princess	-11.132
yler	-11.132
▁wallac	-11.1321
▁correspondent	-11.1325
▁smoking	-11.1333
▁welcom	-11.1335
▁challenger	-11.1336
▁milo	-11.135
op	-11.1353
ang	-11.1356
▁choos	-11.1362
▁dash	-11.1368
▁profound	-11.1368
▁telephone	-11.1368
▁cousin	-11.1368
▁1996	-11.1368
lewandowski	-11.1369
▁sch	-11.137
▁roy	-11.1374
▁heated	-11.1378
▁refer	-11.1383
▁rip	-11.1384
▁outlin	-11.1391
▁philippine	-11.1397
▁sons	-11.1398
▁assume	-11.14
▁mistaken	-11.1406
war	-11.1417
▁76	-11.1421
eiro	-11.1428
mar	-11.1432
ya	-11.1432
▁rodrig	-11.1438
▁plaza	-11.1439
▁description	-11.1439
▁philip	-11.1439
▁falcon	-11.1439
▁manslaughter	-11.1439
▁telecom	-11.1439
▁okay	-11.1439
▁bhara	-11.144
▁salary	-11.144
▁argentina	-11.1441
▁slavery	-11.1442
▁unite	-11.1443
▁batman	-11.1445
▁fad	-11.1453
▁expression	-11.1455
▁lt	-11.1457
▁stroke	-11.1461
uk	-11.1465
stein	-11.1472
over	-11.1474
▁marc	-11.1476
▁messag	-11.1482
ep	-11.1482
▁comfortabl	-11.1494
▁pray	-11.1496
▁smooth	-11.1496
▁vet	-11.1497
▁po	-11.1503
▁achieve	-11.1503
▁shed	-11.1504
▁battles	-11.1507
▁anonym	-11.1509
▁sec	-11.151
▁historian	-11.1511
▁rookie	-11.1511
▁subpoena	-11.1511
▁mortgage	-11.1511
▁shatter	-11.1511
▁graduation	-11.1512
▁conservat	-11.1513
▁excellen	-11.1516
bar	-11.1517
au	-11.1519
▁ging	-11.1522
▁bolt	-11.1523
▁suv	-11.1533
light	-11.1538
▁copy	-11.1548
▁abu	-11.1553
▁finale	-11.1561
ified	-11.1568
▁plott	-11.1571
▁skeptic	-11.1572
▁thick	-11.1573
▁opera	-11.1574
▁elephant	-11.1582
▁unconscious	-11.1582
▁consecutive	-11.1582
▁paragraph	-11.1582
▁airplane	-11.1583
▁potter	-11.1583
▁preserve	-11.1584
▁caption	-11.1584
▁stewar	-11.1586
▁allerg	-11.1592
▁jos	-11.1596
▁bonds	-11.1597
▁budd	-11.16
▁devin	-11.1603
▁ltd	-11.1615
▁88	-11.162
▁dry	-11.1622
▁pronounc	-11.1622
uous	-11.1625
▁mega	-11.1626
▁motivat	-11.163
▁locker	-11.1632
▁venezuelan	-11.1638
▁dive	-11.1639
▁inches	-11.1647
▁belgi	-11.1653
▁envoy	-11.1655
▁pelosi	-11.1655
▁cleric	-11.1655
▁kabul	-11.1655
▁medication	-11.1655
▁retain	-11.1657
▁marketplace	-11.1657
ja	-11.1673
▁isolat	-11.1674
▁lender	-11.1676
▁unfair	-11.1678
▁dela	-11.168
gi	-11.1684
▁bite	-11.1684
▁spie	-11.1688
▁trace	-11.1688
▁han	-11.1691
▁snowd	-11.1696
▁faction	-11.1697
▁seth	-11.1706
▁nigeria	-11.1711
▁laur	-11.1725
▁confess	-11.1725
▁raw	-11.1725
▁giuliani	-11.1728
▁uncomfortabl	-11.1728
▁consultant	-11.1728
▁garner	-11.1729
▁carmelo	-11.1729
▁entrance	-11.1729
▁chocolate	-11.173
▁engagement	-11.1731
▁friendship	-11.1731
▁lineup	-11.1735
vo	-11.1735
therapy	-11.174
▁champions	-11.1743
▁heal	-11.1743
thy	-11.1745
▁shower	-11.1758
▁cater	-11.1764
ung	-11.1767
▁types	-11.1768
▁origin	-11.1769
▁evangelical	-11.1769
▁68	-11.1772
▁retire	-11.1779
▁bloc	-11.1798
▁chest	-11.1798
▁libertarian	-11.1801
▁muscle	-11.1801
▁hashtag	-11.1801
▁1999	-11.1802
▁absence	-11.1802
▁predominant	-11.1802
▁reopen	-11.1802
▁schul	-11.1806
▁suspicious	-11.1809
▁burns	-11.1814
▁anywhere	-11.1815
▁boot	-11.1815
▁engage	-11.1815
▁pitt	-11.1827
▁vanish	-11.1831
▁buck	-11.1834
▁chill	-11.185
▁hotte	-11.1854
▁taxi	-11.1858
▁chat	-11.1859
bach	-11.1863
▁siege	-11.1868
▁fin	-11.187
▁decid	-11.1872
▁sequel	-11.1876
▁technique	-11.1876
▁widow	-11.1876
▁lochte	-11.1876
▁landslide	-11.1876
▁smil	-11.1876
▁powell	-11.1876
▁corco	-11.1876
▁citizenship	-11.1876
▁preparation	-11.1879
▁wonderful	-11.1879
▁uncover	-11.1879
▁61	-11.188
▁linger	-11.1881
▁cam	-11.1892
▁whale	-11.1897
▁leftist	-11.19
▁horribl	-11.1911
▁roberts	-11.1914
▁inner	-11.1941
bbie	-11.1946
▁cure	-11.1947
▁impeach	-11.1948
▁depart	-11.1948
▁architect	-11.195
▁expense	-11.195
▁curious	-11.195
▁95	-11.1951
▁wireless	-11.1952
▁musicians	-11.1955
▁qualifi	-11.1958
▁skip	-11.1963
av	-11.1964
▁yards	-11.1964
▁72	-11.1965
▁naval	-11.1966
▁jam	-11.198
identified	-11.1991
▁losers	-11.2003
▁hospitaliz	-11.2006
▁pole	-11.2006
▁incredibl	-11.2007
▁citi	-11.2013
▁button	-11.2018
▁visual	-11.2025
▁spectacular	-11.2025
▁comprehensive	-11.2025
▁discount	-11.2025
▁goodbye	-11.2025
▁penthouse	-11.2025
▁rogue	-11.2026
▁strand	-11.2026
▁slogan	-11.2026
mph	-11.2027
▁stunt	-11.2028
▁visible	-11.203
▁hu	-11.2033
▁longest	-11.2035
▁jake	-11.2035
▁69	-11.2038
elson	-11.2039
▁doping	-11.2048
terran	-11.2053
▁col	-11.2058
▁shame	-11.2058
cious	-11.2059
▁fillon	-11.206
▁fa	-11.206
▁clashe	-11.2063
▁yal	-11.2063
▁upend	-11.2069
▁gunn	-11.207
▁disappointed	-11.2073
▁slide	-11.2078
▁snapp	-11.2084
we	-11.2092
▁holy	-11.2092
▁rebuke	-11.2094
▁attach	-11.2099
▁flip	-11.2099
▁gabriel	-11.2101
▁integrity	-11.2101
▁jinp	-11.2101
▁subsequent	-11.2101
▁commodit	-11.2101
▁pepper	-11.2101
▁fragil	-11.2101
▁havana	-11.2101
▁memories	-11.2101
▁nh	-11.2102
▁trademark	-11.2103
▁herald	-11.2104
▁vp	-11.2106
▁ru	-11.212
▁94	-11.2122
▁juan	-11.2123
idi	-11.2125
▁74	-11.2127
▁batter	-11.213
▁hip	-11.2139
star	-11.2139
▁120	-11.2152
ud	-11.2159
▁tipp	-11.216
▁listing	-11.217
ella	-11.217
ski	-11.2171
▁cult	-11.2177
▁centuries	-11.2177
▁cocaine	-11.2177
▁relax	-11.2177
▁yiannopoulo	-11.2177
▁reckless	-11.2177
▁pursuit	-11.2178
▁demographic	-11.2178
▁romantic	-11.2178
▁invitation	-11.2179
▁undergo	-11.2179
▁costume	-11.2183
▁lobbyist	-11.2184
▁beside	-11.2185
▁attitude	-11.2191
▁respective	-11.2196
▁janet	-11.2197
▁obes	-11.2198
▁lean	-11.2204
▁parliamentar	-11.221
erek	-11.221
▁spray	-11.2211
▁neutral	-11.2217
he	-11.2238
▁ca	-11.224
▁sham	-11.2241
▁extremists	-11.2247
▁tips	-11.2249
lands	-11.225
▁televis	-11.2252
▁sponsor	-11.2252
▁antarctic	-11.2254
▁warehouse	-11.2254
▁bombshell	-11.2255
▁polish	-11.2255
▁destination	-11.2255
▁reef	-11.2258
▁tag	-11.226
▁rack	-11.2262
▁criticize	-11.2274
anye	-11.2279
▁87	-11.2282
▁scream	-11.2289
▁hub	-11.2291
▁discriminat	-11.2295
▁fascinating	-11.2296
▁panama	-11.231
▁inventor	-11.2311
▁towns	-11.2314
potle	-11.233
▁censor	-11.2332
▁centrist	-11.2332
▁disgust	-11.2332
▁encouraging	-11.2332
▁dennis	-11.2332
▁spencer	-11.2332
▁plummet	-11.2332
▁carpet	-11.2332
▁polan	-11.2332
▁rebound	-11.2332
▁woke	-11.2333
▁protester	-11.2344
▁obsess	-11.2346
▁theft	-11.2349
▁quot	-11.2361
ending	-11.2367
▁deserve	-11.2369
▁foe	-11.2383
russia	-11.2389
ron	-11.239
▁lebr	-11.2392
▁craig	-11.241
▁benchmark	-11.241
▁indigen	-11.241
▁swamp	-11.241
▁nikki	-11.241
▁shine	-11.2411
▁workforce	-11.2411
▁impression	-11.2412
▁knowing	-11.2415
▁preferr	-11.2418
▁shk	-11.242
▁knocked	-11.2423
▁walter	-11.2428
▁passion	-11.2428
▁pound	-11.2439
▁reel	-11.2442
▁automat	-11.2445
yra	-11.2446
▁140	-11.2459
▁corn	-11.2461
▁polic	-11.2464
▁chas	-11.2483
▁78	-11.2485
▁tribun	-11.2487
▁airbnb	-11.2489
▁approximate	-11.2489
▁cavalier	-11.2489
▁convoy	-11.2489
▁stomach	-11.2489
▁nickname	-11.2489
▁vetting	-11.2489
▁temple	-11.2489
▁presum	-11.2489
▁offshore	-11.249
residential	-11.2491
▁pitcher	-11.2504
▁kati	-11.2509
▁intentional	-11.2514
▁invite	-11.2517
bury	-11.2517
▁crow	-11.2522
▁domin	-11.2524
dc	-11.2526
▁myth	-11.2527
▁phon	-11.2533
▁slim	-11.2538
▁exten	-11.2543
▁advoca	-11.2545
▁examine	-11.2545
▁proceeding	-11.2558
▁belief	-11.2561
▁purple	-11.2568
▁clown	-11.2568
▁grandmother	-11.2568
▁scare	-11.2568
▁assassination	-11.257
▁delet	-11.257
▁unfold	-11.2571
▁ash	-11.2571
▁defendant	-11.2573
▁handout	-11.2582
▁organ	-11.2585
▁thrill	-11.2588
ago	-11.2589
▁mol	-11.2589
viation	-11.2591
▁surgeon	-11.2591
▁necessar	-11.2599
▁patch	-11.2601
▁reli	-11.2601
▁dylann	-11.2607
▁huma	-11.2619
mann	-11.262
▁cake	-11.2622
▁ya	-11.2622
▁lung	-11.2626
▁condo	-11.2629
ure	-11.2631
ane	-11.2641
▁interact	-11.2644
▁wider	-11.2645
▁exhibit	-11.2645
▁ethnic	-11.2645
▁imprison	-11.2648
▁breakthrough	-11.2648
▁decisive	-11.2648
▁besieg	-11.2648
▁appropriation	-11.2648
▁beckham	-11.2649
▁arguabl	-11.2649
▁trends	-11.2652
▁cbo	-11.2652
▁whit	-11.2659
▁firework	-11.2666
▁capacit	-11.2672
fi	-11.2679
▁fundraiser	-11.2684
▁scam	-11.2693
▁77	-11.2694
10	-11.2694
due	-11.27
▁sweat	-11.27
ative	-11.2703
▁alan	-11.2705
iness	-11.271
▁slip	-11.2718
▁genre	-11.2726
▁wings	-11.2727
▁ceiling	-11.2729
▁nafta	-11.2729
▁travis	-11.2729
▁proclaim	-11.2729
▁nerve	-11.2729
▁roster	-11.273
▁authoritarian	-11.273
▁detainee	-11.273
▁colorful	-11.2732
▁innovation	-11.2732
▁utilit	-11.2732
lew	-11.2733
▁imagin	-11.274
▁alarming	-11.2743
▁conclude	-11.2745
▁makeup	-11.2748
▁runner	-11.2748
▁ph	-11.2748
▁spoiler	-11.2753
▁attendees	-11.2785
heroes	-11.2792
▁purchas	-11.2801
ini	-11.2802
▁sovereign	-11.281
▁raqqa	-11.281
▁relevant	-11.281
▁assailant	-11.281
▁thiel	-11.281
▁appare	-11.281
▁trove	-11.281
▁restroom	-11.2811
▁lifestyle	-11.2812
▁mull	-11.2813
▁valentine	-11.2813
▁recep	-11.2814
▁cairo	-11.2815
▁withdrawal	-11.2818
▁supplier	-11.2819
tt	-11.282
▁ram	-11.2826
▁assum	-11.2829
nl	-11.2832
▁ruth	-11.2835
▁elites	-11.2835
▁plac	-11.2836
▁noise	-11.2837
▁duo	-11.2837
hill	-11.2838
▁manner	-11.2844
anamo	-11.2851
▁ear	-11.2856
▁frankl	-11.2857
llusion	-11.2871
20	-11.2876
▁fam	-11.2879
▁79	-11.2879
▁luther	-11.289
▁clinch	-11.2892
▁contemporar	-11.2892
▁imminent	-11.2892
▁peninsula	-11.2892
burg	-11.2892
▁prestig	-11.2892
▁pearl	-11.2892
▁harper	-11.2892
saw	-11.2894
▁sa	-11.2897
zer	-11.2898
▁extremism	-11.2899
▁romance	-11.2901
▁predator	-11.2907
▁sting	-11.2908
▁bike	-11.2909
▁bacteria	-11.2912
▁irs	-11.2921
▁laughing	-11.2927
▁bragg	-11.2927
▁defects	-11.2932
▁donat	-11.2935
▁memorabl	-11.2937
▁victoria	-11.294
▁chronicle	-11.2948
▁poet	-11.2949
▁info	-11.2952
▁albert	-11.2953
▁scary	-11.2962
▁restor	-11.2962
▁vacanc	-11.2963
ark	-11.2965
ub	-11.2967
▁wright	-11.2967
▁motive	-11.2969
▁transparen	-11.2969
▁recess	-11.2972
▁basket	-11.2975
▁conglomerate	-11.2975
▁kidnapped	-11.2975
▁stupid	-11.2975
▁acclaim	-11.2975
▁balloon	-11.2975
▁switzer	-11.2975
▁hannity	-11.2975
▁radar	-11.2975
▁defy	-11.2975
▁promotion	-11.2981
bus	-11.299
▁acknowledge	-11.3001
▁lament	-11.3001
▁christin	-11.3002
bo	-11.3006
▁timeline	-11.3008
▁triple	-11.3013
▁pin	-11.3016
heur	-11.3019
▁67	-11.3022
ze	-11.3022
▁progressives	-11.3029
▁saga	-11.303
art	-11.3033
▁ink	-11.3039
▁wayne	-11.3044
king	-11.3051
▁tick	-11.3056
▁apprentice	-11.3058
▁syndrome	-11.3058
▁anxious	-11.3058
▁dissent	-11.3058
▁animated	-11.3058
▁gorilla	-11.3058
▁portug	-11.3059
▁optimistic	-11.306
▁reign	-11.306
▁mir	-11.3061
▁pickup	-11.3067
▁sample	-11.3068
▁uncertain	-11.3074
▁invent	-11.3077
▁lin	-11.3081
▁sexism	-11.3082
▁wrap	-11.3085
▁casual	-11.3088
▁lorett	-11.3095
▁wip	-11.3099
▁64	-11.31
▁walls	-11.3103
▁understood	-11.3103
▁shin	-11.3107
▁ranch	-11.3113
▁philosoph	-11.3115
▁inspire	-11.3119
▁bra	-11.3124
▁chan	-11.3134
▁restrain	-11.3136
▁86	-11.3138
▁convert	-11.3142
▁swirl	-11.3142
genocide	-11.3142
▁blizzard	-11.3142
▁portfolio	-11.3142
▁confederate	-11.3142
▁registration	-11.3142
▁legitimate	-11.3143
▁defiant	-11.3143
ropical	-11.3143
▁filmmaker	-11.3146
▁89	-11.3147
▁swim	-11.3149
▁comply	-11.3152
▁fool	-11.3153
▁adventure	-11.3154
stage	-11.3156
▁mild	-11.3156
lu	-11.316
bert	-11.3161
▁brit	-11.3162
curry	-11.3165
▁submitt	-11.3167
▁ces	-11.3168
▁manuel	-11.3186
▁lauren	-11.3198
▁charm	-11.3201
▁mandat	-11.3208
▁titan	-11.3213
bell	-11.3215
▁principles	-11.3215
▁shakespeare	-11.3227
▁tobacco	-11.3227
▁autonomous	-11.3227
▁verge	-11.3228
▁flagship	-11.3228
▁superstar	-11.3228
▁brock	-11.3228
▁luke	-11.3229
▁inspiration	-11.323
▁truce	-11.3236
▁lone	-11.3242
▁frame	-11.3246
▁pill	-11.3255
ripped	-11.326
▁uncle	-11.3264
nce	-11.3283
▁combine	-11.3285
▁persuade	-11.3308
▁900	-11.331
▁murderer	-11.331
cover	-11.3312
▁athletic	-11.3312
▁reservation	-11.3312
▁pardon	-11.3312
▁scotus	-11.3315
▁rag	-11.3315
▁obsession	-11.3315
▁haul	-11.3316
▁philand	-11.3318
▁weakness	-11.332
▁grind	-11.3325
▁critically	-11.3326
▁rou	-11.3329
▁administrator	-11.3329
▁thriller	-11.3332
▁specialist	-11.3335
neapoli	-11.3337
▁afterward	-11.334
▁chronic	-11.3343
▁champ	-11.3344
▁counterterror	-11.3345
▁penalt	-11.335
rov	-11.3355
▁retake	-11.3367
▁boring	-11.3376
eb	-11.3379
wa	-11.3386
fa	-11.3386
▁dish	-11.3389
▁adapt	-11.3398
▁thorough	-11.3398
▁cautious	-11.3398
▁constituent	-11.3398
▁disastrous	-11.3398
▁dishonest	-11.3398
▁ingredient	-11.3398
▁tinder	-11.3399
idaho	-11.3399
▁taco	-11.34
▁possession	-11.34
ari	-11.3401
▁pollster	-11.3404
▁astronomer	-11.3405
▁atmosphere	-11.3406
▁encrypt	-11.3412
▁entitl	-11.3412
▁bio	-11.3412
▁assist	-11.3413
▁basement	-11.342
▁shouting	-11.3427
▁dana	-11.3427
▁pants	-11.3435
▁birds	-11.3447
▁ri	-11.3457
▁legaliz	-11.3459
▁outgoing	-11.3461
▁inbox	-11.3462
▁emil	-11.3462
▁hearts	-11.3462
▁ellis	-11.3469
▁editors	-11.3476
▁franco	-11.3478
▁assert	-11.3482
▁exam	-11.3484
▁1994	-11.3485
▁berkshire	-11.3485
▁definition	-11.3485
▁dinosaur	-11.3485
▁download	-11.3485
▁hurdle	-11.3485
▁rift	-11.3486
▁brink	-11.3486
▁steer	-11.3487
▁brick	-11.3487
any	-11.3487
tu	-11.3489
ions	-11.3492
▁beliefs	-11.3493
qui	-11.3496
▁instruct	-11.3498
▁demonstrat	-11.3499
▁deserves	-11.3502
▁ham	-11.3505
▁soil	-11.3511
lton	-11.3514
box	-11.3518
▁hocke	-11.3524
▁donor	-11.3536
ists	-11.3537
▁haunt	-11.354
▁wi	-11.3543
▁mobil	-11.3544
▁fier	-11.3544
▁lemon	-11.3545
▁pu	-11.355
▁compromise	-11.3558
▁eggs	-11.357
▁ho	-11.357
▁happi	-11.3571
▁collision	-11.3573
▁emmy	-11.3573
▁spectr	-11.3574
▁vague	-11.3574
▁sitcom	-11.3574
▁layoff	-11.3575
▁congo	-11.3575
▁dara	-11.3577
▁counselor	-11.3577
▁financ	-11.3578
fk	-11.3578
▁achiev	-11.358
ors	-11.358
▁blogger	-11.3584
▁clay	-11.3588
▁generate	-11.3603
owitz	-11.3606
ong	-11.3606
▁moms	-11.3608
▁overdose	-11.361
▁colombian	-11.3611
▁undo	-11.3616
▁screaming	-11.3622
▁robin	-11.3625
▁karl	-11.3625
▁barb	-11.3635
▁grop	-11.364
ore	-11.3642
▁indonesia	-11.3645
▁slate	-11.3645
▁unrest	-11.365
▁excite	-11.3651
▁mutual	-11.3662
▁bonus	-11.3663
▁cough	-11.3665
▁assertion	-11.3665
▁assembl	-11.3665
▁flipp	-11.3666
▁plow	-11.3667
▁pew	-11.3667
▁assured	-11.3672
▁uphold	-11.3673
rt	-11.3679
▁sony	-11.3679
▁miner	-11.3688
▁quo	-11.3688
▁starter	-11.3691
▁scramble	-11.37
▁brooks	-11.3701
▁clause	-11.3704
▁christ	-11.3706
▁digg	-11.3711
pping	-11.3716
▁popul	-11.3719
▁julia	-11.3732
lated	-11.3746
▁automatic	-11.3746
▁compensati	-11.3748
▁humor	-11.3749
▁concession	-11.3751
▁revolt	-11.3751
▁symptom	-11.3751
▁vegetable	-11.3751
▁regain	-11.3751
▁misdemeanor	-11.3751
▁supermarket	-11.3751
▁maximum	-11.3751
▁aisle	-11.3752
▁elevator	-11.3752
▁woe	-11.3759
▁improvement	-11.376
▁ponder	-11.376
▁shutter	-11.3766
▁ann	-11.3773
▁helm	-11.3783
▁73	-11.3793
▁racially	-11.3797
▁interfere	-11.3798
lis	-11.3799
▁cord	-11.3803
▁hal	-11.381
▁compare	-11.3815
▁adams	-11.3817
▁accelerat	-11.3823
▁abduct	-11.3838
▁humiliat	-11.3838
▁adjust	-11.3838
front	-11.3841
▁ritual	-11.3841
▁1997	-11.3841
▁tumult	-11.3841
▁kalanick	-11.3841
▁premise	-11.3841
▁diabet	-11.3841
▁electorate	-11.3841
▁distress	-11.3841
▁morris	-11.3841
▁shopper	-11.3841
▁unpredictable	-11.3842
▁reluctant	-11.3843
▁broadcaster	-11.3844
▁genev	-11.3848
▁sketch	-11.385
▁chilling	-11.385
ryl	-11.3851
▁acceptance	-11.3853
▁enforce	-11.3854
mmunity	-11.3857
born	-11.3858
▁exo	-11.3865
▁marry	-11.3869
▁ge	-11.387
▁les	-11.3873
▁tub	-11.3875
▁grande	-11.3886
pm	-11.3889
▁ripp	-11.3894
▁outline	-11.3897
all	-11.3899
▁filling	-11.3905
▁conn	-11.3907
▁tweeting	-11.3914
▁reviews	-11.3915
▁notable	-11.3917
▁anne	-11.3924
▁eliminat	-11.3924
▁noon	-11.3925
▁ecuador	-11.3931
▁administrative	-11.3932
▁calendar	-11.3932
▁clarify	-11.3932
▁commence	-11.3932
▁overcome	-11.3932
▁drain	-11.3932
▁moonlight	-11.3932
▁brawl	-11.3933
▁gunshot	-11.3933
▁complication	-11.3933
▁reduction	-11.3933
▁reversal	-11.3936
▁yog	-11.3937
▁policymaker	-11.3943
▁startling	-11.3946
▁myths	-11.3948
▁cox	-11.3951
ook	-11.3954
manda	-11.3961
ib	-11.3965
mouth	-11.3966
gie	-11.397
▁creep	-11.3975
▁breed	-11.3975
▁dann	-11.3977
▁tsa	-11.3985
hani	-11.3986
made	-11.3987
▁oral	-11.3992
▁dose	-11.3992
▁moin	-11.3993
latter	-11.3998
▁ke	-11.4
▁belonging	-11.4
▁purported	-11.4
▁dun	-11.4
▁jab	-11.4001
▁gil	-11.4001
list	-11.4002
▁vicious	-11.4022
▁brush	-11.4023
▁feminism	-11.4024
▁caesar	-11.4024
▁cemeter	-11.4024
▁equivalent	-11.4024
▁ideology	-11.4024
▁nebraska	-11.4024
▁reynolds	-11.4024
▁transplant	-11.4024
▁1950	-11.4024
▁adaptation	-11.4025
▁motorcycle	-11.4025
▁illustrat	-11.4039
▁cargo	-11.404
▁astonishing	-11.4049
rpool	-11.405
▁performer	-11.4051
▁simone	-11.4058
▁screens	-11.407
▁treasure	-11.4077
▁sir	-11.4077
▁foul	-11.4081
hunt	-11.4083
▁entrepreneur	-11.4084
▁reviv	-11.4084
▁mode	-11.41
▁boo	-11.4104
▁marches	-11.4104
▁timo	-11.4112
▁mini	-11.4113
▁conspir	-11.4116
▁thunder	-11.4116
▁joaqu	-11.4116
▁pedestrian	-11.4116
▁tremendous	-11.4116
▁vatican	-11.4116
▁abolish	-11.4116
▁escort	-11.4116
▁monkey	-11.4117
▁dashboard	-11.4117
▁suppress	-11.4118
▁bailout	-11.4118
▁lisa	-11.4118
trophy	-11.4118
unity	-11.4123
▁spurr	-11.4125
▁nutrition	-11.4126
▁elaborate	-11.4127
ano	-11.4132
▁karen	-11.4135
▁trio	-11.4136
▁admitt	-11.4138
▁freed	-11.4146
world	-11.4147
▁bobb	-11.4148
▁defect	-11.4156
ji	-11.4158
▁scout	-11.4162
▁cats	-11.4167
▁capabilit	-11.4167
vin	-11.4167
▁pause	-11.417
ll	-11.4177
▁lending	-11.4179
▁jami	-11.4183
▁displac	-11.4189
▁aca	-11.4192
book	-11.4197
▁doubled	-11.42
▁fran	-11.4209
acres	-11.4209
▁census	-11.421
▁obstacle	-11.421
▁sioux	-11.421
▁gallery	-11.421
▁facult	-11.421
▁painkiller	-11.421
▁buffalo	-11.421
▁rotation	-11.4211
trak	-11.4211
▁cement	-11.4211
▁shootout	-11.4213
▁63	-11.4214
▁array	-11.4215
▁tel	-11.4216
▁mothers	-11.4216
▁scared	-11.4217
▁hatch	-11.4225
▁130	-11.4228
▁keen	-11.423
▁fever	-11.4231
place	-11.4232
ris	-11.4232
▁shoe	-11.4235
▁polariz	-11.4239
▁nordli	-11.4245
▁overturned	-11.4246
bank	-11.4248
▁align	-11.4251
security	-11.4252
▁sh	-11.4254
▁cowboys	-11.4257
chi	-11.4258
hook	-11.4261
▁lion	-11.4266
▁km	-11.4271
row	-11.4271
▁mel	-11.4272
▁cole	-11.4276
▁roe	-11.4292
▁amber	-11.4297
▁seller	-11.4298
▁celeb	-11.43
▁engulf	-11.4304
▁occupy	-11.4304
▁enthusiasm	-11.4304
▁junior	-11.4304
▁porzingis	-11.4304
▁pulitzer	-11.4304
▁flurr	-11.4304
▁database	-11.4304
▁generous	-11.4304
▁margar	-11.4304
▁nicole	-11.4304
▁excessive	-11.4305
▁migration	-11.4305
▁stack	-11.4306
▁jackie	-11.4307
▁playlist	-11.4307
▁exhibition	-11.4307
▁sacr	-11.4308
▁battlefield	-11.4309
▁hughes	-11.4311
▁dept	-11.4314
▁couch	-11.4315
:15	-11.4319
▁beard	-11.432
▁useful	-11.4322
▁spare	-11.4323
har	-11.4328
▁criminals	-11.433
▁ears	-11.4332
▁workout	-11.434
▁cave	-11.4348
▁pas	-11.4352
▁grey	-11.4353
esh	-11.4356
▁secured	-11.4365
illy	-11.4373
▁hart	-11.4377
▁boil	-11.4384
bier	-11.4393
▁capsule	-11.4399
▁defence	-11.4399
▁prevail	-11.4399
manziel	-11.4399
▁conscious	-11.4399
▁dossier	-11.4399
▁ipad	-11.44
▁ambush	-11.44
▁rodrigue	-11.44
▁preview	-11.4401
▁revival	-11.4403
▁witch	-11.4406
▁marcus	-11.4406
unich	-11.4413
▁advised	-11.4418
▁yo	-11.4425
ki	-11.4425
▁fiori	-11.4442
▁cape	-11.4444
▁ivor	-11.4451
▁tent	-11.4456
mail	-11.4457
▁engaging	-11.4469
▁gam	-11.4471
▁hassan	-11.4479
▁revel	-11.4495
▁contaminat	-11.4495
▁genuine	-11.4495
▁miracle	-11.4495
▁provocative	-11.4495
▁roosevelt	-11.4495
▁cocktail	-11.4495
▁exposure	-11.4496
▁handgun	-11.4496
▁destin	-11.4497
▁outrageous	-11.4499
▁nationalism	-11.45
▁menu	-11.4501
▁survival	-11.4504
▁capabl	-11.4507
▁objection	-11.451
▁letha	-11.4511
▁brook	-11.4511
▁saman	-11.4514
▁loyalt	-11.4514
tan	-11.4515
▁escalate	-11.4518
▁woo	-11.452
▁83	-11.4525
gar	-11.453
▁reache	-11.454
▁hollande	-11.4541
▁reasonable	-11.4546
▁creepy	-11.4547
▁doll	-11.4549
▁81	-11.4558
▁admir	-11.4558
▁selfie	-11.456
▁approache	-11.4565
▁demonstrate	-11.4567
▁pivot	-11.4589
▁vocal	-11.4592
▁blank	-11.4592
▁credential	-11.4593
▁rosenstein	-11.4593
▁1989	-11.4593
▁mcmaster	-11.4593
▁persist	-11.4593
▁passionate	-11.4593
▁recognition	-11.4593
▁flock	-11.4593
▁lindsey	-11.4595
▁andrea	-11.4597
dding	-11.4599
feld	-11.4601
▁glove	-11.4603
▁symbolic	-11.4603
▁equally	-11.4605
▁stemm	-11.4607
▁emirate	-11.4608
▁thwart	-11.4611
▁outspoken	-11.4612
▁hallowe	-11.4618
▁wyo	-11.4623
wick	-11.4639
wide	-11.4641
▁cab	-11.4641
▁compelling	-11.4643
che	-11.4653
pi	-11.4654
▁disgrac	-11.4655
▁youngest	-11.4657
ership	-11.4661
hem	-11.4667
▁rescu	-11.4668
▁trek	-11.4673
strom	-11.4676
rake	-11.4678
ken	-11.4681
▁unravel	-11.4691
▁marlins	-11.4691
▁empower	-11.4691
tick	-11.4693
▁botch	-11.4693
▁earnest	-11.4695
ea	-11.4697
▁rapist	-11.4698
▁ni	-11.4706
▁madri	-11.4711
▁lecture	-11.4715
▁newt	-11.4717
▁commuter	-11.472
leigh	-11.4722
paid	-11.4726
lice	-11.4735
▁hor	-11.4737
▁loft	-11.4741
▁anna	-11.4742
owski	-11.4747
▁ski	-11.4749
llc	-11.4753
▁dodge	-11.4759
▁grammy	-11.476
▁reliabl	-11.4762
▁oc	-11.4766
ick	-11.4769
mus	-11.4776
▁prep	-11.4778
▁evolv	-11.4789
▁component	-11.479
▁reboot	-11.479
▁robust	-11.479
▁1995	-11.479
▁cruel	-11.479
▁disappointment	-11.4791
ankara	-11.4791
▁depth	-11.4791
▁inning	-11.4791
▁quake	-11.4797
▁pakistani	-11.4802
▁harrison	-11.4803
▁pett	-11.4807
▁excit	-11.481
▁creditor	-11.4813
▁pig	-11.4816
▁clarit	-11.482
▁nj	-11.483
▁properly	-11.4834
bound	-11.4838
▁fred	-11.484
q	-11.4847
don	-11.4851
▁projection	-11.4851
▁cart	-11.4861
per	-11.4865
eh	-11.487
mer	-11.4881
▁occur	-11.4883
▁nurs	-11.4886
▁cope	-11.4887
▁mistakes	-11.4888
▁unfolded	-11.4888
▁antibiotic	-11.489
▁incumbent	-11.489
▁jpmorgan	-11.489
▁lieutenant	-11.489
▁mohammed	-11.489
▁ukrainian	-11.489
▁federation	-11.489
▁jungle	-11.489
▁kidnapping	-11.489
▁nathan	-11.489
▁feat	-11.4891
▁unfit	-11.4891
▁stern	-11.4893
▁injection	-11.4893
▁subtle	-11.4894
▁attendant	-11.4894
▁yate	-11.4895
piter	-11.4895
▁deployment	-11.4897
▁candy	-11.4904
▁fold	-11.4908
▁loser	-11.491
▁transferr	-11.4911
▁grapple	-11.4913
monica	-11.4918
▁rubb	-11.4919
▁compar	-11.4919
▁nether	-11.4919
▁arno	-11.492
▁gord	-11.4928
▁betting	-11.4931
vi	-11.4936
▁farc	-11.4943
uc	-11.4947
▁failures	-11.4948
▁authorized	-11.4948
ilma	-11.4953
▁repli	-11.4956
productive	-11.4956
▁masters	-11.4964
▁consum	-11.4966
ailing	-11.4966
▁allegation	-11.4972
zos	-11.4974
nate	-11.4981
▁worship	-11.4981
▁deck	-11.4984
hand	-11.4985
tro	-11.4987
▁recipient	-11.4991
▁murphy	-11.4991
▁precedent	-11.4991
▁glory	-11.4991
▁liberti	-11.4991
▁qualify	-11.4991
▁roil	-11.4991
▁slowdown	-11.4991
▁tenant	-11.4992
nintend	-11.4992
▁sail	-11.4992
▁mp	-11.4994
izing	-11.4997
▁dealt	-11.5001
▁mills	-11.5003
ging	-11.5013
▁defamation	-11.5014
▁examiner	-11.502
ingham	-11.5021
▁wag	-11.5022
▁rancher	-11.5039
down	-11.5042
▁heighten	-11.5046
▁mocking	-11.5046
pen	-11.5047
▁grain	-11.5058
versu	-11.5063
piece	-11.5064
foot	-11.5064
oline	-11.5065
her	-11.5072
easing	-11.5078
▁sandwich	-11.508
ubai	-11.5081
imer	-11.5087
randa	-11.5087
▁fare	-11.5088
▁otto	-11.5088
▁affluen	-11.5093
▁catastrophe	-11.5093
▁plaintiff	-11.5093
▁tribal	-11.5093
▁lawrence	-11.5093
▁redskins	-11.5093
▁grandfather	-11.5093
▁bronco	-11.5093
▁furni	-11.5093
▁password	-11.5093
▁thread	-11.5093
▁chunk	-11.5094
▁enduring	-11.5094
▁intimate	-11.5094
▁jefferson	-11.5094
▁confine	-11.5095
▁luis	-11.5095
▁hostilit	-11.5104
▁classmate	-11.5106
if	-11.5107
bb	-11.5123
▁tide	-11.5139
free	-11.5145
▁commute	-11.515
bc	-11.5159
ith	-11.5169
▁sensation	-11.517
power	-11.5172
▁euros	-11.5173
▁lesbian	-11.5175
▁liquid	-11.5177
▁exceed	-11.5177
▁bath	-11.5181
▁heft	-11.5186
▁mick	-11.5187
▁elevat	-11.5189
▁bu	-11.5191
▁impress	-11.5192
▁genital	-11.5196
▁headphone	-11.5196
▁blanket	-11.5196
▁boris	-11.5197
▁filter	-11.5199
▁northeastern	-11.5199
▁cannon	-11.52
▁condemnation	-11.52
▁mill	-11.52
▁scrapp	-11.5201
▁yard	-11.5206
▁penis	-11.5207
▁darkness	-11.5209
▁subsidi	-11.5209
acek	-11.521
▁shade	-11.5216
▁sibling	-11.5218
▁dip	-11.5219
▁forceful	-11.5221
▁celebrations	-11.5223
▁obscure	-11.5229
ani	-11.5234
▁soften	-11.5239
▁modi	-11.524
▁multi	-11.5243
▁contribute	-11.5244
▁niet	-11.5249
▁stair	-11.5251
▁bre	-11.5274
▁scope	-11.5275
authorized	-11.5277
:45	-11.5278
▁gore	-11.528
american	-11.5282
▁cookie	-11.5283
▁surf	-11.5283
▁justify	-11.5287
▁stir	-11.5295
▁catastrophic	-11.53
▁paralyz	-11.53
▁pneumonia	-11.53
▁sophisticat	-11.53
▁turbulen	-11.53
▁valuation	-11.53
▁dairy	-11.53
▁foxnews	-11.53
▁crashe	-11.5301
▁loving	-11.5302
▁carlos	-11.5303
▁decorat	-11.5321
▁dh	-11.5321
zhe	-11.5323
▁swipe	-11.5333
▁discipline	-11.5333
▁corpse	-11.534
▁naturally	-11.5345
▁ne	-11.535
min	-11.535
▁vale	-11.5367
▁gal	-11.5369
▁glut	-11.5385
borough	-11.5385
▁bullets	-11.5392
ker	-11.5395
▁merc	-11.5396
▁critique	-11.5399
storm	-11.54
▁walt	-11.5405
▁circus	-11.5405
▁hijab	-11.5405
▁precinct	-11.5405
▁singapore	-11.5405
▁beverage	-11.5405
▁scratch	-11.5405
▁spree	-11.5405
▁relentless	-11.5405
▁psychological	-11.5406
▁goper	-11.5407
▁pur	-11.5409
inson	-11.5409
▁disagreement	-11.541
▁interaction	-11.5411
▁contributor	-11.5413
▁evacuat	-11.5417
▁intensifie	-11.5424
▁cris	-11.5426
▁stockhol	-11.5426
views	-11.543
▁secur	-11.543
▁newborn	-11.5433
ybody	-11.5433
▁parish	-11.5433
▁slice	-11.5434
ois	-11.5439
▁appreciate	-11.5444
▁fo	-11.5446
▁ore	-11.5455
▁governors	-11.5463
▁dirt	-11.5466
▁slaughter	-11.5467
▁oss	-11.5469
▁tackl	-11.5473
▁sanch	-11.5485
week	-11.5489
ite	-11.5489
hold	-11.5491
▁heir	-11.5494
▁hoax	-11.5497
▁evacuate	-11.5498
dom	-11.55
▁firearm	-11.5507
▁offset	-11.551
▁retaliati	-11.5511
▁bloom	-11.5511
▁aggravat	-11.5512
▁despair	-11.5512
▁spiral	-11.5512
▁default	-11.5512
▁enrique	-11.5512
▁android	-11.5512
▁bishop	-11.5512
▁freddie	-11.5512
▁ginsburg	-11.5512
▁pornograph	-11.5512
▁estrang	-11.5512
▁headache	-11.5513
▁assign	-11.5515
▁contradict	-11.5517
▁merit	-11.5521
dominant	-11.5532
room	-11.5533
▁novelist	-11.5533
▁billboard	-11.5534
▁nigerian	-11.5537
▁activis	-11.5539
donaldtrump	-11.554
▁mour	-11.554
▁brass	-11.5546
▁wis	-11.5547
▁flagg	-11.5551
▁playbo	-11.5555
▁coin	-11.5563
▁qaeda	-11.5566
▁crushing	-11.5577
▁lav	-11.558
▁developments	-11.5593
atic	-11.5603
▁slur	-11.5603
▁fur	-11.5607
▁compli	-11.5609
▁formula	-11.5611
▁renew	-11.5612
▁intercept	-11.5614
▁diamond	-11.5614
▁inject	-11.5615
ming	-11.5616
▁1992	-11.5619
▁melbourn	-11.5619
▁hatred	-11.5619
▁acquitt	-11.562
▁alexandria	-11.562
▁emma	-11.562
▁obligation	-11.562
▁gymnastic	-11.562
▁hover	-11.5621
▁slapp	-11.5623
▁installment	-11.5625
▁awaken	-11.5628
▁trooper	-11.5631
▁analyz	-11.5633
▁sour	-11.5635
▁nord	-11.564
▁donate	-11.5642
▁kenne	-11.5646
▁110	-11.5646
▁bother	-11.5647
▁spectacle	-11.5648
▁wise	-11.5649
▁accuser	-11.5654
▁emotions	-11.5665
▁carol	-11.5675
▁separat	-11.569
band	-11.5692
▁surreal	-11.5696
▁congratulat	-11.5702
▁ethical	-11.5705
distribution	-11.571
▁audit	-11.5713
▁chips	-11.5714
▁undis	-11.5717
▁crystal	-11.5722
▁riders	-11.5725
▁midwest	-11.5728
▁tissue	-11.5728
▁persistent	-11.5728
▁skull	-11.5728
▁ackman	-11.5728
▁retweet	-11.5728
▁podium	-11.5729
▁sunny	-11.5729
▁instructor	-11.573
▁lamar	-11.5732
▁townhouse	-11.5733
▁instruction	-11.5734
▁kyle	-11.5738
▁waiver	-11.574
▁jaw	-11.5743
▁brace	-11.5743
▁composer	-11.5746
▁borough	-11.5748
cu	-11.5771
table	-11.5771
▁honored	-11.5772
rief	-11.5774
ular	-11.5775
▁dutie	-11.5784
eased	-11.5785
▁poster	-11.5787
ula	-11.5788
▁bak	-11.5791
▁flu	-11.5807
▁rings	-11.5813
ice	-11.5816
▁contrar	-11.5817
▁lists	-11.5819
▁kenya	-11.5821
▁pav	-11.5822
accompanied	-11.5824
:20	-11.5824
▁cage	-11.5825
▁rogers	-11.5831
▁yu	-11.5837
▁alligator	-11.5838
▁convincing	-11.5838
▁griffin	-11.5838
▁credibility	-11.5838
▁chrys	-11.5838
▁bureaucrat	-11.5838
▁voluntar	-11.5838
▁warplane	-11.5839
▁savage	-11.5839
▁terrifi	-11.5839
▁dj	-11.5841
▁renewable	-11.5841
▁pirate	-11.5841
bec	-11.5844
▁organic	-11.5845
▁sprint	-11.5846
▁goldberg	-11.585
▁pep	-11.5851
▁secretive	-11.5853
▁nun	-11.5854
▁reviewed	-11.5854
▁courthouse	-11.5856
▁fixed	-11.5857
▁clapp	-11.5859
▁eater	-11.5864
▁rust	-11.5864
▁bend	-11.5873
▁proven	-11.5875
▁pric	-11.5881
▁channels	-11.5881
bu	-11.5882
▁serge	-11.5882
▁throat	-11.5882
▁vulnerabilit	-11.5885
▁lions	-11.5886
▁180	-11.5889
▁folk	-11.5893
▁lining	-11.5895
▁bile	-11.5898
▁lovers	-11.5903
orte	-11.5911
▁enable	-11.5912
page	-11.5915
burn	-11.5916
▁haz	-11.5921
▁pipe	-11.5924
▁pushe	-11.5924
▁hav	-11.5936
▁71	-11.5938
▁shy	-11.5938
▁instinct	-11.5948
▁horizon	-11.5949
▁1993	-11.5949
▁dilemma	-11.5949
▁embark	-11.5949
▁juvenile	-11.5949
▁lump	-11.5949
▁backdrop	-11.595
▁payroll	-11.595
pedes	-11.595
ight	-11.5955
▁lyf	-11.5955
▁disappearance	-11.5955
den	-11.5957
rk	-11.5961
▁gesture	-11.5963
▁capt	-11.5964
gen	-11.5967
▁tail	-11.5973
▁fastest	-11.5974
▁yank	-11.5975
▁malaysian	-11.5978
ther	-11.5978
▁bros	-11.5982
▁intervene	-11.5985
▁ka	-11.5993
skirts	-11.5995
inho	-11.5999
▁lawn	-11.6015
▁tapes	-11.6028
▁grad	-11.6035
▁lucie	-11.6043
▁cute	-11.6053
▁vest	-11.6058
sex	-11.6059
▁guitar	-11.606
▁fugitive	-11.6061
▁revamp	-11.6061
▁subscription	-11.6061
▁supplement	-11.6061
▁scatter	-11.6061
▁mohamed	-11.6061
▁gradual	-11.6061
▁railroad	-11.6061
▁tentative	-11.6061
▁issuing	-11.6061
▁cardinal	-11.6062
▁collaboration	-11.6062
▁92	-11.6062
▁arrangement	-11.6062
▁rican	-11.6067
▁tu	-11.607
▁stag	-11.6074
nage	-11.6076
▁mario	-11.6078
▁buyout	-11.608
stock	-11.6081
▁proper	-11.6082
▁staggering	-11.6082
cha	-11.6083
▁predictable	-11.6089
▁serena	-11.6089
▁lap	-11.6093
▁wav	-11.6108
ana	-11.611
▁stereotype	-11.6111
▁pete	-11.6111
▁fury	-11.6114
▁org	-11.6118
▁wasser	-11.6119
▁notabl	-11.613
▁contend	-11.6133
▁destroyer	-11.6137
▁wan	-11.6138
▁swath	-11.6139
▁huffing	-11.6142
▁93	-11.6153
▁logo	-11.6155
▁brac	-11.6155
▁jeopard	-11.616
▁wil	-11.6161
▁sunni	-11.6164
▁overwhelm	-11.6169
▁chatt	-11.617
▁overshadow	-11.6175
▁raucous	-11.6175
▁salvador	-11.6175
▁epipen	-11.6175
▁klein	-11.6175
▁mastermind	-11.6175
▁delicious	-11.6175
▁meltdown	-11.6175
▁smear	-11.6175
▁freezing	-11.6175
▁bogus	-11.6175
▁seizure	-11.6175
▁boko	-11.6175
▁lavish	-11.6176
▁shutt	-11.6176
▁passport	-11.6176
▁corbyn	-11.6177
▁rattl	-11.6179
▁pageant	-11.6179
▁exceptional	-11.618
▁peril	-11.618
▁fallow	-11.618
▁digest	-11.6181
space	-11.6181
▁jenner	-11.6185
▁concealed	-11.619
▁rhode	-11.6191
▁fictional	-11.6191
▁economi	-11.6195
▁bruis	-11.6195
▁begg	-11.6204
▁wow	-11.6209
▁autops	-11.6214
▁orthodox	-11.6218
▁cooperate	-11.622
▁checkpoint	-11.622
mta	-11.622
ged	-11.6222
▁den	-11.6238
ulsa	-11.6243
▁bride	-11.6246
alman	-11.6251
▁jesse	-11.6255
▁hay	-11.6258
▁breathing	-11.626
▁ministers	-11.626
▁polar	-11.6261
▁arthur	-11.6267
▁endur	-11.6272
▁layer	-11.6273
▁lyric	-11.6275
▁chile	-11.6279
▁oz	-11.6281
▁exhaust	-11.6282
▁controversi	-11.6283
mccrory	-11.629
▁maneuver	-11.629
▁grasp	-11.629
▁oxford	-11.629
▁parole	-11.629
▁interstate	-11.629
▁elliott	-11.6292
ack	-11.6292
▁holmes	-11.6292
irut	-11.6293
▁cabin	-11.6293
▁yea	-11.6294
▁civilization	-11.6295
▁gown	-11.6295
▁rev	-11.6297
▁lauder	-11.6299
weight	-11.63
▁cond	-11.6302
▁upgrade	-11.631
▁queer	-11.631
▁choke	-11.6315
▁gon	-11.6319
▁characteriz	-11.6321
▁breathe	-11.6325
▁undermin	-11.6329
▁tablet	-11.6338
▁tuck	-11.634
rod	-11.6342
odell	-11.6342
▁matches	-11.6343
▁enforc	-11.6343
▁crisp	-11.6346
▁spa	-11.635
▁annotat	-11.635
▁mrs	-11.6354
▁slot	-11.6354
▁villain	-11.6354
▁cor	-11.6355
▁enthusiastic	-11.6358
▁observ	-11.6364
▁pharma	-11.6372
▁fraternit	-11.6377
▁prop	-11.638
ali	-11.6382
▁flooded	-11.639
▁amnes	-11.64
▁booker	-11.6404
▁1984	-11.6406
▁gossip	-11.6406
▁improper	-11.6406
▁kkk	-11.6406
▁lucrative	-11.6406
▁montgomer	-11.6406
▁scathing	-11.6406
▁stimulus	-11.6406
croft	-11.6406
▁haram	-11.6406
▁roar	-11.6407
▁appointee	-11.6408
▁happiness	-11.6408
ef	-11.6409
▁playground	-11.6412
▁underwater	-11.6415
▁adele	-11.6417
▁plagu	-11.6418
atomic	-11.642
▁knight	-11.6421
▁soap	-11.6423
▁penguin	-11.6424
▁poetry	-11.6427
▁pollut	-11.6427
standing	-11.6428
fall	-11.643
▁peru	-11.6431
▁chairs	-11.6447
enberg	-11.6452
aid	-11.6455
ulva	-11.6458
▁invok	-11.646
▁libyan	-11.6463
▁reassure	-11.6463
▁endure	-11.647
▁latinos	-11.6472
▁disabilit	-11.6474
▁cr	-11.6475
teen	-11.6477
▁lure	-11.6477
▁sin	-11.6478
▁stops	-11.6482
▁junk	-11.6488
▁goat	-11.6492
▁mat	-11.6495
▁dismantl	-11.6497
▁poorly	-11.6509
wich	-11.6514
▁dau	-11.6514
▁qu	-11.6518
law	-11.6523
▁upside	-11.6523
▁grateful	-11.6524
▁horrifying	-11.6524
▁landlord	-11.6524
▁lloyd	-11.6524
▁sufficient	-11.6524
▁remake	-11.6524
▁heaven	-11.6524
▁shelve	-11.6524
▁rethink	-11.6525
▁greenhouse	-11.6527
▁sydne	-11.6527
▁ethan	-11.653
▁calorie	-11.6532
▁presentation	-11.6532
▁gaffe	-11.6536
▁ci	-11.6537
▁batch	-11.6538
af	-11.6542
▁hungr	-11.6545
▁butt	-11.6546
▁solv	-11.6554
▁magical	-11.6556
▁dire	-11.6556
ph	-11.6556
▁snyder	-11.6559
say	-11.6562
▁facto	-11.6566
▁bern	-11.6567
▁trainer	-11.6576
▁programm	-11.6577
▁shinz	-11.6577
▁finest	-11.6588
▁rolls	-11.6592
▁selfies	-11.6597
▁applie	-11.66
▁hug	-11.661
lux	-11.661
▁buckle	-11.6618
▁wipe	-11.6619
uck	-11.6628
▁tactic	-11.6631
▁accounting	-11.6632
▁boosting	-11.6642
▁allegiance	-11.6643
▁ebola	-11.6643
▁fitzpatrick	-11.6643
▁murdoch	-11.6643
▁drastic	-11.6643
▁indefinite	-11.6643
▁vogue	-11.6643
▁atrocit	-11.6643
▁thomson	-11.6643
▁hazard	-11.6643
▁simmon	-11.6645
▁mitchell	-11.6645
test	-11.6648
▁wrongdo	-11.6648
▁denton	-11.6649
▁91	-11.665
▁negotiate	-11.6651
▁115	-11.6655
▁alban	-11.6656
▁rocks	-11.6658
▁farms	-11.6658
▁hood	-11.666
eastern	-11.6664
▁gala	-11.6668
▁cite	-11.667
oli	-11.6678
jo	-11.6681
iz	-11.6681
▁debri	-11.6684
ium	-11.6692
▁resolv	-11.6692
leaguer	-11.6696
▁rouse	-11.6705
▁slid	-11.6712
▁tumble	-11.6713
▁nest	-11.6714
▁browns	-11.6714
▁grid	-11.6723
▁gard	-11.6724
ich	-11.6725
▁dement	-11.6726
▁patron	-11.6728
ator	-11.6741
▁clinical	-11.6743
▁demi	-11.6743
▁expos	-11.6758
▁mack	-11.6759
▁indexe	-11.676
▁brazen	-11.6763
▁debunk	-11.6763
▁exploding	-11.6763
▁incorrect	-11.6763
▁snatch	-11.6763
▁distant	-11.6763
▁reiterat	-11.6763
▁tariff	-11.6763
▁awesome	-11.6763
▁cyberattack	-11.6763
▁twenty	-11.6763
▁probation	-11.6764
▁offseason	-11.6768
▁che	-11.6774
▁spouse	-11.6775
▁upstate	-11.6776
▁usher	-11.6777
▁injunction	-11.678
▁dismissal	-11.6781
▁summon	-11.6781
▁boxe	-11.6781
brook	-11.6785
▁designat	-11.679
▁reinstate	-11.6797
▁attractive	-11.6799
▁stumbl	-11.68
▁crop	-11.6802
▁capp	-11.6805
month	-11.6807
rated	-11.6808
▁krist	-11.681
▁evangelicals	-11.6816
▁disability	-11.6817
▁rout	-11.6822
▁hi	-11.6826
▁sneak	-11.6827
ulter	-11.6828
gh	-11.6836
▁prob	-11.6838
▁postpon	-11.6851
▁lash	-11.6855
credible	-11.6857
wwe	-11.6861
▁beam	-11.6863
▁mayer	-11.6863
▁ax	-11.6866
tolerance	-11.6867
proving	-11.6875
▁stra	-11.688
kind	-11.6881
anne	-11.6882
▁bidd	-11.6883
▁culminat	-11.6885
▁applaud	-11.6885
▁convenience	-11.6885
▁swallow	-11.6885
▁toyota	-11.6885
▁thumb	-11.6885
▁dolphin	-11.6885
▁glance	-11.6885
▁revisit	-11.6885
▁dialogue	-11.6885
▁snack	-11.6885
▁gianf	-11.6885
▁alicia	-11.6885
▁heavyweight	-11.6886
▁reception	-11.6887
▁backpack	-11.6887
▁compromised	-11.6888
▁davo	-11.6889
▁joan	-11.6894
ban	-11.6895
▁wats	-11.6895
alph	-11.6897
▁sur	-11.6899
▁stockpile	-11.6899
▁nike	-11.6901
▁trips	-11.6903
▁accelerate	-11.691
▁gra	-11.691
fight	-11.6919
set	-11.692
▁inflict	-11.6926
▁wield	-11.693
play	-11.693
▁fu	-11.6939
▁bridges	-11.6947
▁ward	-11.6948
▁98	-11.695
▁accusation	-11.6953
ura	-11.6954
ique	-11.6958
▁figur	-11.696
▁fines	-11.6962
hn	-11.6962
▁guru	-11.6967
▁jacobs	-11.6968
asse	-11.6969
sumption	-11.697
▁speakers	-11.6971
pr	-11.6974
watch	-11.6977
lander	-11.6979
▁humble	-11.6983
▁consulting	-11.6988
ai	-11.6996
▁cliff	-11.6997
making	-11.7003
▁deter	-11.7003
▁exaggerat	-11.7005
▁swap	-11.7008
▁absent	-11.7008
▁delicate	-11.7009
▁magnitude	-11.7009
▁microcephal	-11.7009
▁neglect	-11.7009
▁transmission	-11.7009
▁whistleblower	-11.7009
▁bystander	-11.7009
▁roast	-11.7009
▁definitive	-11.7009
▁uproar	-11.7009
▁gorka	-11.7009
▁sergeant	-11.7009
▁covet	-11.701
shiba	-11.701
▁ahmed	-11.7011
▁exploration	-11.7011
▁lightning	-11.7011
▁distraction	-11.7011
▁backyard	-11.7012
▁beats	-11.7012
▁coward	-11.7012
▁pivotal	-11.7013
▁mara	-11.7013
▁recreational	-11.7013
▁songwriter	-11.7015
▁puz	-11.7015
▁pressured	-11.7016
▁outage	-11.7016
▁lil	-11.7017
▁ja	-11.7018
▁alec	-11.7018
▁roommate	-11.702
▁kis	-11.7021
▁dipp	-11.7027
cat	-11.7028
anmar	-11.7033
▁coral	-11.7035
related	-11.7035
▁colon	-11.7038
▁nut	-11.7043
▁forgive	-11.7044
▁vegan	-11.7044
▁bearing	-11.7045
▁chains	-11.7046
check	-11.7047
rid	-11.705
▁bleeding	-11.705
▁staple	-11.7056
▁guaranteed	-11.7061
▁steadi	-11.707
▁160	-11.7072
▁farmer	-11.7074
▁sparks	-11.7078
▁gonzal	-11.7085
diana	-11.7085
▁swell	-11.7092
▁offend	-11.7096
inster	-11.7097
closed	-11.7116
▁trumpism	-11.7121
▁buoy	-11.7126
▁construct	-11.713
▁96	-11.7133
munition	-11.7134
▁companion	-11.7134
▁enclave	-11.7134
▁gorgeous	-11.7134
▁protocol	-11.7134
▁bulk	-11.7134
▁charitabl	-11.7134
▁dignity	-11.7134
▁brenna	-11.7134
oxide	-11.7134
▁restructuring	-11.7134
▁bucket	-11.7135
▁execute	-11.7135
▁natalie	-11.7135
▁bleak	-11.7136
▁nonsens	-11.7136
▁deliberation	-11.7137
▁poisoning	-11.7137
▁fringe	-11.7138
▁canne	-11.7139
▁qui	-11.714
▁dread	-11.7141
▁insane	-11.7142
lia	-11.7142
▁upbeat	-11.7142
▁fitting	-11.7146
▁iceland	-11.7147
▁stok	-11.7147
▁stressed	-11.7149
▁trap	-11.715
▁pc	-11.7152
▁reflection	-11.7156
▁pleasure	-11.7157
▁sacrifice	-11.7166
▁div	-11.7166
▁tumbled	-11.7172
▁listener	-11.7172
▁finaliz	-11.7172
▁taka	-11.7173
▁fade	-11.7178
clu	-11.7178
▁trac	-11.7182
▁foreigner	-11.7186
▁advise	-11.7187
▁brandon	-11.7187
lay	-11.7189
nytime	-11.7193
▁tenn	-11.7197
ue	-11.7197
▁comet	-11.7199
▁linda	-11.7201
▁dishe	-11.7201
▁palmer	-11.7204
▁nazis	-11.7206
mm	-11.7209
ny	-11.721
▁cho	-11.721
▁equit	-11.7211
▁diagnosi	-11.7213
▁algorithm	-11.7214
▁dude	-11.7216
▁dynamic	-11.7218
▁97	-11.7225
▁brewer	-11.7227
▁glad	-11.7229
▁sara	-11.7233
▁270	-11.7235
▁dancer	-11.7243
▁populis	-11.7248
▁creates	-11.7254
▁pine	-11.7254
▁strategi	-11.7254
▁aero	-11.7254
scale	-11.7255
ugh	-11.7255
▁betray	-11.7257
▁hysteri	-11.726
▁delegation	-11.726
▁riyad	-11.726
▁incentive	-11.726
▁conscience	-11.726
▁mishandl	-11.726
▁cotton	-11.726
▁shiite	-11.7261
▁spat	-11.7261
▁helmet	-11.7261
▁worrying	-11.7261
▁tales	-11.7262
▁litter	-11.7262
▁cartel	-11.7263
mont	-11.7266
▁fl	-11.7267
▁worsen	-11.7271
▁worm	-11.7271
▁municipal	-11.7271
▁depress	-11.7272
▁batteries	-11.7272
▁fantastic	-11.7273
▁bounce	-11.7273
mp	-11.7275
▁hats	-11.7276
▁sack	-11.7276
▁clo	-11.7279
▁chemist	-11.7281
erald	-11.7289
▁doug	-11.7289
▁prom	-11.7291
▁bon	-11.7292
▁sew	-11.7293
ix	-11.7294
rock	-11.7298
▁distinguish	-11.7298
▁santi	-11.7299
▁rear	-11.7304
▁bl	-11.7305
hr	-11.7306
▁ivy	-11.7306
hu	-11.7307
lf	-11.7312
▁sights	-11.7316
▁barn	-11.7319
ile	-11.7323
▁genes	-11.7324
▁container	-11.7324
▁drift	-11.7326
▁dot	-11.7326
▁brun	-11.7326
ff	-11.7329
▁lover	-11.733
kh	-11.7331
▁mint	-11.7334
▁carly	-11.7335
fest	-11.7336
▁pressing	-11.7345
▁unfairly	-11.7348
▁warrior	-11.7364
▁balls	-11.7365
▁denounce	-11.7366
bit	-11.7376
▁rivers	-11.7379
▁rub	-11.7381
gra	-11.7381
▁bankrupt	-11.7386
▁wiretap	-11.7387
▁applicant	-11.7388
▁debacle	-11.7388
▁reckon	-11.7388
▁sympathy	-11.7388
▁tycoon	-11.7388
▁introduction	-11.7389
▁perception	-11.7389
▁rudy	-11.7389
▁caliph	-11.7389
▁frantic	-11.739
▁stiff	-11.739
▁imagination	-11.739
▁peek	-11.739
▁assignment	-11.7391
▁matchup	-11.7393
▁takeaway	-11.7393
▁limb	-11.7394
▁norman	-11.7396
▁klan	-11.7396
▁pepsi	-11.7397
▁mcad	-11.7397
fax	-11.7398
oney	-11.7398
▁simultaneously	-11.7398
▁diner	-11.7399
▁tempt	-11.74
▁rubber	-11.7403
▁outstanding	-11.7403
▁dense	-11.7405
nra	-11.7408
▁plum	-11.7416
▁committ	-11.7418
ach	-11.7421
▁toast	-11.7431
comm	-11.7433
▁dismay	-11.7433
▁verbal	-11.7434
▁temper	-11.7437
erie	-11.7439
▁feeding	-11.744
▁arch	-11.7441
▁scan	-11.7442
▁liar	-11.7452
▁mah	-11.7452
refore	-11.7455
▁nail	-11.7458
▁hype	-11.746
▁leaning	-11.7463
▁bud	-11.7466
▁staples	-11.7468
nice	-11.7474
▁hans	-11.7478
▁stumble	-11.7479
▁tam	-11.7483
▁perceiv	-11.7487
▁frog	-11.7493
▁bark	-11.7501
▁bout	-11.751
▁accompany	-11.7518
▁excerpt	-11.7518
▁impromptu	-11.7518
▁invisible	-11.7518
▁reconsider	-11.7518
▁solidarity	-11.7518
▁zombie	-11.7518
▁abdul	-11.7518
▁1968	-11.7518
▁appetite	-11.7518
▁eleven	-11.7518
▁cancelled	-11.752
▁defund	-11.752
▁ashley	-11.752
▁devil	-11.7521
▁conced	-11.7521
▁wilbur	-11.7521
▁vulgar	-11.7522
▁fanc	-11.7522
▁motorist	-11.7523
▁taunt	-11.7523
▁accomplishment	-11.7523
▁hardline	-11.7523
wan	-11.7524
▁laud	-11.7526
▁birther	-11.7528
▁transparent	-11.7528
▁minn	-11.7529
▁maher	-11.7529
▁kurd	-11.753
▁enroll	-11.7533
▁propell	-11.7534
▁albe	-11.7542
▁hated	-11.7544
▁distribut	-11.7546
istic	-11.7549
tact	-11.755
▁tribes	-11.7551
▁suck	-11.7559
▁fertil	-11.7561
▁smuggl	-11.757
▁tables	-11.7574
ara	-11.7578
elect	-11.7578
▁lou	-11.7579
▁valid	-11.758
▁drowned	-11.7588
▁borrow	-11.7589
▁ashe	-11.7593
▁espi	-11.7596
▁lonely	-11.7596
▁masse	-11.7596
▁aviv	-11.7598
▁debat	-11.7602
▁seeker	-11.7605
rez	-11.7606
cent	-11.7607
▁nast	-11.7615
manned	-11.7616
▁lynn	-11.7618
▁punk	-11.7625
▁bottles	-11.7625
▁sway	-11.763
▁newspapers	-11.7632
sey	-11.7642
▁distinct	-11.7646
issa	-11.7648
▁excess	-11.7649
▁1979	-11.765
▁1986	-11.765
▁adversar	-11.765
▁applause	-11.765
▁cathedral	-11.765
▁dystopia	-11.765
▁hypocris	-11.765
▁rescind	-11.765
▁tuition	-11.765
▁samuel	-11.765
▁aetna	-11.765
▁craze	-11.765
▁murk	-11.7651
▁unacceptable	-11.7652
▁canyon	-11.7654
rano	-11.7658
▁correctness	-11.7658
▁briton	-11.7661
▁frontier	-11.7662
▁formation	-11.7663
▁125	-11.7663
▁typ	-11.7663
▁panthers	-11.7667
fiat	-11.7668
▁beau	-11.7669
▁regulate	-11.7669
▁br	-11.767
▁underscore	-11.7672
ide	-11.7678
▁ridge	-11.7685
cker	-11.7689
▁tendenc	-11.769
▁outfit	-11.7698
▁clearance	-11.7703
▁bidder	-11.7705
▁burr	-11.7706
:	-11.7707
▁hurl	-11.7716
▁expire	-11.772
▁copie	-11.7724
▁satir	-11.7727
▁sang	-11.7733
▁graduat	-11.7744
erin	-11.775
igan	-11.7751
ency	-11.7753
▁burglar	-11.7754
▁mag	-11.7757
class	-11.7759
fish	-11.7776
▁boots	-11.7776
▁hugh	-11.7777
politan	-11.7777
▁forbe	-11.7778
▁thrust	-11.7783
▁baptist	-11.7783
▁barclay	-11.7783
▁outreach	-11.7783
▁sebasti	-11.7783
▁hilarious	-11.7783
▁blueprint	-11.7783
▁accent	-11.7784
▁blend	-11.7785
▁enrollment	-11.7786
▁101	-11.7789
▁negotiator	-11.779
▁escalation	-11.779
▁render	-11.7801
▁summar	-11.7803
▁emotion	-11.7803
▁linkedin	-11.7805
▁immun	-11.7806
▁navigate	-11.7809
nderga	-11.7809
▁salad	-11.781
▁mortal	-11.781
▁beatle	-11.7811
owed	-11.7812
ios	-11.7813
aw	-11.7813
▁efficient	-11.7818
▁troubles	-11.7822
▁kay	-11.784
▁lar	-11.7843
folk	-11.7852
together	-11.7853
sleep	-11.7854
▁presid	-11.7854
▁xl	-11.7857
▁scholar	-11.7862
▁glen	-11.787
lessness	-11.7872
▁sund	-11.7877
▁crippl	-11.7885
etti	-11.7888
▁cigarettes	-11.791
▁whip	-11.7912
▁jenn	-11.7918
▁embryo	-11.7918
▁necessit	-11.7918
▁bahrain	-11.7918
▁boulevard	-11.7918
▁clerk	-11.7918
▁deteriorat	-11.7918
▁diminish	-11.7918
▁tweak	-11.7918
▁fetal	-11.7918
▁stubborn	-11.7918
▁microphone	-11.7918
hop	-11.7919
▁clever	-11.7919
▁determination	-11.7919
▁ariz	-11.7919
▁swarm	-11.7919
▁interpretation	-11.7919
▁leban	-11.792
▁huck	-11.792
▁reclaim	-11.792
▁derby	-11.792
▁prosperity	-11.792
▁prank	-11.7921
▁decree	-11.7921
▁decent	-11.7922
▁pistol	-11.7922
▁puzzle	-11.7924
▁watergate	-11.7924
pollo	-11.7925
▁outcr	-11.7928
▁barrage	-11.7928
▁reap	-11.7935
▁amend	-11.7937
▁vanity	-11.7938
▁warship	-11.7938
▁garc	-11.7941
▁vault	-11.7944
▁juice	-11.7947
baba	-11.7948
▁launder	-11.795
▁torn	-11.7954
away	-11.7961
ott	-11.7961
rin	-11.7966
▁digit	-11.797
▁detonat	-11.7972
ille	-11.7975
state	-11.7982
▁slap	-11.7983
▁caps	-11.7984
▁krista	-11.7984
▁coma	-11.7985
40	-11.7985
▁lgbtq	-11.7988
continent	-11.7994
▁entit	-11.7994
▁collaps	-11.7995
tom	-11.7995
▁stephan	-11.7995
▁horses	-11.7997
rigid	-11.7997
▁suits	-11.8003
▁butter	-11.8004
▁liv	-11.8016
▁unify	-11.8023
▁rever	-11.8026
▁frenz	-11.8031
▁dorm	-11.8031
▁stree	-11.8032
▁sank	-11.8037
stitution	-11.804
▁plug	-11.8041
▁ul	-11.8046
▁tab	-11.8046
ahl	-11.8049
▁instrument	-11.8052
▁amateur	-11.8055
▁asteroid	-11.8055
▁autopilot	-11.8055
▁evident	-11.8055
▁handcuff	-11.8055
▁prejudice	-11.8055
▁contempt	-11.8055
▁implant	-11.8055
▁jolt	-11.8055
▁sulliv	-11.8055
▁emanuel	-11.8055
▁ahmad	-11.8055
▁leslie	-11.8055
▁lopez	-11.8056
▁blitz	-11.8056
▁insurgenc	-11.8056
▁possess	-11.8056
▁incarceration	-11.8056
▁observation	-11.8056
▁jonah	-11.8057
▁slaying	-11.8057
▁psychologist	-11.8057
▁hopkins	-11.8058
▁deadlock	-11.8058
car	-11.8058
proxy	-11.8065
litary	-11.8067
▁balanc	-11.807
▁chole	-11.807
ain	-11.8071
▁bulls	-11.8077
▁perk	-11.8077
▁yan	-11.8079
aylor	-11.808
▁mason	-11.8085
face	-11.8086
▁communicate	-11.8089
▁bai	-11.8098
▁eddie	-11.8098
▁donna	-11.8099
▁vol	-11.8107
▁spar	-11.8112
▁robotic	-11.8112
▁sneaker	-11.8121
▁permitt	-11.8122
tar	-11.8123
naka	-11.8124
▁consist	-11.813
pal	-11.813
style	-11.8134
▁armor	-11.8137
▁thorn	-11.8148
▁outdoor	-11.8149
▁ala	-11.8149
▁mut	-11.8154
▁interpret	-11.8159
▁etc	-11.8162
cus	-11.8164
▁administrators	-11.8166
▁pills	-11.8166
▁stamp	-11.8168
▁conceal	-11.8175
▁attribut	-11.8178
gu	-11.8183
▁illustrate	-11.8184
▁ensu	-11.8189
▁receiver	-11.8193
ru	-11.8193
▁apocalypse	-11.8194
▁gadget	-11.8194
▁patriarch	-11.8194
▁rihanna	-11.8194
▁shanghai	-11.8194
▁skyscraper	-11.8194
▁tabloid	-11.8194
▁fitzg	-11.8194
▁premature	-11.8194
▁barcelo	-11.8194
▁fetus	-11.8194
▁monarch	-11.8194
▁envision	-11.8195
▁faint	-11.8195
▁turnaround	-11.8195
▁1940	-11.8195
▁glorious	-11.8195
▁segregation	-11.8195
▁aerial	-11.8195
acp	-11.8195
▁cornell	-11.8196
▁embedd	-11.8197
▁fuck	-11.8197
▁unilateral	-11.8198
▁petrole	-11.8199
▁brains	-11.8201
▁pie	-11.8202
▁supervisor	-11.8205
▁pompe	-11.8205
▁350	-11.8207
zel	-11.8207
▁tiff	-11.8208
▁mud	-11.821
▁booth	-11.8213
eg	-11.8216
▁virtue	-11.8218
▁graves	-11.8221
uz	-11.8226
▁uneas	-11.8226
▁rash	-11.8227
▁rig	-11.8234
▁ammon	-11.8244
▁compos	-11.8251
mc	-11.8265
▁macha	-11.8268
city	-11.8268
0,000	-11.8275
▁licens	-11.8281
white	-11.8282
heim	-11.8291
▁tar	-11.8292
▁somali	-11.8296
▁nige	-11.8296
▁chew	-11.8296
▁grappl	-11.8302
ears	-11.8317
▁delight	-11.8322
▁dayton	-11.8322
▁wet	-11.8322
▁uprising	-11.8325
▁dare	-11.8332
▁1973	-11.8335
▁1991	-11.8335
▁arbitration	-11.8335
▁civic	-11.8335
▁elusive	-11.8335
▁fraudulent	-11.8335
▁girard	-11.8335
▁mammal	-11.8335
▁paradise	-11.8335
▁adolf	-11.8335
▁renown	-11.8335
▁trevor	-11.8335
▁rodgers	-11.8335
▁falter	-11.8335
▁avert	-11.8336
▁hick	-11.8336
▁westm	-11.8337
▁breakdown	-11.8337
▁extinction	-11.8337
▁vander	-11.834
▁disma	-11.834
▁confession	-11.8341
▁slips	-11.8342
▁powerhouse	-11.8343
▁daylight	-11.8348
▁glasse	-11.835
▁outlaw	-11.8351
hl	-11.8352
▁fx	-11.8356
▁serbia	-11.8359
▁certificate	-11.8361
▁extract	-11.8362
▁bore	-11.8363
▁bou	-11.8365
▁hubb	-11.8374
▁accountable	-11.8378
▁mont	-11.838
▁novels	-11.8382
▁drunken	-11.8384
▁dug	-11.8389
▁stripped	-11.839
▁rik	-11.8393
▁750	-11.8394
nan	-11.8394
wives	-11.8401
▁thriv	-11.8402
▁parallel	-11.8402
santo	-11.8403
▁inch	-11.8407
▁addresse	-11.8411
▁collid	-11.8412
▁intern	-11.8426
zo	-11.8427
▁identit	-11.843
▁prosecut	-11.843
du	-11.8437
▁reconcili	-11.8439
mine	-11.8441
▁authors	-11.8443
▁affecting	-11.8447
▁bagg	-11.8447
▁movements	-11.8448
▁blown	-11.8448
▁arrang	-11.8449
▁curve	-11.845
nton	-11.845
season	-11.845
▁showcase	-11.8451
want	-11.8456
▁flick	-11.846
▁levi	-11.8462
▁stalk	-11.8464
▁deer	-11.8466
ber	-11.8469
▁za	-11.8471
▁gregor	-11.8472
▁emphasis	-11.8478
▁sacrament	-11.8478
▁threshold	-11.8478
▁uninsur	-11.8478
▁abraham	-11.8478
▁tornado	-11.8478
▁elegant	-11.8478
▁fernand	-11.8478
▁archaeologist	-11.8478
▁theatre	-11.8478
▁lottery	-11.8478
▁bigotry	-11.8479
▁vincent	-11.8479
▁intensify	-11.8479
▁conservation	-11.848
▁banana	-11.848
▁meaningful	-11.8481
▁medium	-11.8481
▁isolation	-11.8482
▁renewal	-11.8482
▁newton	-11.8483
▁playbook	-11.8485
▁adoption	-11.8492
▁ought	-11.8494
oy	-11.8498
▁consult	-11.85
▁vr	-11.85
▁crimea	-11.8507
▁stevens	-11.8509
▁heap	-11.8511
▁mas	-11.8512
▁manipulat	-11.8524
vis	-11.8525
▁embarrassed	-11.8526
nmark	-11.8526
rr	-11.8536
▁tpp	-11.8536
▁stray	-11.8539
▁misl	-11.8548
▁joel	-11.8549
▁fractur	-11.8552
▁skirt	-11.8561
ray	-11.8563
ag	-11.8563
▁accessor	-11.8568
colm	-11.8568
eck	-11.857
▁tilt	-11.8572
▁eventual	-11.8573
agne	-11.8582
ip	-11.8583
bird	-11.8583
▁millionaire	-11.8587
▁cur	-11.859
▁directive	-11.8598
▁underscor	-11.8598
▁insulting	-11.8599
▁authentic	-11.8601
nbc	-11.8603
▁lp	-11.8603
▁texts	-11.8608
▁tun	-11.861
core	-11.8619
▁reunit	-11.8621
tel	-11.8621
▁psychiatr	-11.8622
▁innovati	-11.8622
▁1998	-11.8623
▁ambulance	-11.8623
▁bieber	-11.8623
▁servant	-11.8623
▁sculpture	-11.8623
▁lobster	-11.8623
▁shrine	-11.8623
▁consequential	-11.8623
▁nonpartisan	-11.8623
▁flesh	-11.8623
▁mormon	-11.8623
▁1972	-11.8623
▁poem	-11.8624
▁quinn	-11.8624
▁gilbert	-11.8624
▁thankful	-11.8627
▁empath	-11.863
▁nevertrump	-11.8634
▁harvest	-11.8639
▁exile	-11.8641
▁encountered	-11.8649
▁sore	-11.865
▁translate	-11.866
▁gi	-11.866
▁marie	-11.8667
ida	-11.8672
▁reshape	-11.8676
▁chery	-11.8678
cop	-11.868
▁curs	-11.8683
bra	-11.8685
▁sala	-11.8695
▁hanks	-11.8703
sch	-11.8704
ama	-11.8706
▁tally	-11.8717
▁butler	-11.8729
eparation	-11.8732
▁fift	-11.8734
onage	-11.8735
▁blond	-11.8741
▁kar	-11.8749
▁castle	-11.8754
gue	-11.8758
▁berry	-11.8761
illa	-11.8763
▁tan	-11.8765
▁leverage	-11.8767
clusion	-11.8769
▁trait	-11.8769
▁prolif	-11.877
▁norwegian	-11.877
▁cluster	-11.877
▁vagina	-11.877
▁graft	-11.877
▁alternate	-11.877
▁flourish	-11.877
▁charities	-11.877
▁philippe	-11.877
▁twel	-11.877
▁1976	-11.877
▁unearth	-11.877
▁ankle	-11.877
▁bronze	-11.8771
▁birm	-11.8771
▁preference	-11.8772
▁garage	-11.8772
▁psycholog	-11.8772
▁polite	-11.8772
▁poop	-11.8772
▁neat	-11.8773
▁harrow	-11.8773
▁kan	-11.8775
▁bis	-11.8776
elli	-11.8777
▁heather	-11.8777
▁downplay	-11.8777
▁motivation	-11.8777
▁transmitt	-11.8778
▁gaza	-11.8782
▁disruption	-11.8786
▁veil	-11.8786
▁tumbl	-11.8787
▁hallway	-11.8787
▁schneider	-11.8788
▁shipment	-11.8788
▁dock	-11.8788
▁grimm	-11.8791
ala	-11.8794
ado	-11.8796
▁meyer	-11.8798
▁lewd	-11.88
▁capitalism	-11.8805
ash	-11.8811
▁assumption	-11.882
▁kicks	-11.8822
▁gripp	-11.8833
▁ros	-11.8835
ert	-11.8837
▁spaces	-11.885
:50	-11.886
▁tre	-11.8865
ries	-11.8866
:40	-11.8866
▁inclusive	-11.8871
▁dealers	-11.8877
fried	-11.8883
strong	-11.8884
▁kissing	-11.889
tra	-11.8891
▁torch	-11.8899
▁sock	-11.89
▁jamaica	-11.8902
▁bret	-11.8906
▁dolan	-11.8908
▁fixing	-11.8911
ridge	-11.8912
renzi	-11.8913
▁laborator	-11.8913
▁subscribe	-11.8913
▁ironic	-11.8916
▁concede	-11.8917
▁courage	-11.8919
▁1985	-11.8919
▁handmaid	-11.8919
▁intrigue	-11.8919
▁jurisdiction	-11.8919
▁monopol	-11.8919
▁substantive	-11.8919
▁unconventional	-11.8919
▁vindicat	-11.8919
▁aggression	-11.8919
▁boehner	-11.8919
▁curtain	-11.8919
▁granddaughter	-11.8919
▁inflammat	-11.8919
▁kraft	-11.8919
▁eyebrow	-11.8919
▁pandor	-11.8919
▁sunset	-11.892
▁enlist	-11.892
▁bury	-11.8921
▁carmaker	-11.8925
▁harrie	-11.8925
▁programme	-11.8927
▁screw	-11.893
▁outpost	-11.8931
▁beverl	-11.8933
▁haye	-11.8936
▁vary	-11.8939
▁furor	-11.894
▁justified	-11.8941
▁vacan	-11.8942
▁legion	-11.8943
▁heist	-11.8945
▁sheer	-11.8948
▁rejection	-11.8948
▁ouster	-11.895
▁cro	-11.8952
▁calculated	-11.8961
▁lew	-11.8962
▁canal	-11.8962
▁doc	-11.8967
▁clad	-11.8973
▁gutt	-11.898
▁dogged	-11.8981
ola	-11.8983
▁fend	-11.8985
▁spann	-11.8992
ori	-11.8993
res	-11.9
sapp	-11.9003
▁litigati	-11.9004
▁misogyn	-11.9011
▁gro	-11.9013
macy	-11.9016
frey	-11.9017
iffe	-11.9018
▁kh	-11.9023
▁sid	-11.9025
▁levin	-11.9029
▁deserved	-11.9033
▁farming	-11.9035
hia	-11.9036
▁till	-11.9037
—	-11.904
▁explorer	-11.9041
ampton	-11.9042
▁juli	-11.9047
▁eeri	-11.9048
▁ch	-11.9048
ada	-11.9052
▁distracted	-11.9062
▁significan	-11.9065
▁limbo	-11.9065
▁purge	-11.9065
▁costa	-11.9066
▁legitima	-11.9069
▁chorus	-11.9071
▁concussion	-11.9071
▁unlawful	-11.9071
▁unnecessar	-11.9071
pablo	-11.9071
▁rafael	-11.9071
▁modifi	-11.9071
▁crawl	-11.9071
▁examination	-11.9073
▁reunion	-11.9073
▁darling	-11.9074
▁insect	-11.9074
▁tyson	-11.9074
▁rightwing	-11.9075
▁objective	-11.9075
▁hive	-11.9076
▁gallon	-11.9076
raging	-11.9077
▁khalid	-11.9078
▁petra	-11.9079
▁experimental	-11.9082
▁sober	-11.9083
▁occupier	-11.9084
▁ignit	-11.9085
▁holt	-11.9087
▁decrie	-11.9089
flux	-11.9091
▁sensor	-11.9093
▁spate	-11.9097
▁emphasiz	-11.9101
▁unifi	-11.9102
▁orchestrat	-11.9106
▁ruthless	-11.9106
▁squeeze	-11.9112
▁tooth	-11.9112
▁mic	-11.9116
fell	-11.9122
▁kris	-11.9122
▁190	-11.9125
▁wallet	-11.9133
fu	-11.9134
▁charming	-11.9135
▁carne	-11.9152
▁riz	-11.9153
▁tommy	-11.9154
▁chess	-11.9155
▁temperament	-11.9157
▁resemble	-11.9157
▁recuse	-11.9158
arold	-11.9159
▁spreads	-11.916
▁mold	-11.916
▁pets	-11.9163
uff	-11.9165
▁merge	-11.9166
ju	-11.9169
▁ki	-11.9172
▁homer	-11.918
rian	-11.9185
ower	-11.9203
nes	-11.9204
went	-11.9204
▁snake	-11.9205
rank	-11.9208
▁terribl	-11.9208
osa	-11.921
▁rescuer	-11.921
mates	-11.9215
▁von	-11.9218
▁norwa	-11.9221
▁nostalgi	-11.9223
▁obstruct	-11.9224
▁hussein	-11.9224
▁nichola	-11.9224
▁physicist	-11.9224
▁tsunami	-11.9224
▁whisper	-11.9224
▁generic	-11.9224
▁erratic	-11.9224
▁constitute	-11.9224
▁spiritual	-11.9225
▁piano	-11.9225
▁kingpin	-11.9225
▁torrent	-11.9225
▁pillar	-11.9225
▁trials	-11.9226
▁bentley	-11.9226
▁peddl	-11.9226
▁kendal	-11.9226
▁roam	-11.9226
▁fraction	-11.9229
▁eclipse	-11.9231
▁erdo	-11.9231
▁leon	-11.9233
▁contracepti	-11.9234
▁unf	-11.9236
cho	-11.9237
▁handel	-11.924
▁blockade	-11.924
▁torre	-11.924
tin	-11.9241
pro	-11.9245
▁organize	-11.9246
▁legalize	-11.9248
lon	-11.9249
▁sheep	-11.9251
▁boxer	-11.9253
settling	-11.9262
▁pb	-11.9264
▁payout	-11.9266
▁patt	-11.9267
▁technological	-11.9268
▁gent	-11.9271
▁butcher	-11.9273
hal	-11.9279
lago	-11.9281
▁populat	-11.9282
▁closet	-11.9284
▁relat	-11.9285
gle	-11.9285
yton	-11.9287
skies	-11.9288
▁collar	-11.9288
▁pale	-11.9288
abee	-11.9301
▁fond	-11.9303
▁acid	-11.9307
▁thrive	-11.9307
▁heartbreaking	-11.9309
▁mort	-11.931
▁rope	-11.9311
chin	-11.9316
▁capitalist	-11.9317
▁villa	-11.9321
val	-11.9322
▁forcibl	-11.9323
▁gamble	-11.9324
▁mem	-11.9328
ically	-11.9333
bas	-11.935
▁slashing	-11.9354
▁erect	-11.9357
hawk	-11.9358
romo	-11.936
▁ethiopia	-11.9363
▁closure	-11.9367
ika	-11.9367
▁olive	-11.9367
▁airing	-11.9372
▁chic	-11.9374
▁nerd	-11.9377
ku	-11.9378
▁fried	-11.9379
▁gor	-11.938
responsive	-11.9381
▁pfizer	-11.9381
▁rainbow	-11.9381
▁skyrocket	-11.9381
▁graffiti	-11.9381
▁embroil	-11.9381
▁intelligent	-11.9381
▁lockheed	-11.9381
▁reddit	-11.9381
▁spider	-11.9381
▁gdp	-11.9381
▁1964	-11.9381
▁specter	-11.9381
▁prostitute	-11.9381
▁observator	-11.9381
▁gallup	-11.9381
▁sauce	-11.9381
▁organisation	-11.9381
▁exxonmobil	-11.9381
disproportionate	-11.9381
▁kurtz	-11.9382
▁mentor	-11.9382
▁rooftop	-11.9382
▁unchang	-11.9383
▁honey	-11.9384
▁interi	-11.9384
▁faithful	-11.9385
▁admiral	-11.9386
▁lurk	-11.9388
▁blink	-11.9388
▁hb	-11.939
▁ego	-11.9391
ologist	-11.9392
▁representation	-11.9394
▁mcgregor	-11.9395
iger	-11.9396
▁shirts	-11.9396
▁kra	-11.9397
▁rollout	-11.9398
▁paramou	-11.9398
▁mouse	-11.9406
▁caller	-11.9409
witt	-11.9409
▁perch	-11.942
▁publicist	-11.9424
▁systemic	-11.9424
▁helpful	-11.9427
▁improbabl	-11.9427
▁lang	-11.9431
▁packer	-11.9436
aged	-11.9439
▁pleas	-11.9442
ello	-11.9443
▁hik	-11.9451
▁kit	-11.9464
▁frightening	-11.9467
▁dislike	-11.9469
▁tast	-11.9476
▁julie	-11.9483
▁aids	-11.9485
▁skipping	-11.9485
▁whistle	-11.9488
turn	-11.9492
▁hum	-11.9498
▁spelling	-11.95
▁fabric	-11.9502
▁claw	-11.9505
lov	-11.951
nell	-11.951
gb	-11.9515
▁duran	-11.9519
pan	-11.9521
lam	-11.9524
dus	-11.9526
nel	-11.9528
▁flavor	-11.9528
fra	-11.9529
▁batt	-11.953
anity	-11.9533
▁bor	-11.9533
▁wit	-11.9535
ame	-11.9535
▁intersection	-11.9537
▁horrifi	-11.9538
▁wimb	-11.9539
▁assurance	-11.9539
▁corridor	-11.9539
▁fortunate	-11.9539
▁leather	-11.9539
▁ratchet	-11.9539
▁resurgen	-11.9539
▁triangle	-11.9539
▁consortium	-11.9539
▁glitter	-11.9539
▁slope	-11.9539
▁neurosurge	-11.9539
▁telescope	-11.9539
▁biological	-11.9539
▁domain	-11.9539
▁bluster	-11.9539
▁discredit	-11.9539
▁automobile	-11.954
▁proposition	-11.954
▁feather	-11.954
▁vigorous	-11.954
▁unthinkabl	-11.954
▁scoop	-11.954
▁cattle	-11.954
▁silk	-11.954
▁bracket	-11.954
▁baltic	-11.954
▁intensive	-11.954
▁feast	-11.9541
br	-11.9541
▁daddy	-11.9541
▁shaw	-11.9541
▁deposition	-11.9542
▁transformation	-11.9544
▁salon	-11.9545
▁lets	-11.9547
▁panick	-11.9551
▁newsroom	-11.9552
▁tube	-11.9553
▁backward	-11.9556
▁vw	-11.9558
▁glam	-11.956
▁ky	-11.9565
onic	-11.9569
▁suite	-11.9569
▁suitor	-11.957
mund	-11.9571
for	-11.9571
ria	-11.9579
▁wrestler	-11.9585
itis	-11.9585
▁philosopher	-11.9587
▁crooked	-11.9589
▁discours	-11.96
▁stones	-11.96
▁ml	-11.9601
▁brake	-11.9603
▁nap	-11.9604
vity	-11.961
▁coke	-11.961
▁painter	-11.961
diane	-11.9614
ire	-11.9622
▁drum	-11.9623
▁lur	-11.9625
▁panels	-11.9634
▁quarters	-11.9638
ira	-11.9638
pinning	-11.9645
egger	-11.9648
▁forgiven	-11.9655
▁curl	-11.9656
ergei	-11.9658
▁colo	-11.9665
▁char	-11.9672
▁deli	-11.9672
▁cod	-11.9674
▁taps	-11.9679
tte	-11.9685
zi	-11.9686
card	-11.9689
▁puzzl	-11.9694
▁marshal	-11.9695
▁exempt	-11.9697
▁der	-11.9699
▁lip	-11.97
▁eugen	-11.97
terdam	-11.97
▁1988	-11.9701
▁patience	-11.9701
▁peanut	-11.9701
▁satisfy	-11.9701
▁unbelievabl	-11.9701
▁sunshin	-11.9701
▁mattress	-11.9701
▁1967	-11.9701
▁schiff	-11.9701
▁jackpot	-11.9701
▁biologist	-11.9701
▁ikea	-11.9701
▁ghana	-11.9701
▁scholarship	-11.9701
▁glamor	-11.9702
▁nabb	-11.9702
▁unhapp	-11.9703
▁arson	-11.9703
▁fray	-11.9704
▁milan	-11.9706
▁nepal	-11.9707
ariana	-11.9707
▁arabic	-11.971
▁collector	-11.9717
▁mercur	-11.9721
lit	-11.9722
▁icy	-11.9722
▁judi	-11.9731
ledon	-11.9741
▁scal	-11.9749
▁bernard	-11.9752
▁lamb	-11.9753
▁mann	-11.9753
▁schu	-11.9755
▁sext	-11.9763
kia	-11.9764
▁aunt	-11.977
▁jihadi	-11.9773
▁trains	-11.9773
▁candid	-11.9778
illo	-11.978
▁provok	-11.978
▁judg	-11.9784
ssa	-11.9791
▁amass	-11.9792
▁mum	-11.9794
ault	-11.9797
cra	-11.9798
▁bounc	-11.9805
ryce	-11.9806
▁needle	-11.9813
annie	-11.9826
aca	-11.9828
▁encrypti	-11.984
tre	-11.9844
pt	-11.9847
bridge	-11.9847
▁criticis	-11.985
▁pond	-11.985
semit	-11.9855
raught	-11.9855
▁sigh	-11.9858
fund	-11.9864
▁reinvent	-11.9865
▁absorb	-11.9865
▁gravitational	-11.9865
▁obsolete	-11.9865
▁physics	-11.9865
▁unsubstantia	-11.9865
▁vivid	-11.9865
▁laundr	-11.9865
▁gloom	-11.9865
▁thief	-11.9865
▁demagogue	-11.9865
▁bisexual	-11.9865
▁lumber	-11.9865
▁cheek	-11.9865
▁martial	-11.9865
▁rebellion	-11.9865
▁pedro	-11.9865
▁destructive	-11.9865
▁joking	-11.9865
▁expectanc	-11.9865
▁snowstorm	-11.9865
▁dictatorship	-11.9866
▁1930	-11.9866
▁tongue	-11.9866
▁guinea	-11.9866
▁clive	-11.9866
▁menace	-11.9868
▁nuke	-11.9868
▁hatha	-11.9871
▁blacklist	-11.9872
lic	-11.9873
▁logan	-11.9876
▁paltr	-11.9881
▁flexib	-11.9883
▁bypass	-11.9884
▁delete	-11.9884
▁corone	-11.989
▁watcher	-11.9891
▁notch	-11.9896
▁pals	-11.9898
▁upward	-11.9899
eus	-11.9901
▁watt	-11.9903
lept	-11.9909
low	-11.9911
▁pleading	-11.9912
▁shooters	-11.9916
oni	-11.992
▁kara	-11.9932
▁entertainer	-11.9937
▁protestor	-11.9939
▁3.	-11.9954
▁sanction	-11.9955
upert	-11.9957
▁prescrib	-11.9958
▁tra	-11.996
▁originat	-11.9967
mz	-11.9976
▁syed	-11.9983
pool	-11.9983
▁dim	-11.9994
▁loop	-12.0003
▁fianc	-12.0004
▁logic	-12.0005
▁habitat	-12.0007
▁stella	-12.0008
▁je	-12.0012
▁bugs	-12.0016
reads	-12.0017
▁eld	-12.0021
▁pupp	-12.0023
▁metaphor	-12.0024
▁zo	-12.0025
▁quiz	-12.003
▁vigil	-12.0031
▁avalanche	-12.0031
▁disavow	-12.0031
▁dissident	-12.0031
▁ghostbuster	-12.0031
▁gruesome	-12.0031
▁intriguing	-12.0031
▁laureate	-12.0031
▁undecided	-12.0031
▁wheelchair	-12.0031
▁loophole	-12.0031
▁hastert	-12.0031
▁cambridge	-12.0031
▁1962	-12.0031
▁differ	-12.0032
▁dubious	-12.0032
▁framework	-12.0032
▁brash	-12.0032
▁educator	-12.0032
▁foil	-12.0032
▁famine	-12.0032
▁colour	-12.0032
▁embarrassment	-12.0032
▁preced	-12.0033
▁vendor	-12.0033
▁marble	-12.0033
▁grat	-12.0034
eresa	-12.0035
▁scarce	-12.0037
▁distract	-12.0037
▁relay	-12.0039
run	-12.004
▁emoji	-12.004
▁gavi	-12.0042
▁ac	-12.0044
▁santos	-12.0046
ona	-12.0046
▁protective	-12.0048
▁kenn	-12.0053
▁sar	-12.0056
▁purse	-12.006
▁brav	-12.0063
▁rewrite	-12.0064
▁powder	-12.0064
▁dart	-12.0066
▁biology	-12.007
▁huddl	-12.0073
setting	-12.0075
▁laz	-12.0076
rie	-12.008
▁grammys	-12.0081
ivision	-12.0082
▁cigarette	-12.0085
▁attraction	-12.0086
▁indie	-12.0087
hin	-12.0089
▁hearst	-12.0095
tille	-12.0099
boy	-12.0101
▁pub	-12.0105
▁evans	-12.0105
▁shall	-12.0105
▁boos	-12.0107
▁collide	-12.0109
series	-12.011
uri	-12.0116
▁finn	-12.0118
▁carve	-12.0121
jah	-12.0122
▁pai	-12.0127
▁extraditi	-12.0129
▁relie	-12.014
▁booze	-12.0144
▁preschool	-12.0148
▁crops	-12.0148
die	-12.0158
▁kas	-12.0158
nnie	-12.0169
▁politiciz	-12.0179
▁austria	-12.0184
▁crumbl	-12.019
ok	-12.0192
ites	-12.0194
▁gauge	-12.0198
ilateral	-12.0199
▁enquirer	-12.0201
▁inadvertent	-12.0201
▁infiltrat	-12.0201
▁ominous	-12.0201
▁staunch	-12.0201
▁straightforward	-12.0201
▁unsuccessful	-12.0201
▁dynast	-12.0201
▁submarine	-12.0201
▁gridlock	-12.0201
rahami	-12.0201
▁cherry	-12.0201
▁bennett	-12.0201
▁pleasant	-12.0201
▁aspiration	-12.0202
▁theorist	-12.0202
▁lugg	-12.0202
▁guitarist	-12.0202
▁financier	-12.0202
▁grievance	-12.0203
▁sheikh	-12.0205
▁drugmaker	-12.0205
▁7.	-12.0205
ough	-12.0209
▁portrayal	-12.021
safe	-12.0211
tified	-12.0212
▁breakup	-12.0214
▁wrongful	-12.0215
imf	-12.0218
▁yankee	-12.0219
▁thoughtful	-12.022
▁raft	-12.0222
▁newscast	-12.0223
▁smithson	-12.0223
▁specializ	-12.0231
▁wishe	-12.0236
▁forbidd	-12.0237
post	-12.0238
▁noble	-12.0246
augh	-12.0251
▁deplorables	-12.0253
▁prosecute	-12.0253
▁brutalit	-12.0254
▁wander	-12.0254
▁persona	-12.0255
annett	-12.026
▁socialism	-12.0263
▁leaf	-12.0265
inz	-12.0265
▁toppl	-12.0266
▁blessing	-12.0266
▁assemble	-12.0272
▁scholars	-12.0273
▁bloodie	-12.0273
▁resembl	-12.0274
arta	-12.0274
▁curti	-12.0278
aya	-12.028
▁heck	-12.0282
▁sab	-12.0292
▁lat	-12.0297
ood	-12.0298
▁fal	-12.0299
▁pp	-12.0299
nam	-12.03
▁papa	-12.0301
uit	-12.0303
▁bug	-12.0304
▁tender	-12.0304
lock	-12.0313
▁semi	-12.0314
aging	-12.0314
▁rams	-12.0319
▁measur	-12.032
▁flie	-12.0325
▁curat	-12.033
▁informal	-12.0336
dia	-12.0339
▁boarding	-12.0343
▁cav	-12.0347
▁fann	-12.0347
▁extradit	-12.035
▁biograph	-12.0353
▁rode	-12.0353
▁preach	-12.0358
phis	-12.0359
▁reply	-12.0361
▁gambia	-12.0361
▁lens	-12.0365
▁hijack	-12.0371
▁affirm	-12.0372
dolph	-12.0373
▁affleck	-12.0373
▁altercation	-12.0373
▁barbecue	-12.0373
▁bikini	-12.0373
▁bureaucrac	-12.0373
▁carnival	-12.0373
▁clutch	-12.0373
▁cuisine	-12.0373
▁kindergarten	-12.0373
▁procedural	-12.0373
▁superdelegate	-12.0373
▁frustrating	-12.0373
▁henderson	-12.0373
▁leicester	-12.0373
▁abnormal	-12.0373
▁caracas	-12.0373
▁tumor	-12.0373
▁pathetic	-12.0374
▁spook	-12.0374
▁touchdown	-12.0374
▁translation	-12.0375
▁curtail	-12.0375
▁restart	-12.0375
▁termination	-12.0375
▁coordinator	-12.0376
▁bailey	-12.0376
▁surgical	-12.0378
▁cried	-12.0379
▁drap	-12.0379
▁kidney	-12.038
▁refund	-12.038
▁plight	-12.0381
▁realistic	-12.0381
▁lips	-12.0382
▁wa	-12.0383
berry	-12.0383
couver	-12.0384
▁makeover	-12.0385
motive	-12.0387
▁clemenc	-12.0387
rose	-12.0387
▁arc	-12.0389
▁libel	-12.0393
rat	-12.0394
elena	-12.0396
▁gambl	-12.0396
iah	-12.0396
▁posters	-12.0396
▁conquer	-12.0401
▁tortur	-12.0402
cri	-12.0403
▁blistering	-12.0404
▁kin	-12.0408
▁meter	-12.0409
borne	-12.0416
thal	-12.042
sses	-12.0437
▁alexa	-12.044
▁terra	-12.044
▁roth	-12.0441
ero	-12.0443
hur	-12.0443
▁annoying	-12.0447
▁gem	-12.046
▁cre	-12.0462
att	-12.0464
▁soup	-12.047
leen	-12.047
▁glow	-12.0474
aj	-12.0475
ros	-12.0477
▁obscur	-12.0491
▁interven	-12.0492
▁moderat	-12.0496
ounded	-12.0496
▁rut	-12.0497
▁wra	-12.0501
ius	-12.0502
▁rec	-12.0502
ock	-12.051
▁gaze	-12.051
▁entr	-12.052
fein	-12.0531
▁precis	-12.0532
▁raj	-12.0533
▁observe	-12.0534
copa	-12.0539
▁depressing	-12.0539
▁lovely	-12.054
▁spoil	-12.0542
▁distort	-12.0544
▁stori	-12.0548
▁refrain	-12.0549
▁tebow	-12.0549
▁abbott	-12.0549
▁reaffirm	-12.0549
▁unwilling	-12.0549
▁adorable	-12.0549
▁bahama	-12.0549
▁claire	-12.0549
▁registr	-12.0549
▁cumming	-12.0549
▁descent	-12.0549
▁1975	-12.0549
▁cruelty	-12.055
▁2019	-12.055
▁groom	-12.0551
▁intruder	-12.0552
▁yuan	-12.0552
▁fearless	-12.0553
▁danish	-12.0553
▁boundar	-12.0555
▁hamas	-12.0555
▁veep	-12.0556
▁potus	-12.0556
olo	-12.0562
▁stretche	-12.0563
▁rak	-12.0568
ullah	-12.0572
lie	-12.0573
▁hyper	-12.0574
▁institutional	-12.0576
▁ellen	-12.0579
ign	-12.0579
my	-12.0583
▁glori	-12.0587
▁rude	-12.0587
▁inquiries	-12.0588
anna	-12.059
▁twi	-12.0591
▁pea	-12.0593
alais	-12.0594
▁enabl	-12.0595
lk	-12.0595
▁xenophobi	-12.0598
▁jen	-12.0604
▁gentr	-12.0608
kel	-12.0608
▁disgrace	-12.0612
nk	-12.0613
▁haunting	-12.0615
▁enhance	-12.0617
fo	-12.0627
▁vy	-12.0629
insky	-12.0633
▁injustice	-12.0633
▁stain	-12.0634
▁wonk	-12.0635
▁electors	-12.0638
▁pluto	-12.0639
▁jihad	-12.064
▁invad	-12.0652
cap	-12.0653
▁dresse	-12.0653
environmentalist	-12.0653
▁ol	-12.0655
▁2.	-12.066
abad	-12.0661
▁germ	-12.0664
▁logg	-12.0672
▁liver	-12.0674
▁guilt	-12.0678
▁griev	-12.0681
▁refin	-12.0698
▁molest	-12.0708
nett	-12.071
▁neo	-12.0718
▁honestly	-12.0719
▁gris	-12.0722
▁dealer	-12.0724
code	-12.0725
▁straw	-12.0725
▁crusade	-12.0725
▁catalog	-12.0727
elecommunication	-12.0727
▁brzezin	-12.0727
▁finicum	-12.0727
▁guerrilla	-12.0727
▁magistrate	-12.0727
▁morocco	-12.0727
▁protagonist	-12.0727
▁spectator	-12.0727
▁ubiquit	-12.0727
▁existential	-12.0727
▁substitute	-12.0727
▁fatigue	-12.0727
▁pussy	-12.0727
▁guild	-12.0727
▁idiot	-12.0727
▁quirk	-12.0727
▁charisma	-12.0727
▁bleach	-12.0728
▁secular	-12.0728
▁zink	-12.0728
▁dentist	-12.0728
▁ballroom	-12.0728
▁compil	-12.0728
▁quell	-12.073
▁prolong	-12.0731
▁complicate	-12.0733
▁churn	-12.0733
▁haitian	-12.0734
▁enrag	-12.0735
▁contradiction	-12.0735
▁condom	-12.0736
▁steelers	-12.0737
▁fascist	-12.0741
dic	-12.0746
▁chatter	-12.0748
▁mor	-12.0754
oenis	-12.0759
▁indonesian	-12.0762
▁fe	-12.0763
▁feeds	-12.0768
▁metric	-12.0769
wing	-12.0769
▁lend	-12.0773
net	-12.0774
▁nat	-12.078
▁clearing	-12.078
hour	-12.0783
view	-12.0789
shaw	-12.0789
▁ark	-12.0789
▁whipped	-12.0798
▁forge	-12.0801
dny	-12.0808
rung	-12.082
▁cleaner	-12.0821
ugg	-12.0824
▁mur	-12.0824
▁schmidt	-12.0832
▁clem	-12.0834
▁nuts	-12.0835
▁monte	-12.0838
▁skipp	-12.0846
▁supervis	-12.0851
▁wang	-12.0855
var	-12.0855
▁styles	-12.0856
ague	-12.0861
iq	-12.0872
stan	-12.0875
▁coordinate	-12.0877
▁comput	-12.0883
▁glue	-12.0883
▁analyze	-12.0885
▁practic	-12.0892
▁atmospher	-12.0892
bos	-12.0894
▁cone	-12.0898
▁clint	-12.0902
lihood	-12.0907
▁avocado	-12.0909
▁dictionar	-12.0909
▁discontent	-12.0909
▁disparit	-12.0909
▁dwarf	-12.0909
▁identical	-12.0909
▁immense	-12.0909
▁impulse	-12.0909
▁inaccurate	-12.0909
▁kuwait	-12.0909
▁pyramid	-12.0909
▁maternity	-12.0909
▁throng	-12.0909
▁silva	-12.0909
▁boutique	-12.0909
▁qualification	-12.0909
▁magnate	-12.0909
▁pokemon	-12.0909
▁kendrick	-12.0909
▁architecture	-12.0909
▁1966	-12.0909
▁potent	-12.091
▁thieve	-12.091
▁pork	-12.091
▁characteristic	-12.091
▁jenkin	-12.0911
▁flush	-12.0911
▁gloss	-12.0913
▁ibrahim	-12.0913
lulu	-12.0914
▁exemption	-12.0914
▁olympian	-12.0915
▁moss	-12.0916
▁bicycle	-12.0916
▁miserable	-12.0916
▁lyon	-12.0919
▁lucy	-12.0924
▁bent	-12.0925
cia	-12.0928
▁dw	-12.0929
▁170	-12.0931
▁rides	-12.0933
▁cling	-12.0936
▁abdel	-12.094
costa	-12.0941
▁liability	-12.0943
force	-12.0946
▁hinge	-12.0947
▁cache	-12.0949
believing	-12.0951
▁broaden	-12.0951
▁athen	-12.0953
▁katy	-12.0959
▁bart	-12.096
▁consume	-12.0962
▁erase	-12.0962
▁lam	-12.0965
hane	-12.0971
oma	-12.0971
▁mona	-12.0974
▁packag	-12.0977
iv	-12.0978
▁tricks	-12.0979
▁185	-12.0984
▁backup	-12.0986
▁withhold	-12.0991
▁productive	-12.0995
▁phel	-12.0999
▁blogg	-12.1004
▁revok	-12.1005
▁speculat	-12.1006
▁rockets	-12.1006
▁invoke	-12.1008
▁dill	-12.1012
gg	-12.1012
▁nei	-12.1013
oun	-12.102
sai	-12.1021
▁sheld	-12.1034
ology	-12.104
▁lei	-12.104
▁hater	-12.1046
▁arling	-12.1046
▁surpass	-12.1049
▁blues	-12.1054
▁recapture	-12.1063
▁rhodes	-12.1068
▁edg	-12.107
tion	-12.107
▁commemorate	-12.1073
etta	-12.1074
▁branche	-12.1079
▁paradox	-12.1085
zar	-12.1085
▁bulli	-12.1087
▁fuller	-12.1092
▁hol	-12.1092
▁behemoth	-12.1094
▁biopic	-12.1094
▁fiasco	-12.1094
▁monologue	-12.1094
▁nephew	-12.1094
▁obituar	-12.1094
▁pesticide	-12.1094
▁plausibl	-12.1094
▁treason	-12.1094
▁unofficial	-12.1094
▁cannabi	-12.1094
▁linebacker	-12.1094
▁disregard	-12.1094
▁shepard	-12.1094
▁fingerprint	-12.1094
▁irving	-12.1095
▁adrian	-12.1095
▁cyclist	-12.1096
▁advertisement	-12.1096
▁sperm	-12.1096
▁stash	-12.1097
▁brokerage	-12.1097
▁reyes	-12.1099
▁postseason	-12.1101
▁iceberg	-12.1101
▁stroll	-12.1103
▁mika	-12.1104
ibm	-12.1104
▁laser	-12.1106
▁parenting	-12.1106
▁voucher	-12.1107
▁1,000	-12.1107
▁township	-12.1108
▁restraint	-12.1108
▁divest	-12.1108
▁lex	-12.111
▁creek	-12.1117
▁homeowners	-12.1119
▁williamsburg	-12.1126
▁unh	-12.1128
▁correspond	-12.1129
trial	-12.1132
arthur	-12.1133
▁trumpcare	-12.1137
▁jerk	-12.1137
complete	-12.1139
▁spik	-12.1147
▁juno	-12.1147
about	-12.1147
▁abbas	-12.1149
▁katr	-12.1162
▁pinn	-12.1167
▁unsettling	-12.1169
hol	-12.117
▁loyalists	-12.1174
▁ventur	-12.1176
pg	-12.1176
▁mora	-12.1179
▁conven	-12.1182
▁bitch	-12.1185
▁dual	-12.1186
▁rile	-12.1186
▁assassinat	-12.1192
uda	-12.1198
▁mapp	-12.1201
▁lev	-12.1201
▁heroic	-12.1203
▁pave	-12.1205
▁rubin	-12.1211
▁wrestle	-12.1222
▁inherited	-12.1223
slam	-12.1228
hm	-12.123
▁bp	-12.1231
lor	-12.1233
hart	-12.1234
▁duel	-12.1234
:00	-12.1236
ntage	-12.1241
▁preserv	-12.1244
▁mali	-12.1247
▁archiv	-12.1256
uka	-12.1257
enchant	-12.1258
▁sinking	-12.126
▁matte	-12.1261
▁wasted	-12.1265
bilt	-12.1265
traction	-12.1266
▁sniff	-12.1272
▁secre	-12.1279
▁cancellation	-12.1283
▁czech	-12.1283
▁gibson	-12.1283
▁tirade	-12.1283
▁unlimited	-12.1283
▁inherent	-12.1283
▁pummel	-12.1283
▁mushroom	-12.1283
▁uganda	-12.1283
▁animation	-12.1283
▁hiroshi	-12.1283
▁islamophobi	-12.1283
▁malicious	-12.1283
▁rehab	-12.1283
▁duncan	-12.1283
▁persian	-12.1283
▁orientation	-12.1283
▁saturn	-12.1283
▁hipster	-12.1284
▁hulu	-12.1284
▁stint	-12.1284
▁fluid	-12.1284
▁riff	-12.1284
▁dividend	-12.1284
▁acute	-12.1285
friend	-12.1285
ulus	-12.1286
▁plague	-12.1286
▁cas	-12.1287
▁systematic	-12.1287
▁contraceptive	-12.1287
▁fresn	-12.1288
▁deferr	-12.129
▁equipp	-12.1291
▁doubl	-12.1292
▁bigot	-12.1293
bok	-12.1296
▁lashe	-12.13
clara	-12.1303
▁artistic	-12.1304
▁mauric	-12.1306
▁coates	-12.131
zu	-12.131
▁demot	-12.131
tta	-12.1311
ftc	-12.1315
▁helen	-12.1319
▁reliev	-12.1326
▁minimal	-12.1326
grown	-12.133
boat	-12.1332
15	-12.1336
▁crunch	-12.134
▁boasting	-12.1342
otte	-12.1343
▁flirt	-12.1349
ndon	-12.1351
▁dup	-12.1355
▁smarter	-12.136
▁median	-12.136
ode	-12.136
▁lodg	-12.1366
▁appalling	-12.1371
▁fri	-12.1372
▁essen	-12.1372
▁zi	-12.1376
▁heller	-12.1377
▁convene	-12.1378
▁synthe	-12.1379
▁kurt	-12.1382
eera	-12.1382
rg	-12.139
sandra	-12.1391
▁metropoli	-12.1392
hannah	-12.1392
exist	-12.1395
vez	-12.1395
▁cue	-12.14
▁subsidiar	-12.1404
uala	-12.1408
▁lan	-12.141
▁bri	-12.1412
▁boomer	-12.1413
▁kor	-12.1414
▁ripple	-12.1422
▁appealing	-12.1424
▁sc	-12.1424
china	-12.1425
▁nu	-12.1426
▁orchestra	-12.1431
▁shov	-12.1431
pont	-12.1437
▁gilmo	-12.1452
▁contradictor	-12.1456
▁mit	-12.1457
▁trafficker	-12.1458
rate	-12.1464
bol	-12.1464
▁patern	-12.1466
▁ramse	-12.1474
▁schwarze	-12.1475
▁1987	-12.1475
▁adequate	-12.1475
▁doctrine	-12.1475
▁madonna	-12.1475
▁medieval	-12.1475
▁rockefeller	-12.1475
▁supermodel	-12.1475
▁umbrella	-12.1475
▁dwindl	-12.1475
▁handshake	-12.1475
▁statute	-12.1475
floyd	-12.1475
▁malaria	-12.1475
▁spawn	-12.1475
▁parody	-12.1475
▁1969	-12.1475
▁narcotic	-12.1475
▁ucla	-12.1476
▁arpa	-12.1476
▁therapist	-12.1476
▁fanatic	-12.1476
naiss	-12.1476
▁panda	-12.1477
▁volcano	-12.1477
▁spear	-12.1478
▁vince	-12.1478
▁monroe	-12.1478
▁separatist	-12.1479
▁pierce	-12.1479
▁gush	-12.1479
▁jude	-12.1479
▁tons	-12.1479
ches	-12.148
▁westworld	-12.148
▁distinction	-12.148
▁textbook	-12.1481
▁friedman	-12.1482
▁carr	-12.1484
▁puff	-12.1486
kovic	-12.1487
▁decry	-12.1487
cade	-12.1488
eur	-12.149
▁barnes	-12.1491
ais	-12.1492
▁browser	-12.1496
took	-12.1498
▁colonial	-12.15
▁ian	-12.15
▁grandson	-12.15
immel	-12.15
guard	-12.1502
▁unsee	-12.1504
▁rails	-12.1505
ngent	-12.1513
loa	-12.1514
▁qb	-12.1519
gel	-12.152
▁captive	-12.1525
▁soak	-12.1526
▁cp	-12.1528
racial	-12.153
▁rave	-12.1533
anita	-12.1534
zz	-12.1535
▁geo	-12.1537
▁iv	-12.1543
▁lucas	-12.1545
▁sticker	-12.155
ec	-12.1556
▁packing	-12.1558
fill	-12.1558
▁mug	-12.1558
▁curse	-12.1564
▁qua	-12.1564
▁indoor	-12.1568
▁swear	-12.1568
▁pant	-12.1574
arrett	-12.1574
▁dragon	-12.1577
▁ana	-12.1579
▁bats	-12.1583
▁brewing	-12.1587
▁ensur	-12.1592
roll	-12.1594
▁caf	-12.1598
▁lag	-12.1599
bat	-12.1603
▁stun	-12.1609
fly	-12.161
▁log	-12.1612
had	-12.1616
ifying	-12.1617
▁ev	-12.1618
▁paus	-12.1618
▁disput	-12.1626
▁tomb	-12.1629
▁apt	-12.1638
ety	-12.1639
▁bal	-12.1641
bag	-12.1648
▁venu	-12.165
▁solicit	-12.165
▁scorn	-12.1656
▁reset	-12.1661
▁greed	-12.1662
▁festivit	-12.1666
train	-12.1667
iel	-12.1668
▁vu	-12.1668
▁gymnast	-12.167
▁wrist	-12.1671
▁1983	-12.1671
▁embolden	-12.1671
▁messenger	-12.1671
▁outburst	-12.1671
▁provocation	-12.1671
▁rebuff	-12.1671
▁unload	-12.1671
▁impoverish	-12.1671
▁sxsw	-12.1671
▁crutch	-12.1671
▁upstart	-12.1671
▁burrito	-12.1671
▁choking	-12.1671
▁suitcase	-12.1672
▁stonewall	-12.1672
▁coincidence	-12.1672
▁narrat	-12.1672
▁homage	-12.1672
▁midterm	-12.1672
▁hallmark	-12.1672
▁bratton	-12.1672
▁resettlement	-12.1672
▁raul	-12.1672
▁intens	-12.1672
▁integration	-12.1673
▁catcher	-12.1673
▁inspection	-12.1673
▁midwestern	-12.1674
▁undertake	-12.1675
▁stoke	-12.1677
▁simmer	-12.1677
▁facial	-12.1679
▁blackmail	-12.1679
▁headset	-12.1681
▁hateful	-12.1682
▁sadness	-12.1683
▁dustin	-12.1684
▁goof	-12.1687
▁override	-12.1688
▁wack	-12.1689
▁rhetorical	-12.1694
key	-12.1699
▁protectionism	-12.1699
▁hydroge	-12.1699
▁shapes	-12.1701
▁autist	-12.1707
▁portman	-12.1709
▁groundbreak	-12.1715
essa	-12.1715
▁gifted	-12.1721
beat	-12.1722
▁yang	-12.1723
▁fork	-12.1727
stream	-12.173
cock	-12.1734
parent	-12.1734
abortion	-12.1735
girl	-12.1735
proof	-12.1737
▁kni	-12.1737
▁tha	-12.1739
▁mend	-12.1739
tech	-12.1741
▁stamps	-12.1742
favorable	-12.1743
▁osam	-12.175
▁behold	-12.1753
▁undercut	-12.1766
▁vin	-12.1771
▁harmon	-12.1776
▁incit	-12.1777
▁bayer	-12.1789
▁stud	-12.179
call	-12.179
▁rosa	-12.1792
▁topple	-12.1798
▁val	-12.1798
▁sow	-12.1803
▁ger	-12.1804
▁fr	-12.1809
▁gangs	-12.1811
ised	-12.1818
ect	-12.1819
▁zen	-12.1821
iron	-12.1821
word	-12.1825
▁cory	-12.183
▁bloodsh	-12.1831
▁veer	-12.1832
rgency	-12.1833
tino	-12.1833
▁ai	-12.1834
25	-12.1837
▁residenc	-12.1839
▁mered	-12.1844
hard	-12.1845
▁messi	-12.1849
▁collectively	-12.1852
▁owens	-12.1853
▁productiv	-12.1856
cular	-12.1856
▁trim	-12.1862
use	-12.1864
▁anton	-12.1868
▁autumn	-12.1871
▁culinar	-12.1871
▁elbow	-12.1871
▁peculiar	-12.1871
▁profiling	-12.1871
▁synonym	-12.1871
▁celtics	-12.1871
▁oracle	-12.1871
▁jacque	-12.1871
▁daunting	-12.1871
▁unicorn	-12.1871
▁snoop	-12.1872
▁masterpiece	-12.1872
▁imam	-12.1872
▁blake	-12.1872
▁clamp	-12.1872
▁copyright	-12.1872
▁shallow	-12.1873
▁approving	-12.1873
▁gerald	-12.1873
▁perilous	-12.1873
▁lamont	-12.1873
▁luxe	-12.1874
▁bundle	-12.1874
▁bacon	-12.1874
▁terrific	-12.1874
▁burge	-12.1874
▁shakeup	-12.1874
▁dorse	-12.1874
▁copper	-12.1874
▁lula	-12.1874
▁geopolitical	-12.1875
▁misinformation	-12.1875
▁collud	-12.1875
▁distributor	-12.1875
▁shack	-12.1875
▁zack	-12.1875
▁skinny	-12.1877
▁rabbit	-12.1877
ergio	-12.1878
vist	-12.1879
▁derid	-12.188
▁fif	-12.1881
▁subdu	-12.1882
▁badge	-12.1884
emost	-12.1885
nic	-12.1885
▁extinct	-12.1886
▁satisfact	-12.1888
▁airfield	-12.1889
▁commemorat	-12.1891
▁regulat	-12.1891
▁initiat	-12.1894
▁specialize	-12.1895
▁efficienc	-12.1896
▁seminar	-12.1897
▁sak	-12.1899
▁cristian	-12.1903
osh	-12.1906
▁fist	-12.1911
▁stab	-12.1916
baum	-12.1919
▁gust	-12.1925
▁wears	-12.1925
▁neill	-12.1932
▁pigs	-12.1938
▁pres	-12.1941
nar	-12.1941
dorf	-12.1941
lgbt	-12.1943
shift	-12.1943
can	-12.1943
▁cu	-12.1946
gm	-12.1946
▁nom	-12.1946
▁admire	-12.195
▁misogynist	-12.195
▁binge	-12.1951
▁blackout	-12.1955
elle	-12.1959
▁thirst	-12.196
▁patriotic	-12.1964
tchen	-12.1968
▁understandabl	-12.1972
rous	-12.1973
▁prepp	-12.1974
▁enthusiast	-12.1979
▁chopp	-12.198
eira	-12.1982
▁porter	-12.1985
▁stirring	-12.1987
▁enhanc	-12.1993
▁rational	-12.2001
calise	-12.2006
▁accommodate	-12.2009
▁voic	-12.2012
rque	-12.2017
note	-12.2017
▁shah	-12.2018
sha	-12.2018
▁overdoses	-12.2021
▁ancestors	-12.2027
headed	-12.203
▁advocat	-12.2033
▁fent	-12.2034
wheeler	-12.2035
bre	-12.2038
▁lame	-12.204
nor	-12.2042
vision	-12.205
▁kat	-12.205
▁wend	-12.2054
▁mcmullin	-12.2059
gone	-12.2075
▁neighbour	-12.2075
▁punctuat	-12.2075
▁smack	-12.2075
▁1971	-12.2075
▁1981	-12.2075
▁cereal	-12.2075
▁comptroller	-12.2075
▁cosmetic	-12.2075
▁disdain	-12.2075
▁inadequate	-12.2075
▁incendiar	-12.2075
▁moroccan	-12.2075
▁narendra	-12.2075
▁protein	-12.2075
▁seinfeld	-12.2075
▁upheaval	-12.2075
▁zimmer	-12.2075
▁dessert	-12.2075
▁saddam	-12.2075
▁somber	-12.2075
▁unspecifi	-12.2075
▁foreclosure	-12.2075
▁breathtaking	-12.2075
▁angri	-12.2076
▁clarifie	-12.2076
▁elaine	-12.2076
▁frederick	-12.2076
▁1977	-12.2076
▁stylish	-12.2076
▁soundtrack	-12.2076
▁mound	-12.2076
▁motel	-12.2076
▁iteration	-12.2076
▁slack	-12.2076
▁bolivia	-12.2077
▁vomit	-12.2077
▁interrogation	-12.2077
▁eviction	-12.2077
▁distinctive	-12.2077
▁softbank	-12.2077
▁tusk	-12.2077
▁scold	-12.2077
▁perpetrator	-12.2077
▁starvation	-12.2077
▁concentration	-12.2078
▁fixture	-12.2078
▁potatoe	-12.2078
▁singular	-12.2078
▁ignorant	-12.2079
▁ire	-12.2081
▁gentle	-12.2083
▁dray	-12.2084
▁spice	-12.2084
▁belle	-12.2084
▁prohibition	-12.2087
▁shuttle	-12.2089
▁marquee	-12.2089
▁salute	-12.209
▁gren	-12.2091
nick	-12.2092
▁lays	-12.2092
▁intimidati	-12.2093
▁brag	-12.2094
mel	-12.2094
▁homework	-12.2097
▁breakout	-12.2103
▁heartland	-12.211
▁commando	-12.2116
▁corr	-12.212
media	-12.2121
▁stealth	-12.2121
▁dependent	-12.2124
▁lena	-12.2127
▁vari	-12.213
▁nab	-12.2133
▁worldview	-12.2136
etan	-12.2136
▁shari	-12.2142
▁golfer	-12.2144
loo	-12.2144
enko	-12.2149
group	-12.2149
▁sweater	-12.215
▁tactical	-12.2153
▁roller	-12.2156
school	-12.2157
cal	-12.2161
▁marr	-12.2165
▁sincere	-12.2166
▁starv	-12.2171
▁disciplinar	-12.2173
▁sedan	-12.2176
guid	-12.2178
▁thrilling	-12.2182
▁pra	-12.2187
▁competenc	-12.2187
▁leo	-12.2192
▁resilienc	-12.2199
▁cultivat	-12.22
▁bored	-12.2203
ttawa	-12.2203
tis	-12.2204
wise	-12.2204
pf	-12.2205
ral	-12.2206
▁fascinat	-12.2208
▁spe	-12.2209
▁californian	-12.2211
▁kings	-12.2212
▁disco	-12.2212
▁akin	-12.2216
▁swip	-12.2218
ilia	-12.2225
▁kel	-12.2226
lach	-12.223
▁seasonal	-12.2231
▁rum	-12.2232
act	-12.2235
▁jamme	-12.2242
lester	-12.2244
▁plains	-12.2255
▁3-	-12.2256
▁im	-12.2263
▁dodg	-12.2267
▁romania	-12.2269
▁emojis	-12.2273
▁clare	-12.2273
▁jumps	-12.2274
▁rabbi	-12.2278
▁lego	-12.2278
▁bikes	-12.2279
▁aspir	-12.2281
▁1945	-12.2284
▁disgruntle	-12.2284
▁gerrymander	-12.2284
▁mechanism	-12.2284
ipsos	-12.2284
▁tyrann	-12.2284
▁mvp	-12.2284
▁crossroads	-12.2284
▁outfielder	-12.2284
▁ultra	-12.2284
▁sluggish	-12.2284
▁taboo	-12.2284
▁lush	-12.2284
▁cozy	-12.2285
▁cunning	-12.2285
▁calvin	-12.2285
▁geek	-12.2285
▁dominican	-12.2285
▁handbag	-12.2285
▁savv	-12.2286
▁reprint	-12.2286
▁terrace	-12.2286
▁brendan	-12.2287
▁lime	-12.2287
▁humiliation	-12.229
▁recap	-12.229
▁gruel	-12.229
▁8:30	-12.229
▁donnell	-12.229
▁insert	-12.2293
▁greenback	-12.2293
▁seism	-12.2293
▁shale	-12.2294
zoo	-12.2294
▁vienn	-12.2295
▁misstep	-12.2295
▁eisenh	-12.2296
▁cour	-12.2296
▁rebec	-12.2297
▁graz	-12.2299
▁cycl	-12.2302
▁winston	-12.2304
▁blair	-12.2306
▁hank	-12.2311
▁believer	-12.2312
▁satan	-12.2313
▁posh	-12.2315
▁greenland	-12.2316
tle	-12.2317
ujah	-12.2317
▁dea	-12.2319
rmi	-12.232
sboro	-12.233
brett	-12.233
▁juic	-12.2331
▁mcke	-12.2334
▁divert	-12.2334
▁purport	-12.2337
acceptable	-12.2339
iff	-12.2342
ference	-12.2348
dental	-12.2349
ica	-12.2351
▁bands	-12.2353
▁loosen	-12.2355
▁manson	-12.2359
diac	-12.2359
pin	-12.2362
▁dell	-12.2363
▁comb	-12.2363
rgen	-12.2363
▁subsid	-12.2365
▁sands	-12.2368
▁greene	-12.2369
▁drowning	-12.2369
▁gat	-12.2371
▁honda	-12.2372
wash	-12.2373
oster	-12.2388
nya	-12.2389
mor	-12.2396
▁stirr	-12.2396
▁angle	-12.2397
▁covert	-12.2405
db	-12.2407
▁rug	-12.2408
▁stripe	-12.2408
▁loath	-12.2423
nity	-12.2429
gn	-12.2432
chy	-12.2434
▁vo	-12.2434
▁dale	-12.2436
aries	-12.2441
plex	-12.2442
▁godd	-12.2447
▁issa	-12.2447
grom	-12.2453
rc	-12.2455
▁mines	-12.2463
▁inaugurat	-12.2463
▁siri	-12.2464
ante	-12.2466
▁disapprov	-12.247
▁homeowner	-12.247
▁decrease	-12.2471
▁proportion	-12.2472
ita	-12.2478
▁appreciati	-12.2479
quan	-12.2479
▁awake	-12.2479
▁minors	-12.2483
hub	-12.2483
▁alma	-12.2483
▁literal	-12.2485
aro	-12.2489
▁accumulat	-12.2493
▁dysfunction	-12.2493
▁scour	-12.2496
▁alfred	-12.2496
▁condolences	-12.2496
▁external	-12.2496
▁illicit	-12.2496
▁magnificent	-12.2496
▁sophomore	-12.2496
▁technician	-12.2496
▁fabulous	-12.2496
▁perpetual	-12.2496
▁abbey	-12.2496
▁intoxicat	-12.2496
▁mcdonnell	-12.2496
▁fracking	-12.2497
▁solemn	-12.2497
▁vibrant	-12.2497
▁unaware	-12.2497
uh	-12.2497
▁glitch	-12.2497
▁hungarian	-12.2497
▁disgraceful	-12.2497
▁safeguard	-12.2497
▁crap	-12.2497
▁firebrand	-12.2498
▁foolish	-12.2498
▁shameful	-12.2499
▁underdog	-12.2499
▁cyclone	-12.2499
▁mcaul	-12.2499
▁crank	-12.2502
▁maxim	-12.2502
▁energiz	-12.2503
▁alexis	-12.2504
▁invention	-12.2504
▁ridicule	-12.2505
▁getaway	-12.2505
▁almond	-12.2505
▁limitation	-12.2509
▁psychiatrist	-12.251
▁behave	-12.251
kov	-12.2511
▁dud	-12.2512
▁hungar	-12.2516
▁determin	-12.2516
▁coloss	-12.2519
▁washing	-12.252
▁commut	-12.2526
▁kenyan	-12.253
▁merchandise	-12.2536
▁chin	-12.2537
▁ginger	-12.2538
lav	-12.2539
bath	-12.2546
▁bland	-12.2548
▁jeer	-12.2555
▁ode	-12.2556
▁dial	-12.2558
▁belly	-12.2562
▁handwrit	-12.2564
east	-12.2566
▁bucks	-12.2567
▁rosen	-12.2568
vy	-12.2574
▁webb	-12.2575
▁nets	-12.2575
▁maj	-12.2586
▁mice	-12.2587
▁cowboy	-12.2605
▁provoke	-12.2608
▁reminiscen	-12.2613
je	-12.262
▁biting	-12.2627
ati	-12.2628
▁merri	-12.2628
rory	-12.2629
▁bait	-12.2631
▁tee	-12.2635
party	-12.2638
▁tig	-12.2646
▁glowing	-12.2647
kins	-12.2658
▁franken	-12.2664
▁uc	-12.268
▁echoe	-12.2686
titude	-12.2694
▁rigg	-12.2694
▁ravag	-12.2697
scara	-12.2701
nope	-12.2705
▁trumpet	-12.2705
▁favour	-12.2707
▁maid	-12.2711
▁prey	-12.2711
▁prosper	-12.2711
▁moran	-12.2713
▁accomplice	-12.2714
▁constituenc	-12.2714
▁curiosit	-12.2714
▁hemisphere	-12.2714
▁involuntar	-12.2714
▁supremacy	-12.2714
▁barricade	-12.2714
▁blatant	-12.2714
▁cosmic	-12.2714
▁eternal	-12.2714
▁convey	-12.2714
▁administer	-12.2714
▁unseal	-12.2714
▁autocrat	-12.2714
▁ounce	-12.2714
▁1963	-12.2714
▁balcon	-12.2714
▁footprint	-12.2714
▁turtle	-12.2714
▁redesign	-12.2714
▁philanthropist	-12.2714
▁hollow	-12.2715
▁flank	-12.2715
▁salvage	-12.2715
▁angst	-12.2715
▁gravity	-12.2715
▁stride	-12.2715
▁snub	-12.2715
▁cramp	-12.2716
▁uneven	-12.2716
▁catherine	-12.2716
▁connor	-12.2717
▁totten	-12.2717
▁annex	-12.2717
▁jogger	-12.2718
▁lunar	-12.2718
▁gund	-12.2719
▁salmon	-12.272
▁handsome	-12.272
▁grandma	-12.272
▁audition	-12.2721
▁bot	-12.2721
▁flores	-12.2721
▁idol	-12.2724
▁stylist	-12.2724
▁expell	-12.2725
▁hawaiian	-12.2728
▁cla	-12.2729
▁keyboard	-12.2731
▁selloff	-12.2733
▁dort	-12.2734
▁kerr	-12.2734
▁skewer	-12.2734
▁advis	-12.2734
niels	-12.2736
bang	-12.2737
▁kane	-12.274
▁jak	-12.2742
try	-12.2744
▁yemeni	-12.2749
qua	-12.275
▁blonde	-12.2756
▁perkin	-12.2756
▁fabricat	-12.276
▁alienat	-12.2762
▁recurr	-12.2765
▁tex	-12.2769
▁pry	-12.277
▁medic	-12.2776
▁postpone	-12.2779
rick	-12.278
▁rays	-12.2791
▁reinforce	-12.2792
▁morale	-12.2797
▁mayoral	-12.2797
▁travell	-12.28
▁dreamer	-12.2804
70	-12.2806
azza	-12.2808
▁chen	-12.2811
▁frighten	-12.2815
▁bustl	-12.282
ctic	-12.2821
answer	-12.2823
▁floren	-12.2824
kip	-12.2832
▁beans	-12.2832
▁sake	-12.2838
km	-12.2838
aba	-12.2846
▁flare	-12.2848
horn	-12.2849
laughter	-12.285
▁qual	-12.2858
stair	-12.2861
▁boj	-12.2863
▁persecut	-12.2864
sour	-12.287
▁communicat	-12.2873
▁heartbreak	-12.2875
▁considerabl	-12.2878
ontari	-12.2883
most	-12.2886
▁sag	-12.289
▁boon	-12.2895
▁chad	-12.2898
ista	-12.2898
▁nr	-12.2898
lio	-12.29
▁ruler	-12.2905
▁focuse	-12.2905
▁antic	-12.2906
vak	-12.2908
▁rowl	-12.2911
▁harden	-12.2912
▁aka	-12.2913
▁careless	-12.2913
▁spun	-12.2918
▁profession	-12.2918
bby	-12.2927
chief	-12.2932
nium	-12.2932
▁simulat	-12.2933
▁dub	-12.2934
▁meteor	-12.2934
enefits	-12.2934
▁blossom	-12.2936
▁buddhist	-12.2936
▁dicaprio	-12.2936
▁egregious	-12.2936
▁fountain	-12.2936
▁giraffe	-12.2936
▁glacier	-12.2936
▁guatemala	-12.2936
▁identification	-12.2936
▁kazakh	-12.2936
▁nugget	-12.2936
▁plagiaris	-12.2936
▁proponent	-12.2936
▁vacuum	-12.2936
▁voyage	-12.2936
▁wizard	-12.2936
▁zimbabwe	-12.2936
▁mafia	-12.2936
▁jolie	-12.2936
▁atheist	-12.2936
▁shelby	-12.2936
▁roadblock	-12.2936
▁genome	-12.2936
▁ferry	-12.2937
▁seafood	-12.2937
▁hammond	-12.2937
▁astound	-12.2937
▁confound	-12.2937
▁bombardment	-12.2938
▁rapp	-12.2938
▁macbook	-12.2938
▁mecca	-12.2938
▁nostalgic	-12.2938
▁nairo	-12.2938
▁105	-12.2938
▁falsehood	-12.2939
▁leaker	-12.2939
▁livestream	-12.2939
▁curator	-12.2939
▁jordanian	-12.294
▁sermon	-12.294
▁manipulation	-12.294
▁burling	-12.2941
▁tomatoes	-12.2942
▁abduction	-12.2943
▁bunker	-12.2944
,	-12.2945
▁mechanical	-12.2945
▁indicator	-12.2946
▁brows	-12.2946
▁apocalyptic	-12.2948
▁genres	-12.2948
▁burial	-12.295
▁claren	-12.2951
▁edgar	-12.2953
▁fearful	-12.2954
▁exporter	-12.2955
▁professors	-12.2957
▁sandu	-12.2959
▁hh	-12.2964
▁thugs	-12.2966
ale	-12.2967
▁rationale	-12.2967
▁phillips	-12.2972
▁kent	-12.2976
▁370	-12.2978
ager	-12.2983
shot	-12.2986
▁siren	-12.2988
▁lesser	-12.2991
▁format	-12.2993
▁cess	-12.2994
▁illusion	-12.2995
▁strick	-12.2998
▁breasts	-12.3
▁flap	-12.3001
▁vine	-12.3002
nova	-12.3004
▁vall	-12.3009
▁foresee	-12.3011
▁looting	-12.3012
▁ava	-12.3022
lee	-12.3028
▁lac	-12.3029
19	-12.3034
▁discriminate	-12.3035
▁patter	-12.3036
felt	-12.3037
▁nih	-12.304
▁disturb	-12.3041
▁viewing	-12.3043
roots	-12.3054
chilling	-12.3055
▁responder	-12.3058
▁borrower	-12.3059
▁lent	-12.306
▁bella	-12.3062
▁miser	-12.3062
▁activate	-12.3064
▁evaluat	-12.3085
▁arise	-12.309
▁punche	-12.3091
▁nye	-12.3093
▁needless	-12.31
books	-12.3106
▁epis	-12.3108
▁450	-12.3108
▁clan	-12.3108
▁angelina	-12.3108
▁flop	-12.3111
▁rahm	-12.3119
rap	-12.3119
tum	-12.3129
▁joann	-12.3132
▁tripp	-12.3134
jan	-12.3136
▁ascend	-12.3136
75	-12.3137
ew	-12.3141
▁classical	-12.3143
▁unsur	-12.3152
ologne	-12.3153
▁fol	-12.3156
▁snag	-12.3157
game	-12.3159
mania	-12.3161
▁mer	-12.3162
▁1974	-12.3163
▁eponymous	-12.3163
▁ostensibl	-12.3163
▁pianist	-12.3163
▁provocateur	-12.3163
▁subcommittee	-12.3163
▁wreak	-12.3163
▁wwii	-12.3163
▁lambast	-12.3163
▁symphon	-12.3163
▁yacht	-12.3163
▁entitlement	-12.3163
▁granite	-12.3163
▁vertical	-12.3163
▁spontaneous	-12.3163
▁fahren	-12.3163
▁godfather	-12.3164
▁gwyne	-12.3164
▁federer	-12.3164
▁cooperat	-12.3164
▁nix	-12.3164
▁pixel	-12.3164
▁hangover	-12.3164
▁hog	-12.3164
▁elvis	-12.3165
▁slum	-12.3165
▁satirical	-12.3165
▁colonel	-12.3165
▁devolv	-12.3165
▁skeleton	-12.3165
▁consolidation	-12.3165
▁depot	-12.3165
▁sirius	-12.3165
▁triumphant	-12.3166
▁1920	-12.3166
▁slick	-12.3166
▁jorge	-12.3166
lc	-12.3166
▁shortlist	-12.3168
▁schoolgirl	-12.3168
▁gurle	-12.3168
rama	-12.3168
▁ordeal	-12.3169
▁eaten	-12.317
▁primate	-12.317
▁tearful	-12.3171
▁kohl	-12.3172
▁manners	-12.3172
▁harness	-12.3176
▁135	-12.318
▁abound	-12.3186
▁pimp	-12.3187
torial	-12.3189
▁hugg	-12.3189
▁emergenc	-12.3191
▁quota	-12.3193
▁diagnose	-12.3194
▁chick	-12.3198
efne	-12.32
▁setup	-12.3202
▁beg	-12.3202
▁recaptur	-12.3202
▁jama	-12.3206
▁boob	-12.3209
▁steele	-12.3211
▁jeh	-12.3211
anyl	-12.3213
▁settler	-12.3215
▁distribute	-12.3217
▁geographic	-12.3218
▁selective	-12.3222
▁outsourc	-12.3224
60	-12.3224
▁bard	-12.3229
▁crane	-12.323
▁hopeless	-12.3232
▁reno	-12.3232
clusive	-12.3235
▁inherit	-12.3236
isi	-12.3239
▁chu	-12.3246
▁shameless	-12.3246
▁blar	-12.3247
▁sounding	-12.3248
▁eras	-12.3248
▁commun	-12.325
▁kneel	-12.3264
bin	-12.3264
▁cremat	-12.3267
▁cork	-12.3268
hore	-12.3268
▁ivan	-12.3269
▁fry	-12.3269
mpassion	-12.328
▁rains	-12.3283
▁militiam	-12.3286
▁compell	-12.3289
▁unst	-12.3295
▁brom	-12.3297
▁deposit	-12.3297
▁finalize	-12.3305
▁pier	-12.3308
master	-12.331
▁reshap	-12.3311
turf	-12.3316
hima	-12.3316
▁teache	-12.332
ieri	-12.3324
ronda	-12.3324
hir	-12.3327
▁backfire	-12.3331
take	-12.3338
▁smok	-12.3338
▁replica	-12.334
▁operational	-12.3341
▁gp	-12.3344
▁marker	-12.3344
▁coh	-12.3347
▁emphasize	-12.3349
▁shrug	-12.3356
▁trickle	-12.3361
▁provinc	-12.3367
▁gabb	-12.3371
▁fairy	-12.3372
▁buff	-12.3376
fact	-12.3378
13	-12.3379
link	-12.338
▁contemplat	-12.3382
corp	-12.3383
▁chronicl	-12.3388
▁pragmati	-12.3391
▁ches	-12.3392
▁abort	-12.3393
▁resurrect	-12.3393
vasive	-12.3395
▁mus	-12.3396
▁artillery	-12.3396
▁houthi	-12.3396
▁hypothetical	-12.3396
▁maverick	-12.3396
▁shepherd	-12.3396
▁superintende	-12.3396
▁tepid	-12.3396
▁endowment	-12.3396
▁plagiariz	-12.3396
▁swimsuit	-12.3396
▁imperil	-12.3396
▁luxuri	-12.3396
▁claudi	-12.3396
▁irritat	-12.3396
▁sleek	-12.3396
▁fuku	-12.3396
▁muddy	-12.3396
▁newcomer	-12.3396
▁crave	-12.3396
▁favourite	-12.3396
▁pilgrimage	-12.3397
▁strait	-12.3397
▁swoop	-12.3397
▁expedition	-12.3397
▁darrell	-12.3397
▁disturbance	-12.3398
▁sift	-12.3398
▁nuance	-12.3398
▁renovation	-12.3398
▁coachella	-12.3398
▁superpower	-12.3399
▁malik	-12.3399
▁betty	-12.34
▁installation	-12.34
atherine	-12.3402
▁ashamed	-12.3403
▁rollback	-12.3404
▁earl	-12.3406
tron	-12.3406
▁haid	-12.3408
▁suis	-12.341
▁youngster	-12.341
▁metlife	-12.3411
corn	-12.3411
mite	-12.3412
▁flail	-12.3414
▁waterboard	-12.3414
dellin	-12.342
mucci	-12.3421
▁storyline	-12.3423
▁geer	-12.3424
▁grenade	-12.3425
▁chevro	-12.3425
▁tack	-12.3426
▁demon	-12.3426
lot	-12.3426
▁sighting	-12.3427
▁kl	-12.3428
ata	-12.343
▁holdout	-12.3431
30	-12.3432
▁strangl	-12.3434
▁surfer	-12.3445
▁waterway	-12.3445
▁cock	-12.3452
▁cogniti	-12.3457
▁thor	-12.3466
▁maddo	-12.3467
▁alley	-12.3468
▁frost	-12.3469
▁marl	-12.3471
tucker	-12.3478
hren	-12.3479
▁blackberr	-12.3496
▁pierre	-12.35
▁10-	-12.3501
▁outfits	-12.3506
12	-12.3507
▁sickening	-12.3508
▁outsize	-12.3511
▁clueless	-12.3514
▁verse	-12.3514
emic	-12.3516
hara	-12.352
ude	-12.3525
▁penny	-12.3525
▁shann	-12.3532
▁comedie	-12.3536
▁lagg	-12.3536
consistent	-12.3537
▁curt	-12.354
▁ports	-12.3541
▁slipper	-12.3544
▁manipulate	-12.355
▁hacks	-12.3551
hound	-12.3552
▁uni	-12.3557
▁infringe	-12.3559
pon	-12.3563
▁devis	-12.3571
publica	-12.3571
tura	-12.3572
vit	-12.3573
tri	-12.3573
piac	-12.3573
▁robins	-12.3573
▁hilt	-12.3576
ghan	-12.3577
▁heel	-12.3578
▁cliche	-12.3582
▁navigat	-12.3584
▁terminat	-12.3601
nik	-12.3603
ami	-12.3605
▁reinstat	-12.3606
bur	-12.3608
▁cloth	-12.361
▁analytic	-12.3613
▁ab	-12.3614
▁marcel	-12.3615
tances	-12.3615
leasing	-12.3617
▁predictabl	-12.3623
▁lavo	-12.3623
▁8.	-12.3624
▁doe	-12.3624
▁outer	-12.3628
▁innocen	-12.3628
▁concentrat	-12.3628
▁hawkin	-12.3631
▁arraign	-12.3631
▁artifact	-12.3634
▁ayatollah	-12.3634
▁blockchain	-12.3634
▁endeavor	-12.3634
▁honeymoon	-12.3634
▁insufficient	-12.3634
▁montreal	-12.3634
▁paralympic	-12.3634
▁remembrance	-12.3634
▁senegal	-12.3634
▁undergraduate	-12.3634
▁wardrobe	-12.3634
▁womb	-12.3634
▁yazidi	-12.3634
▁overthrow	-12.3634
▁resounding	-12.3634
▁foxconn	-12.3634
▁culprit	-12.3634
▁lacklust	-12.3634
▁gospel	-12.3634
▁pancake	-12.3634
▁fyre	-12.3634
▁waist	-12.3634
▁hamper	-12.3634
▁chalk	-12.3634
▁stalin	-12.3635
▁perennial	-12.3635
▁wholesale	-12.3635
▁mortar	-12.3635
▁oyster	-12.3635
▁harambe	-12.3635
▁hormone	-12.3635
▁shady	-12.3635
▁vaccination	-12.3636
▁bombast	-12.3636
▁alumin	-12.3636
▁microbe	-12.3636
▁volley	-12.3636
▁knot	-12.3637
▁kesha	-12.3637
▁storytell	-12.3637
▁blumen	-12.3637
▁cornerback	-12.3637
▁evaluation	-12.3637
▁spinoff	-12.3638
▁adelson	-12.3638
▁pil	-12.3638
▁runaway	-12.3639
▁paycheck	-12.3639
▁salarie	-12.3639
▁stam	-12.3639
▁elimination	-12.3641
▁hinder	-12.3641
▁gentleman	-12.3641
▁ethnicity	-12.3642
▁monk	-12.3642
▁patroll	-12.3643
▁garment	-12.3644
▁vent	-12.3644
▁coastline	-12.3644
inister	-12.3649
▁designation	-12.3649
▁depiction	-12.365
▁hitter	-12.365
▁payday	-12.3651
ushi	-12.3653
▁kissinger	-12.3655
▁identifie	-12.3655
▁shimo	-12.3655
▁downward	-12.3655
▁romanian	-12.3656
▁evade	-12.3656
▁revis	-12.3663
▁sandwiche	-12.3665
ito	-12.3667
▁baseless	-12.3668
▁morph	-12.3668
erence	-12.3669
▁nyt	-12.3669
▁sequence	-12.3669
▁reliever	-12.3672
tracted	-12.3673
▁superheroes	-12.3673
▁topping	-12.3674
saul	-12.3676
▁unil	-12.3679
▁mumm	-12.3679
part	-12.3683
nstop	-12.3685
▁vigilante	-12.3687
▁diary	-12.3689
aud	-12.369
▁deplet	-12.3692
▁bla	-12.3697
▁beth	-12.3699
tell	-12.3703
▁pee	-12.3708
dor	-12.3713
▁bun	-12.3716
▁entrepreneurs	-12.3718
▁colony	-12.3731
keep	-12.3731
▁4-	-12.3732
▁relate	-12.3746
▁erik	-12.3753
▁dame	-12.3754
▁cath	-12.3758
▁wu	-12.3761
▁alto	-12.3761
▁hooker	-12.3767
cross	-12.377
▁tele	-12.3771
▁stabilize	-12.3774
▁alp	-12.3776
qualifi	-12.3783
▁sensibl	-12.3785
orthodox	-12.3785
wealth	-12.3787
▁237	-12.3789
▁sabotage	-12.3791
▁mou	-12.3794
onnie	-12.3794
market	-12.3799
▁shakes	-12.3802
▁dee	-12.3803
▁sunk	-12.3804
qu	-12.3806
▁bullies	-12.3806
▁confidant	-12.382
▁statistical	-12.3822
▁cosmo	-12.3825
▁ramb	-12.3825
▁democrac	-12.3829
▁fi	-12.383
zb	-12.3833
▁186	-12.3833
▁lucki	-12.3837
▁intra	-12.3838
hel	-12.384
▁liz	-12.384
14	-12.3841
▁rhythm	-12.3841
35	-12.3849
▁underlin	-12.385
▁analog	-12.3853
▁fram	-12.3854
▁wool	-12.3857
niro	-12.3861
tenberg	-12.3864
▁romp	-12.3866
▁filth	-12.3868
▁debo	-12.3872
▁prominen	-12.3875
▁wilk	-12.3876
▁orphan	-12.3877
nitive	-12.3878
▁transcend	-12.3878
percussion	-12.3878
▁1982	-12.3878
▁belichick	-12.3878
▁cafeteria	-12.3878
▁emolument	-12.3878
▁juggernaut	-12.3878
▁mammoth	-12.3878
▁miscarriage	-12.3878
▁nichols	-12.3878
▁satisfie	-12.3878
▁skirmish	-12.3878
▁deceptive	-12.3878
▁delusion	-12.3878
▁abstain	-12.3878
▁oxygen	-12.3878
▁telegraph	-12.3878
▁abram	-12.3878
▁convenient	-12.3878
▁ernest	-12.3878
▁sleeve	-12.3878
▁blunder	-12.3878
▁biotech	-12.3878
▁awoke	-12.3878
▁geological	-12.3878
▁onlooker	-12.3878
slaught	-12.3879
▁stink	-12.3879
▁scoff	-12.3879
▁factual	-12.3879
▁adorn	-12.3879
▁mcgra	-12.3879
▁heartbeat	-12.3879
▁accommodation	-12.388
▁repay	-12.388
▁unhealth	-12.3881
▁martyr	-12.3882
ollah	-12.3884
▁flame	-12.3885
▁cleanup	-12.3885
▁artwork	-12.3888
▁relish	-12.3888
▁prototype	-12.3889
▁hardliner	-12.389
▁220	-12.3891
▁mia	-12.3892
▁hobby	-12.3892
▁roadside	-12.3894
▁ramm	-12.3895
▁biker	-12.3897
▁richards	-12.3897
▁herbali	-12.3898
▁nyu	-12.3898
▁nerds	-12.39
▁verifi	-12.3902
gara	-12.3903
▁standout	-12.3903
▁scari	-12.3905
▁scant	-12.391
▁rad	-12.3915
▁conspicuous	-12.3917
onia	-12.3917
hat	-12.3919
ograph	-12.3922
▁sana	-12.3923
▁arrange	-12.3926
▁docs	-12.393
▁fog	-12.393
▁tainted	-12.3932
▁weep	-12.3933
▁einstein	-12.3938
▁barber	-12.3938
▁monumental	-12.3939
▁louder	-12.3942
▁levy	-12.3943
▁ascent	-12.3944
▁pharmac	-12.3948
cam	-12.3949
▁despise	-12.3951
aki	-12.3952
▁drugged	-12.3954
▁pasta	-12.3956
▁compromis	-12.3957
▁wilm	-12.396
pez	-12.3961
mu	-12.3963
rit	-12.3964
▁blurr	-12.3965
▁maggi	-12.3974
▁envelope	-12.3981
▁doubles	-12.3983
clinton	-12.3986
istan	-12.3987
▁inaction	-12.3994
▁airway	-12.3996
kar	-12.3996
▁flor	-12.3999
iola	-12.4003
▁oceans	-12.4003
term	-12.4004
▁reassur	-12.4005
▁scouts	-12.4006
▁dismisse	-12.401
▁holland	-12.4013
▁baron	-12.4015
van	-12.4017
▁stefan	-12.4021
oshi	-12.4037
pga	-12.4038
▁shit	-12.4042
▁kidd	-12.4043
peace	-12.4043
▁deplorable	-12.4052
hai	-12.4053
▁hyp	-12.4057
▁squeez	-12.406
▁corners	-12.4063
▁tina	-12.4065
▁polo	-12.4066
▁conceiv	-12.407
▁rem	-12.4073
▁logical	-12.4074
▁conclud	-12.408
ram	-12.4081
neath	-12.4085
▁handler	-12.4085
log	-12.4088
▁meyers	-12.409
▁assisted	-12.4091
herman	-12.4094
▁planting	-12.4097
▁plc	-12.4098
▁dole	-12.4099
▁disappoint	-12.41
▁assure	-12.4103
▁ignite	-12.4105
▁borrowing	-12.4108
▁disbelie	-12.4113
▁booking	-12.4121
▁meth	-12.4121
ient	-12.4121
▁incompeten	-12.4122
▁depriv	-12.4122
▁summ	-12.4125
▁imperial	-12.4125
▁amp	-12.4126
▁gwen	-12.4126
▁steak	-12.4128
▁unreal	-12.4128
▁auschwitz	-12.4128
▁deflect	-12.4128
▁demoraliz	-12.4128
▁embargo	-12.4128
▁hybrid	-12.4128
▁implicit	-12.4128
▁intimidate	-12.4128
▁merchant	-12.4128
▁mohammad	-12.4128
▁python	-12.4128
▁savior	-12.4128
▁steinbrenner	-12.4128
▁synagogue	-12.4128
▁thirteen	-12.4128
▁ultimatum	-12.4128
▁wannacry	-12.4128
▁dissatisf	-12.4128
▁exacerbat	-12.4128
▁overreach	-12.4128
▁adjacen	-12.4128
▁futuristic	-12.4128
▁entrench	-12.4128
▁mascot	-12.4128
▁cherish	-12.4128
▁testament	-12.4128
▁wrangl	-12.4128
▁fifteen	-12.4128
▁tidal	-12.4128
▁forensic	-12.4128
▁kalama	-12.4128
▁metallic	-12.4128
▁unwitting	-12.4128
▁ailment	-12.4128
▁defraud	-12.4129
▁quash	-12.4129
▁faux	-12.4129
▁commutation	-12.4129
cisco	-12.4129
▁airbase	-12.4129
▁mccart	-12.4129
▁playwright	-12.413
▁exert	-12.413
rb	-12.4131
▁santor	-12.4132
▁alexandra	-12.4132
▁viking	-12.4132
▁fowler	-12.4133
▁blade	-12.4133
▁tier	-12.4133
▁betrayal	-12.4135
▁ballet	-12.4135
▁tamper	-12.4135
▁pax	-12.4136
cable	-12.4137
▁hotline	-12.4137
▁tanta	-12.4138
▁turks	-12.4138
▁oscarsso	-12.4138
▁revision	-12.4139
kiev	-12.4142
▁gua	-12.4144
▁chem	-12.4147
▁unprov	-12.4149
▁jaz	-12.4154
oven	-12.4154
▁hitch	-12.4157
lap	-12.4161
▁banish	-12.4166
▁breathless	-12.4167
▁shrugg	-12.4171
▁troy	-12.4173
▁cynical	-12.4174
shing	-12.4179
▁mcco	-12.4183
are	-12.4184
hole	-12.4189
▁lazar	-12.4192
▁pinch	-12.4192
▁intolerance	-12.4194
▁wheat	-12.4195
1:30	-12.4198
ister	-12.4204
▁ramada	-12.4205
▁notification	-12.4205
▁console	-12.4209
▁colt	-12.421
▁cecil	-12.421
▁sword	-12.4211
▁charger	-12.4213
▁luci	-12.4214
▁owen	-12.4218
hou	-12.4219
▁dictators	-12.4225
▁authorization	-12.4227
▁dodger	-12.4229
▁opener	-12.4231
▁piling	-12.4246
gram	-12.4248
yne	-12.425
▁liberat	-12.4252
▁boi	-12.4255
live	-12.4259
▁rb	-12.426
need	-12.4262
▁proportions	-12.4263
▁abilit	-12.4269
nette	-12.4279
▁educated	-12.428
eu	-12.4281
unes	-12.4282
▁retaliate	-12.4287
▁ramir	-12.4291
▁ren	-12.4291
▁parachute	-12.4299
far	-12.4303
blaze	-12.4306
understood	-12.4306
▁deflate	-12.4307
▁lounge	-12.4307
dollar	-12.4307
▁wandering	-12.4308
▁manufacture	-12.4315
bor	-12.4315
bone	-12.4316
▁marion	-12.4318
gold	-12.4322
tus	-12.4324
▁143	-12.4326
nte	-12.4326
▁bum	-12.4326
▁lore	-12.4332
culture	-12.4342
▁paranoi	-12.4346
goers	-12.4347
▁statues	-12.4348
greta	-12.4348
▁tracker	-12.4349
▁divid	-12.4352
▁fret	-12.4367
▁visibl	-12.4368
▁lapse	-12.437
▁workshop	-12.4378
itt	-12.4379
▁dispos	-12.4381
▁certifi	-12.4384
▁swelter	-12.4384
▁afflict	-12.4384
▁amusement	-12.4384
▁eccentric	-12.4384
▁robocall	-12.4384
▁shipwreck	-12.4384
▁demolish	-12.4384
▁irregular	-12.4384
▁uncommon	-12.4384
▁bueno	-12.4384
▁mistreat	-12.4384
▁tantrum	-12.4384
▁prophet	-12.4384
▁stephanopoulo	-12.4384
▁cosmopolitan	-12.4384
▁cigar	-12.4384
▁waitress	-12.4384
▁1959	-12.4384
▁meditation	-12.4384
▁jockey	-12.4385
▁anguish	-12.4385
▁gleam	-12.4385
▁rambling	-12.4385
▁cram	-12.4385
▁pluck	-12.4385
▁razor	-12.4385
▁puppet	-12.4385
▁oppressive	-12.4386
▁dreadful	-12.4386
▁traitor	-12.4388
▁impass	-12.439
▁majest	-12.439
▁clubhouse	-12.439
▁cheerful	-12.4391
▁caroline	-12.4392
▁nemes	-12.4392
▁mural	-12.4393
▁derange	-12.4393
▁reunite	-12.4394
▁brigade	-12.4394
▁alain	-12.4394
▁hash	-12.4394
▁flier	-12.4395
▁shunn	-12.4395
▁ari	-12.4396
▁tunisian	-12.4397
▁mantra	-12.4397
▁persuad	-12.4399
done	-12.4401
▁frontline	-12.4401
▁complicit	-12.4401
▁notebook	-12.4402
▁minus	-12.4402
ecb	-12.4403
▁feli	-12.4404
▁discord	-12.4404
▁overrun	-12.4407
▁closures	-12.4408
▁feminin	-12.4416
▁stamped	-12.4423
▁revise	-12.4424
inous	-12.4426
▁rattle	-12.4431
djo	-12.4438
▁decker	-12.444
▁117	-12.4441
▁punt	-12.4449
▁didi	-12.445
▁tul	-12.4452
▁influenc	-12.4453
▁fetch	-12.4457
▁versa	-12.4457
bush	-12.4459
itude	-12.446
berger	-12.4461
▁mcg	-12.4467
▁rite	-12.4468
▁arcan	-12.4468
▁embodi	-12.4472
lange	-12.4472
▁sicken	-12.4476
▁brew	-12.4481
xm	-12.4484
▁obscen	-12.4485
mod	-12.4487
▁smuggler	-12.4488
mez	-12.4492
▁abde	-12.4492
nda	-12.4498
▁trent	-12.45
aday	-12.45
▁sage	-12.4509
▁baffl	-12.4511
▁sharia	-12.4514
▁recus	-12.4516
▁curie	-12.4519
▁epi	-12.452
▁malia	-12.4524
▁appall	-12.4528
▁stare	-12.4529
▁scarlet	-12.453
weaver	-12.4531
▁breache	-12.4532
garrett	-12.4536
gun	-12.4537
▁salesman	-12.4538
▁gum	-12.454
▁conte	-12.4547
fold	-12.4549
par	-12.4552
▁unto	-12.4554
▁12-	-12.4554
▁wad	-12.4556
▁beds	-12.4559
mw	-12.456
▁gab	-12.4564
▁bil	-12.4567
▁waffle	-12.4568
▁lor	-12.4571
▁cont	-12.4573
familiar	-12.4577
muslim	-12.4577
▁bos	-12.4579
▁grove	-12.458
wife	-12.458
▁disarm	-12.4589
▁forbid	-12.4593
child	-12.4595
udi	-12.4595
drick	-12.4598
▁5.	-12.4611
llen	-12.4615
▁brig	-12.4615
▁mash	-12.4615
lager	-12.4618
adi	-12.4622
gony	-12.4623
ail	-12.4633
▁lundq	-12.4634
▁acc	-12.4638
▁expansi	-12.4641
▁implicat	-12.4642
▁limp	-12.4645
▁duff	-12.4646
▁affidavit	-12.4647
▁bewilder	-12.4647
▁irrelevant	-12.4647
▁mainstay	-12.4647
▁mishap	-12.4647
▁moniker	-12.4647
▁neanderthal	-12.4647
▁outperform	-12.4647
▁shrunk	-12.4647
▁straphanger	-12.4647
▁suspense	-12.4647
▁trespass	-12.4647
▁confiscat	-12.4647
▁succumb	-12.4647
▁apprehend	-12.4648
▁unverifi	-12.4648
▁detract	-12.4648
▁jurist	-12.4648
▁bastard	-12.4648
▁stalemate	-12.4648
▁boulder	-12.4648
▁rhino	-12.4648
▁stomp	-12.4648
▁forfeit	-12.4648
▁mcfarlan	-12.4648
▁sweetheart	-12.4648
▁dhaka	-12.4648
▁hysterical	-12.4648
▁akbar	-12.4648
▁augmented	-12.4648
▁heartbroken	-12.4648
▁rezaian	-12.4648
▁implor	-12.4648
▁assort	-12.4648
▁hoffman	-12.4648
▁grape	-12.4648
▁namesake	-12.4648
▁equation	-12.4648
▁facilitate	-12.4648
▁walsh	-12.4648
▁exclusion	-12.4649
▁calculation	-12.4649
▁collaborator	-12.4649
▁verify	-12.4649
▁mahmo	-12.465
▁tailor	-12.465
▁mumba	-12.465
▁bungl	-12.465
▁vibe	-12.465
▁methodist	-12.465
▁compassion	-12.465
▁obsessive	-12.4651
▁masah	-12.4652
lib	-12.4652
▁classification	-12.4652
▁barrow	-12.4652
▁judy	-12.4652
▁cookbook	-12.4652
▁burkini	-12.4653
▁springfield	-12.4653
▁patricia	-12.4653
▁throwback	-12.4654
turk	-12.4655
▁diamonds	-12.4659
▁tribunal	-12.4659
▁duplicat	-12.466
▁leftover	-12.466
▁captivat	-12.4661
▁funk	-12.4662
▁shovel	-12.4662
▁cull	-12.4663
▁sobb	-12.4669
▁aesthetic	-12.4673
hawn	-12.4675
▁texans	-12.4676
▁hobo	-12.4677
roche	-12.4681
cato	-12.4685
▁cred	-12.4685
▁holli	-12.4685
▁dizzying	-12.4689
▁gmo	-12.4689
rington	-12.4692
atz	-12.4697
cot	-12.4699
heit	-12.47
izzo	-12.4701
▁copa	-12.4702
bro	-12.4703
100	-12.4708
▁suf	-12.4713
emper	-12.4718
pu	-12.4718
▁lobbi	-12.4721
▁rus	-12.4722
liberation	-12.4725
▁rewrit	-12.473
fin	-12.4731
▁barge	-12.4732
▁merg	-12.4734
ripa	-12.4738
▁climber	-12.4741
▁booz	-12.4758
onny	-12.4758
▁strapp	-12.4761
▁excluded	-12.4763
afi	-12.4768
ulation	-12.4768
▁expir	-12.4774
qa	-12.4777
▁homo	-12.4778
dai	-12.4793
▁sucks	-12.4796
ige	-12.4797
▁wak	-12.4798
ups	-12.4802
▁dynamics	-12.4809
▁pity	-12.4812
nny	-12.4813
▁fable	-12.4814
▁stre	-12.4815
rica	-12.4816
valu	-12.4816
▁relieve	-12.4822
▁evaluate	-12.4823
eff	-12.4826
▁horribly	-12.4826
▁te	-12.483
ioc	-12.4834
▁neuro	-12.4834
vas	-12.4843
screen	-12.4853
▁bask	-12.4856
nstable	-12.4857
▁rib	-12.4861
press	-12.4861
▁gin	-12.4863
▁napoli	-12.4863
▁finalist	-12.4863
23	-12.4864
▁lik	-12.4866
una	-12.4867
▁assassin	-12.4868
▁downgrad	-12.4868
▁verb	-12.4869
ole	-12.4873
▁flyer	-12.4873
▁hud	-12.4874
▁coli	-12.4874
bull	-12.4876
▁ells	-12.4878
elman	-12.4879
cardo	-12.488
isation	-12.4889
▁sol	-12.4891
▁tb	-12.4891
▁relocate	-12.4894
▁viola	-12.4895
einstein	-12.4897
▁sleeper	-12.4897
pass	-12.4901
▁deaf	-12.4904
▁cov	-12.4907
mantle	-12.4908
▁diva	-12.491
▁103	-12.4911
▁potato	-12.4914
▁104	-12.4915
▁scann	-12.4915
▁inhabit	-12.4917
▁biblical	-12.4918
▁memorandum	-12.4918
▁noodle	-12.4918
▁ordinance	-12.4918
▁remorse	-12.4918
▁structural	-12.4918
▁whirlwind	-12.4918
▁tarnish	-12.4918
▁emblazon	-12.4918
▁inferno	-12.4918
▁multinational	-12.4918
▁leggings	-12.4918
▁conversion	-12.4918
▁ardent	-12.4918
▁affirmative	-12.4918
▁isaac	-12.4918
▁inflam	-12.4918
buque	-12.4918
▁honour	-12.4918
▁noose	-12.4918
▁sasha	-12.4918
ebay	-12.4918
▁randall	-12.4918
▁headscar	-12.4919
▁jarring	-12.4919
▁tamir	-12.4919
▁foam	-12.4919
▁armour	-12.492
▁crater	-12.492
▁competent	-12.492
▁frat	-12.4922
▁nickel	-12.4922
▁enrich	-12.4922
vet	-12.4922
▁rundown	-12.4924
▁craw	-12.4924
▁incompetent	-12.4924
▁bosnia	-12.4928
▁reactor	-12.4929
▁illustration	-12.4929
▁sparr	-12.493
▁urine	-12.493
▁contemplate	-12.4931
▁abstract	-12.4931
▁screwed	-12.4934
▁vandaliz	-12.4935
▁touche	-12.4935
▁crusader	-12.4937
▁newsweek	-12.4939
▁coins	-12.4939
▁flatter	-12.4943
▁guin	-12.4948
▁fascis	-12.4949
▁badger	-12.4952
▁mesa	-12.4952
▁delighted	-12.4953
wyn	-12.4955
▁agonizing	-12.4957
▁dull	-12.4959
▁lurch	-12.4961
ahu	-12.4962
▁maple	-12.4965
▁willie	-12.4967
▁booster	-12.4968
▁riddle	-12.4968
▁13.	-12.497
▁grinn	-12.4971
▁ramo	-12.4973
▁dazzling	-12.4973
▁hobbl	-12.4975
lab	-12.4976
▁heroine	-12.4976
▁elle	-12.4978
▁clich	-12.498
▁flake	-12.4983
▁restructure	-12.4984
ache	-12.4985
▁yose	-12.4989
▁renegotiate	-12.4992
▁shorten	-12.4992
skeep	-12.4993
▁balk	-12.4996
▁laurie	-12.4996
▁offence	-12.4997
▁railing	-12.4998
sophie	-12.5007
ndra	-12.501
graph	-12.501
kie	-12.5011
▁unmasking	-12.5014
▁junkie	-12.5015
▁shave	-12.5017
▁pitche	-12.5019
▁gritt	-12.5023
ndi	-12.5029
▁agitat	-12.5029
▁astro	-12.503
tain	-12.503
ooga	-12.5031
irte	-12.5032
▁rider	-12.5039
quist	-12.504
▁pressur	-12.5041
eau	-12.5043
will	-12.5044
▁admin	-12.5044
▁au	-12.5045
dham	-12.5051
jack	-12.5055
ela	-12.5062
▁jagge	-12.5063
▁consolidate	-12.5065
chapel	-12.5069
▁tease	-12.508
▁degener	-12.5081
▁massage	-12.5086
control	-12.5087
▁rosari	-12.5088
▁malign	-12.5092
ech	-12.5093
uva	-12.5097
zed	-12.5098
▁cb	-12.5099
▁scra	-12.5099
ues	-12.5107
▁thur	-12.5109
▁builder	-12.511
▁hue	-12.5118
steps	-12.5119
▁troop	-12.5119
hopped	-12.512
achi	-12.512
▁175	-12.5125
▁gaines	-12.5128
▁dev	-12.5133
quarter	-12.5137
namo	-12.5137
▁dove	-12.5139
blue	-12.514
century	-12.514
▁wig	-12.5142
▁qa	-12.5146
▁gasp	-12.5148
▁realm	-12.5149
▁hens	-12.5152
▁soto	-12.5155
▁summons	-12.5164
▁propel	-12.5165
berna	-12.5167
76	-12.517
▁fum	-12.5173
▁secretari	-12.5178
▁rocker	-12.5179
▁poly	-12.5181
▁auster	-12.5183
▁recorder	-12.5183
scribe	-12.5193
eva	-12.5194
▁bristol	-12.5196
▁demolition	-12.5196
▁discontinu	-12.5196
▁doughnut	-12.5196
▁emphatic	-12.5196
▁jealous	-12.5196
▁microaggression	-12.5196
▁obliterat	-12.5196
▁undeniabl	-12.5196
▁vampire	-12.5196
▁vitamin	-12.5196
▁grizzl	-12.5196
▁prairie	-12.5196
▁seldom	-12.5196
▁uterus	-12.5196
▁cottage	-12.5196
▁pigeon	-12.5196
▁prodig	-12.5196
▁particle	-12.5196
▁veggie	-12.5196
▁consulate	-12.5196
▁eminent	-12.5196
▁algeria	-12.5196
▁venom	-12.5196
▁1978	-12.5196
▁ecsta	-12.5196
▁parcel	-12.5196
omaha	-12.5196
▁snapshot	-12.5196
▁vladi	-12.5196
▁audacious	-12.5196
hca	-12.5196
▁meteorologist	-12.5196
▁marxist	-12.5196
▁1965	-12.5196
▁bookstore	-12.5196
▁distrust	-12.5197
▁lockdown	-12.5197
▁pronouncement	-12.5197
▁perplex	-12.5197
▁00	-12.5197
▁deception	-12.5197
▁mommy	-12.5197
▁ladder	-12.5197
▁mistrust	-12.5198
▁dalton	-12.5198
▁temptation	-12.5198
▁abyss	-12.5198
▁2030	-12.5198
▁formidabl	-12.5198
▁unseat	-12.5199
▁kobe	-12.5199
▁disposal	-12.5199
▁manifesto	-12.52
▁crescen	-12.52
▁leah	-12.5201
tch	-12.5201
▁void	-12.5201
big	-12.5201
▁trustee	-12.5202
▁poach	-12.5202
▁manual	-12.5202
▁homosexualit	-12.5202
▁hindu	-12.5202
▁airspace	-12.5203
▁instrumental	-12.5203
▁fuzz	-12.5203
▁pena	-12.5204
▁pooch	-12.5205
▁heath	-12.5205
▁loneli	-12.5206
▁cheerleader	-12.5206
▁oversize	-12.5208
▁3:30	-12.5209
▁insensitiv	-12.5212
▁continuous	-12.5212
cited	-12.5213
▁blowout	-12.5214
▁gigant	-12.5214
▁successive	-12.5215
▁cub	-12.5216
▁kitten	-12.5216
▁10,000	-12.5217
yvon	-12.5219
▁thaw	-12.5219
▁warhead	-12.522
▁funnel	-12.5221
▁fries	-12.5221
lar	-12.5222
▁maiden	-12.5222
▁epicent	-12.5223
▁senseless	-12.5227
▁dimon	-12.523
▁argentine	-12.5231
▁justification	-12.5235
▁barbie	-12.5236
rite	-12.524
▁geno	-12.5242
ico	-12.5243
▁dyke	-12.5252
etcher	-12.5254
▁helpless	-12.5256
▁cadets	-12.5258
▁oro	-12.5259
wald	-12.526
▁rot	-12.526
▁lance	-12.5261
▁willful	-12.5262
▁mocker	-12.5265
▁pesh	-12.5265
▁interpreter	-12.5265
▁cascade	-12.5266
iu	-12.5267
▁lapd	-12.5268
▁dent	-12.527
▁millionaires	-12.527
▁celesti	-12.5271
▁aram	-12.5272
▁holly	-12.5272
▁dome	-12.5274
▁gle	-12.5274
38	-12.5276
▁discretionar	-12.5278
form	-12.5281
uki	-12.5283
▁butterfl	-12.5287
▁capitalize	-12.5288
▁yah	-12.5288
rais	-12.529
und	-12.5293
▁orwell	-12.5296
▁gild	-12.5306
▁lao	-12.5307
▁amir	-12.531
▁prescribe	-12.532
ovic	-12.5321
▁vile	-12.5328
▁primer	-12.5332
iti	-12.5332
▁fen	-12.5338
▁ob	-12.534
▁oj	-12.5356
▁guill	-12.5361
▁cran	-12.5361
▁annoy	-12.5361
▁retract	-12.5367
▁nv	-12.5368
chang	-12.5372
▁lenn	-12.5374
▁corny	-12.5376
arious	-12.538
▁tuc	-12.539
arin	-12.539
▁reignit	-12.5394
▁siz	-12.5397
▁vt	-12.5398
▁converg	-12.54
50	-12.5404
▁shackle	-12.5411
zzi	-12.5417
ttering	-12.542
▁alas	-12.5427
▁discourag	-12.5429
wo	-12.5433
▁hom	-12.5434
lene	-12.544
▁rae	-12.5443
▁showman	-12.5445
▁panther	-12.5446
▁thug	-12.5449
cart	-12.5456
▁nois	-12.5456
▁sina	-12.5457
▁statesman	-12.5462
▁magnet	-12.5464
▁incidental	-12.5464
rlock	-12.5465
clear	-12.5466
mark	-12.5471
oke	-12.5475
▁reluctan	-12.5475
▁splitt	-12.5476
▁perpetrat	-12.5478
▁pilgrim	-12.548
▁disrespect	-12.5481
▁whisk	-12.5481
▁filipino	-12.5481
▁fragment	-12.5481
▁incarnation	-12.5481
▁inconvenient	-12.5481
▁ineffective	-12.5481
▁irresistibl	-12.5481
▁measles	-12.5481
▁mistress	-12.5481
▁reservoir	-12.5481
▁sausage	-12.5481
▁submission	-12.5481
▁fischer	-12.5481
▁stuart	-12.5481
▁unpleasant	-12.5481
▁mcmah	-12.5481
▁squeak	-12.5481
▁doomsday	-12.5481
▁freight	-12.5481
▁meadow	-12.5481
▁akzo	-12.5481
▁abdullah	-12.5481
▁beacon	-12.5482
▁sororit	-12.5482
▁mercedes	-12.5482
▁rumble	-12.5482
▁nanny	-12.5482
▁acquaintance	-12.5482
▁poignant	-12.5482
▁discard	-12.5482
▁parlor	-12.5482
▁esqui	-12.5482
▁coherent	-12.5483
▁translator	-12.5483
▁swank	-12.5483
▁jitter	-12.5483
▁searing	-12.5484
▁salvo	-12.5484
▁spearhead	-12.5485
▁mayweather	-12.5486
▁pander	-12.5486
▁palant	-12.5486
▁corona	-12.5486
▁torment	-12.5487
▁canaver	-12.5487
▁lax	-12.5488
▁railway	-12.5488
▁pedal	-12.5489
▁9:30	-12.5489
izr	-12.5489
▁adjustment	-12.549
▁appliance	-12.549
▁overflow	-12.5491
walk	-12.5492
attah	-12.5494
▁brandish	-12.5496
▁takedown	-12.5496
▁defection	-12.5497
rito	-12.5498
pec	-12.55
▁guardians	-12.5503
glasse	-12.5507
▁sofa	-12.551
▁kitt	-12.5512
rig	-12.5515
▁portal	-12.5519
▁hiat	-12.5521
▁cakes	-12.5522
▁constan	-12.5522
▁nl	-12.5522
efront	-12.5524
▁poult	-12.5528
▁useless	-12.5529
rei	-12.5536
▁understat	-12.5537
▁pod	-12.554
▁sucker	-12.554
▁tallie	-12.5543
pless	-12.5545
▁terroriz	-12.5546
▁tread	-12.5556
▁penetrat	-12.5558
▁weekday	-12.5561
▁humane	-12.5565
▁lawful	-12.5567
▁radiati	-12.5569
etic	-12.5571
▁hijacker	-12.5571
▁chemo	-12.5571
nian	-12.5572
▁vex	-12.5574
▁189	-12.5577
▁rowd	-12.558
met	-12.5584
▁hush	-12.5584
wig	-12.5585
▁outdoors	-12.5588
iya	-12.559
▁recycl	-12.5591
pod	-12.5594
▁arrow	-12.5597
▁stro	-12.5603
▁hut	-12.5607
▁deb	-12.5608
▁bumper	-12.5611
▁anticipate	-12.5611
mun	-12.5614
▁kir	-12.5614
mat	-12.5614
razier	-12.5622
▁adel	-12.5622
▁revoke	-12.5623
▁exercis	-12.5624
cio	-12.5626
yard	-12.563
▁daw	-12.5634
torium	-12.5644
▁conf	-12.5645
entity	-12.5646
via	-12.5649
▁brow	-12.5651
▁admirer	-12.5653
▁underage	-12.5658
itz	-12.5658
coc	-12.5659
▁functional	-12.5663
▁klin	-12.5664
▁fists	-12.5666
▁cm	-12.5669
▁indulg	-12.5671
▁narcissist	-12.5672
▁divorc	-12.5673
▁scorch	-12.5674
▁afar	-12.5674
▁negligen	-12.5679
skill	-12.5685
▁dough	-12.5687
▁captiv	-12.5688
▁malle	-12.569
▁113	-12.569
▁vern	-12.5693
och	-12.5701
▁hasti	-12.5703
forgett	-12.5705
▁palo	-12.5715
▁hon	-12.5717
uiz	-12.572
▁wald	-12.5727
oid	-12.5728
▁extraordinar	-12.5735
with	-12.5738
▁grin	-12.574
wess	-12.5743
▁suppose	-12.5746
▁texan	-12.5747
nadal	-12.5759
ditch	-12.576
▁numb	-12.5763
▁mimic	-12.5767
ema	-12.5767
26	-12.5768
cott	-12.5768
▁familia	-12.5769
▁lowe	-12.5771
still	-12.5773
▁pediatric	-12.5775
▁platin	-12.5775
▁methan	-12.5775
▁masturbat	-12.5775
▁groundhog	-12.5775
▁henrik	-12.5775
▁hyperbole	-12.5775
▁implosion	-12.5775
▁inexplicabl	-12.5775
▁jaguar	-12.5775
▁pajama	-12.5775
▁pencil	-12.5775
▁questionnaire	-12.5775
▁radioactive	-12.5775
▁redemption	-12.5775
▁retroactive	-12.5775
▁stalwart	-12.5775
▁theoretical	-12.5775
▁unsurprising	-12.5775
▁beneficiar	-12.5775
▁slush	-12.5775
▁wobbl	-12.5775
▁blazing	-12.5775
▁coffin	-12.5775
▁criteri	-12.5775
▁sectarian	-12.5775
▁imprint	-12.5775
▁mcilr	-12.5775
▁outpouring	-12.5775
▁bourne	-12.5775
▁emblem	-12.5776
▁gucci	-12.5776
▁ferocious	-12.5776
▁guccifer	-12.5776
▁superbug	-12.5776
▁lifesav	-12.5776
▁emmet	-12.5776
▁homophobic	-12.5776
▁anatom	-12.5776
▁congregation	-12.5776
▁marriott	-12.5776
▁sociologist	-12.5776
▁hoverboard	-12.5777
▁pervasive	-12.5777
▁vetted	-12.5777
▁adolescent	-12.5777
▁guv	-12.5777
▁incoherent	-12.5777
▁xav	-12.5778
▁cartoonist	-12.5778
▁constructive	-12.5778
▁countdown	-12.5778
▁cornerstone	-12.5779
▁evolve	-12.5779
▁550	-12.5779
▁ritz	-12.578
respondents	-12.5781
▁wiki	-12.5781
▁bullish	-12.5781
▁unsolv	-12.5783
rill	-12.5783
▁selfish	-12.5783
▁amusing	-12.5784
▁6:30	-12.5785
▁infantry	-12.5785
▁mccle	-12.5786
▁240	-12.5787
▁sabat	-12.5787
▁naive	-12.579
▁harmless	-12.5791
runner	-12.5792
▁replay	-12.5793
▁backpage	-12.5794
▁drown	-12.5795
▁plume	-12.5796
▁taj	-12.58
▁dissect	-12.5801
quette	-12.5803
▁retaliat	-12.5806
▁posture	-12.5806
▁worshipp	-12.5807
▁lace	-12.5808
wanda	-12.5811
▁snakes	-12.5813
▁tal	-12.5816
▁vend	-12.5817
▁mugg	-12.5819
▁osborn	-12.5819
now	-12.5821
tano	-12.5821
▁neal	-12.5827
▁mediocr	-12.5828
mount	-12.5829
▁rotten	-12.5832
▁angl	-12.5834
▁organizer	-12.5836
▁javi	-12.584
▁execut	-12.5842
▁melod	-12.5842
▁ami	-12.5845
▁shul	-12.5846
misunderstanding	-12.5846
▁peck	-12.5848
▁stunner	-12.5855
▁scrutiniz	-12.5855
▁input	-12.5859
▁dime	-12.586
▁gee	-12.5864
gay	-12.5867
▁kc	-12.5868
▁coerc	-12.5877
▁schla	-12.5877
▁sri	-12.5877
▁angelo	-12.5885
▁pap	-12.5886
▁bild	-12.5888
▁lione	-12.5892
cola	-12.5897
▁oppress	-12.5898
▁stale	-12.5899
kova	-12.5899
▁pamel	-12.5904
calf	-12.5906
▁rows	-12.5907
▁ranger	-12.591
▁lakes	-12.5928
▁gall	-12.5932
▁ravens	-12.5933
arrison	-12.5936
▁referenc	-12.5937
▁liars	-12.5937
▁9.	-12.5938
yber	-12.5942
▁bran	-12.5945
home	-12.5945
osis	-12.595
▁terr	-12.5953
▁bridget	-12.5955
▁trumpian	-12.5957
dine	-12.596
▁bol	-12.5963
▁waver	-12.5963
tner	-12.5964
▁timber	-12.5967
ree	-12.597
▁journalistic	-12.5971
▁guts	-12.5975
▁bount	-12.5982
▁coincide	-12.5985
▁blur	-12.5991
ime	-12.5993
▁cooler	-12.5993
▁shuffle	-12.5995
eng	-12.5998
▁tierne	-12.6001
▁compensat	-12.6001
▁quicken	-12.6006
▁societ	-12.6012
-1	-12.6014
loud	-12.6014
▁redefine	-12.6014
▁cynic	-12.6022
kamp	-12.6025
▁hayde	-12.6026
▁188	-12.6033
▁firefight	-12.6033
▁fern	-12.6036
▁abs	-12.6037
▁furr	-12.6037
▁falluja	-12.6037
ux	-12.6044
secure	-12.6046
▁kam	-12.6046
▁dangl	-12.6046
match	-12.6046
▁franc	-12.6046
▁dunn	-12.6048
minute	-12.6049
birth	-12.605
district	-12.605
▁fantasi	-12.6051
founder	-12.6051
niche	-12.6053
▁hono	-12.6054
farm	-12.6054
interest	-12.6055
▁thesis	-12.6061
▁compel	-12.6061
▁spit	-12.6064
▁lust	-12.6065
▁muse	-12.6069
spring	-12.6069
▁knick	-12.6073
llies	-12.6074
▁decapitat	-12.6075
bunny	-12.6075
▁migrat	-12.6076
▁archbishop	-12.6078
▁encompass	-12.6078
▁eyewitness	-12.6078
▁frankfurt	-12.6078
▁icbm	-12.6078
▁intrusion	-12.6078
▁liquor	-12.6078
▁malfunction	-12.6078
▁newfound	-12.6078
▁paramedic	-12.6078
▁retribution	-12.6078
▁specify	-12.6078
▁steroid	-12.6078
▁tequila	-12.6078
▁thirty	-12.6078
▁unwelcom	-12.6078
▁fetish	-12.6078
▁unabashed	-12.6078
▁enslav	-12.6078
▁wrinkle	-12.6078
▁disperse	-12.6078
▁trounc	-12.6078
▁wiesel	-12.6078
▁kaplan	-12.6078
▁scroll	-12.6079
▁enigma	-12.6079
▁menacing	-12.6079
▁nimr	-12.6079
▁intimidating	-12.6079
▁carrot	-12.6079
▁fusion	-12.6079
▁shortstop	-12.6079
▁jeep	-12.6079
[...]
