<unk>	0
<s>	0
</s>	0
▁,	-3.2545
▁the	-3.26924
▁	-3.38202
s	-3.38562
▁.	-3.61627
▁a	-3.88963
▁to	-3.98813
▁of	-4.06972
’	-4.10469
ed	-4.15345
▁in	-4.20333
▁and	-4.30737
▁s	-4.4194
ing	-4.42782
▁"	-4.5825
"	-4.71717
▁on	-4.84158
▁for	-4.96439
▁that	-4.99948
.	-5.01737
▁is	-5.16838
▁”	-5.18782
y	-5.28021
ly	-5.30712
▁trump	-5.35354
▁with	-5.38843
▁it	-5.38855
▁be	-5.44722
▁was	-5.45148
▁at	-5.55223
▁—	-5.61167
“	-5.63067
▁his	-5.6337
▁he	-5.68432
▁as	-5.68908
▁from	-5.72018
d	-5.75532
▁by	-5.77738
▁has	-5.79693
▁an	-5.81058
▁:	-5.85763
e	-5.92626
▁are	-6.05907
n	-6.06468
▁said	-6.06797
▁who	-6.07829
▁new	-6.08532
▁have	-6.09403
en	-6.1067
▁this	-6.11612
▁but	-6.11796
▁t	-6.14358
▁i	-6.16289
▁after	-6.18217
▁not	-6.22467
▁about	-6.25132
▁",	-6.26814
▁president	-6.28536
▁her	-6.32066
er	-6.33053
▁will	-6.37409
▁u	-6.37499
▁donald	-6.40502
▁one	-6.42767
▁their	-6.43544
▁you	-6.47231
▁more	-6.52416
▁over	-6.52751
▁they	-6.53026
▁had	-6.56487
▁its	-6.56587
▁we	-6.57243
▁up	-6.59642
▁when	-6.6014
▁out	-6.60614
es	-6.61595
▁(	-6.61945
▁)	-6.62719
▁?	-6.63021
-	-6.65178
▁she	-6.66735
▁or	-6.66917
▁were	-6.66935
a	-6.67453
▁what	-6.71157
▁people	-6.71597
▁first	-6.75011
▁would	-6.77805
▁than	-6.79376
r	-6.79461
▁clinton	-6.82077
▁into	-6.82429
▁two	-6.85177
▁state	-6.85357
▁which	-6.85803
▁us	-6.87395
t	-6.87512
$	-6.88754
▁all	-6.88796
▁some	-6.88935
▁can	-6.89714
▁last	-6.90788
l	-6.92261
▁how	-6.92514
▁house	-6.93819
▁no	-6.95251
▁year	-6.9824
▁week	-6.99255
▁there	-6.99453
▁years	-6.99472
▁just	-7.00408
▁so	-7.04567
▁time	-7.05304
▁could	-7.06021
▁most	-7.08288
▁if	-7.09747
o	-7.10704
▁like	-7.11314
▁obama	-7.11322
▁now	-7.15601
▁re	-7.15882
▁police	-7.16391
▁republican	-7.16579
▁campaign	-7.16809
‘	-7.18126
▁white	-7.18522
▁news	-7.21533
ies	-7.21919
▁him	-7.23573
▁world	-7.24499
▁tuesday	-7.24721
▁m	-7.25234
▁presidential	-7.25341
▁against	-7.26453
▁election	-7.26608
▁man	-7.27592
▁court	-7.28203
▁before	-7.28407
▁back	-7.28551
▁may	-7.28893
▁friday	-7.30006
al	-7.30258
▁other	-7.30484
▁day	-7.30622
▁says	-7.31047
▁thursday	-7.32113
▁according	-7.32291
ld	-7.33737
▁do	-7.34509
▁monday	-7.37098
▁national	-7.37487
m	-7.37778
▁city	-7.37779
on	-7.38603
▁former	-7.39465
▁hillary	-7.39672
▁american	-7.39729
▁wednesday	-7.40079
▁million	-7.40589
▁show	-7.43224
▁during	-7.44555
▁did	-7.45324
▁down	-7.45708
st	-7.45831
▁government	-7.46462
▁my	-7.46689
▁them	-7.47175
man	-7.48113
▁states	-7.48481
in	-7.48803
▁w	-7.49403
▁even	-7.49661
▁your	-7.50729
▁federal	-7.51299
▁our	-7.51386
▁united	-7.52826
▁many	-7.52875
▁york	-7.53719
▁washington	-7.53725
▁night	-7.53819
▁get	-7.54142
▁off	-7.54687
▁while	-7.55152
▁country	-7.57142
▁where	-7.57614
▁made	-7.58723
▁post	-7.58845
▁take	-7.59126
▁also	-7.59237
▁say	-7.60476
▁un	-7.60597
▁here	-7.60705
▁percent	-7.60921
▁bill	-7.61689
▁under	-7.61871
▁since	-7.62069
th	-7.62814
ers	-7.63634
ion	-7.64286
▁home	-7.65029
▁late	-7.65207
▁make	-7.65497
▁sunday	-7.65869
▁women	-7.65932
▁three	-7.66187
le	-7.66389
▁call	-7.67333
▁public	-7.67493
▁america	-7.67848
▁health	-7.68442
c	-7.68593
▁company	-7.68877
▁through	-7.68986
▁party	-7.70095
▁want	-7.70404
▁need	-7.70657
▁political	-7.71457
▁look	-7.72575
▁end	-7.72883
▁why	-7.7347
▁because	-7.7352
▁media	-7.73556
▁way	-7.74175
▁administration	-7.74231
▁1	-7.74267
▁officials	-7.74577
▁group	-7.75381
▁only	-7.7546
▁report	-7.76003
▁d	-7.76176
▁law	-7.76965
▁part	-7.7743
i	-7.77461
▁saturday	-7.77505
▁help	-7.7786
▁great	-7.78381
▁being	-7.7847
▁found	-7.78905
▁vote	-7.79073
▁p	-7.79301
▁attack	-7.79655
▁north	-7.79668
between	-7.80867
▁long	-7.81916
p	-7.8202
able	-7.82349
▁office	-7.82645
▁democratic	-7.83038
▁much	-7.83249
▁department	-7.83282
▁big	-7.83747
▁me	-7.83769
▁still	-7.83815
▁should	-7.84078
▁days	-7.85551
▁around	-7.85626
▁2016	-7.86169
▁war	-7.86654
▁recent	-7.8693
▁deal	-7.87235
▁next	-7.88239
▁order	-7.88745
▁school	-7.88752
▁black	-7.88866
▁case	-7.89422
▁go	-7.8957
▁death	-7.89732
▁life	-7.89752
w	-7.89836
▁those	-7.90163
▁includ	-7.90165
▁c	-7.90227
▁any	-7.90261
▁security	-7.90911
▁does	-7.91037
▁know	-7.91262
▁don	-7.91519
▁high	-7.91623
▁good	-7.91909
▁every	-7.91994
▁reported	-7.9257
▁de	-7.92706
▁month	-7.92751
▁senate	-7.93796
h	-7.94856
▁another	-7.95427
▁called	-7.95435
▁right	-7.95842
▁republicans	-7.96451
▁top	-7.96452
▁own	-7.96519
▁2	-7.97931
▁di	-7.98174
▁000	-7.98518
▁please	-7.98579
▁support	-7.98731
ment	-7.98949
▁work	-7.99273
▁russia	-7.99387
ic	-7.99769
▁killed	-8.00063
▁few	-8.00264
▁k	-8.00547
▁woman	-8.00786
▁turn	-8.01539
▁force	-8.01719
▁gop	-8.021
▁south	-8.02875
▁ago	-8.02913
▁won	-8.03052
▁ve	-8.0308
g	-8.03163
b	-8.03247
▁face	-8.03357
▁final	-8.03792
an	-8.03848
▁team	-8.04846
▁think	-8.0522
▁left	-8.06294
▁family	-8.06326
▁sanders	-8.06429
▁care	-8.06816
▁these	-8.07271
▁ads	-8.07347
▁move	-8.07356
▁policy	-8.07717
▁both	-8.0776
▁plan	-8.08451
▁press	-8.08877
▁billion	-8.09054
▁four	-8.09181
▁car	-8.09222
▁fight	-8.09401
▁least	-8.09418
est	-8.09666
▁executive	-8.10107
▁see	-8.1011
▁far	-8.10384
▁nominee	-8.10404
▁going	-8.10882
▁debate	-8.10938
▁announced	-8.11005
▁air	-8.1116
▁10	-8.11267
▁months	-8.11312
▁head	-8.11443
▁russian	-8.11462
▁open	-8.11702
▁act	-8.11873
▁morning	-8.12003
▁business	-8.12231
▁lead	-8.12335
▁video	-8.12669
▁past	-8.12722
▁service	-8.12737
▁might	-8.13188
▁well	-8.13192
▁chief	-8.13519
▁major	-8.13633
▁sign	-8.13913
very	-8.15111
▁live	-8.1552
▁place	-8.15952
ity	-8.16095
▁set	-8.16248
▁general	-8.16994
▁dead	-8.17018
▁start	-8.17624
▁play	-8.17646
▁3	-8.17775
▁china	-8.1792
▁second	-8.17951
▁justice	-8.18034
▁5	-8.18726
▁best	-8.1897
▁secretary	-8.18996
one	-8.19144
k	-8.19259
▁judge	-8.19368
▁follow	-8.19392
▁block	-8.19564
▁never	-8.19729
▁university	-8.19964
▁try	-8.20582
▁took	-8.20642
▁early	-8.2076
se	-8.20822
▁americans	-8.20851
▁record	-8.21042
▁win	-8.21238
▁conservative	-8.21285
▁men	-8.21646
is	-8.21745
▁candidate	-8.219
▁wall	-8.2208
f	-8.22744
▁street	-8.22905
▁democrats	-8.23053
▁use	-8.23229
▁got	-8.2324
▁john	-8.2338
hether	-8.23902
▁released	-8.23988
▁come	-8.24219
▁race	-8.24261
▁point	-8.24378
▁congress	-8.24866
▁become	-8.24885
▁history	-8.25191
▁times	-8.2521
▁hit	-8.25338
▁f	-8.25386
▁charge	-8.25493
▁supreme	-8.2569
▁seem	-8.25817
across	-8.26153
re	-8.26451
▁change	-8.26493
▁story	-8.27007
▁nearly	-8.27055
or	-8.27208
▁star	-8.27313
▁came	-8.27408
▁too	-8.27517
▁pay	-8.27531
▁director	-8.28003
▁among	-8.28186
▁real	-8.28221
▁continue	-8.28301
▁fbi	-8.2835
us	-8.28512
▁speech	-8.28818
▁season	-8.29005
▁appear	-8.2916
▁cruz	-8.29657
▁five	-8.30159
el	-8.31592
▁investigation	-8.31618
▁such	-8.31623
▁committee	-8.32171
▁20	-8.32732
▁fall	-8.32921
▁military	-8.33328
▁then	-8.33432
▁young	-8.33886
▁arrest	-8.34246
▁little	-8.34877
▁voters	-8.35032
▁power	-8.35085
▁name	-8.35134
▁away	-8.35161
▁statement	-8.35235
▁ever	-8.35256
▁center	-8.35332
▁j	-8.35338
▁asked	-8.3545
▁put	-8.35451
▁interview	-8.36066
▁keep	-8.36208
▁foreign	-8.36795
▁issue	-8.37063
▁price	-8.3708
less	-8.3729
▁again	-8.37771
▁4	-8.3778
▁leader	-8.37879
▁stories	-8.3793
▁market	-8.37952
▁decision	-8.38181
▁find	-8.38199
▁fox	-8.38538
▁run	-8.38603
▁b	-8.38615
son	-8.38723
▁return	-8.38752
▁known	-8.38815
▁game	-8.39016
▁twitter	-8.39189
▁global	-8.39542
▁near	-8.39577
▁used	-8.39716
▁making	-8.39748
▁tax	-8.39768
▁system	-8.39894
▁syria	-8.40333
▁severa	-8.40591
▁social	-8.40669
▁clear	-8.40677
ch	-8.41326
▁yet	-8.41343
▁today	-8.4162
▁facebook	-8.42008
▁close	-8.42146
▁cut	-8.42198
ry	-8.42625
▁shot	-8.43009
▁california	-8.43052
▁question	-8.43086
▁meeting	-8.43482
▁lot	-8.43586
▁shooting	-8.43651
▁moment	-8.43671
▁old	-8.43913
▁behind	-8.44157
▁n	-8.44595
▁remain	-8.44761
▁march	-8.44848
without	-8.44888
▁politics	-8.44948
▁children	-8.44994
ce	-8.4516
▁really	-8.45278
▁share	-8.45362
▁bank	-8.45441
ation	-8.45536
ton	-8.45561
▁already	-8.45603
▁ban	-8.45619
▁effort	-8.4631
▁fire	-8.46376
u	-8.46577
▁international	-8.4669
ism	-8.47055
▁west	-8.47066
▁stop	-8.47226
x	-8.47476
▁st	-8.47646
▁things	-8.4792
ance	-8.47925
▁same	-8.48047
▁gun	-8.48103
▁official	-8.48498
▁members	-8.49008
▁minister	-8.49142
▁watch	-8.49145
▁trade	-8.49328
▁series	-8.49443
▁tell	-8.49651
▁less	-8.49917
▁film	-8.50312
et	-8.50369
▁nation	-8.50395
▁hard	-8.50639
▁love	-8.50793
▁co	-8.50949
▁something	-8.50962
▁victor	-8.51032
▁rights	-8.51457
▁bad	-8.51483
▁attorney	-8.51506
▁human	-8.51543
▁mean	-8.51599
▁writing	-8.52256
▁money	-8.52768
▁small	-8.52911
▁town	-8.52928
▁once	-8.53004
▁intelligence	-8.53094
▁hours	-8.53136
▁college	-8.53215
▁economic	-8.53217
▁job	-8.53229
▁islamic	-8.53474
▁six	-8.5348
▁tv	-8.53555
▁accus	-8.53576
▁korea	-8.53644
▁agency	-8.53851
▁consider	-8.54075
▁james	-8.54351
▁below	-8.54456
▁obamacare	-8.5476
▁give	-8.54802
▁leave	-8.54926
▁sources	-8.55101
▁reports	-8.55132
▁program	-8.55148
ive	-8.55892
▁likely	-8.56068
▁oil	-8.56633
▁saying	-8.56915
▁texas	-8.56933
▁thousand	-8.57302
▁sexual	-8.57506
▁union	-8.57512
▁let	-8.57553
▁officer	-8.57643
▁7	-8.57912
▁water	-8.58029
▁full	-8.58095
▁number	-8.58231
▁book	-8.58253
ally	-8.58299
▁launch	-8.58378
▁host	-8.58518
▁companies	-8.58578
▁concern	-8.58578
▁bernie	-8.58579
▁local	-8.58739
▁senator	-8.58742
▁weeks	-8.58924
▁following	-8.59008
▁later	-8.59038
▁pick	-8.5907
▁florida	-8.59222
▁earlie	-8.5955
▁steps	-8.596
ness	-8.59674
▁claim	-8.597
▁went	-8.59719
▁push	-8.59763
um	-8.59788
▁matter	-8.59816
▁immigration	-8.59816
▁6	-8.60054
▁almost	-8.60087
▁email	-8.60236
▁la	-8.60268
▁better	-8.60362
▁travel	-8.60523
to	-8.60829
▁los	-8.60829
▁test	-8.60898
▁control	-8.60928
▁apple	-8.60983
▁display	-8.61125
▁key	-8.61454
z	-8.61611
▁food	-8.61688
▁8	-8.61702
▁authorities	-8.61732
▁comes	-8.61768
▁private	-8.61785
▁sen	-8.61973
▁short	-8.62047
it	-8.62129
▁reporter	-8.6219
▁ask	-8.62515
▁g	-8.62524
▁stock	-8.62651
▁along	-8.62659
▁suspect	-8.62784
▁seen	-8.62842
▁rate	-8.62888
▁gett	-8.63142
▁leaders	-8.63313
▁action	-8.63588
▁park	-8.63635
▁san	-8.63983
▁data	-8.64025
▁plans	-8.64168
▁expected	-8.64191
▁select	-8.64201
ta	-8.64318
▁conference	-8.64358
▁barack	-8.64475
▁seek	-8.64504
▁murder	-8.64565
▁free	-8.6505
▁taking	-8.65071
▁biggest	-8.65102
▁future	-8.65212
▁weekend	-8.65273
▁sex	-8.65499
land	-8.65746
▁believe	-8.65988
▁himself	-8.65992
na	-8.6605
▁thing	-8.66152
▁students	-8.66199
out	-8.66247
ia	-8.66864
▁financial	-8.67
▁poll	-8.67083
▁talk	-8.67261
▁shows	-8.67274
▁building	-8.67457
v	-8.67588
ful	-8.676
▁each	-8.67879
▁large	-8.67879
▁primary	-8.67994
▁o	-8.68058
▁european	-8.68076
▁100	-8.6824
ever	-8.68267
ro	-8.68538
ra	-8.68645
▁alleged	-8.68657
▁review	-8.68829
▁hope	-8.68992
▁hand	-8.69195
▁ju	-8.69706
ant	-8.69883
▁attempt	-8.69892
▁comey	-8.69924
▁outside	-8.70152
▁syrian	-8.70205
ist	-8.70238
▁east	-8.70315
▁began	-8.70356
until	-8.70737
▁assault	-8.70977
▁suggest	-8.71012
▁carolina	-8.71159
▁legal	-8.71165
▁bring	-8.7129
▁battle	-8.71504
▁firm	-8.71767
▁attacks	-8.71907
▁despite	-8.72135
▁drug	-8.72183
▁movie	-8.72318
▁publish	-8.72353
▁potential	-8.72379
▁cop	-8.72455
▁thought	-8.72479
▁2015	-8.72686
▁countries	-8.72749
▁spend	-8.72968
▁15	-8.7299
▁michael	-8.73057
▁11	-8.7339
way	-8.73531
▁line	-8.73772
▁actual	-8.73865
▁read	-8.74552
▁paul	-8.74567
▁ll	-8.74621
▁current	-8.7472
la	-8.74765
▁inc	-8.74824
▁supporter	-8.74911
▁visit	-8.74981
▁enough	-8.75055
▁special	-8.75493
▁information	-8.75564
ley	-8.7586
▁threat	-8.76036
▁working	-8.76045
▁county	-8.76052
▁space	-8.76098
▁lost	-8.76216
▁fund	-8.7645
▁economy	-8.7658
▁mother	-8.76711
▁often	-8.7676
▁al	-8.76986
▁reach	-8.77048
id	-8.77088
▁network	-8.7716
▁buy	-8.77346
▁ryan	-8.77353
▁parent	-8.77398
▁running	-8.77485
▁join	-8.77648
▁questions	-8.77799
▁climate	-8.77805
▁though	-8.77812
ma	-8.77895
▁view	-8.77907
▁address	-8.77934
▁lawsuit	-8.78
having	-8.7805
▁study	-8.78064
▁meet	-8.78224
▁mexico	-8.78248
ie	-8.7834
▁iran	-8.78505
▁side	-8.7864
▁british	-8.78783
▁online	-8.78856
▁convention	-8.78856
▁inside	-8.79077
▁prime	-8.79087
▁interest	-8.79224
▁list	-8.79509
▁9	-8.79574
▁com	-8.79586
▁student	-8.79822
▁son	-8.79836
▁defense	-8.801
▁extension	-8.801
▁prison	-8.80157
ri	-8.80398
▁half	-8.80609
▁music	-8.80838
▁district	-8.80906
▁muslim	-8.81052
▁agree	-8.81164
▁officers	-8.81237
▁fail	-8.81454
▁capital	-8.81483
co	-8.81547
▁repeal	-8.81705
ur	-8.82403
▁12	-8.82443
▁david	-8.82857
▁isn	-8.82905
▁am	-8.83019
▁different	-8.83199
5	-8.83217
▁seven	-8.83356
ling	-8.83444
▁wants	-8.84367
▁central	-8.84369
▁industry	-8.84438
▁super	-8.84482
▁wife	-8.84667
▁claims	-8.8483
▁person	-8.84927
▁allow	-8.85081
▁front	-8.85182
▁island	-8.85421
ar	-8.85451
▁image	-8.85553
▁room	-8.85574
▁nomination	-8.85681
▁jobs	-8.85685
▁summer	-8.85834
▁governor	-8.85842
coming	-8.85846
ous	-8.85857
▁taken	-8.85955
▁always	-8.85974
▁offer	-8.86053
▁sell	-8.86091
▁mass	-8.86136
▁30	-8.86412
▁crisis	-8.8647
▁decades	-8.86477
▁role	-8.86562
came	-8.86707
▁boy	-8.86747
ne	-8.8695
▁largest	-8.86967
▁lawmaker	-8.86971
▁tri	-8.87009
ish	-8.87154
▁heart	-8.8729
▁rule	-8.87356
▁soon	-8.8751
▁led	-8.87554
age	-8.87612
▁held	-8.87619
▁workers	-8.87635
▁per	-8.87774
▁problem	-8.87948
▁hold	-8.88076
▁possible	-8.88112
▁border	-8.88315
▁board	-8.88364
▁reason	-8.8856
▁dollar	-8.88708
ian	-8.88727
▁ahead	-8.8883
▁green	-8.88929
▁tweet	-8.88993
▁document	-8.88997
▁killing	-8.89038
j	-8.89064
▁must	-8.8918
▁letter	-8.89184
▁rival	-8.8919
▁risk	-8.89265
▁dozen	-8.89336
▁coming	-8.8938
▁strong	-8.89538
▁scientist	-8.897
▁site	-8.89702
▁amid	-8.89722
▁hundred	-8.89773
▁land	-8.89812
▁19	-8.89927
▁secret	-8.89942
▁protest	-8.90058
▁middle	-8.90066
▁r	-8.9014
▁v	-8.90202
▁age	-8.90398
▁isis	-8.90534
▁civil	-8.90709
▁toward	-8.9084
te	-8.90922
at	-8.91231
▁le	-8.91288
▁personal	-8.9167
▁focus	-8.91692
▁started	-8.91734
▁process	-8.91766
▁met	-8.91948
▁event	-8.92085
ir	-8.92146
▁sea	-8.92177
▁mr	-8.92291
▁red	-8.92525
▁50	-8.92547
▁lawyer	-8.92602
▁feel	-8.92665
▁fact	-8.9274
▁speak	-8.92775
2	-8.93165
▁lives	-8.93193
▁mark	-8.93481
▁london	-8.93495
▁target	-8.93519
▁rep	-8.93576
▁nuclear	-8.93647
▁demand	-8.93725
▁technolog	-8.93878
▁deep	-8.94053
▁senior	-8.94333
▁popular	-8.94335
▁father	-8.94412
▁rally	-8.94436
▁release	-8.94483
▁daily	-8.94642
▁others	-8.9501
stead	-8.95394
il	-8.95792
▁course	-8.95817
▁rise	-8.95891
▁internet	-8.96266
▁hospital	-8.96392
▁third	-8.96576
▁sent	-8.96607
▁kind	-8.96664
▁rules	-8.96929
▁appeal	-8.97125
time	-8.97189
▁explain	-8.97524
▁child	-8.97619
ell	-8.9783
ca	-8.97869
▁afternoon	-8.97915
▁presidenc	-8.97941
▁body	-8.98041
▁access	-8.98209
▁wrote	-8.98232
▁important	-8.98318
▁stay	-8.98402
▁staff	-8.98736
▁project	-8.99061
▁april	-8.99111
▁rock	-8.99337
▁reuters	-8.99593
ter	-8.99754
▁gov	-8.99755
▁18	-8.99811
▁hearing	-9.00204
▁charg	-9.00204
▁increase	-9.00241
▁activist	-9.00329
▁break	-9.00331
ence	-9.0047
▁previous	-9.00484
▁candidates	-9.00513
▁enter	-9.0058
ve	-9.0064
▁2017	-9.00728
▁french	-9.00892
▁crowd	-9.01126
▁evidence	-9.01137
▁ceo	-9.01144
▁fac	-9.0135
▁editor	-9.01383
▁doctor	-9.01636
▁congressional	-9.01959
ary	-9.02299
▁eight	-9.02622
pent	-9.0268
▁daughter	-9.02871
▁note	-9.02916
▁search	-9.02954
▁europe	-9.03007
▁brief	-9.03013
▁2014	-9.03038
▁girl	-9.03065
▁community	-9.03209
▁makes	-9.03333
▁sales	-9.03346
▁response	-9.03456
▁bas	-9.03466
▁britain	-9.03708
▁strike	-9.03792
me	-9.03829
▁criminal	-9.04128
▁research	-9.0414
▁violence	-9.04213
▁confirmed	-9.0432
▁broad	-9.04341
1	-9.04465
▁november	-9.04551
tic	-9.04689
▁update	-9.04718
▁promise	-9.05077
▁begin	-9.05314
▁rubio	-9.05317
▁budget	-9.05487
▁fil	-9.05535
▁mayor	-9.05918
▁education	-9.05919
▁bid	-9.06085
▁scandal	-9.06087
▁aim	-9.06217
▁science	-9.0626
▁chance	-9.06264
up	-9.06317
▁phone	-9.06356
▁roll	-9.06465
▁fear	-9.06616
▁adviser	-9.06776
▁iraq	-9.06942
▁words	-9.06977
▁warn	-9.07007
▁cause	-9.07012
▁hack	-9.07025
▁h	-9.07031
▁friend	-9.07041
▁given	-9.07082
▁together	-9.07083
▁airport	-9.07655
▁ex	-9.07681
mo	-9.07694
ty	-9.07731
▁energy	-9.07823
▁couple	-9.07855
▁talking	-9.08041
▁nothing	-9.08186
▁certain	-9.08261
ent	-9.08313
▁mike	-9.08529
▁defend	-9.08583
ab	-9.08664
ge	-9.08772
▁spokes	-9.08832
▁member	-9.08938
▁wrong	-9.08942
▁june	-9.08989
▁station	-9.09023
▁putin	-9.09086
▁low	-9.09415
▁uber	-9.09421
▁ted	-9.09501
▁happened	-9.09589
im	-9.10066
▁bar	-9.10211
▁area	-9.10311
▁discover	-9.10395
▁field	-9.1048
4	-9.10559
▁stage	-9.10732
▁growing	-9.10986
▁gold	-9.10988
▁january	-9.11296
▁olympic	-9.11298
▁friends	-9.11487
▁step	-9.11684
▁13	-9.11891
▁kill	-9.12105
▁25	-9.12119
▁driver	-9.1212
▁growth	-9.1214
▁everything	-9.12208
▁robert	-9.12391
▁investors	-9.12398
▁doing	-9.1253
gan	-9.12593
▁include	-9.12659
▁living	-9.12665
go	-9.12801
▁medical	-9.12856
▁rose	-9.12858
▁issues	-9.12895
▁paris	-9.12897
▁france	-9.12944
▁anti	-9.13249
▁fired	-9.13286
▁majority	-9.13295
▁george	-9.1331
▁talks	-9.13314
▁resident	-9.13443
▁kids	-9.13481
▁mo	-9.13548
▁walk	-9.13612
▁sure	-9.13655
▁pro	-9.13662
▁chicago	-9.13774
▁idea	-9.13926
ul	-9.14001
▁class	-9.14105
▁light	-9.14144
▁trial	-9.14163
▁afford	-9.14239
7	-9.14245
▁career	-9.14261
▁chairman	-9.14283
ez	-9.14331
▁14	-9.14556
▁brought	-9.14613
▁reform	-9.14621
▁cost	-9.14894
▁hotel	-9.1501
▁wide	-9.1506
▁gave	-9.15088
ought	-9.15177
ability	-9.15301
3	-9.15342
▁church	-9.15365
▁illegal	-9.15365
▁ground	-9.15564
▁message	-9.15728
ine	-9.15853
▁groups	-9.15887
▁probabl	-9.15973
▁elect	-9.16005
▁manhattan	-9.16028
cy	-9.16208
▁bush	-9.16351
▁planned	-9.16515
▁annual	-9.166
▁iowa	-9.16601
▁dog	-9.16848
▁missile	-9.16902
▁figure	-9.16955
▁turkey	-9.16983
▁direct	-9.17049
▁art	-9.17085
▁creat	-9.17096
▁angeles	-9.173
▁manager	-9.17351
▁single	-9.174
▁comments	-9.17405
▁results	-9.17565
▁measure	-9.17601
▁incident	-9.1785
▁cnn	-9.17852
▁loss	-9.1795
▁wild	-9.17994
▁npr	-9.18044
▁40	-9.18067
▁respond	-9.18129
▁chinese	-9.18237
▁source	-9.18252
▁account	-9.1841
▁google	-9.18724
▁crime	-9.19057
▁heard	-9.19076
▁probe	-9.19184
▁con	-9.19234
▁agreement	-9.19361
▁quarter	-9.19459
▁ma	-9.19589
ut	-9.19699
▁hall	-9.19778
0	-9.19788
▁virginia	-9.19813
ney	-9.19877
▁crash	-9.20087
▁coast	-9.20398
▁club	-9.20399
▁operation	-9.20438
un	-9.20607
▁check	-9.20683
▁ap	-9.2079
▁reality	-9.20968
▁giant	-9.21008
▁enforcement	-9.21199
▁cover	-9.2122
▁minutes	-9.21233
▁massive	-9.21724
▁mis	-9.21741
no	-9.21809
ci	-9.21915
▁received	-9.22104
▁pre	-9.22176
▁condition	-9.222
▁organization	-9.22238
▁protect	-9.22242
▁request	-9.22301
▁evening	-9.22343
▁discuss	-9.22412
▁army	-9.22433
▁saw	-9.22499
▁entire	-9.22606
▁raise	-9.22841
▁track	-9.22885
▁answer	-9.22928
▁train	-9.22957
▁zika	-9.23318
▁total	-9.23327
▁17	-9.2348
▁li	-9.23512
▁female	-9.23523
▁employees	-9.23651
▁wound	-9.23669
▁unit	-9.23694
▁fell	-9.2377
▁stand	-9.23823
▁main	-9.23892
▁ohio	-9.23935
▁fee	-9.23978
▁prevent	-9.24036
▁vehicle	-9.24139
li	-9.24276
▁seat	-9.2435
▁particular	-9.24449
▁done	-9.246
ad	-9.24837
6	-9.2488
▁husband	-9.25071
▁vice	-9.25142
▁gets	-9.25349
lo	-9.25371
▁television	-9.2539
▁tech	-9.25506
▁worst	-9.25507
▁experience	-9.25532
▁fans	-9.25562
mp	-9.25683
ke	-9.25854
▁movement	-9.26017
▁longer	-9.26243
▁king	-9.26475
ting	-9.26611
▁result	-9.26637
▁insurance	-9.26643
▁restaurant	-9.26855
▁labor	-9.26863
am	-9.26972
▁due	-9.26996
▁road	-9.27009
▁drive	-9.27078
▁receive	-9.27139
▁serious	-9.27209
▁miles	-9.27351
▁goes	-9.27375
▁choice	-9.27537
▁polls	-9.27602
▁themselves	-9.27608
▁fed	-9.279
▁journalist	-9.27929
▁conflict	-9.28026
▁liberal	-9.28026
▁saudi	-9.28027
▁voting	-9.28241
▁remember	-9.28348
▁protesters	-9.28354
▁emails	-9.28485
▁pressure	-9.28491
▁count	-9.28594
▁league	-9.28618
▁gay	-9.2876
▁500	-9.28884
▁title	-9.28891
▁leav	-9.28969
▁attention	-9.28995
▁base	-9.2907
▁policies	-9.29222
▁abortion	-9.29292
▁speaker	-9.29378
▁declar	-9.29426
▁approach	-9.29689
▁et	-9.29939
▁jersey	-9.29973
▁pence	-9.30044
▁fashion	-9.30083
▁16	-9.30116
▁cars	-9.30159
▁worth	-9.30212
ha	-9.30276
▁round	-9.30296
▁manage	-9.30406
▁mar	-9.30446
▁add	-9.3055
▁hot	-9.30974
▁coverage	-9.30977
▁consumer	-9.31095
▁southern	-9.31184
ten	-9.31341
▁trip	-9.31354
ol	-9.31434
▁protection	-9.31601
▁hollywood	-9.31625
▁jail	-9.31747
▁treat	-9.31816
▁relationship	-9.31848
▁billionaire	-9.31848
▁cast	-9.32041
▁voice	-9.32071
▁paper	-9.32075
▁feature	-9.32155
▁provide	-9.32195
▁gas	-9.32281
▁chris	-9.32376
▁expect	-9.3249
▁jeff	-9.32519
▁drop	-9.32717
▁reveal	-9.32854
▁episode	-9.32854
▁position	-9.3288
▁cash	-9.32979
▁bit	-9.32998
▁politician	-9.3308
▁refugees	-9.33109
▁decided	-9.3315
▁brexit	-9.33192
▁disease	-9.33193
▁familiar	-9.33224
▁flight	-9.33265
ware	-9.33353
▁avoid	-9.33462
▁increasing	-9.33531
▁controversial	-9.33542
▁investment	-9.33542
▁passed	-9.33611
▁exchange	-9.33645
▁challenge	-9.33656
▁plane	-9.33687
▁app	-9.33701
▁looks	-9.33824
▁culture	-9.33875
▁replace	-9.33875
ate	-9.3395
ig	-9.3398
▁opposition	-9.34099
▁hear	-9.34184
▁website	-9.34213
▁sessions	-9.34253
▁eu	-9.34395
▁lose	-9.34463
side	-9.34475
▁learned	-9.34505
▁victims	-9.34563
▁cities	-9.34671
uch	-9.34824
▁iphone	-9.34899
▁brooklyn	-9.34899
▁dis	-9.34907
ak	-9.34913
▁beat	-9.3493
▁describ	-9.34966
▁itself	-9.34996
▁anything	-9.35016
▁estate	-9.35016
▁warning	-9.35114
▁tough	-9.35131
▁slow	-9.35137
▁send	-9.35244
ka	-9.35257
▁24	-9.35297
led	-9.35339
▁boost	-9.35423
▁common	-9.35483
▁21	-9.35486
▁partners	-9.35617
▁create	-9.35759
8	-9.3577
▁proposal	-9.35998
▁word	-9.36036
▁rich	-9.36121
▁experts	-9.36121
▁lower	-9.3621
ti	-9.36233
▁birth	-9.36411
▁du	-9.36443
▁form	-9.36506
▁militant	-9.36518
▁expand	-9.36518
▁fla	-9.36631
▁cancer	-9.36637
▁poor	-9.36647
▁critic	-9.3673
ized	-9.36742
▁cit	-9.36854
▁flynn	-9.36869
hi	-9.3697
▁attend	-9.36971
▁storm	-9.37079
▁immigrants	-9.37098
▁further	-9.37104
▁exact	-9.37146
▁peace	-9.37365
▁surprise	-9.37374
▁nam	-9.37378
▁nations	-9.37508
▁paid	-9.37562
▁winning	-9.377
▁fake	-9.37827
▁journal	-9.37917
▁brown	-9.38046
ga	-9.38137
▁rare	-9.38184
▁terrorist	-9.38276
▁scott	-9.38305
▁fatal	-9.3831
▁model	-9.38365
▁japan	-9.38399
▁gain	-9.38493
▁coach	-9.38531
▁original	-9.38636
▁grand	-9.38684
self	-9.38712
▁true	-9.38891
▁else	-9.38918
▁mom	-9.38962
▁represent	-9.39074
▁fair	-9.39143
▁camp	-9.39202
▁german	-9.39211
▁researcher	-9.39221
▁scene	-9.39244
ner	-9.39292
▁hate	-9.39313
▁chair	-9.39426
▁author	-9.39428
▁baby	-9.396
▁brazil	-9.39704
ba	-9.39727
▁piece	-9.39758
▁radio	-9.39841
▁details	-9.39843
▁perhaps	-9.39959
ard	-9.40084
ted	-9.40178
▁effect	-9.40181
▁beach	-9.40188
▁article	-9.402
▁huge	-9.40285
▁famous	-9.40324
▁ready	-9.40336
▁character	-9.4046
▁build	-9.40461
▁raised	-9.40508
▁council	-9.40564
▁el	-9.40647
▁conversation	-9.40685
▁z	-9.40726
▁fill	-9.40828
▁hands	-9.40871
▁mind	-9.40896
▁contest	-9.4092
▁square	-9.41051
▁22	-9.4112
▁holding	-9.41141
▁safe	-9.41279
▁israel	-9.41477
▁owner	-9.41492
▁sound	-9.41528
▁especial	-9.41909
▁vi	-9.42014
▁protests	-9.42036
▁blue	-9.42059
▁ruling	-9.42162
▁magazine	-9.42402
▁serve	-9.42643
▁anyone	-9.4266
▁powerful	-9.427
▁na	-9.4272
▁born	-9.42798
▁artist	-9.42879
▁region	-9.42934
▁canada	-9.43062
▁sports	-9.43141
▁vow	-9.43162
off	-9.4321
▁decade	-9.43269
▁safety	-9.43284
▁sometime	-9.43309
▁date	-9.43311
▁practice	-9.43371
do	-9.43395
▁ka	-9.43458
▁defeat	-9.43522
▁earth	-9.43547
▁freedom	-9.43651
▁injured	-9.43679
▁games	-9.43694
▁learn	-9.43707
giving	-9.43771
▁revealed	-9.43773
▁inauguration	-9.43774
▁dr	-9.43803
▁significant	-9.43906
▁commission	-9.43987
▁level	-9.44035
▁store	-9.44056
▁2012	-9.44151
▁investigat	-9.44261
▁river	-9.44276
▁fast	-9.44429
▁events	-9.44463
▁performance	-9.44543
▁ho	-9.4465
▁december	-9.44654
▁bomb	-9.44772
▁animal	-9.44907
▁northern	-9.44909
:	-9.44931
▁terror	-9.44946
▁propos	-9.44955
▁remark	-9.45001
▁suicide	-9.45142
ier	-9.45208
▁mid	-9.45241
lin	-9.45305
ville	-9.45368
▁sale	-9.45516
ow	-9.45956
▁pull	-9.46023
▁bo	-9.46117
▁pass	-9.46174
▁guilty	-9.4622
▁passenger	-9.46441
▁fresh	-9.46462
▁rath	-9.46487
▁legislati	-9.46557
▁transgender	-9.46631
▁jump	-9.46719
▁allegations	-9.46744
old	-9.46887
▁votes	-9.4698
▁caus	-9.47016
▁iraqi	-9.47101
▁opening	-9.4718
▁sense	-9.47191
new	-9.47198
▁quickly	-9.47223
men	-9.47248
▁photo	-9.47337
line	-9.47384
▁western	-9.47481
▁term	-9.47627
▁representative	-9.4774
▁suit	-9.47762
▁save	-9.47789
ritten	-9.47854
▁honor	-9.47868
▁teacher	-9.47946
▁cleveland	-9.4826
▁nfl	-9.4826
▁winner	-9.48296
9	-9.48446
▁football	-9.48525
▁apartment	-9.48537
▁abuse	-9.48563
▁forward	-9.48846
▁drink	-9.4905
▁democrat	-9.49144
▁present	-9.49162
▁orlando	-9.49183
▁yes	-9.4926
▁nine	-9.4933
▁spoke	-9.49436
pp	-9.49456
▁johnson	-9.49535
▁wave	-9.49631
▁professor	-9.49713
our	-9.49745
▁conduct	-9.4975
▁leak	-9.49939
▁2013	-9.49982
▁spicer	-9.49988
berg	-9.49998
▁korean	-9.50054
▁throw	-9.50248
▁marine	-9.50272
▁century	-9.50275
▁families	-9.50381
▁album	-9.50381
rising	-9.5049
▁pretty	-9.50515
▁profit	-9.50667
po	-9.50707
ize	-9.50716
▁shift	-9.50742
kin	-9.50897
▁updat	-9.50961
▁rest	-9.51014
▁prosecutors	-9.51353
za	-9.51411
▁accept	-9.51464
▁jan	-9.5153
▁spot	-9.51647
vi	-9.51955
▁individual	-9.52138
▁players	-9.52148
▁tower	-9.52172
▁regulator	-9.52276
▁missing	-9.52324
▁sanctions	-9.52411
hire	-9.52525
▁mexican	-9.52547
▁brain	-9.52573
▁immediately	-9.52627
▁floor	-9.52822
▁kim	-9.52822
pa	-9.52886
▁kick	-9.5297
▁23	-9.52982
be	-9.53023
▁aid	-9.53066
▁patient	-9.53102
io	-9.53214
▁foundation	-9.53218
▁sharp	-9.5325
▁emergency	-9.53265
▁reject	-9.53347
▁soft	-9.53484
▁campus	-9.5354
▁bowl	-9.53624
ship	-9.53645
▁february	-9.53649
▁joe	-9.53709
▁development	-9.53726
▁transition	-9.53799
▁era	-9.53849
▁mosu	-9.53922
▁photos	-9.53935
▁gone	-9.53992
▁worked	-9.53997
nc	-9.54086
▁arriv	-9.5417
▁teen	-9.54176
▁spring	-9.54288
▁germany	-9.54378
▁religious	-9.54483
▁able	-9.545
▁mc	-9.54568
▁francisco	-9.5463
di	-9.54644
ler	-9.54716
▁struggl	-9.54869
der	-9.55031
▁device	-9.55043
▁dress	-9.55049
▁buzzfeed	-9.55183
▁problems	-9.55212
▁brand	-9.5525
▁beyond	-9.55324
▁maybe	-9.5536
▁usual	-9.55613
ot	-9.55686
da	-9.55688
▁success	-9.55696
▁octob	-9.55748
▁higher	-9.55818
▁60	-9.56011
▁holiday	-9.5603
▁fellow	-9.5604
▁associat	-9.56041
nt	-9.56049
▁plant	-9.5613
▁yankees	-9.56169
▁virus	-9.56172
▁computer	-9.56219
▁amazon	-9.56456
▁wake	-9.56456
▁worse	-9.56477
▁steve	-9.56509
ho	-9.56517
▁criticism	-9.56629
▁pa	-9.56703
va	-9.5674
▁dark	-9.56745
▁rio	-9.56825
▁refus	-9.5693
▁blame	-9.57157
▁september	-9.57314
▁ways	-9.57395
▁easy	-9.57458
▁michi	-9.57659
▁wins	-9.57728
▁band	-9.57732
ac	-9.57801
▁initial	-9.57895
▁provid	-9.57951
▁armed	-9.57982
▁broke	-9.57983
▁tim	-9.58035
▁comment	-9.58177
▁exclusive	-9.58181
▁wonder	-9.582
ey	-9.58211
▁agenc	-9.58351
▁girls	-9.58429
▁subject	-9.58469
▁multiple	-9.58491
▁markets	-9.58596
▁modern	-9.58614
▁blasio	-9.5876
▁sean	-9.58765
▁gre	-9.58845
▁average	-9.58906
▁prompt	-9.58906
▁african	-9.5891
▁changed	-9.58936
▁truck	-9.58995
▁perfect	-9.59051
▁caught	-9.59063
▁whole	-9.59324
▁pennsylvania	-9.59344
▁changes	-9.59383
▁hill	-9.59439
ger	-9.59459
▁dangerous	-9.59499
▁reserve	-9.59539
▁bridge	-9.59676
▁moving	-9.59785
ster	-9.5983
▁apparently	-9.59927
▁oregon	-9.59932
▁debt	-9.59932
▁picture	-9.59933
gg	-9.60038
▁affect	-9.60079
▁martin	-9.60089
▁favor	-9.60133
▁recall	-9.60229
▁blow	-9.60242
▁rape	-9.6026
▁version	-9.60339
▁understand	-9.60367
▁favorite	-9.60379
▁write	-9.60411
▁dropp	-9.60416
▁similar	-9.60523
bi	-9.60564
▁deliver	-9.60666
▁blood	-9.60817
▁marco	-9.61025
▁path	-9.61295
▁ben	-9.61386
▁parties	-9.61436
▁dream	-9.61465
▁either	-9.61508
▁repeated	-9.61517
back	-9.61526
▁actor	-9.61657
▁offered	-9.61674
▁independent	-9.61716
▁spark	-9.61743
▁tour	-9.6188
▁aren	-9.61927
▁needs	-9.61983
▁kelly	-9.62019
▁standard	-9.6218
▁weapons	-9.62219
▁hour	-9.62284
▁tom	-9.62297
▁schools	-9.62363
truck	-9.62395
▁analyst	-9.62469
▁va	-9.62498
▁historic	-9.62686
▁users	-9.62774
▁grant	-9.62778
▁contract	-9.6292
▁trad	-9.63091
▁banks	-9.63125
▁aleppo	-9.63228
▁trend	-9.63229
▁prince	-9.63264
▁exist	-9.63317
▁simple	-9.63334
▁express	-9.63457
▁added	-9.6347
▁newspaper	-9.63533
town	-9.63544
ham	-9.63647
▁bay	-9.63776
▁standing	-9.63821
▁rebel	-9.63829
▁ambassador	-9.63839
▁quiet	-9.63847
▁page	-9.63856
▁victim	-9.63982
▁showing	-9.64125
▁communication	-9.64159
▁tru	-9.64192
▁terrorism	-9.64326
▁august	-9.64454
▁eastern	-9.64483
▁finding	-9.64518
▁numbers	-9.6454
▁christmas	-9.64609
▁bus	-9.64618
▁credit	-9.64622
▁panel	-9.64624
▁blast	-9.64628
▁village	-9.64642
av	-9.64663
▁deni	-9.6467
▁difficult	-9.64763
▁involved	-9.64792
▁argument	-9.64795
▁guard	-9.64815
▁arm	-9.64832
▁nav	-9.64835
▁sun	-9.64908
▁pop	-9.64944
▁wear	-9.64985
▁lack	-9.65335
▁identified	-9.65465
fi	-9.65561
▁wait	-9.65592
▁richard	-9.65707
▁stopp	-9.65762
▁jr	-9.65812
▁survey	-9.65852
▁gather	-9.6591
tz	-9.65946
fer	-9.66061
ford	-9.66124
ber	-9.66153
▁draft	-9.66165
▁sheriff	-9.66165
▁nbc	-9.6622
year	-9.66239
▁audience	-9.66479
▁happen	-9.66484
▁announcement	-9.66505
▁door	-9.66514
▁violent	-9.66637
▁fraud	-9.66637
▁citizens	-9.66683
▁mets	-9.66723
▁fix	-9.66801
▁signal	-9.66834
▁gu	-9.66836
ill	-9.66935
▁stream	-9.67055
▁limit	-9.67122
op	-9.67257
▁clean	-9.67269
▁sleep	-9.67351
▁indiana	-9.67415
▁rough	-9.67432
▁thanks	-9.67494
vo	-9.6751
▁truth	-9.67529
▁dies	-9.67574
▁deput	-9.67587
▁contain	-9.67772
▁box	-9.67787
▁scali	-9.67899
▁above	-9.67906
▁supposed	-9.67922
▁pe	-9.67923
▁founder	-9.68022
▁arabia	-9.68079
▁settlement	-9.68087
▁whom	-9.68101
▁pulled	-9.6811
▁treatment	-9.68114
▁straight	-9.68226
▁shock	-9.68476
▁via	-9.68494
▁tie	-9.68608
▁pack	-9.688
▁90	-9.68913
▁continu	-9.68959
▁dallas	-9.69029
▁period	-9.69029
he	-9.69228
▁convict	-9.69273
▁georgia	-9.69352
▁fit	-9.69359
pe	-9.69394
▁lady	-9.69399
ious	-9.69514
▁eyes	-9.69544
▁ball	-9.69547
▁briefing	-9.69568
▁score	-9.69579
▁books	-9.69593
▁funding	-9.69635
▁mosco	-9.69678
▁hurt	-9.69682
au	-9.698
▁environmental	-9.69866
▁producer	-9.69868
▁perform	-9.69884
▁investigator	-9.7004
▁guy	-9.7006
▁felt	-9.70089
▁domestic	-9.70165
▁pipeline	-9.70167
▁camera	-9.70245
▁delay	-9.70288
▁sudden	-9.70329
▁customers	-9.70366
em	-9.70454
▁ran	-9.70557
▁27	-9.70601
▁trail	-9.70655
▁cross	-9.7098
▁fuel	-9.71184
▁doubt	-9.71207
▁winter	-9.71207
▁voter	-9.71314
▁wisconsin	-9.71315
▁civilian	-9.71346
▁da	-9.71387
▁award	-9.71392
▁specific	-9.7148
▁extend	-9.71546
▁christian	-9.71589
▁sold	-9.71594
▁hamps	-9.71649
▁gors	-9.71688
▁canadian	-9.71812
▁argu	-9.71883
chester	-9.7204
nd	-9.72115
▁dinner	-9.72148
▁song	-9.72153
▁urg	-9.72242
▁sponsors	-9.72318
quite	-9.72321
▁critical	-9.72409
▁stephen	-9.72478
▁factor	-9.72502
▁spread	-9.72521
▁drama	-9.72632
▁ro	-9.72674
▁digital	-9.72682
▁0	-9.72798
▁valley	-9.72814
▁peter	-9.72872
▁uk	-9.73052
▁stake	-9.73063
▁fourth	-9.73063
▁traditional	-9.7307
life	-9.73128
▁hair	-9.73171
▁snow	-9.7319
ina	-9.73241
ft	-9.73246
ver	-9.73264
▁channel	-9.73317
▁dramatic	-9.73333
▁confirmation	-9.73337
que	-9.73473
▁26	-9.73719
▁wealth	-9.73725
▁beginning	-9.73829
▁alone	-9.73921
ory	-9.73996
▁atlantic	-9.74104
▁laws	-9.74336
night	-9.74371
▁net	-9.74394
▁avenue	-9.74503
ll	-9.74833
▁opponent	-9.74845
▁200	-9.7495
▁god	-9.74953
▁production	-9.75057
▁streets	-9.75094
▁advance	-9.75171
▁israeli	-9.75276
▁india	-9.75298
▁sister	-9.75327
▁relations	-9.75361
though	-9.75432
▁turns	-9.75448
▁appearance	-9.75449
▁mal	-9.75558
▁advocate	-9.75595
▁bann	-9.75637
▁amount	-9.75641
▁lo	-9.75703
▁cold	-9.758
▁philadelphia	-9.75877
▁drugs	-9.75902
▁sentence	-9.75919
▁29	-9.75922
▁jones	-9.7596
▁built	-9.7605
▁impact	-9.76051
▁failure	-9.76061
▁player	-9.76101
▁planet	-9.76156
▁miss	-9.76168
▁dakota	-9.76223
▁influence	-9.76249
▁port	-9.7625
▁notice	-9.76257
▁chao	-9.76314
▁screen	-9.76361
▁relative	-9.76402
per	-9.76408
▁agenda	-9.76575
▁gender	-9.76575
▁28	-9.76595
board	-9.76615
▁boss	-9.76731
▁capitol	-9.76745
▁affair	-9.76745
▁joint	-9.76851
ee	-9.77074
▁giants	-9.77081
▁afghanistan	-9.77094
▁2008	-9.77103
▁van	-9.77222
▁businesses	-9.77309
▁complete	-9.77429
▁closed	-9.7755
▁lift	-9.77629
▁driving	-9.77635
▁baseball	-9.77802
▁platform	-9.77973
▁fine	-9.77984
▁exit	-9.78009
▁delegates	-9.78022
▁easi	-9.78093
▁bathroom	-9.7815
▁mad	-9.78188
▁delivered	-9.78257
▁eye	-9.78258
▁dec	-9.784
▁dispute	-9.78428
▁lu	-9.78643
▁extreme	-9.78681
▁strategy	-9.78681
▁dad	-9.78717
▁revenue	-9.78859
ial	-9.78987
▁normal	-9.79054
▁complaint	-9.79077
▁insist	-9.79207
▁sweep	-9.79216
▁marriage	-9.79227
▁par	-9.79302
▁eat	-9.79412
imply	-9.7944
▁retir	-9.7947
▁pledge	-9.79639
▁mission	-9.79642
▁allie	-9.797
▁bear	-9.79705
▁row	-9.79807
▁allowed	-9.79862
▁damage	-9.79931
▁tiny	-9.79953
▁successful	-9.79955
▁fighter	-9.80048
▁rush	-9.80055
▁maker	-9.80076
▁confirm	-9.80142
ib	-9.80187
▁goal	-9.80235
▁prospect	-9.80294
▁anthon	-9.80296
▁ticket	-9.803
▁headline	-9.80359
mi	-9.80364
▁prove	-9.80474
▁unveil	-9.80475
▁racist	-9.80482
▁putting	-9.8052
▁ca	-9.80647
▁leadership	-9.80686
▁sit	-9.80721
▁terms	-9.80838
▁regard	-9.80838
▁cyber	-9.80838
▁grow	-9.81025
▁jackson	-9.81037
▁accounts	-9.81168
▁fan	-9.8117
▁discussion	-9.81184
▁turkish	-9.81202
▁wage	-9.81207
▁forc	-9.81233
▁struggle	-9.81244
▁l	-9.81297
▁ethic	-9.81359
▁pen	-9.81378
▁corp	-9.81511
wa	-9.81566
▁example	-9.81567
▁vladimir	-9.81567
▁flood	-9.81568
▁chain	-9.816
▁association	-9.81635
▁trust	-9.81714
▁nov	-9.81734
▁debut	-9.81754
ni	-9.81755
and	-9.81766
ud	-9.81857
▁cia	-9.81887
ack	-9.8199
▁telling	-9.82035
▁traffic	-9.82061
▁cap	-9.82142
▁effective	-9.82147
ag	-9.82258
▁male	-9.8233
▁believed	-9.82392
▁troops	-9.82526
▁shar	-9.82644
▁sp	-9.82676
▁table	-9.82705
con	-9.8278
mer	-9.82829
▁pentagon	-9.82856
craft	-9.82982
▁cabinet	-9.83045
▁radical	-9.83049
▁jury	-9.83069
▁false	-9.83224
▁electoral	-9.83227
▁listen	-9.83232
▁population	-9.8324
om	-9.83361
bb	-9.83522
▁rais	-9.83669
▁jets	-9.8376
▁value	-9.83769
▁cook	-9.83884
▁knicks	-9.83975
▁related	-9.84072
▁awards	-9.84114
▁35	-9.8412
▁christie	-9.84166
ang	-9.8417
▁decline	-9.84203
▁edge	-9.84298
▁surprising	-9.8435
itting	-9.84367
tion	-9.84374
▁lines	-9.84416
▁die	-9.84479
▁facilit	-9.84545
▁predict	-9.84554
▁shut	-9.84694
▁generation	-9.84754
▁basic	-9.84868
▁contact	-9.84918
▁brother	-9.84935
▁tiller	-9.84942
▁neighbor	-9.85102
ify	-9.8514
▁criticiz	-9.85202
▁disaster	-9.85295
▁offering	-9.85343
▁describe	-9.85568
▁photograph	-9.85677
ru	-9.85694
▁refugee	-9.85705
▁veteran	-9.85719
▁pair	-9.85742
tro	-9.85777
▁breaking	-9.85814
▁electric	-9.85869
▁sector	-9.86059
▁smith	-9.86135
▁schedul	-9.86232
▁ice	-9.86357
▁property	-9.8641
▁cuba	-9.86422
▁situation	-9.86441
▁45	-9.86517
kept	-9.866
▁ocean	-9.86634
tu	-9.86678
▁mate	-9.86732
▁indian	-9.86779
▁controversy	-9.86826
▁machine	-9.86826
▁establishment	-9.86849
▁catch	-9.86993
▁happy	-9.87019
▁lee	-9.87036
▁planning	-9.87036
▁shared	-9.87093
ev	-9.87114
ip	-9.87295
▁neighborhood	-9.87309
▁cancel	-9.874
▁material	-9.87407
▁inter	-9.87548
going	-9.87561
▁products	-9.87563
▁approved	-9.87582
mon	-9.87633
▁singer	-9.87741
▁text	-9.878
the	-9.87838
▁colleague	-9.8799
▁language	-9.8799
▁opinion	-9.8799
▁ne	-9.88034
▁welcome	-9.88088
▁ra	-9.88105
▁card	-9.88113
ou	-9.8813
▁formal	-9.88251
▁70	-9.88368
▁novel	-9.88378
▁match	-9.88458
▁golden	-9.88565
▁unusual	-9.88577
▁classified	-9.88585
▁reading	-9.88591
bu	-9.88637
▁brussels	-9.88774
▁chemical	-9.88774
▁england	-9.88774
▁file	-9.88918
cc	-9.88958
▁lock	-9.89005
▁80	-9.8901
▁andrew	-9.89024
▁range	-9.89058
▁mental	-9.89159
▁combat	-9.89175
▁su	-9.89205
fe	-9.89213
▁advi	-9.89222
▁halt	-9.89269
▁caucus	-9.89379
▁racial	-9.8941
ade	-9.8946
ged	-9.89473
▁content	-9.89562
▁feeling	-9.89573
▁thinking	-9.89588
fire	-9.89645
qu	-9.89671
▁dismiss	-9.89696
▁corporate	-9.89762
▁style	-9.89788
▁sort	-9.8986
taxes	-9.89884
served	-9.89896
▁pr	-9.89963
▁ivanka	-9.9016
▁2010	-9.90168
▁highest	-9.90185
▁sa	-9.90225
▁publisher	-9.9023
min	-9.9033
▁elite	-9.90375
▁airlines	-9.90393
ex	-9.904
oc	-9.90507
▁sat	-9.90529
ck	-9.90616
▁natural	-9.90662
▁stars	-9.90713
▁museum	-9.9076
▁weigh	-9.90771
▁frank	-9.90891
▁pope	-9.90891
▁plead	-9.90959
▁writer	-9.91032
▁tweets	-9.91105
stood	-9.91141
▁institute	-9.91162
▁obtain	-9.91364
▁touch	-9.91404
▁prize	-9.91429
▁corruption	-9.91582
▁31	-9.91597
▁color	-9.91624
▁regulations	-9.91757
▁arizona	-9.91768
▁complex	-9.91771
▁gunman	-9.91803
▁leg	-9.91886
▁areas	-9.91925
▁trouble	-9.91937
▁names	-9.91969
▁festival	-9.91971
▁crack	-9.91972
▁2011	-9.91983
▁bureau	-9.92174
▁miami	-9.92175
▁web	-9.92204
▁label	-9.92258
▁jet	-9.92412
all	-9.92511
by	-9.92529
▁works	-9.92542
ah	-9.9258
ph	-9.9261
▁healthcare	-9.92611
▁stone	-9.92763
▁trigger	-9.92786
▁sha	-9.92883
▁declin	-9.92965
▁approval	-9.92991
ors	-9.92993
▁rom	-9.93095
▁respect	-9.93177
ated	-9.93215
▁engineer	-9.93223
▁require	-9.93232
▁bag	-9.93347
▁training	-9.93349
well	-9.93384
▁slideshow	-9.93402
che	-9.93497
▁cat	-9.93572
▁william	-9.93599
▁parliament	-9.93639
▁celebrat	-9.93696
ki	-9.93722
woman	-9.93726
▁finance	-9.93812
▁tesla	-9.93816
▁boston	-9.93816
▁designed	-9.93845
ities	-9.93846
▁asset	-9.93877
lan	-9.93941
we	-9.93948
▁opportunit	-9.93948
▁agents	-9.93974
▁institution	-9.94041
▁highlight	-9.94044
▁aide	-9.94078
ble	-9.94122
▁regular	-9.9423
▁draw	-9.94259
promised	-9.94427
▁entertain	-9.94443
▁fears	-9.94628
▁japanese	-9.94651
▁ni	-9.94684
▁core	-9.94709
field	-9.94784
▁announce	-9.94811
▁prosecutor	-9.94817
▁shop	-9.94858
lu	-9.94903
▁continues	-9.94959
tra	-9.95038
▁offensive	-9.95064
▁kasich	-9.95064
▁server	-9.95066
▁progressive	-9.95083
▁iranian	-9.95109
▁setting	-9.95115
▁ram	-9.95207
▁ceremon	-9.95274
▁ha	-9.95281
▁fun	-9.95384
▁costs	-9.95509
▁views	-9.95575
▁remov	-9.95576
▁pitch	-9.95603
▁decide	-9.95668
▁matthew	-9.95694
▁income	-9.95701
conway	-9.9589
▁detail	-9.95897
▁housing	-9.95906
ization	-9.95984
▁corner	-9.96041
▁sue	-9.96044
▁raid	-9.96136
▁speed	-9.96149
▁expectation	-9.96157
▁connection	-9.96185
▁unexpected	-9.96328
▁prominent	-9.96337
▁professional	-9.96352
▁che	-9.96406
▁ba	-9.96449
▁hop	-9.96499
ical	-9.96511
▁crude	-9.9655
▁charles	-9.96594
▁warm	-9.96665
▁cable	-9.96681
▁har	-9.9684
▁ideas	-9.96844
▁waiting	-9.96896
▁harassment	-9.96977
▁carry	-9.96982
▁surge	-9.97024
▁josh	-9.97024
▁reflect	-9.97088
▁broken	-9.97097
▁primari	-9.97182
▁progress	-9.97191
▁hike	-9.97307
▁meant	-9.97336
▁chi	-9.97406
▁pain	-9.97506
▁australia	-9.97592
▁jar	-9.97676
▁agent	-9.97693
▁threaten	-9.97723
▁obvious	-9.97824
work	-9.97868
▁migrant	-9.9804
▁thomas	-9.9804
▁ring	-9.98111
▁academ	-9.98139
ep	-9.98206
▁levels	-9.98246
if	-9.983
ect	-9.98412
▁filing	-9.98471
▁jewish	-9.98479
▁nor	-9.98534
▁bell	-9.98587
▁commercial	-9.98692
▁comedy	-9.98725
▁nba	-9.98742
▁hacker	-9.98746
▁bull	-9.98758
▁identity	-9.98766
▁happens	-9.98769
▁smartphone	-9.98906
▁warren	-9.98909
▁enjoy	-9.99124
▁ballot	-9.99134
▁hell	-9.99192
▁native	-9.99363
▁smart	-9.9945
▁closer	-9.99451
▁develop	-9.99472
▁sentenc	-9.99499
▁killer	-9.99565
▁cell	-9.99706
ze	-9.99781
▁farm	-9.99843
▁venezuela	-9.99988
▁kansa	-10
▁severe	-10.0002
▁ti	-10.0002
▁marri	-10.0005
bo	-10.0006
▁rhetoric	-10.0022
▁nypd	-10.0022
▁min	-10.0024
▁foot	-10.0028
where	-10.0034
▁weather	-10.0044
▁intend	-10.0045
▁mount	-10.0045
▁payment	-10.0063
▁walking	-10.0065
▁legacy	-10.0066
▁vox	-10.0068
▁pm	-10.0072
▁sky	-10.0077
▁bi	-10.0078
▁archive	-10.008
▁hu	-10.0083
▁stick	-10.0085
ily	-10.0091
▁celebrate	-10.0093
▁matt	-10.0096
▁neil	-10.0101
▁fifth	-10.0111
▁partner	-10.0113
▁teenager	-10.0116
uc	-10.0129
▁separate	-10.013
▁division	-10.0134
▁double	-10.0135
▁brad	-10.0135
ps	-10.0136
▁tree	-10.0141
▁heat	-10.0143
▁tension	-10.0145
▁nominat	-10.0159
▁bannon	-10.0163
▁em	-10.0172
▁mcca	-10.0173
▁command	-10.0174
▁golf	-10.0179
▁bob	-10.0182
▁size	-10.0199
▁beijing	-10.02
▁unprecedented	-10.02
▁soldiers	-10.0204
▁bust	-10.0207
▁readers	-10.0209
▁imagine	-10.0214
▁bare	-10.0219
▁construction	-10.0222
ran	-10.0241
▁africa	-10.0244
▁sick	-10.0245
ko	-10.0246
▁virtual	-10.0256
▁stan	-10.0258
▁carrying	-10.0259
▁reduce	-10.0261
ap	-10.0265
▁chose	-10.0266
▁yahoo	-10.0268
head	-10.0273
nato	-10.0276
▁ship	-10.0277
▁revolution	-10.0279
▁mess	-10.0287
nk	-10.0291
▁wood	-10.031
▁lake	-10.0315
▁involv	-10.0323
▁linked	-10.0323
▁dc	-10.0325
▁pregnant	-10.0336
▁firing	-10.0336
▁angry	-10.0336
▁williams	-10.0336
▁democracy	-10.034
▁mu	-10.0348
▁import	-10.0357
▁alabam	-10.0359
▁sad	-10.0359
▁status	-10.0359
...	-10.0367
▁adam	-10.0376
▁kid	-10.0377
▁reagan	-10.0381
win	-10.0384
▁homes	-10.0389
▁ta	-10.0392
▁stepp	-10.0401
▁weight	-10.0402
▁territor	-10.0404
▁heavy	-10.0404
▁typical	-10.0411
▁harm	-10.0422
ach	-10.0427
▁amendment	-10.0428
▁cbs	-10.0428
▁staffer	-10.0444
▁coalition	-10.045
▁interfer	-10.0451
▁gang	-10.0453
▁remove	-10.0456
▁map	-10.0468
▁cultural	-10.0473
▁narrow	-10.0473
▁broadcast	-10.0474
▁robot	-10.0475
▁counter	-10.048
▁dar	-10.0492
▁mention	-10.0501
▁internal	-10.0507
▁manag	-10.0511
▁constitution	-10.0516
▁helping	-10.0522
▁non	-10.0528
▁nice	-10.0531
▁jim	-10.0534
stone	-10.0536
▁ko	-10.0541
▁nevada	-10.0543
▁emerged	-10.0553
▁ali	-10.0565
▁ride	-10.0573
right	-10.0576
▁tourist	-10.058
▁eric	-10.058
tan	-10.0585
▁nasa	-10.0587
▁suspended	-10.0591
ging	-10.0594
▁prepare	-10.0598
▁threatened	-10.0598
structure	-10.0599
ise	-10.0601
let	-10.0602
▁michelle	-10.0615
▁replacement	-10.0619
▁rain	-10.0623
▁studio	-10.0636
▁roger	-10.0637
▁vast	-10.0648
▁bur	-10.0649
▁ultimate	-10.0659
▁stretch	-10.0659
▁sending	-10.0676
▁weak	-10.0689
▁session	-10.0698
wood	-10.07
▁thank	-10.0704
:30	-10.071
▁unlikely	-10.0714
▁louis	-10.0715
▁theater	-10.0715
▁carri	-10.0715
▁suffered	-10.0715
▁classic	-10.0717
▁captur	-10.072
▁choose	-10.0729
▁code	-10.0729
▁kushner	-10.073
▁colorado	-10.073
▁mon	-10.0731
▁crew	-10.0731
han	-10.074
▁athlete	-10.0754
▁300	-10.0765
▁authority	-10.0783
▁associate	-10.0791
iest	-10.0793
res	-10.0794
▁musical	-10.0795
▁upon	-10.0799
▁presumptive	-10.0801
▁yesterday	-10.0801
▁49	-10.0806
▁cla	-10.0813
▁rap	-10.0831
wearing	-10.0832
▁fish	-10.0833
qua	-10.0839
▁homeland	-10.0845
▁forecast	-10.0849
▁guns	-10.0851
▁brutal	-10.0858
▁strange	-10.0862
ik	-10.0867
▁lay	-10.0871
▁pri	-10.0872
▁regime	-10.0873
▁anger	-10.0874
iv	-10.0875
▁wind	-10.0881
▁coal	-10.0883
▁minority	-10.0892
▁investor	-10.0897
▁competition	-10.0897
▁globe	-10.0897
▁pal	-10.0906
ure	-10.0909
▁mac	-10.091
▁worried	-10.0915
▁referendum	-10.0921
▁confus	-10.0922
▁bro	-10.0924
▁cup	-10.0945
▁pin	-10.0956
▁patriot	-10.097
▁quick	-10.0972
fare	-10.0975
▁master	-10.0975
▁feed	-10.0981
▁footage	-10.0995
▁worry	-10.0999
drew	-10.1013
▁chelsea	-10.1018
▁2009	-10.1019
▁newly	-10.1027
▁gains	-10.103
▁crimes	-10.1033
▁silicon	-10.1043
▁testimon	-10.1043
▁society	-10.105
▁responsibl	-10.1067
cut	-10.1082
▁actress	-10.1092
▁micro	-10.1096
▁product	-10.1102
▁tale	-10.1102
▁nightclub	-10.1116
▁mistake	-10.1118
▁nyc	-10.1119
▁champion	-10.1122
▁gra	-10.1139
▁guardian	-10.1143
▁analysis	-10.1166
▁element	-10.1166
▁compared	-10.1176
▁rescue	-10.1181
house	-10.1188
▁louisiana	-10.119
▁chuck	-10.119
ther	-10.1194
▁officially	-10.1197
ions	-10.1209
ja	-10.1209
mm	-10.1212
▁aggressive	-10.1215
▁location	-10.1221
▁cheer	-10.1222
ub	-10.1224
▁swing	-10.1232
▁admitted	-10.1232
▁hero	-10.1239
ov	-10.1244
cu	-10.1249
▁imp	-10.1253
day	-10.1255
lic	-10.1256
▁possibl	-10.1263
▁outrage	-10.1264
▁cuomo	-10.1265
▁netflix	-10.1265
▁reaction	-10.1271
▁estimate	-10.1283
▁knows	-10.129
▁loan	-10.1295
▁aides	-10.1305
▁comic	-10.1306
▁egypt	-10.1314
▁danger	-10.1315
▁detain	-10.1316
▁calif	-10.1317
▁palm	-10.132
▁collect	-10.1323
▁involve	-10.1324
▁myster	-10.1325
▁400	-10.1325
▁luxury	-10.134
▁possibilit	-10.134
▁castro	-10.1344
▁difference	-10.1358
▁hole	-10.1364
▁resort	-10.1365
▁apparent	-10.1366
king	-10.1374
▁flag	-10.138
▁settle	-10.1383
▁snap	-10.1383
▁euro	-10.1388
▁overhaul	-10.1391
▁wikileaks	-10.1391
▁referr	-10.1396
▁cool	-10.1397
▁investigate	-10.14
▁escape	-10.1404
▁seriously	-10.1408
ett	-10.1411
▁completely	-10.1412
▁arms	-10.1413
▁condemn	-10.1414
▁pilot	-10.1416
▁inmate	-10.1416
▁studie	-10.1417
▁theresa	-10.1427
▁weapon	-10.1433
▁mobile	-10.1439
▁treasury	-10.1441
▁australian	-10.1443
▁owners	-10.1448
tre	-10.1456
▁sides	-10.1461
▁daniel	-10.1467
chi	-10.1471
▁earning	-10.1479
▁memo	-10.148
▁rex	-10.1485
▁finish	-10.1489
▁flint	-10.1492
▁rallie	-10.1492
▁vision	-10.1493
▁rapid	-10.1494
▁pu	-10.1499
▁bond	-10.1499
ture	-10.1509
▁oscar	-10.1511
▁bombing	-10.1514
▁currenc	-10.1518
▁spy	-10.1519
▁subway	-10.1519
▁benefits	-10.1522
▁design	-10.1538
▁sub	-10.1539
▁baltimore	-10.1543
▁physical	-10.1543
▁samsung	-10.1543
▁surveill	-10.1543
▁resist	-10.1559
lor	-10.1567
▁photographer	-10.1569
▁abc	-10.1581
▁benefit	-10.1591
▁rocket	-10.1594
▁solar	-10.1599
▁rid	-10.1614
▁celebrity	-10.1621
▁summit	-10.1621
▁recover	-10.1624
▁diplomatic	-10.1641
▁messages	-10.1646
▁absolute	-10.1647
▁millennial	-10.1647
▁shape	-10.1648
▁stores	-10.1651
▁infra	-10.167
pped	-10.1673
▁bright	-10.1675
▁fa	-10.1677
▁guest	-10.1678
▁tens	-10.169
▁jack	-10.1696
▁rick	-10.1697
▁electronic	-10.1699
▁behavior	-10.1699
▁split	-10.17
zz	-10.17
▁inspir	-10.17
▁capture	-10.1712
▁privacy	-10.1725
▁twice	-10.1725
▁stuff	-10.1727
▁flee	-10.1728
▁claiming	-10.1728
▁ii	-10.1739
pping	-10.1744
▁conspiracy	-10.1751
▁kennedy	-10.1751
▁task	-10.1751
▁gift	-10.1751
▁endorsement	-10.1754
▁atlant	-10.1755
▁collection	-10.1757
▁ending	-10.1763
fa	-10.1766
▁tonight	-10.1775
▁auto	-10.1777
▁marijuana	-10.1777
▁quarterback	-10.1779
▁closing	-10.178
▁none	-10.178
▁facts	-10.1782
▁gap	-10.1785
▁happening	-10.1793
▁abandon	-10.1804
▁blog	-10.1805
▁las	-10.1806
▁cur	-10.1816
▁sport	-10.1821
▁lies	-10.1825
▁various	-10.183
▁sight	-10.185
▁songs	-10.1855
▁vegas	-10.1857
▁usa	-10.1858
▁featur	-10.1863
▁pos	-10.187
▁penn	-10.1874
ves	-10.189
▁haven	-10.1894
▁stands	-10.1904
▁medicaid	-10.1909
▁visa	-10.1927
▁instagram	-10.1936
▁watched	-10.1948
ified	-10.1957
▁challenges	-10.196
▁retailer	-10.1962
▁prepar	-10.1972
▁quit	-10.1975
▁macro	-10.1981
▁catholic	-10.199
▁elizabeth	-10.199
▁nearby	-10.1993
▁fo	-10.2
nature	-10.2016
▁rank	-10.2018
▁dump	-10.2019
▁disney	-10.2019
ox	-10.2027
ron	-10.2035
▁eve	-10.2036
▁witness	-10.2038
zo	-10.2043
▁responsibilit	-10.2043
▁dy	-10.2044
▁queens	-10.2051
▁counsel	-10.2066
her	-10.207
▁horror	-10.2071
▁assistant	-10.2071
▁hat	-10.2072
▁pi	-10.2073
▁bodi	-10.2086
▁steven	-10.2088
▁english	-10.2098
▁explosion	-10.2098
▁yemen	-10.2098
▁medal	-10.2103
▁prepared	-10.2104
▁shooter	-10.2112
▁moderate	-10.2124
▁anniversar	-10.2125
▁seal	-10.2129
▁diet	-10.2129
▁garden	-10.213
▁purchase	-10.2131
▁pan	-10.2137
▁priorit	-10.2142
▁failing	-10.2147
▁custod	-10.2152
▁retail	-10.2153
bot	-10.2153
▁hedge	-10.2156
▁constitutional	-10.2156
▁sentences	-10.2158
▁tight	-10.2164
▁accident	-10.217
▁twin	-10.2174
▁wedding	-10.219
▁documentar	-10.2198
▁guide	-10.2199
rt	-10.2202
▁alternative	-10.2207
▁beautiful	-10.2207
▁headquarters	-10.2207
▁signature	-10.2207
▁asia	-10.2212
▁afghan	-10.2234
▁monitor	-10.2234
▁cheap	-10.2235
achus	-10.2237
▁resign	-10.224
ite	-10.2252
▁rent	-10.2257
▁designer	-10.2259
▁hurricane	-10.2262
▁beauty	-10.2262
▁surface	-10.2262
▁italian	-10.2263
etts	-10.2265
▁alex	-10.2265
▁injuries	-10.2267
▁additional	-10.2272
▁glass	-10.2275
▁tape	-10.2276
▁heads	-10.2282
▁employee	-10.2283
▁self	-10.2283
▁wish	-10.2285
▁puerto	-10.2289
▁serving	-10.2289
▁stunning	-10.2293
▁inquir	-10.2295
▁videos	-10.2295
▁improve	-10.2303
ana	-10.2316
▁concert	-10.2317
▁minnesota	-10.2317
▁espn	-10.2317
▁soccer	-10.2317
▁parenthood	-10.2319
▁moral	-10.2328
▁topic	-10.2344
▁margin	-10.2345
▁theory	-10.2345
mar	-10.2347
▁oppos	-10.2351
▁joke	-10.2356
,000	-10.2357
▁slight	-10.2367
▁essential	-10.2373
▁register	-10.2373
▁yell	-10.2379
▁po	-10.2392
▁activit	-10.2394
▁phil	-10.2399
▁positive	-10.2401
▁merger	-10.2403
▁operat	-10.2412
▁jay	-10.2416
▁trick	-10.2416
▁threatening	-10.2418
hood	-10.2419
▁introduc	-10.2423
▁punch	-10.2429
▁supply	-10.2429
▁steal	-10.2429
▁barr	-10.2434
hu	-10.2451
▁scar	-10.2469
▁refuge	-10.2473
▁correct	-10.2474
▁houston	-10.2485
▁devos	-10.2485
▁melani	-10.2486
▁string	-10.2487
▁industrial	-10.2488
▁75	-10.2489
▁negotiation	-10.2494
▁tradition	-10.2498
▁outlet	-10.2502
▁36	-10.2505
▁cycle	-10.2507
▁33	-10.2512
▁resolution	-10.2513
▁basketball	-10.2513
▁flow	-10.2516
▁manufactur	-10.2528
▁pet	-10.2528
▁oklahoma	-10.2542
▁utah	-10.2542
ng	-10.2542
▁talent	-10.2542
▁jason	-10.2544
▁secure	-10.2548
▁cuban	-10.2548
uff	-10.2557
▁ver	-10.2567
tha	-10.2568
▁plenty	-10.257
▁ny	-10.2573
▁boat	-10.2576
▁downtown	-10.2581
▁solution	-10.2598
▁maintain	-10.2599
▁changing	-10.26
ward	-10.26
▁plot	-10.2603
over	-10.2604
▁trans	-10.2606
▁forget	-10.2611
▁wh	-10.2612
▁options	-10.2612
▁dem	-10.2613
▁francis	-10.2626
▁degree	-10.2628
▁moon	-10.2628
▁sugar	-10.2639
ball	-10.2646
▁ear	-10.2646
▁wars	-10.2648
▁faith	-10.2654
▁bl	-10.2664
▁discrimination	-10.2673
pi	-10.268
▁committed	-10.2691
▁mi	-10.2691
▁zone	-10.2692
▁lesson	-10.2694
▁establish	-10.271
▁coffee	-10.2713
▁rural	-10.2713
▁homeless	-10.2713
▁strip	-10.2724
tri	-10.2726
▁mall	-10.2729
▁dear	-10.273
▁bets	-10.274
▁ignor	-10.2741
▁2018	-10.2742
▁republic	-10.2743
▁diplomat	-10.2753
▁ten	-10.2757
▁flat	-10.2763
▁roof	-10.2771
▁emotional	-10.2773
▁upset	-10.2784
▁boom	-10.2796
▁dan	-10.2797
art	-10.2814
▁fat	-10.2825
▁mcconn	-10.2829
▁antonin	-10.2829
▁sarah	-10.283
▁jo	-10.2833
▁chap	-10.2837
▁worker	-10.2837
ane	-10.2839
▁expert	-10.2841
row	-10.2848
▁divided	-10.285
▁veterans	-10.2852
▁militia	-10.2859
▁shopping	-10.2859
hr	-10.2863
▁lgbt	-10.2864
▁refuse	-10.2865
▁islam	-10.2865
▁adults	-10.2868
▁32	-10.287
rich	-10.2887
▁youtube	-10.2888
▁schumer	-10.2888
▁stress	-10.2888
▁kingdom	-10.2888
▁steel	-10.2888
▁maryland	-10.2889
▁collapse	-10.2899
den	-10.2899
▁ru	-10.2916
▁msnbc	-10.2917
▁admit	-10.2919
iz	-10.2924
▁pic	-10.2929
▁lie	-10.2934
▁route	-10.2937
▁sw	-10.2945
▁stadium	-10.2947
az	-10.2948
qui	-10.2954
▁shoot	-10.2958
▁pool	-10.2959
▁adopt	-10.2971
▁climb	-10.2976
▁hamilton	-10.2976
▁feb	-10.2979
▁exercise	-10.2987
▁gen	-10.2987
▁click	-10.3006
▁execution	-10.3006
▁memorial	-10.3006
▁terrible	-10.3011
▁explosive	-10.3036
▁nationwide	-10.3036
▁desperate	-10.3038
▁standoff	-10.3038
▁nobody	-10.3043
▁carrier	-10.3048
▁confront	-10.3064
▁opioid	-10.3066
ists	-10.3069
▁govern	-10.3073
▁tank	-10.3074
air	-10.3077
▁destroy	-10.308
oo	-10.3084
▁viewers	-10.309
▁adult	-10.3091
▁frequent	-10.3096
▁urban	-10.3096
▁massacre	-10.3096
rit	-10.3105
▁hunt	-10.3118
▁encounter	-10.3126
▁ancient	-10.3126
▁loom	-10.3127
▁gray	-10.313
kevin	-10.3135
▁wal	-10.3149
▁ministr	-10.3156
▁sand	-10.3162
▁kerry	-10.3163
gen	-10.3169
▁bra	-10.317
▁bomber	-10.3171
▁organiz	-10.3182
▁kentuck	-10.3186
▁alert	-10.3187
▁deals	-10.3191
▁mountain	-10.3205
mond	-10.3208
lap	-10.321
▁todd	-10.3211
gu	-10.3212
▁larger	-10.3214
▁palestinian	-10.3216
▁airline	-10.322
▁tribe	-10.3221
▁clash	-10.3222
▁ga	-10.3224
tanbu	-10.3233
▁del	-10.3239
▁covered	-10.3241
▁paint	-10.3245
▁crazy	-10.3247
▁swift	-10.3247
▁bottom	-10.3247
▁routine	-10.3247
▁spin	-10.3253
▁flying	-10.3272
▁gar	-10.3276
▁fl	-10.3277
▁detroit	-10.3277
▁extra	-10.3279
▁fame	-10.328
▁commander	-10.3282
ker	-10.3283
ible	-10.3288
▁index	-10.3289
▁attract	-10.3295
▁occurred	-10.3308
▁anchor	-10.3308
▁stolen	-10.3319
▁toll	-10.3321
▁sounds	-10.3327
▁tend	-10.3335
▁depend	-10.3336
▁item	-10.3336
▁client	-10.3338
▁communities	-10.3339
▁yorker	-10.3348
▁sept	-10.3354
gle	-10.3362
▁appoint	-10.3367
▁consequence	-10.3369
▁missouri	-10.3369
▁crush	-10.337
▁mix	-10.3373
ea	-10.3375
▁positions	-10.3376
epa	-10.3388
▁tony	-10.3389
▁id	-10.339
ean	-10.3398
▁inde	-10.3399
▁circuit	-10.34
▁harry	-10.3403
ator	-10.3406
▁fort	-10.3423
▁jordan	-10.3431
▁ukraine	-10.3431
▁ku	-10.3434
ris	-10.3443
▁type	-10.346
down	-10.3464
▁deportation	-10.3464
▁seiz	-10.3467
▁zoo	-10.3467
▁rob	-10.3482
▁fate	-10.3488
▁landmark	-10.3493
▁slash	-10.3493
▁begun	-10.3493
▁surger	-10.3494
▁championship	-10.3494
▁handl	-10.35
▁ital	-10.3504
▁mere	-10.351
▁eating	-10.3515
▁reil	-10.3516
▁marked	-10.3518
▁viral	-10.3524
▁worldwide	-10.3527
▁curb	-10.3529
▁window	-10.3531
cast	-10.3534
▁immediate	-10.3537
▁carter	-10.3542
▁urge	-10.3552
▁alliance	-10.3556
sby	-10.3562
▁carrie	-10.3562
▁produc	-10.3568
▁sch	-10.3575
▁survive	-10.3576
▁tea	-10.3585
▁jon	-10.3593
▁deadline	-10.3594
cious	-10.3605
▁mil	-10.3619
▁export	-10.362
ification	-10.3621
▁cry	-10.3633
▁blam	-10.3633
izing	-10.3638
ative	-10.3642
▁hired	-10.3643
▁jeb	-10.3652
▁dow	-10.3658
▁restriction	-10.3664
tch	-10.3673
▁pacific	-10.3685
▁active	-10.3688
▁eventually	-10.3693
▁fisher	-10.3708
▁cr	-10.3711
▁plea	-10.3712
wan	-10.3713
▁charlotte	-10.3714
▁survivor	-10.3723
▁shocking	-10.3728
▁terrorists	-10.3733
▁availab	-10.3735
▁recruit	-10.3746
▁davis	-10.3746
▁bias	-10.3747
ada	-10.3751
▁apart	-10.3753
▁manning	-10.3755
▁metro	-10.3764
▁biden	-10.3766
▁drone	-10.3767
▁spott	-10.3769
▁disappear	-10.3776
▁confidenc	-10.3778
▁illino	-10.3779
▁background	-10.3782
▁rail	-10.3789
▁regional	-10.3801
▁caucuse	-10.3808
▁crucial	-10.381
▁franchise	-10.381
▁relief	-10.381
▁kellyanne	-10.3811
▁required	-10.3811
spread	-10.3825
log	-10.3836
▁suburb	-10.3839
▁gi	-10.384
▁tennessee	-10.3842
▁parade	-10.3844
▁twist	-10.3846
▁litera	-10.3848
▁violation	-10.3849
▁cha	-10.3851
▁brian	-10.3851
▁laid	-10.3852
▁produce	-10.3854
▁equity	-10.3856
▁loved	-10.3857
low	-10.3858
▁gott	-10.386
ming	-10.3861
▁wi	-10.3863
▁option	-10.3863
▁150	-10.3868
▁withdraw	-10.3868
▁arab	-10.3871
▁vermont	-10.3875
▁bitter	-10.3879
▁pat	-10.3881
▁shake	-10.3901
care	-10.3903
▁cloud	-10.3908
▁surrounding	-10.391
▁shouldn	-10.3911
▁visitor	-10.3913
▁chip	-10.3913
▁mary	-10.3933
gate	-10.3936
▁silence	-10.394
▁marshall	-10.3942
▁shi	-10.3943
▁advisor	-10.3943
▁ke	-10.3944
▁statements	-10.3944
▁tur	-10.3945
▁province	-10.3946
▁gathering	-10.3961
▁recommend	-10.397
▁taiwan	-10.3973
▁striking	-10.3973
▁legislative	-10.3976
▁x	-10.3976
▁destroyed	-10.3981
▁fu	-10.3984
▁counts	-10.3988
▁penalty	-10.3992
▁advertising	-10.3996
oval	-10.3996
▁zucker	-10.4005
▁sweet	-10.4005
▁outcome	-10.4005
▁memory	-10.4008
▁oak	-10.4011
▁insult	-10.4012
▁fly	-10.4016
▁citizen	-10.4028
hbo	-10.4028
▁limited	-10.4037
▁legend	-10.4037
▁brazilian	-10.4042
▁powers	-10.4049
vin	-10.4052
▁disrupt	-10.4063
can	-10.4067
▁sued	-10.407
▁airstrike	-10.4071
▁feminist	-10.4071
▁hawaii	-10.4071
▁bronx	-10.4071
▁literally	-10.4071
▁seattle	-10.4072
▁birthday	-10.4072
▁iconic	-10.4077
▁queen	-10.4081
▁heavily	-10.4104
▁liberty	-10.4104
▁mogul	-10.4104
▁shadow	-10.4104
▁columbia	-10.4108
▁passing	-10.4115
af	-10.4115
▁oversee	-10.4117
▁object	-10.4123
▁pose	-10.4129
▁backlash	-10.4138
▁orange	-10.4138
▁medicine	-10.4138
▁weird	-10.4138
▁patrol	-10.4139
▁scrutin	-10.4145
dding	-10.4159
dating	-10.4161
q	-10.4162
▁pace	-10.4165
▁bizarre	-10.4171
▁mississippi	-10.4171
▁negative	-10.4171
▁mainstream	-10.4171
▁silver	-10.4171
▁expansion	-10.4172
▁ok	-10.4173
▁praise	-10.4196
▁minor	-10.4201
▁humans	-10.4204
▁mcdonald	-10.4204
▁resignation	-10.4207
▁values	-10.4209
▁attacker	-10.4213
dale	-10.4216
▁alaska	-10.4238
▁chamber	-10.4238
▁minimum	-10.4238
▁pictures	-10.4238
▁flash	-10.4239
▁saving	-10.4241
▁justin	-10.4245
▁strength	-10.4249
tt	-10.4254
▁link	-10.4258
▁nick	-10.4262
▁mars	-10.4264
▁advantage	-10.4272
▁girlfriend	-10.4272
▁1.	-10.4275
▁gross	-10.428
▁prisoner	-10.428
▁startup	-10.4283
▁pot	-10.4298
▁endorse	-10.43
br	-10.4302
ette	-10.4303
▁outbreak	-10.4305
▁purpose	-10.4305
▁bankruptcy	-10.4306
▁2005	-10.4308
ties	-10.4309
▁tap	-10.4309
▁royal	-10.4309
▁cutting	-10.4313
▁miller	-10.432
▁highway	-10.4325
cher	-10.4325
▁expensive	-10.4339
▁tra	-10.434
▁spotlight	-10.434
▁racism	-10.4341
▁desk	-10.4342
▁circle	-10.4352
▁argue	-10.4355
iles	-10.4361
▁resigned	-10.4364
▁upper	-10.4366
▁column	-10.4371
▁switch	-10.4373
▁impossible	-10.4373
▁ronald	-10.4373
▁peak	-10.4375
▁rod	-10.4394
▁pakistan	-10.4399
▁remote	-10.4407
▁merkel	-10.4407
▁comedian	-10.4408
▁aside	-10.4408
▁insurer	-10.4408
▁deny	-10.4408
▁deport	-10.4409
▁laugh	-10.4422
▁congressman	-10.4424
▁conviction	-10.4424
▁op	-10.444
▁harvard	-10.4442
▁knowledge	-10.4442
▁plus	-10.4442
points	-10.4447
▁bat	-10.4448
▁skin	-10.4452
▁ge	-10.4463
▁direction	-10.4466
iro	-10.4467
▁lab	-10.4469
▁species	-10.4476
▁alive	-10.4491
▁stra	-10.4492
▁34	-10.4499
▁except	-10.4502
▁37	-10.4504
▁carl	-10.451
▁cho	-10.451
▁moore	-10.4512
▁pages	-10.4521
▁grave	-10.4521
▁warner	-10.4524
▁environment	-10.4524
▁greater	-10.4525
har	-10.4527
▁tall	-10.4529
cent	-10.453
▁harder	-10.4533
▁coup	-10.4541
▁divorce	-10.4545
▁scientific	-10.4545
▁volunteer	-10.4545
▁commitment	-10.4547
▁edition	-10.4549
▁celebration	-10.456
▁porn	-10.4561
▁interests	-10.4566
ice	-10.4572
light	-10.4572
▁partisan	-10.4573
fc	-10.4578
▁recovery	-10.4579
▁resource	-10.458
▁trillion	-10.458
▁bars	-10.4584
▁edward	-10.4586
rie	-10.4595
▁flights	-10.4595
▁ham	-10.4614
▁print	-10.4616
▁schedule	-10.4618
▁nazi	-10.4619
▁latino	-10.4622
▁44	-10.4624
▁stranger	-10.4631
ari	-10.4634
▁48	-10.4635
▁ja	-10.4637
▁infect	-10.4639
▁overall	-10.464
▁punish	-10.4646
▁temperature	-10.465
▁categor	-10.465
▁rico	-10.465
nger	-10.4653
▁advisers	-10.4655
▁busy	-10.4661
▁tapp	-10.4665
▁solid	-10.4667
▁eli	-10.4673
20	-10.4674
▁taste	-10.4676
▁lobby	-10.4676
▁invest	-10.4682
how	-10.4682
▁testing	-10.4685
▁alcohol	-10.4685
▁succeed	-10.4685
▁remarkabl	-10.4688
▁boo	-10.469
ire	-10.4691
▁complicated	-10.4691
uous	-10.4701
▁riot	-10.4705
▁elli	-10.4715
▁babies	-10.472
▁bloomberg	-10.472
▁breach	-10.472
▁scheme	-10.4723
▁42	-10.4727
▁commissioner	-10.473
▁endors	-10.4731
▁libya	-10.4732
▁wells	-10.4732
either	-10.4737
▁dealing	-10.4744
▁targets	-10.4744
▁tighten	-10.4749
▁graduate	-10.475
▁slamm	-10.4753
▁recount	-10.4755
▁identify	-10.4755
▁drove	-10.4755
▁mosque	-10.4755
▁candidac	-10.4755
▁dust	-10.4756
val	-10.4782
▁anticipat	-10.4791
▁empire	-10.4791
▁unique	-10.4793
▁oh	-10.4798
▁sach	-10.4807
my	-10.4807
pac	-10.4808
▁dance	-10.4815
▁joy	-10.4819
▁sam	-10.4825
▁journey	-10.4826
▁douglas	-10.4826
▁warrant	-10.4826
▁approve	-10.483
like	-10.4842
broad	-10.4844
▁symbol	-10.4846
▁alarm	-10.4848
▁43	-10.485
▁jane	-10.4854
▁permanent	-10.4862
▁1980	-10.4862
trump	-10.4869
gh	-10.4871
▁ratings	-10.4874
▁hail	-10.4875
ola	-10.4884
▁premier	-10.4884
▁oppose	-10.4889
▁felon	-10.4898
▁temporarily	-10.4898
▁fierce	-10.4899
older	-10.492
don	-10.4923
▁arrive	-10.4925
▁transform	-10.4932
▁temporar	-10.4933
▁bernardin	-10.4934
▁implement	-10.4934
▁breitbart	-10.4934
▁encourage	-10.4934
▁poverty	-10.4934
▁handle	-10.4938
mor	-10.4945
▁beating	-10.4954
▁pledg	-10.4957
▁wor	-10.496
▁loud	-10.4962
▁employer	-10.4965
▁convince	-10.497
▁sustain	-10.497
hrew	-10.4971
▁clinic	-10.4971
▁hang	-10.4974
▁shell	-10.4975
aw	-10.4988
▁determined	-10.499
seas	-10.4997
▁throne	-10.5006
▁mourn	-10.5017
▁balance	-10.5021
ign	-10.5026
▁necessary	-10.5029
port	-10.5032
▁acknowledg	-10.5038
orry	-10.5039
▁remind	-10.5042
▁diversity	-10.5043
▁emissions	-10.5043
▁podcast	-10.5043
▁chicken	-10.5043
▁overwhelming	-10.5044
▁breath	-10.5049
▁takeover	-10.5049
▁interesting	-10.505
▁playoff	-10.5051
▁bri	-10.5053
▁organizations	-10.5063
bil	-10.5077
▁funeral	-10.5079
▁intense	-10.5079
▁revelation	-10.508
▁economist	-10.5081
▁islamist	-10.5082
▁witnesse	-10.5086
▁independence	-10.5092
top	-10.5093
▁inform	-10.5095
▁phones	-10.5097
▁injur	-10.5099
▁meaning	-10.5114
▁length	-10.5116
▁collins	-10.5116
▁ag	-10.5116
rin	-10.5119
▁promot	-10.513
▁youth	-10.5136
▁package	-10.514
ore	-10.5142
▁indict	-10.5149
▁sixth	-10.5151
▁snapchat	-10.5152
▁audio	-10.5153
▁section	-10.5153
▁vacation	-10.5153
▁transportation	-10.5154
fall	-10.5157
▁height	-10.5182
▁brothers	-10.5186
▁deploy	-10.5186
▁monument	-10.5189
▁38	-10.5198
▁insider	-10.5217
▁getty	-10.5218
rd	-10.5224
▁invit	-10.5225
▁cal	-10.5226
▁soul	-10.5226
era	-10.523
▁39	-10.5234
▁pad	-10.5239
▁meat	-10.5248
▁lewis	-10.5264
▁populist	-10.5268
▁cor	-10.5269
▁slam	-10.5275
▁custom	-10.5278
of	-10.528
▁regret	-10.53
▁ballistic	-10.5301
▁grown	-10.5303
▁garland	-10.5303
▁scale	-10.5306
▁ruin	-10.5306
▁jong	-10.5307
▁answers	-10.5314
▁ross	-10.5328
▁judicia	-10.5328
ile	-10.5329
▁gate	-10.5335
▁bigg	-10.5335
▁closely	-10.5336
▁mosquito	-10.5338
▁austin	-10.5338
▁berlin	-10.5339
▁hint	-10.5341
ek	-10.5342
▁bullet	-10.5342
▁tpm	-10.5348
▁estimat	-10.5349
▁keeps	-10.5357
▁meal	-10.5366
▁judges	-10.5369
▁pok	-10.5372
▁rifle	-10.5376
▁amazing	-10.5376
▁joseph	-10.5376
▁jimmy	-10.5376
▁mysterious	-10.5377
▁odd	-10.5377
▁charity	-10.5377
▁epic	-10.5382
mit	-10.5383
▁impos	-10.5385
▁reduc	-10.5393
▁careful	-10.5396
▁marks	-10.5403
▁surviv	-10.5409
▁indicat	-10.541
▁habit	-10.5413
▁presence	-10.5414
▁musk	-10.5415
▁rice	-10.5416
▁xi	-10.5416
▁politically	-10.5421
▁prais	-10.5423
zi	-10.5427
▁immigrant	-10.5433
▁restrict	-10.5436
▁stuck	-10.5437
▁shown	-10.5441
▁unlike	-10.5445
▁kiss	-10.5446
▁explains	-10.5449
book	-10.5449
▁wrestl	-10.5452
▁erupt	-10.5452
▁nightmare	-10.5452
▁hidden	-10.5452
▁yellow	-10.5453
▁2007	-10.5454
soft	-10.5454
▁apologize	-10.5455
▁advanc	-10.5455
▁han	-10.5456
▁horn	-10.5457
▁myth	-10.546
▁ill	-10.5471
▁bottle	-10.5475
▁replac	-10.5481
▁epidemic	-10.549
nar	-10.5498
▁ray	-10.5505
some	-10.5514
ino	-10.5518
▁accusations	-10.5518
▁drawing	-10.5519
lain	-10.5519
▁locat	-10.5519
▁reputation	-10.5528
▁lynch	-10.5528
fu	-10.554
▁announc	-10.5544
▁improv	-10.5544
▁determine	-10.5545
rr	-10.5548
▁uncertaint	-10.5564
▁arkansa	-10.5566
gary	-10.5566
▁pois	-10.5573
▁trie	-10.5574
▁receiv	-10.5577
▁controll	-10.5582
▁suffering	-10.5587
▁connecti	-10.56
▁waters	-10.5601
▁acquisition	-10.5604
▁universe	-10.5604
▁boycott	-10.5605
▁boyfriend	-10.5605
▁initiative	-10.5605
errick	-10.5619
▁pour	-10.5619
▁chart	-10.5626
▁surprised	-10.5631
mart	-10.5632
▁suspend	-10.564
▁inaugura	-10.5643
▁beyonc	-10.5643
▁meddl	-10.5644
▁icon	-10.5645
ebus	-10.5647
▁motor	-10.5647
▁questioned	-10.5659
▁pointed	-10.5668
gra	-10.5677
▁inflation	-10.5684
▁heroin	-10.5688
▁slipp	-10.569
▁barrel	-10.5692
▁sum	-10.5693
▁hopeful	-10.5693
▁leads	-10.5703
▁tout	-10.5713
ept	-10.5714
▁declare	-10.5714
com	-10.5714
ji	-10.5716
▁surround	-10.5718
▁beloved	-10.5721
▁strategic	-10.5722
▁subscriber	-10.5724
▁susan	-10.5726
▁lying	-10.5729
▁dam	-10.5729
▁calm	-10.573
ova	-10.5751
away	-10.5759
▁tear	-10.576
▁boast	-10.576
▁terry	-10.5761
▁bold	-10.5761
▁elder	-10.5763
▁developed	-10.5768
▁colombia	-10.5776
▁owe	-10.5779
▁clo	-10.5786
▁mitch	-10.5798
▁tehran	-10.5799
▁blind	-10.5799
▁hiring	-10.5799
hitting	-10.5801
ese	-10.5803
opec	-10.5809
▁span	-10.5816
eg	-10.5821
▁col	-10.5825
▁lunch	-10.5838
▁profile	-10.584
▁cheat	-10.5849
▁asian	-10.5859
▁bin	-10.5863
▁missed	-10.5867
▁philippines	-10.587
▁lane	-10.5874
body	-10.5876
▁wel	-10.5877
▁desert	-10.5878
▁thanksgiving	-10.588
▁donors	-10.588
▁retirement	-10.588
▁debates	-10.5881
▁ken	-10.5882
▁demonstration	-10.5883
▁reader	-10.5887
▁finger	-10.5888
▁tone	-10.589
ash	-10.5892
▁alien	-10.5893
▁mine	-10.5893
▁provider	-10.5896
car	-10.59
gar	-10.5912
▁starr	-10.5915
▁proud	-10.592
▁links	-10.5924
▁oscars	-10.5925
▁entry	-10.5933
▁santa	-10.5935
▁cease	-10.5937
▁embrace	-10.5937
▁stance	-10.5943
ray	-10.5947
thy	-10.5948
lb	-10.595
▁1990	-10.5957
▁output	-10.5957
▁bipartisan	-10.5957
▁seeming	-10.5964
▁pollut	-10.5966
▁wil	-10.5978
▁apolog	-10.5979
▁mouth	-10.5986
cra	-10.5986
du	-10.5987
▁65	-10.5989
▁explanation	-10.5997
▁auction	-10.5997
▁ensure	-10.601
▁chase	-10.6012
▁license	-10.6021
▁puts	-10.6032
▁kei	-10.6035
▁frontrunner	-10.6038
▁legislature	-10.6038
▁newsletter	-10.6038
▁feud	-10.6038
▁aftermath	-10.6038
▁writers	-10.6038
▁assad	-10.6043
▁poison	-10.6045
▁finished	-10.6045
▁horse	-10.6045
▁dylan	-10.6048
▁soar	-10.6049
▁swor	-10.6056
▁ugl	-10.6062
bre	-10.6066
▁latin	-10.6072
▁donation	-10.6075
hold	-10.6075
▁otherwise	-10.6078
▁galaxy	-10.6078
▁grocer	-10.6078
▁odds	-10.6078
▁oversight	-10.6078
▁zero	-10.6079
▁partnership	-10.6079
▁illness	-10.608
▁complet	-10.6081
ide	-10.6081
▁clock	-10.6081
▁maine	-10.6081
▁everybody	-10.6083
cal	-10.6087
▁shirt	-10.6091
▁structure	-10.6101
▁nationalist	-10.611
▁lone	-10.6112
▁devastating	-10.6113
▁prayer	-10.6116
▁kremlin	-10.6118
▁predecessor	-10.6118
ei	-10.6124
▁extraordinary	-10.6125
▁ph	-10.613
▁fought	-10.613
▁accuse	-10.6131
▁mail	-10.6133
▁myself	-10.6138
▁reli	-10.6141
▁mock	-10.6147
half	-10.6148
▁drag	-10.6149
▁lad	-10.615
trust	-10.6153
▁fin	-10.6154
▁interior	-10.6159
▁promising	-10.6159
▁honest	-10.6159
▁talib	-10.616
▁loose	-10.6162
▁operator	-10.6169
▁earned	-10.617
▁pounds	-10.6173
nny	-10.6174
▁pursue	-10.6178
▁rev	-10.618
maker	-10.6185
▁undocumented	-10.62
▁departure	-10.62
▁reverse	-10.62
▁react	-10.6201
eb	-10.621
sky	-10.6211
▁sees	-10.6216
▁gene	-10.6224
11	-10.6226
▁anxiet	-10.6241
▁qatar	-10.6241
▁religion	-10.6241
▁notorious	-10.6241
▁shelter	-10.6241
▁rumor	-10.6241
▁madison	-10.6241
point	-10.6241
▁gulf	-10.6242
nancy	-10.6243
▁iron	-10.6246
▁qui	-10.6248
▁tackle	-10.6249
jo	-10.6263
▁rating	-10.6267
▁robber	-10.6269
▁http	-10.6282
▁statistic	-10.6282
▁ignore	-10.6284
cus	-10.6284
▁mitt	-10.6287
mann	-10.6299
▁ease	-10.6299
sburg	-10.63
▁banker	-10.6301
▁stein	-10.6303
▁warming	-10.6314
▁soldier	-10.6317
ung	-10.6318
▁scor	-10.6321
lam	-10.6323
▁tournament	-10.6323
▁patrick	-10.6324
▁gear	-10.6332
▁hook	-10.635
▁creator	-10.6352
▁bet	-10.6361
▁earthquake	-10.6365
▁privilege	-10.6365
▁buzz	-10.6365
▁covering	-10.6365
▁developer	-10.6367
▁stall	-10.637
▁grab	-10.637
▁promote	-10.6383
▁grass	-10.6385
▁khan	-10.6391
▁equal	-10.6395
▁ya	-10.6404
▁gig	-10.6406
▁fundamental	-10.6406
▁aaron	-10.6408
▁neck	-10.6411
▁tiger	-10.6417
▁corps	-10.6418
▁milk	-10.6419
▁disturbing	-10.6429
▁plays	-10.643
▁travelers	-10.6448
▁automaker	-10.6449
▁narrative	-10.6449
▁bow	-10.6454
ark	-10.6455
▁clip	-10.6456
▁verizon	-10.649
▁clothes	-10.649
▁genetic	-10.6492
▁knock	-10.6501
▁hello	-10.6509
▁emerg	-10.6509
▁recording	-10.6515
▁rat	-10.6524
▁explore	-10.6525
▁oct	-10.6527
ility	-10.6529
▁arena	-10.6532
ix	-10.6532
▁phrase	-10.6533
▁branch	-10.6533
▁jerry	-10.6533
▁echo	-10.6533
▁graham	-10.6534
▁rangers	-10.6538
▁accord	-10.654
▁dominat	-10.6545
gue	-10.6548
list	-10.655
▁rand	-10.6553
▁prior	-10.6555
▁violated	-10.6557
▁chef	-10.6558
▁socialist	-10.656
pt	-10.6566
erson	-10.6571
▁guys	-10.6571
▁breast	-10.6575
▁politico	-10.6575
▁conclusion	-10.6575
▁engag	-10.6578
▁jew	-10.658
▁skill	-10.6582
▁gm	-10.6592
ara	-10.6593
diego	-10.6596
▁wheel	-10.6606
▁lit	-10.6611
▁triumph	-10.6617
▁jacob	-10.6617
▁method	-10.6617
▁librar	-10.6618
▁viacom	-10.6618
▁alt	-10.6619
▁regulation	-10.662
▁hung	-10.6625
▁parking	-10.663
▁craft	-10.6632
▁renewed	-10.6637
▁41	-10.6643
▁forest	-10.6645
▁alleg	-10.665
▁install	-10.6657
▁influential	-10.666
▁unknown	-10.666
▁fidel	-10.666
▁basha	-10.6661
worth	-10.6663
ella	-10.6665
terte	-10.6667
▁infection	-10.6673
▁repeat	-10.6674
▁wine	-10.6675
▁rigged	-10.6691
▁commerc	-10.6703
▁prohibit	-10.6703
▁kurdish	-10.6704
▁strategist	-10.6705
▁recession	-10.6706
▁nunes	-10.6709
▁everywhere	-10.671
▁teams	-10.6712
▁pride	-10.6715
pen	-10.6716
▁basis	-10.6718
yang	-10.6721
▁error	-10.6746
▁offense	-10.6747
▁crown	-10.6759
ium	-10.6761
itarian	-10.6769
▁clue	-10.6771
▁pac	-10.6771
▁transfer	-10.6779
▁teenage	-10.6783
▁chant	-10.6786
▁artificial	-10.679
▁illustrat	-10.679
▁kitchen	-10.679
▁pundit	-10.679
▁erdogan	-10.679
▁infant	-10.679
▁anonymous	-10.679
▁shareholders	-10.679
▁jazz	-10.6791
▁speculation	-10.6792
front	-10.68
keep	-10.6801
long	-10.6803
▁sh	-10.6807
▁nas	-10.6812
▁lion	-10.6827
▁fiscal	-10.6833
▁boeing	-10.6834
▁ski	-10.6836
▁collective	-10.6836
▁testify	-10.6837
uk	-10.6842
▁apply	-10.6853
▁howard	-10.687
▁chancellor	-10.6877
▁gawker	-10.6877
▁variet	-10.6878
▁detective	-10.6878
▁2000	-10.6879
▁55	-10.6884
▁settled	-10.6888
▁guid	-10.6895
war	-10.6898
▁coordinat	-10.6917
▁jerusalem	-10.6921
▁endanger	-10.6921
▁sensitiv	-10.6921
▁impeachment	-10.6923
▁gut	-10.6925
▁plain	-10.6925
▁smoke	-10.6928
▁belong	-10.6932
▁worrie	-10.694
▁emba	-10.6953
▁veto	-10.6954
▁buyer	-10.696
▁abus	-10.6961
▁corporation	-10.6965
▁plastic	-10.6965
▁spirit	-10.6965
▁tragedy	-10.6965
▁vietnam	-10.6965
▁forgot	-10.6966
▁evan	-10.6966
▁arch	-10.6975
▁shots	-10.6975
▁participat	-10.6978
▁hawk	-10.6986
▁ramp	-10.6986
▁agricultur	-10.7009
▁explode	-10.7009
▁fruit	-10.7009
▁statue	-10.7009
▁numero	-10.7009
▁taylor	-10.7009
▁disclosure	-10.7009
▁addiction	-10.7012
▁baton	-10.7022
▁dur	-10.7024
▁bre	-10.7024
▁colin	-10.7027
▁hospitals	-10.7028
nan	-10.7032
▁dun	-10.7034
▁saved	-10.7034
▁47	-10.7036
▁tool	-10.7036
▁salt	-10.7044
▁hoped	-10.7045
▁equip	-10.7049
▁guess	-10.7055
▁childhood	-10.7055
▁redstone	-10.7056
▁motion	-10.7056
rk	-10.7056
▁sink	-10.7058
tain	-10.7063
▁mill	-10.7067
▁gru	-10.7075
▁observer	-10.7084
ria	-10.7091
▁experiment	-10.7091
▁troubled	-10.7091
▁publication	-10.7098
▁nobel	-10.7098
▁furious	-10.7098
▁fault	-10.7099
▁tennis	-10.7099
▁reference	-10.7099
▁legendary	-10.71
▁editorial	-10.7101
▁lord	-10.7101
▁orbit	-10.7109
▁jewel	-10.711
while	-10.7117
▁venture	-10.7126
▁exposed	-10.7134
▁confident	-10.7142
▁ambitious	-10.7143
▁harsh	-10.7144
▁emerge	-10.7148
▁appointment	-10.7148
▁mixed	-10.7148
▁nin	-10.7149
▁shark	-10.7151
▁cooper	-10.7154
▁kain	-10.716
▁consistent	-10.7162
▁arrival	-10.7164
▁revive	-10.717
▁rein	-10.7175
▁disclose	-10.7181
▁awkward	-10.7188
▁funny	-10.7188
aff	-10.7191
▁palin	-10.7201
▁christians	-10.7204
▁fled	-10.7205
▁ally	-10.7225
▁wire	-10.7232
▁challenging	-10.7233
▁procedure	-10.7233
▁concluded	-10.7234
yahu	-10.7234
▁que	-10.7241
▁folks	-10.7242
ott	-10.7244
▁mari	-10.7248
▁53	-10.725
▁greg	-10.725
▁matti	-10.7254
▁magic	-10.7254
▁addition	-10.7262
armed	-10.7269
▁combin	-10.727
▁buri	-10.7272
▁anthem	-10.7279
▁stronghold	-10.728
▁knee	-10.728
▁2001	-10.7282
▁spill	-10.7284
ically	-10.7288
▁troll	-10.7289
wear	-10.7293
▁gal	-10.7304
rate	-10.7305
▁flu	-10.7306
▁52	-10.7313
▁contender	-10.7314
▁waste	-10.7323
▁abrupt	-10.7324
▁evangelical	-10.7324
▁bundy	-10.7324
▁dragg	-10.7325
tin	-10.7326
▁drawn	-10.733
▁intel	-10.7335
▁divide	-10.7338
▁provision	-10.737
▁technical	-10.737
▁escalat	-10.7371
mph	-10.7373
▁understanding	-10.7376
▁steady	-10.738
▁din	-10.7383
▁baker	-10.7395
▁minute	-10.7404
▁defi	-10.7405
▁div	-10.7412
▁tears	-10.7414
▁knife	-10.7416
burg	-10.7424
▁diagnos	-10.7425
▁burn	-10.7437
▁coat	-10.744
▁dick	-10.7446
▁opt	-10.7447
▁percentage	-10.7448
▁mandate	-10.7461
▁fantasy	-10.7462
▁unleash	-10.7462
▁constant	-10.7462
▁spanish	-10.7464
▁peaceful	-10.7469
▁shap	-10.7473
▁academic	-10.7488
▁yo	-10.7488
▁delegate	-10.7496
anne	-10.75
▁forever	-10.7504
▁scenes	-10.7506
▁51	-10.7507
angela	-10.7507
▁orleans	-10.7509
▁eager	-10.7509
▁toxic	-10.751
▁cruise	-10.7511
▁commentar	-10.7514
▁hire	-10.7517
ini	-10.752
▁complain	-10.7528
par	-10.7539
ani	-10.7541
▁shak	-10.7544
▁foods	-10.7546
▁46	-10.7554
▁empty	-10.7556
▁lincoln	-10.7556
lia	-10.7558
▁drill	-10.7558
▁resume	-10.7558
▁dubb	-10.7559
▁suffer	-10.7561
▁theme	-10.7562
▁thu	-10.7563
▁hostage	-10.7568
ano	-10.7575
yong	-10.7586
▁lind	-10.76
▁breakfast	-10.7603
▁1970	-10.7603
▁rouge	-10.7603
▁comeback	-10.7611
▁traffick	-10.7617
ick	-10.7618
▁realize	-10.7619
▁bone	-10.7624
▁broker	-10.7639
▁shore	-10.7647
▁dispatch	-10.765
▁philosoph	-10.765
▁wreck	-10.765
▁float	-10.765
▁bird	-10.7653
▁anymore	-10.7653
▁load	-10.7654
▁angel	-10.7654
lon	-10.766
ff	-10.7671
▁fiction	-10.7681
▁600	-10.7696
▁ghost	-10.7697
▁premium	-10.7697
▁principal	-10.7697
▁strict	-10.7697
▁taxpayer	-10.7697
▁unanimous	-10.7697
▁securities	-10.7697
▁teach	-10.7699
clu	-10.7726
▁pill	-10.7732
▁boot	-10.774
mus	-10.774
▁rage	-10.7742
▁depict	-10.7745
▁pittsburgh	-10.7745
▁dutch	-10.7746
▁99	-10.775
▁requirement	-10.7753
▁domin	-10.7753
▁jose	-10.7753
▁household	-10.7756
▁customer	-10.7763
▁sweden	-10.7765
▁defin	-10.7765
▁proof	-10.778
▁unclea	-10.778
▁allen	-10.7791
▁hispanic	-10.7793
▁christoph	-10.7793
▁norm	-10.7793
erling	-10.7794
▁contribut	-10.7794
▁depression	-10.7796
▁spell	-10.7796
▁portland	-10.7798
▁avail	-10.7809
▁teens	-10.7822
▁elon	-10.7837
▁defect	-10.7838
▁bike	-10.7839
▁cellphone	-10.7841
▁disorder	-10.7841
▁permission	-10.7841
▁doors	-10.7844
▁cohen	-10.7849
▁hitler	-10.785
▁activities	-10.7853
▁lean	-10.7857
▁accidental	-10.7857
▁doom	-10.7858
▁flaw	-10.7858
bra	-10.7859
▁delivery	-10.7863
▁57	-10.7869
pro	-10.7879
▁earn	-10.788
die	-10.7883
▁harris	-10.7884
▁slave	-10.7887
▁satellite	-10.7889
▁tribute	-10.7889
▁burst	-10.7889
▁compete	-10.7891
hand	-10.79
▁marc	-10.7902
▁listening	-10.7912
▁pink	-10.7919
▁math	-10.7923
ories	-10.7928
cha	-10.7929
▁des	-10.7931
▁bal	-10.7932
▁painting	-10.7937
▁pattern	-10.7938
▁colbert	-10.7938
▁denver	-10.7938
▁captain	-10.7938
▁shutdown	-10.7938
▁2004	-10.7941
▁smile	-10.7942
▁smash	-10.7945
hol	-10.7949
▁ave	-10.7957
▁quote	-10.7961
▁continent	-10.7961
att	-10.7971
▁enemy	-10.7982
▁emmanuel	-10.7986
▁sanctuar	-10.7986
kong	-10.7991
▁grabb	-10.7992
quality	-10.7995
ama	-10.7999
▁undermine	-10.8002
▁holo	-10.8003
▁appli	-10.8014
▁contractor	-10.8014
▁eliminate	-10.8019
▁dean	-10.802
▁belt	-10.8024
▁unfortunate	-10.8035
▁fortune	-10.8035
▁dictator	-10.8036
▁desire	-10.8037
▁pit	-10.8044
▁creative	-10.8045
▁85	-10.8052
▁torture	-10.8064
ua	-10.8069
▁chat	-10.8069
▁gro	-10.8074
▁bombs	-10.8075
ison	-10.8078
held	-10.808
▁detention	-10.8085
▁antonio	-10.8085
▁jihadist	-10.8088
▁grace	-10.8094
▁lowest	-10.8102
▁jam	-10.8106
▁wrapp	-10.8109
▁cro	-10.8124
ttled	-10.8125
▁66	-10.813
▁phenomen	-10.8134
▁application	-10.8134
▁descend	-10.8134
▁serial	-10.8135
▁beng	-10.8147
bor	-10.8149
▁rang	-10.815
aught	-10.8154
▁dig	-10.816
▁maria	-10.8164
▁roads	-10.8165
▁trapp	-10.8177
▁wash	-10.8183
view	-10.8184
▁enormous	-10.8184
▁pioneer	-10.8184
▁morgan	-10.8184
▁naked	-10.8184
▁crackdown	-10.8185
▁nu	-10.8187
gi	-10.819
▁54	-10.819
▁fundrais	-10.8191
▁greet	-10.8192
fo	-10.8197
▁farmers	-10.82
▁hiv	-10.8208
ington	-10.8208
▁utter	-10.8211
▁capt	-10.8216
▁unf	-10.8217
▁manafort	-10.8234
▁essay	-10.8235
bar	-10.8235
▁barrier	-10.8235
▁bbc	-10.8236
▁tub	-10.8241
▁mega	-10.8249
▁fields	-10.8249
tte	-10.8251
▁superhero	-10.8256
▁bald	-10.8259
rid	-10.8261
▁sets	-10.8266
▁assembly	-10.8278
▁cards	-10.8282
▁inevitabl	-10.8284
▁forum	-10.8284
▁vital	-10.8285
▁jenni	-10.8288
▁roundup	-10.8289
eck	-10.829
▁resolve	-10.829
▁max	-10.829
▁gag	-10.8291
▁hid	-10.8293
ai	-10.8306
▁q	-10.8309
▁nominate	-10.8315
▁permit	-10.8318
▁strengthen	-10.8318
▁selection	-10.8319
▁detect	-10.8333
▁brilliant	-10.8335
▁yield	-10.8335
▁marvel	-10.8335
▁terminal	-10.8335
▁bump	-10.8335
▁admir	-10.8335
▁larry	-10.8336
▁battleground	-10.8336
deau	-10.834
▁sailor	-10.8341
act	-10.8349
▁lease	-10.8352
bean	-10.8356
▁negotiat	-10.8358
▁compet	-10.8359
▁jean	-10.8364
▁burning	-10.8367
▁panic	-10.8383
▁consult	-10.8384
▁propaganda	-10.8385
▁watchdog	-10.8385
▁firefighter	-10.8385
▁cartoon	-10.8385
▁shield	-10.8385
▁stump	-10.8385
▁await	-10.8385
embassy	-10.8387
▁columnist	-10.8389
▁burger	-10.8392
▁restore	-10.8393
▁mel	-10.8393
▁hide	-10.8393
▁showdown	-10.8395
water	-10.8401
▁secrets	-10.8402
▁occasional	-10.8408
▁vs	-10.8408
▁historical	-10.8409
▁manufacturer	-10.841
run	-10.8413
▁occasion	-10.8414
▁battery	-10.842
▁rip	-10.8421
election	-10.8427
▁slip	-10.8428
▁engine	-10.843
▁bon	-10.8431
▁weaken	-10.8434
▁stir	-10.8434
▁portrait	-10.8436
▁silent	-10.8437
▁phase	-10.8437
▁cream	-10.8437
▁celebrit	-10.8437
▁modest	-10.8441
▁dropping	-10.8441
▁concept	-10.8456
▁abe	-10.8458
memo	-10.8466
▁southeast	-10.8469
▁creation	-10.847
bury	-10.847
▁woods	-10.8472
▁lights	-10.8474
▁connect	-10.8475
▁ron	-10.8479
▁actors	-10.8482
▁harve	-10.8482
▁baghdad	-10.8488
▁deficit	-10.8488
▁pizza	-10.8488
▁instant	-10.8488
▁luck	-10.849
▁hong	-10.849
authorized	-10.8493
▁solo	-10.8498
▁thin	-10.8498
▁barb	-10.85
▁michel	-10.8505
loa	-10.8509
▁leaks	-10.851
▁experienc	-10.8517
zer	-10.8521
▁shout	-10.8525
▁arts	-10.8531
lie	-10.8536
▁appropriate	-10.8539
▁circulat	-10.8539
▁suspension	-10.8539
▁function	-10.8539
▁clothing	-10.8539
borough	-10.8539
▁chapter	-10.8542
ock	-10.8543
▁impose	-10.8543
▁revolutionar	-10.8565
sistance	-10.8573
▁personalit	-10.8575
▁charter	-10.8576
▁transcript	-10.8591
▁evil	-10.8592
▁opposite	-10.8592
▁monster	-10.8593
▁buck	-10.8593
▁2006	-10.8594
▁stark	-10.8596
▁mood	-10.8597
▁56	-10.8614
atlantic	-10.8616
nic	-10.8629
zar	-10.8629
▁bound	-10.8629
▁denie	-10.8632
▁medi	-10.8633
emer	-10.8636
▁conventional	-10.8637
▁oust	-10.8639
▁colon	-10.8642
▁helicopter	-10.8643
▁sentiment	-10.8643
▁grill	-10.8643
▁trash	-10.8643
▁omar	-10.8648
van	-10.865
▁aware	-10.8654
▁59	-10.8654
▁successor	-10.8655
ook	-10.8656
▁bloody	-10.8666
▁quot	-10.8666
take	-10.8671
stein	-10.8671
▁humanity	-10.8673
▁robb	-10.8678
▁judicial	-10.8688
▁transport	-10.8694
▁infamous	-10.8695
▁1960	-10.8696
moil	-10.8704
▁vulnerab	-10.8724
▁warriors	-10.873
nati	-10.873
▁maduro	-10.8748
▁ordinary	-10.8748
▁uniform	-10.8748
▁vaccine	-10.8748
▁outlook	-10.8748
▁retreat	-10.8748
▁definite	-10.8749
▁ridiculous	-10.8749
▁johnny	-10.875
ski	-10.8752
▁duke	-10.8753
▁suburban	-10.8754
▁violat	-10.8754
▁jokes	-10.8758
▁metal	-10.8758
▁exec	-10.8759
▁refer	-10.8763
▁battl	-10.8765
bit	-10.8765
what	-10.8781
bbie	-10.8787
ef	-10.8789
▁goals	-10.8795
▁administrator	-10.8801
▁bachelor	-10.8801
▁megyn	-10.8801
▁pension	-10.8802
▁trader	-10.8806
▁yu	-10.881
▁collapsed	-10.8813
lc	-10.8816
▁commit	-10.8818
▁mob	-10.883
card	-10.8833
▁windows	-10.8846
▁sweat	-10.8854
rg	-10.8855
▁commentator	-10.8855
▁violate	-10.886
▁mansion	-10.8862
▁rec	-10.8874
▁invent	-10.8902
▁scot	-10.8904
▁disagree	-10.8904
▁fires	-10.8907
▁filibuster	-10.8908
▁intellectual	-10.8908
▁confrontation	-10.8912
▁wolf	-10.8913
▁meme	-10.8914
▁organizers	-10.8917
▁delet	-10.8922
▁hanging	-10.8925
▁explor	-10.8932
▁kh	-10.8935
▁universal	-10.8939
▁herita	-10.8949
▁fossil	-10.8961
▁script	-10.8961
▁landscape	-10.8962
▁alexander	-10.8962
▁jonath	-10.8962
▁flower	-10.8963
▁workplace	-10.8964
▁connected	-10.8965
▁freeze	-10.897
▁demonstrator	-10.8972
▁spreading	-10.8977
▁lifetime	-10.8987
▁laur	-10.8991
▁employment	-10.8998
lew	-10.9
conduct	-10.9
teen	-10.9001
shot	-10.9002
▁kaepernick	-10.9016
▁bruc	-10.9017
▁conn	-10.902
▁kath	-10.902
▁premiere	-10.9037
uit	-10.9039
▁tactics	-10.904
▁stronger	-10.904
ologist	-10.9045
▁portion	-10.9045
▁models	-10.9046
▁grim	-10.9046
ali	-10.9049
▁mut	-10.9051
▁ces	-10.9056
▁selfie	-10.9066
▁corn	-10.9068
▁phoeni	-10.907
▁sprawl	-10.907
▁manipulat	-10.907
▁carbon	-10.907
▁pump	-10.9072
▁bunch	-10.9072
▁tired	-10.9073
▁operative	-10.9074
▁ash	-10.9079
▁charm	-10.9093
ground	-10.9101
▁vale	-10.9107
▁operate	-10.911
▁supplie	-10.9113
▁stabb	-10.9114
▁rac	-10.9117
nda	-10.9123
▁ideal	-10.9124
▁asylum	-10.9125
▁nonprofit	-10.9125
▁sudan	-10.9125
▁derail	-10.9125
▁weiner	-10.9125
▁greek	-10.9126
▁rapper	-10.9126
chin	-10.9126
▁vet	-10.9127
▁fence	-10.9143
▁hor	-10.9144
▁scrambl	-10.9145
▁bang	-10.9147
▁noah	-10.9151
▁250	-10.9154
fra	-10.9154
pon	-10.9162
▁plung	-10.9169
▁vol	-10.9174
▁spie	-10.9178
▁gym	-10.918
▁arctic	-10.918
▁squad	-10.918
▁southwest	-10.9182
▁diverse	-10.9182
▁memoir	-10.9182
cri	-10.9187
logical	-10.9189
▁dev	-10.9196
ala	-10.9199
▁deadlie	-10.9202
gie	-10.9206
flew	-10.9207
▁allege	-10.921
▁spar	-10.9211
▁follower	-10.9224
▁benjamin	-10.9235
▁freak	-10.9235
▁tunnel	-10.9235
▁zillow	-10.9235
▁wisdom	-10.9235
▁greece	-10.9235
▁bedroom	-10.9235
▁hampton	-10.9235
▁clark	-10.9236
▁minds	-10.9239
▁painful	-10.9239
▁universit	-10.9239
▁passage	-10.9241
▁enem	-10.9242
rat	-10.9245
▁quest	-10.9245
ila	-10.9253
▁peer	-10.9255
▁nasty	-10.9264
▁hip	-10.9271
ue	-10.9276
▁fam	-10.9276
▁nut	-10.9283
▁indicate	-10.9284
▁transit	-10.9289
▁retaliat	-10.929
▁verdict	-10.929
▁caution	-10.929
▁pulse	-10.929
▁harbor	-10.9291
▁excuse	-10.9291
▁cooperation	-10.9294
▁seize	-10.9294
▁indictment	-10.9295
▁punishment	-10.9296
▁ditch	-10.9296
more	-10.9299
▁anderson	-10.9306
rick	-10.931
▁merc	-10.9311
ok	-10.9314
▁walker	-10.9322
▁swed	-10.9333
▁bail	-10.9335
▁realiz	-10.9343
▁root	-10.9345
▁recognize	-10.9346
▁preliminar	-10.9346
▁exploit	-10.9346
▁dawn	-10.9346
▁melissa	-10.9346
caust	-10.9347
▁cow	-10.9353
ame	-10.9359
▁tay	-10.936
▁heels	-10.9362
▁dominate	-10.9363
▁ipo	-10.9364
▁escap	-10.9372
▁generat	-10.9378
hogan	-10.9378
▁bou	-10.938
▁seventh	-10.9386
▁charlesto	-10.9388
▁mat	-10.9392
rop	-10.9396
▁hunting	-10.9399
▁shareholder	-10.9401
▁bash	-10.9402
▁context	-10.9402
▁henry	-10.9403
▁tenure	-10.9405
▁repair	-10.9405
▁assessment	-10.9405
▁trailer	-10.9405
▁define	-10.941
▁pregnancy	-10.941
▁pieces	-10.9419
▁plac	-10.9419
▁perry	-10.942
▁crowds	-10.9432
▁mile	-10.9436
hem	-10.9436
▁fri	-10.9441
cker	-10.9445
▁pile	-10.9448
▁blaze	-10.9449
▁stunn	-10.9453
▁columb	-10.9453
lated	-10.9457
nam	-10.9457
waukee	-10.9459
▁encrypt	-10.9459
▁prescription	-10.9459
▁interrupt	-10.9459
▁nixon	-10.9459
▁shrink	-10.9459
▁soviet	-10.9459
▁distance	-10.946
var	-10.9461
▁wildfire	-10.9462
▁insight	-10.9462
▁eligib	-10.9464
▁glenn	-10.9471
▁flor	-10.9475
▁rome	-10.9479
istic	-10.9484
▁shame	-10.9489
hart	-10.9495
bn	-10.9503
▁courtes	-10.9505
▁user	-10.9507
▁genius	-10.9516
▁accurate	-10.9516
▁contentious	-10.9517
▁belgian	-10.9518
▁solve	-10.9522
▁firearms	-10.9526
▁bribe	-10.953
▁partial	-10.9531
▁62	-10.9536
hazi	-10.9539
▁suggestion	-10.9539
▁intention	-10.9543
▁murra	-10.9548
▁kate	-10.9553
▁soda	-10.9554
▁sec	-10.9561
▁grip	-10.9569
iness	-10.9569
▁muhammad	-10.9573
▁pharmaceutical	-10.9573
▁thompson	-10.9573
▁montana	-10.9573
▁eagle	-10.9573
▁jeffrey	-10.9573
sumption	-10.9574
▁cameron	-10.9578
▁cent	-10.9579
▁killings	-10.9585
▁thrill	-10.9596
▁winds	-10.9597
▁retire	-10.9603
esh	-10.9604
▁wag	-10.9607
▁drunk	-10.9608
▁mini	-10.9613
▁beef	-10.9623
▁discriminat	-10.9625
▁laptop	-10.963
▁extensive	-10.963
▁legaliz	-10.9632
▁grounds	-10.9637
▁banner	-10.9653
▁springs	-10.9654
▁84	-10.9675
dom	-10.9683
▁nervous	-10.9688
▁restrain	-10.9688
▁admission	-10.9688
▁homicide	-10.9688
▁dedicat	-10.9688
▁recogniz	-10.9688
tv	-10.9692
ura	-10.9692
▁beck	-10.9697
▁oliver	-10.9698
elle	-10.97
▁imagin	-10.9714
lton	-10.9717
▁brit	-10.972
▁prediction	-10.9725
▁grade	-10.9726
ries	-10.9734
▁prop	-10.9735
▁shoes	-10.9735
▁kit	-10.9735
▁lett	-10.9739
▁forth	-10.974
illa	-10.974
▁optimis	-10.9745
▁substantial	-10.9746
▁seoul	-10.9746
▁guidelines	-10.9746
▁horribl	-10.9746
▁swiss	-10.9746
▁toronto	-10.9746
▁awful	-10.9747
▁cheese	-10.9748
▁achievement	-10.9749
▁911	-10.9749
▁800	-10.9749
▁stewar	-10.9749
▁deliberate	-10.975
▁borders	-10.9752
▁assembl	-10.9754
oli	-10.9754
▁landing	-10.9755
▁acquire	-10.9773
▁egg	-10.9786
▁afra	-10.9792
folk	-10.9794
▁plate	-10.9798
▁absurd	-10.9805
▁simpson	-10.9805
▁haunt	-10.9805
▁tomorrow	-10.9805
▁casino	-10.9805
▁saint	-10.9805
▁charlie	-10.9805
▁edit	-10.9806
gram	-10.9806
▁foster	-10.9806
▁scam	-10.9814
storm	-10.9817
▁comfort	-10.9827
▁hum	-10.984
equality	-10.9852
▁hostil	-10.9854
▁northeast	-10.9863
▁marathon	-10.9863
▁perspective	-10.9863
▁podesta	-10.9863
▁revenge	-10.9863
▁zealand	-10.9863
▁intervention	-10.9864
▁audit	-10.9865
▁random	-10.9865
▁toddler	-10.9865
▁slump	-10.9865
▁innocent	-10.9866
idi	-10.9866
▁brands	-10.9871
kyo	-10.9878
▁crossing	-10.988
▁tools	-10.9882
ending	-10.9887
▁700	-10.9891
rov	-10.9897
▁nose	-10.9898
▁disclos	-10.9901
▁marking	-10.9913
▁outsider	-10.9915
▁lou	-10.9916
▁indonesia	-10.9923
▁trauma	-10.9923
▁overdose	-10.9924
uck	-10.9926
▁2003	-10.9926
uz	-10.993
ology	-10.993
▁strain	-10.9933
▁stabbing	-10.9934
ency	-10.9935
▁genre	-10.9936
▁bench	-10.9938
▁monet	-10.9939
▁pastor	-10.9941
uchin	-10.995
any	-10.9955
▁mich	-10.9961
latter	-10.9962
pain	-10.9968
bus	-10.9968
▁emotion	-10.9978
▁whip	-10.998
polis	-10.9981
▁astronaut	-10.9982
▁contrast	-10.9982
▁counterpart	-10.9982
▁tattoo	-10.9982
▁bolster	-10.9982
▁fulfill	-10.9982
▁steam	-10.9982
▁creature	-10.9985
▁vanish	-10.9987
▁amy	-10.9987
▁linger	-10.9994
▁duck	-10.9996
▁spike	-10.9998
asse	-11.0003
▁bully	-11.0003
▁hills	-11.0009
jury	-11.0012
▁easter	-11.0016
bert	-11.0019
▁cab	-11.0025
▁obsess	-11.0036
▁ethnic	-11.0042
▁pocket	-11.0042
▁unpopular	-11.0042
▁revised	-11.0042
llusion	-11.0043
▁courtroom	-11.0047
▁historically	-11.0048
▁thai	-11.0057
▁den	-11.0061
▁tense	-11.0063
▁burned	-11.0071
▁rack	-11.0079
rod	-11.0085
▁manner	-11.0087
▁multi	-11.0091
▁motivat	-11.0094
▁gla	-11.0102
▁explicit	-11.0102
▁frozen	-11.0102
▁petition	-11.0102
▁streak	-11.0102
▁buffett	-11.0103
▁medicare	-11.0103
plan	-11.0104
▁patent	-11.0104
▁speaks	-11.0106
▁duty	-11.0109
▁denounc	-11.0111
▁beneath	-11.0113
▁damaged	-11.0117
▁sole	-11.0134
unnam	-11.0141
▁venue	-11.0147
▁testifie	-11.0148
▁consensus	-11.0152
▁dumb	-11.0153
▁prefer	-11.0154
▁pend	-11.0154
▁screening	-11.0159
▁alphabet	-11.0163
▁substance	-11.0163
▁ireland	-11.0163
▁tribun	-11.0163
▁thick	-11.0163
▁wiretapp	-11.0165
▁egyptian	-11.0166
▁signing	-11.0167
▁recommendation	-11.0167
▁cinc	-11.0168
▁membership	-11.0168
▁urgent	-11.0169
pri	-11.0171
▁trace	-11.0176
state	-11.0179
▁surg	-11.0187
▁dirty	-11.0195
blew	-11.0195
▁tip	-11.0198
▁incredible	-11.02
▁consum	-11.021
gt	-11.021
▁correspondents	-11.0214
▁ging	-11.0215
▁deutsche	-11.0224
▁spokesperson	-11.0224
▁calculat	-11.0224
▁hudson	-11.0224
▁realtor	-11.0224
▁personne	-11.0224
▁confidential	-11.0225
▁reminder	-11.0225
▁propose	-11.023
iac	-11.0236
▁nurse	-11.0252
▁bombings	-11.026
▁dreams	-11.0265
▁tam	-11.0266
▁barring	-11.0272
▁spur	-11.0279
▁corrupt	-11.028
▁dna	-11.0281
▁entrepreneur	-11.0285
▁ideological	-11.0285
▁bangladesh	-11.0285
▁defensive	-11.0285
▁glimpse	-11.0285
▁leonard	-11.0285
▁consent	-11.0285
▁irish	-11.0286
▁isolat	-11.0287
▁2020	-11.029
▁leap	-11.029
▁apologiz	-11.0296
▁damn	-11.0305
ridge	-11.0305
▁lash	-11.0308
▁stor	-11.031
▁wade	-11.0321
▁advoca	-11.0324
▁seed	-11.0325
▁participate	-11.0328
ong	-11.0329
▁hale	-11.033
iii	-11.0333
▁propert	-11.0334
ood	-11.0336
▁barn	-11.0342
▁starbucks	-11.0347
▁rachel	-11.0347
▁stamp	-11.0347
▁hulk	-11.0347
▁enact	-11.0348
▁roman	-11.0348
▁siege	-11.035
▁setback	-11.0359
▁stat	-11.0374
pu	-11.0401
▁portray	-11.0403
▁compound	-11.0409
▁ambition	-11.0409
▁borrow	-11.0409
▁circumstances	-11.0409
▁grammy	-11.0409
▁mask	-11.041
▁carib	-11.042
▁cake	-11.042
▁indication	-11.0422
lock	-11.0441
▁cubs	-11.0458
▁pound	-11.0466
▁lucky	-11.0471
▁competitive	-11.0472
▁volkswag	-11.0472
▁conceal	-11.0472
▁volatil	-11.0472
▁segment	-11.0472
▁graphic	-11.0472
▁swimmer	-11.0472
▁labour	-11.0473
▁drought	-11.0477
▁delta	-11.0478
▁rebound	-11.0479
▁rot	-11.0486
▁tampa	-11.0488
▁residence	-11.0489
ira	-11.0494
▁opportunities	-11.0494
▁embrac	-11.0503
▁bak	-11.0511
▁stole	-11.0512
▁equality	-11.0526
▁industri	-11.0528
50	-11.053
▁danc	-11.0531
▁arsenal	-11.0534
▁blunt	-11.0534
▁humiliat	-11.0534
▁legislator	-11.0534
▁terrifying	-11.0534
▁disgrac	-11.0535
▁exception	-11.0535
▁aug	-11.0536
▁bread	-11.0537
▁employ	-11.0539
▁loyal	-11.0541
▁plunge	-11.0547
▁nsa	-11.0549
▁shortage	-11.055
▁legally	-11.0553
cat	-11.0562
ich	-11.0565
▁requir	-11.0575
▁damag	-11.0586
▁addict	-11.0593
▁julian	-11.0594
▁affiliate	-11.0598
▁divisive	-11.0598
▁ferguson	-11.0598
▁inappropriate	-11.0598
▁kardashian	-11.0598
▁mccarthy	-11.0598
▁staple	-11.0598
▁destruction	-11.0598
▁jerem	-11.0598
▁drown	-11.0598
oma	-11.0599
▁classroom	-11.0599
kh	-11.0603
▁pact	-11.0603
▁dave	-11.0604
▁bio	-11.0605
▁jill	-11.0607
▁relat	-11.0609
▁sideline	-11.0617
▁consideration	-11.0624
mont	-11.0624
▁chas	-11.0633
yip	-11.0638
30	-11.0652
▁intent	-11.0654
▁musician	-11.0654
▁fran	-11.0654
▁teeth	-11.0662
▁rely	-11.0662
▁rampage	-11.0664
▁guzm	-11.0671
▁defender	-11.0672
▁blocks	-11.0672
aries	-11.0679
▁hometown	-11.0681
▁eliminat	-11.0682
▁assist	-11.0686
▁disabl	-11.0688
▁disappointing	-11.0692
▁kar	-11.07
▁launche	-11.0709
onic	-11.0717
▁fleet	-11.072
▁roles	-11.0723
▁pronounc	-11.0726
▁inspector	-11.0726
▁smooth	-11.0726
▁bitcoin	-11.0726
▁mueller	-11.0726
▁volume	-11.0726
▁steep	-11.0726
▁hammer	-11.0727
▁unlock	-11.0731
daq	-11.0734
▁devoted	-11.0734
▁slim	-11.0734
▁proceed	-11.0735
▁devastat	-11.0735
▁74	-11.0735
▁priest	-11.0735
▁widen	-11.074
▁flags	-11.0741
ith	-11.0743
▁tracks	-11.0749
▁observ	-11.0751
▁abduct	-11.0752
▁unemploy	-11.0753
▁simon	-11.076
assange	-11.0765
▁nh	-11.0767
rian	-11.0769
▁alter	-11.0773
elson	-11.0775
▁princess	-11.0775
▁tan	-11.0778
10	-11.079
▁rousseff	-11.079
▁palace	-11.079
▁jesus	-11.079
▁smell	-11.0791
▁communist	-11.0791
▁obstruction	-11.0792
▁beast	-11.0792
▁bryan	-11.0793
▁bible	-11.0797
born	-11.0802
▁tune	-11.0808
▁rocky	-11.0815
therapy	-11.0815
▁expose	-11.0824
▁wing	-11.0828
▁woo	-11.0839
▁assistance	-11.0843
selves	-11.0849
▁turner	-11.0851
▁deepen	-11.0851
▁architect	-11.0855
▁chaffe	-11.0855
▁overlook	-11.0855
▁comparison	-11.0855
▁transaction	-11.0855
▁sidewalk	-11.0856
▁barry	-11.086
▁prosecution	-11.086
▁precise	-11.0866
▁popp	-11.0867
icah	-11.0869
▁contribution	-11.0873
▁correction	-11.0876
▁nominations	-11.0881
▁pursu	-11.0888
▁ax	-11.0897
▁malaysia	-11.0897
star	-11.0899
▁underway	-11.0907
▁abu	-11.0908
▁haiti	-11.0918
▁visual	-11.092
▁aspect	-11.092
▁flames	-11.0921
▁epi	-11.0924
▁guards	-11.0924
▁guant	-11.0927
▁rant	-11.0934
easing	-11.0943
▁refusal	-11.0951
▁protected	-11.0961
▁bubble	-11.0961
▁examin	-11.0974
▁loves	-11.0975
proved	-11.098
▁lands	-11.0982
▁sponsor	-11.0983
▁misleading	-11.0986
▁participant	-11.0986
▁scenario	-11.0986
▁splash	-11.0986
▁teammate	-11.0986
▁kirk	-11.0986
▁oath	-11.0986
▁berke	-11.0987
▁pol	-11.099
▁58	-11.0991
▁mag	-11.0999
▁skeptical	-11.0999
▁casualt	-11.0999
▁instance	-11.1003
▁cont	-11.1004
productive	-11.1008
▁robin	-11.1012
▁mum	-11.103
▁overturn	-11.1035
▁hotte	-11.1035
bach	-11.1038
▁tar	-11.1042
▁extremist	-11.1045
▁conservat	-11.1046
▁yen	-11.1047
reli	-11.1048
▁bla	-11.1049
▁competitor	-11.1052
▁supremacist	-11.1052
▁vessel	-11.1052
▁tragic	-11.1052
▁swimming	-11.1053
▁attach	-11.1053
▁burden	-11.1054
▁impressive	-11.1054
▁assess	-11.1055
▁practical	-11.1069
▁executed	-11.1069
▁somalia	-11.1074
▁shoulder	-11.1077
▁chan	-11.1084
▁cam	-11.1087
▁roots	-11.109
▁compli	-11.1107
▁diploma	-11.1108
▁apps	-11.1112
▁principle	-11.1113
hur	-11.1113
driving	-11.1113
▁accomplish	-11.1116
fight	-11.1116
▁insurgent	-11.1119
▁russell	-11.1119
▁mirror	-11.1119
▁recipe	-11.1119
▁damasc	-11.1119
▁pig	-11.1119
▁plum	-11.1119
▁fool	-11.112
▁horrific	-11.1121
▁castile	-11.1121
▁bowie	-11.1122
▁outfit	-11.1125
▁condo	-11.1127
▁mn	-11.1128
▁82	-11.113
▁77	-11.113
▁diesel	-11.113
▁73	-11.1132
▁introduce	-11.1132
▁gam	-11.1137
▁reward	-11.1138
▁sham	-11.1139
▁complained	-11.1145
▁ranking	-11.1155
▁sexist	-11.1157
▁choices	-11.1159
▁76	-11.1162
▁cafe	-11.1172
▁advertiser	-11.1175
itz	-11.1178
hill	-11.1182
▁scrap	-11.1182
▁excited	-11.1182
▁rebuild	-11.1186
▁invasion	-11.1186
▁milestone	-11.1187
▁moderator	-11.1189
▁evacuation	-11.1191
▁jacket	-11.1191
▁qualifi	-11.1196
▁parker	-11.1199
▁deem	-11.1202
▁camps	-11.121
bat	-11.1211
caa	-11.1211
▁spa	-11.1222
▁acquir	-11.1223
▁sheet	-11.1226
▁shipp	-11.1227
▁drones	-11.1227
western	-11.1235
▁motors	-11.1239
▁stem	-11.124
▁concrete	-11.1254
▁analyz	-11.1254
▁juror	-11.1254
▁abedin	-11.1254
▁scout	-11.1255
▁combination	-11.1257
▁reince	-11.1257
▁albert	-11.1257
ago	-11.1258
reid	-11.1258
rated	-11.1273
▁neighborhoods	-11.1289
▁chronicle	-11.1295
25	-11.1299
▁sandy	-11.1305
iti	-11.1306
▁offender	-11.1311
▁exxon	-11.1322
▁jessica	-11.1322
▁suspicion	-11.1322
▁sniper	-11.1322
▁farewell	-11.1322
▁judgment	-11.1323
▁endless	-11.1323
▁nude	-11.1325
gel	-11.1327
▁2002	-11.1327
▁hunter	-11.1329
▁centre	-11.1329
▁contestant	-11.1331
▁88	-11.1331
▁rnc	-11.1332
▁dish	-11.1332
▁mick	-11.1335
▁declaration	-11.1335
ord	-11.1339
▁suck	-11.1341
▁copy	-11.1343
▁nash	-11.1345
▁rou	-11.136
▁revers	-11.1364
▁releas	-11.1365
▁posting	-11.1369
uitt	-11.1374
eva	-11.1375
▁holder	-11.1376
▁krist	-11.1378
bound	-11.1387
▁harass	-11.1387
▁stable	-11.1388
▁adjust	-11.139
▁physician	-11.139
▁surrogate	-11.139
▁thorough	-11.139
▁ransom	-11.139
harlem	-11.1391
▁cinema	-11.1391
ient	-11.1397
bec	-11.1397
▁poet	-11.1397
▁northwest	-11.1405
▁troubl	-11.1412
rock	-11.1422
▁midst	-11.1422
▁teaching	-11.1426
▁guarantee	-11.1427
▁koch	-11.143
▁pure	-11.1433
tell	-11.1436
▁occupie	-11.1448
▁fur	-11.1448
▁barbar	-11.1453
▁blockbuster	-11.1459
▁valuable	-11.1459
▁pretend	-11.1459
▁wilson	-11.1464
▁chest	-11.1465
▁embarrassing	-11.1466
▁patch	-11.1469
▁removal	-11.1481
▁runway	-11.1485
▁denial	-11.149
lar	-11.1492
ilia	-11.1492
▁wilder	-11.1492
▁turnout	-11.1499
tom	-11.1505
orte	-11.1506
▁undergo	-11.1507
▁lip	-11.1513
▁virgin	-11.1522
▁crop	-11.1523
residential	-11.1528
▁bargain	-11.1529
▁evolution	-11.1529
▁frustrated	-11.1529
▁frustration	-11.1529
▁nicola	-11.1529
▁superior	-11.1529
▁autism	-11.1529
▁conced	-11.1529
▁brent	-11.153
▁implication	-11.1533
▁submit	-11.1534
▁rental	-11.1546
▁garb	-11.1552
▁mountains	-11.1555
issa	-11.1563
▁raw	-11.1576
▁doll	-11.1578
▁mcg	-11.158
▁dismantle	-11.159
unconstitutional	-11.1599
▁enterprise	-11.1599
▁occupation	-11.1599
▁surrender	-11.1599
▁diamond	-11.1599
▁rebuke	-11.1599
▁resembl	-11.1599
▁extradit	-11.1599
▁forgive	-11.1599
▁toilet	-11.16
▁pants	-11.1601
berry	-11.1603
▁choos	-11.1603
▁restor	-11.1603
page	-11.1607
▁everyday	-11.1609
▁brave	-11.161
▁hernand	-11.1611
▁correspondent	-11.1611
play	-11.1613
▁wallac	-11.1617
▁61	-11.1617
▁milo	-11.1623
enberg	-11.1625
▁comfortabl	-11.1632
▁jos	-11.1637
▁passe	-11.1643
ban	-11.1646
▁smoking	-11.1647
▁pitt	-11.1659
▁challenger	-11.1669
▁occur	-11.1669
lewandowski	-11.1669
▁1996	-11.1669
▁profound	-11.1669
▁telephone	-11.1669
▁rhode	-11.1669
▁cousin	-11.1669
▁dash	-11.1674
▁assume	-11.1675
▁miner	-11.168
▁philippine	-11.1684
power	-11.1687
ku	-11.1691
▁lav	-11.1692
▁bug	-11.1693
▁melt	-11.1703
▁chill	-11.1706
▁suv	-11.1712
▁outlin	-11.1721
▁68	-11.1722
▁mistaken	-11.1736
▁rodrig	-11.1739
▁argentina	-11.174
▁plaza	-11.174
▁falcon	-11.174
▁description	-11.174
▁manslaughter	-11.174
▁okay	-11.174
▁organ	-11.174
▁stroke	-11.174
▁telecom	-11.1741
▁excellen	-11.1741
▁philip	-11.1741
▁luther	-11.1742
▁bhara	-11.1742
▁salary	-11.1743
▁slavery	-11.1744
▁welcom	-11.1744
▁tick	-11.1748
▁achieve	-11.175
▁pray	-11.1752
▁batman	-11.1752
▁72	-11.1758
▁messag	-11.1759
arthur	-11.1761
ode	-11.1772
▁expression	-11.1776
ique	-11.1781
hia	-11.1782
mu	-11.1787
▁forms	-11.1796
▁heated	-11.1798
▁lt	-11.1805
▁dems	-11.1809
▁anonym	-11.181
clusive	-11.181
▁exhaust	-11.1811
▁mortgage	-11.1811
▁rookie	-11.1811
▁subpoena	-11.1811
▁historian	-11.1811
▁sandwich	-11.1812
▁dive	-11.1813
▁graduation	-11.1814
▁humor	-11.1816
▁shatter	-11.1816
▁invok	-11.1819
aya	-11.1822
▁roy	-11.1822
▁tumbl	-11.1823
▁opera	-11.1823
yler	-11.1828
char	-11.1833
ripped	-11.1835
ailing	-11.1837
▁skeptic	-11.1869
▁assert	-11.1876
▁fad	-11.1882
▁consecutive	-11.1883
▁elephant	-11.1883
▁paragraph	-11.1883
▁unconscious	-11.1883
▁airplane	-11.1883
▁plagu	-11.1883
▁potter	-11.1886
▁caption	-11.1893
▁woe	-11.1895
▁surf	-11.1897
▁87	-11.1899
lay	-11.19
▁inches	-11.1905
▁budd	-11.1907
▁pole	-11.191
▁notion	-11.1912
spoken	-11.1914
▁ltd	-11.1919
▁allerg	-11.1926
▁unite	-11.1933
▁devin	-11.1936
rah	-11.1944
▁belgi	-11.1953
▁depress	-11.1954
▁pelosi	-11.1956
▁treasure	-11.1956
▁kabul	-11.1956
trophy	-11.1956
▁envoy	-11.1956
▁cleric	-11.1956
▁medication	-11.1957
▁marketplace	-11.1958
▁venezuelan	-11.196
▁kenya	-11.1961
▁acknowledge	-11.1964
▁bolt	-11.1968
▁retain	-11.1969
test	-11.1974
▁bonds	-11.1979
▁unfair	-11.1979
▁locker	-11.1979
▁whit	-11.1986
inson	-11.1992
▁lender	-11.1995
▁minorit	-11.1997
▁nigeria	-11.2006
▁parliamentar	-11.2018
▁plott	-11.2021
▁origin	-11.2021
▁confess	-11.2022
▁info	-11.2028
▁carmelo	-11.2029
▁chocolate	-11.2029
▁giuliani	-11.2029
▁neutral	-11.2029
▁uncomfortabl	-11.2029
▁thunder	-11.2029
▁entrance	-11.203
▁garner	-11.2031
▁consultant	-11.2031
▁engagement	-11.2032
▁shed	-11.2034
▁hal	-11.2034
ram	-11.2035
▁whale	-11.2035
▁friendship	-11.2035
vity	-11.2038
▁69	-11.2039
▁lineup	-11.2043
▁seth	-11.2048
place	-11.2048
▁dela	-11.2049
▁dry	-11.205
▁faction	-11.2066
▁chatt	-11.2067
mail	-11.207
iff	-11.2071
ima	-11.2072
▁rattl	-11.2076
▁bloc	-11.2082
▁95	-11.2085
▁champions	-11.2088
politan	-11.2089
▁shin	-11.2091
nl	-11.2093
rgen	-11.2101
▁smuggl	-11.2102
▁1999	-11.2102
▁hashtag	-11.2102
▁libertarian	-11.2102
▁muscle	-11.2102
▁suspicious	-11.2102
▁absence	-11.2102
▁reopen	-11.2102
▁predominant	-11.2103
▁types	-11.211
terran	-11.2111
▁schul	-11.2112
▁anywhere	-11.2115
▁cave	-11.2119
▁ruth	-11.2121
nate	-11.2129
▁snapp	-11.2131
▁tips	-11.2137
▁recep	-11.2139
▁finale	-11.2141
▁decid	-11.2147
▁preserve	-11.215
▁94	-11.2154
▁shutt	-11.2156
ryl	-11.2161
▁67	-11.2168
press	-11.2169
employment	-11.2173
▁assign	-11.2176
▁evolv	-11.2176
▁landslide	-11.2176
▁lochte	-11.2176
▁sequel	-11.2176
▁technique	-11.2176
▁widow	-11.2176
▁powell	-11.2178
▁citizenship	-11.2178
▁smil	-11.2179
▁corco	-11.2179
▁engage	-11.218
▁uncover	-11.2181
▁preparation	-11.2183
▁wonderful	-11.2185
▁letha	-11.2189
▁rub	-11.221
▁burns	-11.2216
▁tactic	-11.2225
▁automat	-11.2228
▁skip	-11.2238
▁depart	-11.2247
▁impeach	-11.2248
▁tag	-11.2248
▁expense	-11.2251
▁cigarette	-11.2251
▁adventure	-11.2251
▁dread	-11.2252
▁curious	-11.2253
▁wireless	-11.2255
▁leftist	-11.2256
▁citi	-11.2259
far	-11.2262
▁tele	-11.2273
▁yards	-11.2276
▁musicians	-11.2276
▁chronic	-11.2281
▁taxi	-11.2282
▁kra	-11.2282
▁naval	-11.2285
▁fever	-11.2286
identified	-11.2287
for	-11.2289
udi	-11.2295
▁incredibl	-11.2297
▁pur	-11.2301
loo	-11.2307
▁cru	-11.2307
▁mol	-11.2312
tick	-11.2312
▁hospitaliz	-11.2321
▁scholar	-11.2325
lit	-11.2326
▁comprehensive	-11.2326
▁discount	-11.2326
▁spectacular	-11.2326
▁goodbye	-11.2326
▁stunt	-11.2326
▁penthouse	-11.2326
▁slogan	-11.2326
▁rogue	-11.2327
▁worship	-11.2328
▁strand	-11.2328
▁jake	-11.2328
▁doping	-11.2329
▁bite	-11.2329
▁visible	-11.2334
▁coin	-11.2337
▁designat	-11.234
▁longest	-11.2345
▁nest	-11.2353
▁losers	-11.2353
▁cater	-11.236
▁slide	-11.2361
week	-11.2366
▁fillon	-11.2367
▁disappointed	-11.2374
▁hub	-11.2379
▁tipp	-11.239
ju	-11.2393
▁flip	-11.2394
tar	-11.2399
fest	-11.2402
▁subsequent	-11.2402
▁commodit	-11.2402
▁fragil	-11.2402
▁integrity	-11.2402
▁trademark	-11.2402
▁gabriel	-11.2402
▁convert	-11.2402
▁jinp	-11.2402
▁120	-11.2402
▁havana	-11.2402
▁pepper	-11.2402
▁memories	-11.2403
▁translat	-11.2403
▁herald	-11.2407
oline	-11.2423
▁upend	-11.2426
▁hatch	-11.2427
hou	-11.2438
▁batter	-11.2444
▁vp	-11.2445
▁gunn	-11.2448
▁displac	-11.2455
▁button	-11.2458
▁snowd	-11.2461
erek	-11.2466
▁compar	-11.2473
▁cult	-11.2478
▁centuries	-11.2478
▁cocaine	-11.2478
▁yiannopoulo	-11.2478
▁demographic	-11.2478
▁relax	-11.2478
▁reckless	-11.2478
bro	-11.2479
▁sensation	-11.2479
▁spray	-11.2479
▁romantic	-11.248
▁pursuit	-11.248
▁invitation	-11.2483
▁janet	-11.2483
▁respective	-11.2485
▁delight	-11.2487
▁costume	-11.2487
▁140	-11.2489
▁lebr	-11.249
▁lobbyist	-11.2497
▁78	-11.2497
▁stok	-11.25
ude	-11.2509
tta	-11.2511
▁attitude	-11.2514
ears	-11.2515
▁victoria	-11.2519
him	-11.2538
▁obes	-11.2538
verse	-11.2542
▁beside	-11.2542
▁scare	-11.255
▁televis	-11.255
▁antarctic	-11.2555
▁bombshell	-11.2555
▁nutrition	-11.2555
▁commemorat	-11.2555
▁warehouse	-11.2555
▁collid	-11.2556
▁destination	-11.2557
▁polish	-11.2557
▁brun	-11.2559
▁extremists	-11.2564
▁89	-11.2566
▁reef	-11.2568
gal	-11.2571
▁bun	-11.2572
rou	-11.2573
▁cord	-11.2576
▁listing	-11.2578
▁scream	-11.259
▁compromise	-11.2594
▁fascinating	-11.2613
▁juan	-11.2613
▁bai	-11.2621
▁prosecut	-11.2624
hani	-11.2624
▁prof	-11.2625
▁panama	-11.2632
▁disgust	-11.2633
orthodox	-11.2633
▁censor	-11.2633
▁centrist	-11.2633
▁encouraging	-11.2633
▁plummet	-11.2633
▁spencer	-11.2633
▁carpet	-11.2633
▁dennis	-11.2633
▁woke	-11.2633
▁mir	-11.2634
▁bragg	-11.2635
▁holy	-11.2638
▁luke	-11.2642
viation	-11.2645
potle	-11.2646
▁kati	-11.2648
▁deserve	-11.2651
▁shk	-11.2654
▁inner	-11.2654
▁brook	-11.2665
▁tail	-11.2666
▁criticize	-11.2676
russia	-11.2684
▁deck	-11.2685
▁grop	-11.2693
cop	-11.2694
▁clashe	-11.2697
▁shower	-11.2706
:15	-11.2711
▁benchmark	-11.2711
▁vigil	-11.2711
▁nikki	-11.2711
▁indigen	-11.2711
▁swamp	-11.2711
▁craig	-11.2711
▁unrest	-11.2711
▁workforce	-11.2712
▁protester	-11.2713
ctor	-11.2715
▁impression	-11.2716
▁inventor	-11.272
▁postpon	-11.2722
▁preferr	-11.2726
owski	-11.2727
due	-11.2732
box	-11.2737
▁cure	-11.2747
▁walter	-11.2748
▁passion	-11.2756
anye	-11.2757
▁polic	-11.2765
eff	-11.2768
stage	-11.2769
▁knocked	-11.277
▁airbnb	-11.279
▁approximate	-11.279
▁cavalier	-11.279
▁stomach	-11.279
▁convoy	-11.279
▁offshore	-11.279
▁presum	-11.279
▁liquid	-11.279
▁nickname	-11.279
▁vetting	-11.2791
▁temple	-11.2792
▁hover	-11.2798
▁shine	-11.2804
▁reel	-11.2804
▁exo	-11.2822
osh	-11.2824
▁patt	-11.2828
ois	-11.2838
▁heal	-11.2838
▁intentional	-11.2843
▁examine	-11.2845
▁belief	-11.2847
▁phon	-11.2847
▁reliev	-11.2853
▁christ	-11.2854
room	-11.2855
▁invite	-11.2857
▁exten	-11.2857
▁proceeding	-11.2858
▁ecuador	-11.2869
▁grandmother	-11.2869
▁purple	-11.2869
▁clown	-11.2869
▁exceed	-11.2869
▁distract	-11.2871
▁unfold	-11.2871
▁lung	-11.2873
▁assassination	-11.2873
ux	-11.2874
space	-11.2876
▁disciplin	-11.2883
▁defendant	-11.2884
ander	-11.2887
▁undo	-11.2889
▁handout	-11.2892
▁surgeon	-11.2893
▁necessar	-11.2898
▁huma	-11.2905
uri	-11.2909
▁pitcher	-11.2911
▁mull	-11.2915
▁dylann	-11.293
yra	-11.2933
city	-11.2937
▁interact	-11.2939
▁arguabl	-11.2942
▁exhibit	-11.2943
osa	-11.2948
▁intern	-11.2949
▁appropriation	-11.2949
▁breakthrough	-11.2949
▁decisive	-11.2949
▁imprison	-11.2949
▁besieg	-11.2949
▁capacit	-11.2949
ropical	-11.295
▁beckham	-11.295
▁brush	-11.295
▁margar	-11.2951
ister	-11.2954
▁crow	-11.2955
▁hank	-11.2955
▁firework	-11.2957
ight	-11.2957
ille	-11.296
▁79	-11.2961
wick	-11.2963
▁cbo	-11.2963
▁runner	-11.2968
▁helm	-11.2973
ori	-11.2974
▁haz	-11.2977
▁wider	-11.3003
mund	-11.3008
▁instruct	-11.3012
▁fundraiser	-11.3017
▁ceiling	-11.303
▁nafta	-11.303
▁travis	-11.303
▁attendees	-11.303
▁proclaim	-11.303
▁cran	-11.303
▁nerve	-11.3031
▁authoritarian	-11.3031
saw	-11.3031
▁innovation	-11.3033
▁roster	-11.3033
▁detainee	-11.3034
▁colorful	-11.3036
check	-11.3039
heim	-11.3042
▁ripp	-11.3045
▁bath	-11.3045
▁utilit	-11.3058
▁alarming	-11.3059
▁conclude	-11.3067
▁titan	-11.3068
▁makeup	-11.3075
▁spoiler	-11.308
▁wings	-11.3081
band	-11.3087
▁anna	-11.309
▁purchas	-11.3093
hall	-11.3093
bin	-11.3094
▁64	-11.3096
▁ranch	-11.3104
▁assailant	-11.3111
▁bacteria	-11.3111
▁congratulat	-11.3111
▁raqqa	-11.3111
▁relevant	-11.3111
▁sovereign	-11.3111
▁valentine	-11.3111
▁counterterror	-11.3111
▁sketch	-11.3111
▁thiel	-11.3111
▁trove	-11.3111
▁restroom	-11.3112
▁cairo	-11.3112
▁appare	-11.3113
▁lifestyle	-11.3114
▁stair	-11.3118
▁assum	-11.3126
▁rubb	-11.3128
▁supplier	-11.3128
▁withdrawal	-11.3128
polar	-11.3131
▁uncle	-11.3132
▁deter	-11.3136
▁alan	-11.314
▁noise	-11.3146
anamo	-11.3149
▁duo	-11.3175
▁typ	-11.3177
:45	-11.3193
▁contemporar	-11.3193
▁extremism	-11.3193
▁imminent	-11.3193
▁lesbian	-11.3193
▁peninsula	-11.3193
▁clinch	-11.3193
▁predator	-11.3193
▁sample	-11.3193
▁prestig	-11.3193
▁pearl	-11.3193
▁decorat	-11.3194
▁harper	-11.3195
tolerance	-11.3198
under	-11.3198
▁junk	-11.32
▁romance	-11.3204
▁wright	-11.3213
▁distribut	-11.3217
face	-11.3218
▁conf	-11.3227
▁lar	-11.3228
▁tent	-11.323
▁laughing	-11.3234
eur	-11.3248
vit	-11.3251
raging	-11.3262
▁transparen	-11.3265
▁arc	-11.3265
world	-11.3265
▁elevat	-11.3271
▁recess	-11.3271
▁motive	-11.3272
▁basket	-11.3275
▁conven	-11.3275
accompanied	-11.3276
▁conglomerate	-11.3276
▁kidnapped	-11.3276
▁stupid	-11.3276
▁hannity	-11.3276
▁switzer	-11.3276
▁balloon	-11.3276
▁annotat	-11.3276
▁acclaim	-11.3276
▁defy	-11.3276
▁vacanc	-11.3277
▁radar	-11.3277
▁uncertain	-11.328
▁saga	-11.3284
▁promotion	-11.3291
▁86	-11.3303
manda	-11.3303
olo	-11.3309
▁memorabl	-11.3313
▁wrap	-11.3322
ida	-11.3325
cock	-11.3329
▁wayne	-11.3329
▁lament	-11.3329
▁timeline	-11.3332
▁chu	-11.3337
▁furni	-11.3338
▁joan	-11.3338
bell	-11.334
▁casual	-11.3342
▁modi	-11.3344
▁scary	-11.3344
▁reign	-11.3346
girl	-11.3354
▁conspir	-11.3359
▁apprentice	-11.3359
▁syndrome	-11.3359
▁animated	-11.3359
▁gorilla	-11.3359
▁anxious	-11.3359
▁vocal	-11.3359
▁glut	-11.3359
▁lorett	-11.3359
▁dissent	-11.3359
▁trek	-11.3359
▁optimistic	-11.3361
▁portug	-11.3361
▁boil	-11.3368
▁pickup	-11.3377
▁sexism	-11.339
▁understood	-11.3407
▁hug	-11.3411
▁wip	-11.342
▁mah	-11.3431
cho	-11.3437
hin	-11.3438
genocide	-11.3443
▁blizzard	-11.3443
▁portfolio	-11.3443
▁swirl	-11.3443
▁manuel	-11.3443
owitz	-11.3443
▁comply	-11.3443
▁confederate	-11.3443
▁registration	-11.3444
heroes	-11.3444
▁summon	-11.3444
▁betray	-11.3444
▁legitimate	-11.3445
▁vicious	-11.3445
▁swim	-11.3446
▁defiant	-11.3446
▁filmmaker	-11.3447
hel	-11.3451
▁retake	-11.3455
▁villain	-11.3458
neapoli	-11.346
35	-11.3461
▁repli	-11.3462
▁gentle	-11.3467
trak	-11.3471
▁cris	-11.3478
▁christin	-11.3479
titude	-11.3488
▁mild	-11.3489
▁irs	-11.3489
▁foe	-11.349
▁lev	-11.3493
▁mandat	-11.3502
▁inspire	-11.3504
lov	-11.3505
annie	-11.3509
▁eggs	-11.3511
acres	-11.3516
▁farc	-11.3521
▁submitt	-11.3522
▁autonomous	-11.3528
▁ritual	-11.3528
▁shakespeare	-11.3528
▁spectacle	-11.3528
▁tobacco	-11.3528
▁bruis	-11.3528
▁enhanc	-11.3529
▁superstar	-11.353
▁skipp	-11.353
▁flagship	-11.353
▁verge	-11.3532
▁defects	-11.3532
▁brock	-11.3533
▁inspiration	-11.3535
lift	-11.3535
▁principles	-11.3535
▁truce	-11.354
bc	-11.3543
▁por	-11.3546
heur	-11.3561
▁persuade	-11.3577
▁backer	-11.3577
▁180	-11.3579
▁900	-11.3581
▁enforce	-11.3586
▁hardline	-11.3586
eased	-11.3592
▁champ	-11.3611
▁athletic	-11.3613
▁dynamic	-11.3613
▁reservation	-11.3613
▁hijack	-11.3613
▁pardon	-11.3615
▁franco	-11.3615
curry	-11.3616
▁scotus	-11.3617
▁haul	-11.3618
▁triple	-11.362
▁weakness	-11.362
▁obsession	-11.3621
▁quo	-11.3621
▁boring	-11.3622
▁mobil	-11.3624
cover	-11.3624
▁critically	-11.3626
▁philand	-11.3626
▁dana	-11.3628
▁donat	-11.3644
▁penalt	-11.365
▁grind	-11.3655
▁lauren	-11.3656
▁thriller	-11.3665
dc	-11.3665
▁afterward	-11.3676
▁specialist	-11.3684
▁rag	-11.3684
▁combine	-11.3694
▁adapt	-11.3697
▁astronomer	-11.3699
▁cautious	-11.3699
▁constituent	-11.3699
▁disastrous	-11.3699
▁dishonest	-11.3699
▁ingredient	-11.3699
▁hoax	-11.3699
▁tinder	-11.3699
idaho	-11.37
▁jab	-11.3702
▁possession	-11.3703
▁taco	-11.3707
beat	-11.3707
▁atmosphere	-11.3712
fk	-11.3716
▁pollster	-11.3722
▁birds	-11.3725
▁basement	-11.3727
▁shouting	-11.3728
▁brace	-11.3729
▁sala	-11.3739
▁chic	-11.3741
▁grey	-11.3744
style	-11.3744
▁gala	-11.375
▁entitl	-11.3757
ken	-11.3758
▁pric	-11.3761
▁outgoing	-11.3762
▁inbox	-11.3779
▁1994	-11.3786
▁berkshire	-11.3786
▁definition	-11.3786
▁dinosaur	-11.3786
▁hurdle	-11.3786
▁download	-11.3786
▁hocke	-11.3786
▁rift	-11.3787
▁otto	-11.3787
▁brink	-11.3787
▁exam	-11.3789
▁brick	-11.3791
▁steer	-11.3792
▁lemon	-11.3793
▁demonstrat	-11.3797
ingham	-11.3797
pm	-11.3797
▁lyric	-11.3806
▁fier	-11.3808
▁beliefs	-11.381
▁deserves	-11.3818
▁dj	-11.3825
illo	-11.3844
ito	-11.3845
bol	-11.3847
▁ob	-11.3855
▁construct	-11.3869
▁happi	-11.3872
▁collision	-11.3874
▁spectr	-11.3874
▁blond	-11.3874
▁emmy	-11.3875
▁sitcom	-11.3875
▁vague	-11.3875
▁blogger	-11.3876
▁layoff	-11.3877
▁financ	-11.3878
▁donor	-11.388
▁congo	-11.3884
▁soil	-11.3887
▁counselor	-11.389
▁yog	-11.3905
alph	-11.3905
▁murderer	-11.3906
▁polan	-11.3908
▁tempt	-11.3909
▁simpl	-11.3909
lf	-11.3911
rpool	-11.3916
▁screaming	-11.3922
▁yal	-11.3924
▁slaughter	-11.3926
▁colombian	-11.3926
▁achiev	-11.3946
▁characteriz	-11.3948
mine	-11.3953
▁63	-11.3953
▁excite	-11.3961
▁mutual	-11.3963
▁clause	-11.3963
▁assured	-11.3963
▁sacr	-11.3964
▁ignit	-11.3965
▁valid	-11.3965
▁bonus	-11.3967
▁cough	-11.3968
▁assertion	-11.3973
▁flipp	-11.3974
▁plow	-11.3974
rene	-11.3979
▁clay	-11.398
▁lur	-11.3982
▁pew	-11.3985
▁polariz	-11.3986
▁revel	-11.3989
▁uphold	-11.3993
lk	-11.3994
▁generate	-11.4002
▁compos	-11.4003
rief	-11.4003
lice	-11.4008
▁sony	-11.401
▁frame	-11.4016
worm	-11.4016
▁scramble	-11.4018
▁julia	-11.4023
pan	-11.4029
fried	-11.4035
law	-11.4038
rake	-11.4047
▁81	-11.4051
▁concession	-11.4052
▁elaborate	-11.4052
▁symptom	-11.4052
▁vegetable	-11.4052
▁revolt	-11.4052
▁regain	-11.4052
▁misdemeanor	-11.4052
▁supermarket	-11.4052
▁brows	-11.4053
▁maximum	-11.4053
▁aisle	-11.4054
▁elevator	-11.4057
▁improvement	-11.4063
ado	-11.4066
▁drum	-11.4066
▁ponder	-11.4068
zhe	-11.4069
weight	-11.4071
itter	-11.4073
eiro	-11.4076
▁shoe	-11.4078
▁brooks	-11.4091
▁digg	-11.4097
▁shutter	-11.4097
▁racially	-11.4099
▁130	-11.4105
▁emil	-11.4108
▁accelerat	-11.4115
▁fold	-11.4133
shaw	-11.4137
gui	-11.4138
▁1997	-11.4142
▁distress	-11.4142
▁electorate	-11.4142
▁kalanick	-11.4142
▁diabet	-11.4142
▁tumult	-11.4142
▁premise	-11.4142
▁morris	-11.4142
▁arrang	-11.4142
▁unpredictable	-11.4143
monica	-11.4144
▁shopper	-11.4145
▁reluctant	-11.4145
▁tsa	-11.4146
▁nap	-11.4148
say	-11.4154
▁liar	-11.4156
▁acceptance	-11.4156
▁chilling	-11.4159
version	-11.416
▁marry	-11.4161
hunt	-11.4168
▁niet	-11.4188
bank	-11.4196
▁compare	-11.4205
form	-11.4206
▁prep	-11.4229
zel	-11.4231
▁broadcaster	-11.4231
▁clarify	-11.4233
▁heartbreak	-11.4233
▁administrative	-11.4233
▁calendar	-11.4233
▁complication	-11.4233
▁nostalgi	-11.4233
▁screw	-11.4233
▁commence	-11.4233
▁rational	-11.4233
▁drain	-11.4233
▁subtle	-11.4233
▁overcome	-11.4233
▁brawl	-11.4233
▁moonlight	-11.4234
▁slate	-11.4234
▁summar	-11.4234
▁gunshot	-11.4236
▁reduction	-11.4239
▁bore	-11.4239
▁policymaker	-11.424
▁shov	-11.4241
▁noon	-11.4241
▁dara	-11.4241
▁reversal	-11.4242
▁190	-11.4245
▁karl	-11.425
mouth	-11.4259
▁cond	-11.4261
stream	-11.4265
▁outline	-11.4269
▁char	-11.427
▁startling	-11.4273
▁creep	-11.4274
▁cox	-11.4286
aud	-11.429
▁grande	-11.4293
▁corr	-11.43
▁belonging	-11.43
▁purported	-11.4301
▁garc	-11.4301
made	-11.4302
▁intercept	-11.4303
traction	-11.4304
▁colo	-11.4308
▁dann	-11.4309
▁bloom	-11.4324
▁emphasiz	-11.4324
▁horizon	-11.4324
▁astonishing	-11.4325
▁caesar	-11.4325
▁cemeter	-11.4325
▁equivalent	-11.4325
▁feminism	-11.4325
▁instrument	-11.4325
▁motorcycle	-11.4325
▁nebraska	-11.4325
▁reynolds	-11.4325
▁transplant	-11.4325
▁ideology	-11.4325
▁frighten	-11.4325
▁oppress	-11.4325
▁1950	-11.4327
▁adaptation	-11.4327
▁foul	-11.4328
▁alban	-11.4329
▁fred	-11.4329
▁cav	-11.4332
▁vari	-11.434
vil	-11.4345
▁rescu	-11.4351
▁notable	-11.4355
▁cargo	-11.4356
burn	-11.4358
ambi	-11.4365
▁simone	-11.4368
▁doc	-11.4378
obe	-11.4387
▁mode	-11.4397
▁interpret	-11.4415
▁tremendous	-11.4417
▁emoji	-11.4417
▁escort	-11.4417
▁joaqu	-11.4417
▁pedestrian	-11.4417
▁vatican	-11.4417
▁suppress	-11.4417
▁monkey	-11.4417
▁abolish	-11.4417
▁provok	-11.4417
▁fiori	-11.4417
▁reunit	-11.4417
▁array	-11.4418
▁dashboard	-11.4418
▁bailout	-11.442
▁toppl	-11.4421
walk	-11.4425
▁meyer	-11.4434
▁spurr	-11.4435
70	-11.4443
▁km	-11.4448
▁dose	-11.4449
▁pause	-11.4449
▁karen	-11.445
▁reviv	-11.4453
▁lisa	-11.4457
feld	-11.4461
▁timo	-11.4462
▁immun	-11.4468
▁pil	-11.4471
▁trio	-11.4472
kov	-11.4476
▁lending	-11.4481
▁breed	-11.4482
▁marches	-11.4484
▁freed	-11.4503
▁inflat	-11.4507
kel	-11.4508
▁accommodat	-11.4511
▁obstacle	-11.4511
▁buffalo	-11.4511
▁census	-11.4511
▁gallery	-11.4511
▁nicole	-11.4511
▁painkiller	-11.4511
▁sioux	-11.4511
▁outdoor	-11.4511
▁facult	-11.4511
▁stroll	-11.4513
▁cement	-11.4513
▁rotation	-11.4514
▁shootout	-11.4516
▁trait	-11.4516
mbo	-11.4518
▁refin	-11.452
▁rash	-11.4522
▁doubled	-11.4524
▁gil	-11.4527
unich	-11.4534
▁moin	-11.4543
▁overturned	-11.4547
writer	-11.4547
making	-11.4547
piece	-11.4547
security	-11.4548
▁kan	-11.4548
mpassion	-11.455
rank	-11.4553
▁grad	-11.4554
▁dorm	-11.4564
▁cowboys	-11.4564
▁performer	-11.4568
▁secured	-11.4569
▁align	-11.4574
▁keen	-11.4585
hook	-11.4586
▁amber	-11.4594
▁nordli	-11.4598
▁celeb	-11.4599
cade	-11.4599
▁capabilit	-11.4603
clusion	-11.4604
▁consolidat	-11.4605
▁engulf	-11.4605
▁exaggerat	-11.4605
▁database	-11.4605
▁enthusiasm	-11.4605
▁junior	-11.4605
▁occupy	-11.4605
▁porzingis	-11.4605
▁pulitzer	-11.4605
▁generous	-11.4605
▁squeez	-11.4605
▁excessive	-11.4606
▁migration	-11.4606
▁flurr	-11.4607
▁cannon	-11.4609
▁jackie	-11.4611
▁playlist	-11.4611
▁exhibition	-11.4611
▁wise	-11.4612
▁battlefield	-11.4612
▁hughes	-11.4615
▁formula	-11.4616
▁stack	-11.4618
▁160	-11.4619
▁nail	-11.4622
▁couch	-11.4622
▁dept	-11.4623
▁mali	-11.463
▁automatic	-11.4637
mmunity	-11.4646
▁bend	-11.4647
▁useful	-11.4649
▁advised	-11.4655
▁admitt	-11.4659
▁workout	-11.4661
▁pett	-11.4664
▁83	-11.4665
▁bobb	-11.4667
▁cole	-11.4698
▁ambush	-11.47
▁attribut	-11.47
▁capsule	-11.47
▁prevail	-11.47
▁defence	-11.47
▁dossier	-11.47
▁conscious	-11.47
manziel	-11.47
▁crystal	-11.47
▁millionaire	-11.47
qa	-11.4701
▁ipad	-11.4701
▁crook	-11.4701
▁witch	-11.4701
▁swath	-11.4702
class	-11.4702
▁preview	-11.4702
▁rodrigue	-11.4702
▁leban	-11.4702
ctic	-11.4703
▁revival	-11.4707
▁marcus	-11.4708
▁nerd	-11.4713
etti	-11.4721
▁ivor	-11.4726
nick	-11.4734
▁compromis	-11.4736
▁jami	-11.4744
roll	-11.4772
wol	-11.4779
▁engaging	-11.478
▁mara	-11.4781
▁hassan	-11.4787
▁scared	-11.4794
▁genuine	-11.4796
▁cocktail	-11.4796
▁miracle	-11.4796
▁provocative	-11.4796
▁roosevelt	-11.4796
▁contaminat	-11.4796
▁handgun	-11.4796
▁sprint	-11.4796
closed	-11.4796
▁exposure	-11.4797
▁destin	-11.4798
:20	-11.4798
▁slice	-11.4799
▁outrageous	-11.4802
▁glow	-11.4802
▁survival	-11.4814
▁roe	-11.4817
▁specializ	-11.482
▁cape	-11.482
▁enforc	-11.4823
▁nationalism	-11.4828
▁beard	-11.483
▁finaliz	-11.4834
▁objection	-11.4834
▁kor	-11.4835
hai	-11.4842
▁hollande	-11.4844
strom	-11.4845
watch	-11.4847
taking	-11.4848
▁demonstrate	-11.485
▁creepy	-11.485
▁saman	-11.4853
▁gore	-11.4856
▁reasonable	-11.4859
paid	-11.4861
▁starter	-11.487
comm	-11.4884
▁pivot	-11.4887
▁blank	-11.4892
▁1989	-11.4893
▁credential	-11.4893
▁emirate	-11.4893
▁recognition	-11.4893
▁thwart	-11.4893
▁rosenstein	-11.4893
▁closure	-11.4893
▁lindsey	-11.4893
▁mcmaster	-11.4894
▁persist	-11.4894
▁passionate	-11.4894
▁compelling	-11.4895
▁glove	-11.4896
▁hallowe	-11.4897
▁flock	-11.4898
▁andrea	-11.4899
einstein	-11.4906
▁outspoken	-11.4912
▁equally	-11.4912
▁neuro	-11.4915
▁menu	-11.4917
▁rosa	-11.4934
▁stemm	-11.4936
▁wyo	-11.4937
▁lecture	-11.4945
bier	-11.4945
wide	-11.4946
▁mur	-11.4948
costa	-11.4948
▁dirt	-11.4953
▁swap	-11.4954
▁programm	-11.4955
sai	-11.4957
▁entit	-11.4964
▁youngest	-11.4966
▁tel	-11.4978
▁escalate	-11.4978
▁loyalt	-11.4981
▁carol	-11.4985
wives	-11.499
▁fantastic	-11.4991
▁surreal	-11.4991
▁unravel	-11.4991
▁absent	-11.4991
▁marlins	-11.4992
▁empower	-11.4992
▁botch	-11.4994
▁loft	-11.4995
▁slur	-11.4995
▁dodge	-11.4998
▁earnest	-11.4998
▁prob	-11.5012
▁rapist	-11.5019
▁compensat	-11.5019
▁popul	-11.504
leigh	-11.5044
▁rave	-11.5045
american	-11.5048
guard	-11.505
elect	-11.5068
atic	-11.507
▁mario	-11.5078
▁1995	-11.509
▁component	-11.509
▁fractur	-11.509
▁homeowner	-11.509
▁reboot	-11.509
▁robust	-11.509
ular	-11.5091
▁nonsens	-11.5091
▁disappointment	-11.5092
▁neo	-11.5092
ankara	-11.5094
iger	-11.5094
▁depth	-11.5094
▁quake	-11.5094
▁clarit	-11.5095
▁amnes	-11.5096
▁excit	-11.5098
chang	-11.51
lessness	-11.5102
▁cruel	-11.5103
▁commuter	-11.5104
▁harrison	-11.5104
▁presid	-11.511
▁pakistani	-11.5114
▁gord	-11.5126
ula	-11.5134
▁properly	-11.5134
▁symbolic	-11.5137
▁nurs	-11.5147
▁91	-11.5164
▁nj	-11.5171
▁creditor	-11.5182
▁feat	-11.5188
▁unfolded	-11.5189
▁antibiotic	-11.519
▁courage	-11.519
▁incumbent	-11.519
▁jpmorgan	-11.519
▁kidnapping	-11.519
▁lieutenant	-11.519
▁mohammed	-11.519
▁proportion	-11.519
▁ukrainian	-11.519
▁cliff	-11.519
▁jungle	-11.519
▁federation	-11.519
▁instinct	-11.519
solicit	-11.5191
▁nathan	-11.5191
▁brewer	-11.5192
▁pupp	-11.5194
▁unfit	-11.5194
▁nether	-11.5195
▁betting	-11.5195
conceiv	-11.5197
▁injection	-11.5199
▁deployment	-11.52
▁arno	-11.5201
▁attendant	-11.5205
▁stern	-11.5205
▁merit	-11.5205
▁spare	-11.5206
piter	-11.5206
▁inning	-11.5207
▁candy	-11.5207
▁yate	-11.5211
▁transferr	-11.5218
▁seller	-11.5222
▁grapple	-11.5228
▁dau	-11.5234
▁dh	-11.5235
▁madri	-11.524
ilma	-11.524
▁rout	-11.5247
▁projection	-11.5253
▁allegation	-11.5261
▁rever	-11.5272
rica	-11.5274
▁fond	-11.5282
lio	-11.5286
randa	-11.5286
▁pipe	-11.5288
▁deplorable	-11.5291
▁municipal	-11.5291
▁murphy	-11.5291
▁recipient	-11.5291
▁glory	-11.5291
▁qualify	-11.5292
▁defamation	-11.5292
▁precedent	-11.5292
▁snake	-11.5292
▁liberti	-11.5292
▁autops	-11.5294
▁slowdown	-11.5294
▁satir	-11.5296
nintend	-11.5296
▁upgrade	-11.5297
▁tenant	-11.5299
▁conservation	-11.5299
▁roil	-11.53
▁hay	-11.5301
▁cope	-11.5304
corp	-11.532
▁cart	-11.5331
▁shy	-11.5335
zu	-11.5337
▁examiner	-11.5344
▁heighten	-11.5353
▁lil	-11.5354
ough	-11.5356
aki	-11.5359
foot	-11.5362
▁grain	-11.537
rap	-11.5374
▁loser	-11.5375
▁yard	-11.5375
▁nast	-11.5378
▁mocking	-11.5389
▁rancher	-11.539
▁affluen	-11.5393
▁catastrophe	-11.5393
▁grandfather	-11.5393
▁intimate	-11.5393
▁plaintiff	-11.5393
▁classmate	-11.5393
▁redskins	-11.5393
▁bronco	-11.5393
▁tribal	-11.5394
▁lawrence	-11.5394
▁render	-11.5394
▁chunk	-11.5394
▁rabbi	-11.5394
▁password	-11.5394
▁thread	-11.5395
▁jefferson	-11.5396
▁enduring	-11.5399
▁wander	-11.5401
▁buff	-11.5402
▁confine	-11.5404
cap	-11.5405
▁luis	-11.541
▁cre	-11.5418
▁figur	-11.5424
▁recaptur	-11.5431
▁feli	-11.5456
▁110	-11.5458
free	-11.5459
▁tide	-11.5469
▁dealt	-11.5481
▁vest	-11.5485
▁undis	-11.5487
▁jenn	-11.5488
▁impress	-11.5488
▁genev	-11.5489
▁pale	-11.5492
▁critique	-11.5497
▁headphone	-11.5497
▁genital	-11.5497
▁plug	-11.5497
▁sibling	-11.5497
▁inherit	-11.5497
▁compil	-11.5497
▁blanket	-11.5499
▁boris	-11.55
▁northeastern	-11.55
▁scrapp	-11.5504
▁condemnation	-11.5505
▁scope	-11.5506
▁dishe	-11.5508
▁playbo	-11.551
▁darkness	-11.551
▁filter	-11.5512
▁obscure	-11.5517
▁penis	-11.5523
▁shade	-11.5526
acek	-11.5527
▁subsid	-11.5528
fill	-11.5544
▁justify	-11.5547
ugh	-11.5547
▁offset	-11.5548
▁contribute	-11.555
▁ellis	-11.5552
▁forceful	-11.5556
▁soften	-11.5564
▁heir	-11.5565
▁enable	-11.5566
▁sail	-11.5569
▁populis	-11.5572
ruff	-11.5574
▁bankrupt	-11.56
▁catastrophic	-11.5601
▁jamaica	-11.5601
▁paralyz	-11.5601
▁pneumonia	-11.5601
▁sophisticat	-11.5601
▁turbulen	-11.5601
▁valuation	-11.5601
▁dairy	-11.5601
versu	-11.5601
▁foxnews	-11.5601
▁carlos	-11.5603
▁swipe	-11.5604
▁loving	-11.5606
▁wav	-11.5607
▁kenne	-11.5611
▁heft	-11.5612
▁71	-11.5614
ubai	-11.5635
▁norman	-11.5641
nik	-11.5642
▁bern	-11.5644
ograph	-11.5651
▁prescrib	-11.5652
▁naturally	-11.5652
▁hostilit	-11.5659
▁cookie	-11.5664
standing	-11.5668
exist	-11.5673
raught	-11.5676
friend	-11.568
▁prom	-11.5684
▁speculat	-11.5701
▁evacuat	-11.5706
▁circus	-11.5706
▁hijab	-11.5706
▁precinct	-11.5706
▁relentless	-11.5706
▁surpass	-11.5706
▁relocat	-11.5706
▁scratch	-11.5706
▁singapore	-11.5706
▁beverage	-11.5706
▁spree	-11.5706
▁perceiv	-11.5706
▁intensifie	-11.5706
▁patron	-11.5708
▁psychological	-11.5709
trial	-11.571
▁disagreement	-11.5713
▁serena	-11.5713
▁secur	-11.5717
▁nord	-11.5719
pec	-11.5719
▁interaction	-11.5722
▁contributor	-11.5726
▁fictional	-11.573
▁appreciate	-11.5741
▁newborn	-11.5743
▁stockhol	-11.5749
▁pai	-11.5764
▁corpse	-11.5764
hole	-11.5782
▁pave	-11.5786
▁parish	-11.5786
▁contradict	-11.5789
▁pav	-11.5791
▁walt	-11.5791
▁firearm	-11.5793
▁tackl	-11.5794
word	-11.5796
▁activis	-11.5798
▁slot	-11.5799
▁solv	-11.5802
▁evacuate	-11.5804
▁ginsburg	-11.5812
▁aggravat	-11.5812
▁default	-11.5812
▁despair	-11.5812
▁enrique	-11.5812
▁bishop	-11.5812
▁qaeda	-11.5812
▁spiral	-11.5812
▁estrang	-11.5812
▁freddie	-11.5813
▁headache	-11.5813
▁pornograph	-11.5813
▁android	-11.5813
▁regulate	-11.5813
▁commut	-11.5821
▁dip	-11.5825
ybody	-11.5825
semit	-11.5832
azi	-11.5836
▁mack	-11.5838
donaldtrump	-11.584
▁billboard	-11.5843
▁oss	-11.5843
▁bud	-11.5844
▁nigerian	-11.5847
▁novelist	-11.5854
▁brass	-11.5855
▁sanch	-11.5859
ulsa	-11.5876
▁riders	-11.5881
imer	-11.5884
tel	-11.5891
wich	-11.5898
lot	-11.5899
▁glen	-11.5903
tech	-11.5904
white	-11.5904
▁plat	-11.5906
igan	-11.5911
▁inject	-11.5911
▁hav	-11.5913
▁enroll	-11.5917
▁griev	-11.5918
▁correspond	-11.5919
▁1992	-11.592
▁acquitt	-11.592
▁melbourn	-11.592
▁meteor	-11.592
▁crusade	-11.592
▁hatred	-11.5921
▁obligation	-11.5921
▁gymnastic	-11.5922
dominant	-11.5922
▁renew	-11.5925
▁alexandria	-11.5926
▁slapp	-11.5926
▁emma	-11.5928
▁installment	-11.5929
▁doug	-11.5929
▁awaken	-11.5932
nage	-11.5932
fin	-11.594
▁begg	-11.5941
▁directive	-11.5942
▁trooper	-11.5944
▁siri	-11.5944
▁mour	-11.5948
▁pie	-11.5954
iq	-11.5968
▁oz	-11.597
▁separat	-11.5972
▁gregor	-11.5973
frey	-11.5981
▁flagg	-11.5984
▁rust	-11.5997
▁glad	-11.601
▁embarrass	-11.6014
regulat	-11.6028
▁midwest	-11.6028
▁algorithm	-11.6029
▁ethiopia	-11.6029
▁retweet	-11.6029
▁tissue	-11.6029
▁podium	-11.6029
▁skull	-11.6029
▁austria	-11.6029
▁gesture	-11.6029
▁twenty	-11.6029
▁fertil	-11.6029
▁contrar	-11.6029
▁kyle	-11.603
▁persistent	-11.603
▁ackman	-11.603
▁sunny	-11.6031
▁detonat	-11.6032
▁reliabl	-11.6032
▁aspir	-11.6034
▁instructor	-11.6036
▁lamar	-11.6036
▁townhouse	-11.6037
▁qual	-11.6044
▁ethical	-11.6044
▁instruction	-11.6045
pedes	-11.6047
▁serge	-11.6051
▁donate	-11.6052
▁jaw	-11.6061
inho	-11.6063
▁93	-11.6063
▁lining	-11.6067
40	-11.607
▁waiver	-11.6076
▁yea	-11.6079
skirts	-11.608
▁composer	-11.6084
▁proven	-11.6087
wig	-11.6089
distribution	-11.6092
macy	-11.61
▁dutie	-11.6115
▁commute	-11.6115
▁tumble	-11.6121
▁terrifi	-11.6134
▁voluntar	-11.6138
▁alligator	-11.6138
▁convincing	-11.6138
▁credibility	-11.6138
▁crippl	-11.6138
▁griffin	-11.6138
▁buoy	-11.6138
▁exclud	-11.6138
▁chrys	-11.6139
▁bureaucrat	-11.6139
▁savage	-11.6139
▁warplane	-11.6139
▁huffing	-11.6139
▁renewable	-11.6143
▁prank	-11.6143
▁preach	-11.6144
▁goldberg	-11.6148
▁pirate	-11.615
▁preserv	-11.616
▁organic	-11.6161
lux	-11.6164
lago	-11.6165
▁secretive	-11.6168
▁courthouse	-11.6169
▁clapp	-11.6173
▁merri	-11.6175
▁lex	-11.6178
▁rad	-11.6189
▁vulnerabilit	-11.6189
▁fist	-11.6201
▁bile	-11.6205
▁approache	-11.6206
elli	-11.6209
▁cage	-11.6221
▁nun	-11.6231
justice	-11.6245
health	-11.6245
▁intervene	-11.6249
▁1993	-11.625
▁contemplat	-11.625
▁dilemma	-11.625
▁juvenile	-11.625
▁huddl	-11.625
▁backdrop	-11.625
▁embark	-11.625
▁flick	-11.6251
▁payroll	-11.6253
▁lump	-11.6256
▁disappearance	-11.6257
▁invad	-11.6269
itt	-11.6273
▁fastest	-11.6277
▁yank	-11.6282
▁pea	-11.6283
▁malaysian	-11.6289
▁eater	-11.6305
ntage	-11.6317
▁reap	-11.6318
▁mora	-11.6322
▁92	-11.6331
▁kara	-11.6333
hara	-11.6343
▁jeopard	-11.6344
▁guitar	-11.6359
▁fugitive	-11.6362
▁railroad	-11.6362
▁staggering	-11.6362
▁subscription	-11.6362
▁supplement	-11.6362
▁arrangement	-11.6362
▁revamp	-11.6362
▁cardinal	-11.6362
▁gradual	-11.6362
▁scatter	-11.6362
▁mohamed	-11.6362
▁tentative	-11.6362
▁issuing	-11.6363
▁rican	-11.6363
▁revok	-11.6363
nmark	-11.6366
▁collaboration	-11.6368
▁lucie	-11.6384
▁humble	-11.6386
arrett	-11.6391
▁logo	-11.6392
▁buyout	-11.6392
▁contend	-11.6393
▁proper	-11.6395
▁wats	-11.6397
▁predictable	-11.6399
80	-11.6415
core	-11.6435
▁rouse	-11.645
stock	-11.6451
▁fury	-11.6454
▁economi	-11.6464
▁sunni	-11.6464
▁tuck	-11.6466
▁overwhelm	-11.647
▁corbyn	-11.6476
▁overshadow	-11.6476
▁raucous	-11.6476
▁salvador	-11.6476
▁vulgar	-11.6476
▁mastermind	-11.6476
▁bogus	-11.6476
▁baffl	-11.6476
▁klein	-11.6476
▁delicious	-11.6476
▁epipen	-11.6476
▁freezing	-11.6476
▁meltdown	-11.6476
▁jesse	-11.6476
▁smear	-11.6476
▁seizure	-11.6477
▁bride	-11.6478
▁lavish	-11.6478
▁passport	-11.6478
▁boko	-11.648
vasive	-11.6481
▁digest	-11.6483
▁pageant	-11.6488
,	-11.6488
▁stereotype	-11.649
unde	-11.6495
▁facto	-11.6495
▁peril	-11.6495
▁fallow	-11.6497
▁jenner	-11.6499
▁exceptional	-11.6502
▁chile	-11.6504
▁destroyer	-11.6505
ami	-11.6509
▁cooperate	-11.6511
▁perk	-11.6519
▁checkpoint	-11.6522
kill	-11.6525
▁capabl	-11.6526
▁wow	-11.6527
▁hurl	-11.6539
▁tablet	-11.6545
▁wasser	-11.6546
iffe	-11.6554
eparation	-11.6554
sapp	-11.6563
ception	-11.6564
▁mud	-11.6566
▁endur	-11.657
▁notabl	-11.6572
▁pier	-11.6579
▁controversi	-11.658
miss	-11.6588
mccrory	-11.6591
▁fraternit	-11.6591
▁holmes	-11.6591
▁maneuver	-11.6591
▁flavor	-11.6591
▁oxford	-11.6591
▁gown	-11.6591
▁grasp	-11.6591
▁elliott	-11.6591
▁parole	-11.6591
▁interstate	-11.6592
▁dodg	-11.6594
▁civilization	-11.6598
ahl	-11.6598
▁spear	-11.6599
▁cabin	-11.66
▁lauder	-11.6606
▁crisp	-11.6608
hat	-11.6616
wash	-11.6618
▁reinforc	-11.6619
irut	-11.6621
▁divest	-11.6623
▁pete	-11.663
▁frenz	-11.6634
▁layer	-11.6637
atomic	-11.6642
▁queer	-11.6645
▁lang	-11.6652
ello	-11.6657
llc	-11.667
▁pep	-11.6672
▁matches	-11.6676
▁pharma	-11.6682
mash	-11.6691
note	-11.6698
boro	-11.67
▁terminat	-11.6703
▁undermin	-11.6704
▁1984	-11.6707
▁improper	-11.6707
▁lucrative	-11.6707
▁mathematic	-11.6707
▁montgomer	-11.6707
▁penguin	-11.6707
▁potato	-11.6707
▁scathing	-11.6707
▁stimulus	-11.6707
▁gossip	-11.6707
▁kkk	-11.6707
▁adele	-11.6708
▁stalk	-11.6708
▁happiness	-11.6709
▁debri	-11.671
bok	-11.6711
▁poetry	-11.6711
croft	-11.6711
▁appointee	-11.6712
▁haram	-11.6712
▁playground	-11.6713
▁isolation	-11.6716
▁semi	-11.6717
▁roar	-11.6718
▁underwater	-11.6718
ulva	-11.6723
▁accuser	-11.6725
turk	-11.6725
related	-11.6725
anita	-11.6728
▁knight	-11.6731
▁choke	-11.6742
▁romania	-11.6744
nice	-11.6745
▁sund	-11.6747
▁soap	-11.6755
pinning	-11.6759
tino	-11.6772
▁disabilit	-11.6773
▁enthusiastic	-11.6776
bag	-11.6784
▁libyan	-11.6784
▁monte	-11.6788
▁98	-11.6805
▁flie	-11.6818
▁collaborat	-11.6819
▁endure	-11.682
▁grateful	-11.6824
▁horrifying	-11.6824
▁lloyd	-11.6824
▁rethink	-11.6824
▁sufficient	-11.6824
▁remake	-11.6824
▁snyder	-11.6824
▁landlord	-11.6824
▁gaffe	-11.6825
▁heaven	-11.6825
odell	-11.6825
▁shelve	-11.6826
▁brac	-11.6829
▁sydne	-11.6829
▁ethan	-11.683
▁greenhouse	-11.6831
proving	-11.6833
▁dismantl	-11.684
▁calorie	-11.6841
▁juice	-11.6843
▁hyper	-11.6844
▁presentation	-11.6844
action	-11.6845
▁batch	-11.6847
▁capp	-11.685
▁upside	-11.685
▁peru	-11.6854
agne	-11.6866
▁tamp	-11.6867
media	-11.6869
▁chopp	-11.687
▁geo	-11.687
▁goat	-11.688
▁laz	-11.688
▁finest	-11.6883
▁wipe	-11.6898
▁expos	-11.6904
▁somali	-11.6905
▁magical	-11.6908
▁tun	-11.6914
▁digit	-11.6922
▁breathe	-11.6923
▁raz	-11.6937
flop	-11.6939
▁allegiance	-11.6944
▁eclips	-11.6944
▁fitzpatrick	-11.6944
▁indefinite	-11.6944
▁murdoch	-11.6944
▁thomson	-11.6944
▁drastic	-11.6944
▁ebola	-11.6944
▁stockpile	-11.6944
▁vogue	-11.6944
▁simmon	-11.6944
▁hazard	-11.6945
▁atrocit	-11.6945
▁showcase	-11.6947
▁mitchell	-11.6947
▁grid	-11.6948
▁denton	-11.6949
▁negotiate	-11.695
▁blur	-11.695
▁dire	-11.6953
▁wrongdo	-11.6955
▁reassure	-11.6956
brook	-11.6964
▁dub	-11.6969
▁115	-11.6972
▁97	-11.6973
plex	-11.7008
▁commun	-11.7017
▁reinstate	-11.7017
▁slid	-11.7017
▁aero	-11.7022
▁unsettl	-11.7034
▁thug	-11.7048
▁resolv	-11.7049
▁holt	-11.7055
tact	-11.7057
▁clinical	-11.7061
▁cyberattack	-11.7064
▁debunk	-11.7064
▁exploding	-11.7064
▁incorrect	-11.7064
▁injunction	-11.7064
▁brazen	-11.7064
▁gianf	-11.7064
▁shrug	-11.7064
▁ahmad	-11.7064
▁awesome	-11.7064
▁reiterat	-11.7064
▁distant	-11.7064
▁snatch	-11.7064
▁spouse	-11.7064
▁tariff	-11.7064
▁consist	-11.7065
▁sneak	-11.7065
▁probation	-11.7067
▁offseason	-11.7069
▁fanc	-11.707
▁attractive	-11.7072
▁stumbl	-11.7076
onnie	-11.708
▁upstate	-11.7092
▁dement	-11.7097
▁gul	-11.7103
▁96	-11.7103
ault	-11.7104
▁dismissal	-11.7105
▁recuse	-11.7106
▁kis	-11.7111
▁batt	-11.7113
▁usher	-11.7115
month	-11.7126
eastern	-11.7129
▁disability	-11.713
▁goper	-11.7132
▁grin	-11.7134
▁frankl	-11.7143
▁cub	-11.7146
erald	-11.7154
credible	-11.7159
▁hungr	-11.7163
▁lamb	-11.7175
▁bounce	-11.7176
▁buckle	-11.7181
▁applaud	-11.7186
▁convenience	-11.7186
▁culminat	-11.7186
▁dialogue	-11.7186
▁revisit	-11.7186
▁swallow	-11.7186
▁burglar	-11.7186
▁toyota	-11.7186
▁thumb	-11.7186
▁intimidati	-11.7186
▁backpack	-11.7186
▁dolphin	-11.7186
▁wield	-11.7186
▁alicia	-11.7186
▁glance	-11.7186
▁quant	-11.7186
▁heavyweight	-11.7187
▁snack	-11.7188
▁trainer	-11.719
▁davo	-11.7191
▁reache	-11.7192
▁reception	-11.7195
rano	-11.7201
ulter	-11.7202
▁gard	-11.7203
▁crashe	-11.7203
13	-11.7209
▁nike	-11.7216
▁rode	-11.7219
▁accelerate	-11.7222
▁fianc	-11.7223
▁demi	-11.7233
▁legion	-11.7237
leaguer	-11.7246
fish	-11.7251
imi	-11.7258
ttle	-11.7262
scale	-11.7266
▁accusation	-11.7268
▁dock	-11.7281
▁lure	-11.7283
12	-11.7303
▁steadi	-11.7307
▁abdul	-11.7309
▁delicate	-11.7309
▁magnitude	-11.7309
▁microcephal	-11.7309
▁neglect	-11.7309
▁recreational	-11.7309
▁transmission	-11.7309
▁whistleblower	-11.7309
▁gonzal	-11.7309
▁roommate	-11.7309
▁bystander	-11.7309
▁uproar	-11.7309
▁gorka	-11.7309
▁pleasure	-11.7309
▁ahmed	-11.731
▁definitive	-11.731
▁covet	-11.731
▁roast	-11.731
▁backyard	-11.731
▁bleeding	-11.731
▁songwriter	-11.731
shiba	-11.7311
▁sergeant	-11.7311
▁lightning	-11.7313
▁exploration	-11.7314
▁alec	-11.7316
▁pivotal	-11.7318
▁coward	-11.732
▁psycho	-11.7321
▁distraction	-11.7324
▁coral	-11.7333
screen	-11.7343
▁puz	-11.735
▁incit	-11.7353
▁guru	-11.7353
▁vegan	-11.7355
▁burr	-11.736
▁guaranteed	-11.7367
ullah	-11.7371
▁subsidi	-11.7373
▁deli	-11.7375
anmar	-11.7377
▁hb	-11.7377
kip	-11.7381
▁offend	-11.7382
▁equit	-11.7384
▁execute	-11.7403
▁julie	-11.7425
lander	-11.7426
▁gab	-11.7427
▁navigat	-11.7428
tille	-11.7433
▁shinz	-11.7433
▁companion	-11.7434
▁dysfunction	-11.7434
▁enclave	-11.7434
▁gorgeous	-11.7434
▁natalie	-11.7434
▁protocol	-11.7434
▁restructuring	-11.7434
munition	-11.7434
▁dignity	-11.7434
▁bulk	-11.7434
▁bleak	-11.7435
▁charitabl	-11.7435
▁accent	-11.7435
▁brenna	-11.7435
▁scour	-11.7435
oxide	-11.7436
▁farmer	-11.7437
▁hick	-11.7438
fell	-11.7438
▁laborator	-11.7439
▁bucket	-11.7439
▁deliberation	-11.7441
▁fringe	-11.7441
▁advise	-11.7442
▁taka	-11.7443
▁iceland	-11.7448
▁dude	-11.7451
turn	-11.7451
▁sacrifice	-11.7452
▁upbeat	-11.7454
cular	-11.7456
▁insane	-11.7457
▁fitting	-11.7461
▁linda	-11.7471
hop	-11.7483
▁reflection	-11.7489
▁brandon	-11.7491
▁trap	-11.7495
▁tenn	-11.7521
▁270	-11.7529
▁fade	-11.7533
nytime	-11.7548
▁palmer	-11.7548
▁strategi	-11.755
▁hysteri	-11.7561
▁conscience	-11.7561
▁delegation	-11.7561
▁metaphor	-11.7561
▁riyad	-11.7561
▁mishandl	-11.7561
▁incentive	-11.7561
▁cotton	-11.7561
▁shiite	-11.7562
▁spat	-11.7564
▁helmet	-11.7564
▁cartel	-11.7568
▁honey	-11.7572
▁litter	-11.7572
▁ivy	-11.7573
▁batteries	-11.7573
▁mercur	-11.7575
game	-11.7577
▁merge	-11.7579
▁santi	-11.758
ctive	-11.7584
▁minn	-11.7603
▁warrior	-11.7606
▁levi	-11.761
vich	-11.7622
▁clem	-11.7624
agging	-11.7631
▁unfairly	-11.7649
▁indexe	-11.7651
▁dancer	-11.7656
▁glori	-11.7663
▁diagnosi	-11.7664
▁denounce	-11.7671
▁educat	-11.7673
▁bagg	-11.7678
▁gutt	-11.7678
▁wiretap	-11.7685
refore	-11.7688
▁sew	-11.7688
▁applicant	-11.7689
▁debacle	-11.7689
▁sympathy	-11.7689
▁tycoon	-11.7689
▁caliph	-11.7689
▁crumbl	-11.7689
▁reckon	-11.7689
▁frog	-11.7689
▁pepsi	-11.769
▁verbal	-11.769
▁rudy	-11.769
:40	-11.769
▁perception	-11.7691
▁peek	-11.7692
▁introduction	-11.7692
▁frantic	-11.7692
▁imagination	-11.7694
▁stiff	-11.7694
▁assignment	-11.7695
▁125	-11.7697
▁matchup	-11.7697
▁simultaneously	-11.7699
▁outstanding	-11.7706
▁takeaway	-11.7706
▁initiat	-11.771
augh	-11.771
▁klan	-11.7711
▁rear	-11.7713
code	-11.7714
▁dislik	-11.7716
▁rubber	-11.7719
▁dense	-11.772
▁limb	-11.772
▁mint	-11.7721
▁ego	-11.7722
▁cite	-11.7724
▁mcad	-11.7724
▁gill	-11.7727
▁boxe	-11.7732
▁dismay	-11.7736
▁temper	-11.7738
fax	-11.7747
diana	-11.7749
▁insect	-11.7753
▁toast	-11.7757
0,000	-11.776
▁stree	-11.7764
▁enabl	-11.7772
▁applie	-11.7776
anity	-11.7777
▁container	-11.78
goers	-11.7805
▁stumble	-11.7806
▁incompeten	-11.7819
▁1968	-11.7819
▁accompany	-11.7819
▁appetite	-11.7819
▁authentic	-11.7819
▁eleven	-11.7819
▁excerpt	-11.7819
▁impromptu	-11.7819
▁invisible	-11.7819
▁reconsider	-11.7819
▁solidarity	-11.7819
▁zombie	-11.7819
▁catalog	-11.7819
▁manifest	-11.7819
▁taunt	-11.7819
▁gambia	-11.7819
▁kurd	-11.782
▁blitz	-11.782
corn	-11.782
▁propell	-11.7822
▁defund	-11.7823
▁ashley	-11.7823
▁coincid	-11.7824
▁wilbur	-11.7825
▁lynn	-11.7826
▁cancelled	-11.7826
▁accomplishment	-11.7826
▁devil	-11.7827
▁laud	-11.783
▁motorist	-11.7835
▁transparent	-11.7836
▁gambl	-11.7848
▁gent	-11.7853
▁maher	-11.7864
fiat	-11.7871
fund	-11.7874
hoot	-11.7875
▁diner	-11.7877
▁espi	-11.7878
▁committ	-11.7878
▁hype	-11.7886
graph	-11.7903
▁yan	-11.7908
fein	-11.7921
▁debat	-11.7931
▁listener	-11.794
▁distinct	-11.7942
▁excess	-11.7949
▁compel	-11.795
▁1979	-11.7951
▁1986	-11.7951
▁adversar	-11.7951
▁applause	-11.7951
▁cathedral	-11.7951
▁dystopia	-11.7951
▁hypocris	-11.7951
▁rescind	-11.7951
▁tuition	-11.7951
▁samuel	-11.7951
▁aetna	-11.7952
▁lodg	-11.7954
▁unacceptable	-11.7954
▁craze	-11.7954
▁dipp	-11.7955
▁canyon	-11.7955
lihood	-11.7955
▁murk	-11.7957
▁gat	-11.7957
vist	-11.7958
▁correctness	-11.7959
▁simulat	-11.796
▁frontier	-11.7966
▁bidder	-11.7966
▁coh	-11.7969
▁curve	-11.797
▁swarm	-11.7972
▁briton	-11.7973
▁formation	-11.7976
▁underscore	-11.7995
▁temp	-11.7995
wwe	-11.7997
nderga	-11.8001
torial	-11.8006
▁assassinat	-11.8009
▁clearance	-11.8013
▁albe	-11.8013
▁bout	-11.8026
▁kni	-11.8027
▁bark	-11.8033
▁fend	-11.8038
▁entr	-11.8049
▁tendenc	-11.8058
▁caf	-11.8063
nova	-11.8077
▁101	-11.8078
▁hugh	-11.8079
▁ridicul	-11.8083
▁dispos	-11.8083
▁efficient	-11.8084
▁hilarious	-11.8084
▁baptist	-11.8084
▁barclay	-11.8084
▁blueprint	-11.8084
▁sebasti	-11.8084
▁temperament	-11.8084
▁thrust	-11.8084
▁disapprov	-11.8084
▁mortal	-11.8084
▁outreach	-11.8084
▁litigati	-11.8085
▁erect	-11.8088
▁enrollment	-11.8088
▁reconcili	-11.8088
▁blend	-11.8091
favorable	-11.8094
▁torch	-11.8094
▁escalation	-11.8098
▁graduat	-11.8101
▁negotiator	-11.8109
▁linkedin	-11.8118
brew	-11.8125
▁outcr	-11.8133
▁marie	-11.8134
▁salad	-11.8136
▁mug	-11.8143
▁beatle	-11.8145
▁purge	-11.8149
together	-11.8149
sleep	-11.8155
▁copie	-11.8158
▁hik	-11.8172
▁alienat	-11.8174
▁rug	-11.8178
▁puzzle	-11.8207
▁bahrain	-11.8219
▁boulevard	-11.8219
▁diminish	-11.8219
▁intersection	-11.8219
▁microphone	-11.8219
▁necessit	-11.8219
▁stubborn	-11.8219
▁deteriorat	-11.8219
▁phillip	-11.8219
▁pistol	-11.8219
▁tweak	-11.8219
▁clerk	-11.8219
▁fetal	-11.8219
▁embryo	-11.8219
▁clever	-11.8219
▁derby	-11.8219
▁determination	-11.822
▁lgbtq	-11.8221
▁prosperity	-11.8221
▁ariz	-11.8221
▁launder	-11.8222
▁interpretation	-11.8222
▁reclaim	-11.8224
▁huck	-11.8225
▁barrage	-11.8227
▁watergate	-11.8227
rigid	-11.8227
▁decree	-11.823
▁replica	-11.8236
▁decent	-11.8243
▁vault	-11.8243
▁vanity	-11.8243
▁gris	-11.8243
▁amend	-11.8249
▁twi	-11.8252
▁stephan	-11.8253
▁unify	-11.8256
▁warship	-11.8257
▁quiz	-11.8268
24	-11.827
▁collaps	-11.8274
pollo	-11.8279
▁xl	-11.828
▁torn	-11.8289
continent	-11.8289
hawk	-11.829
▁sank	-11.8296
copa	-11.8305
renzi	-11.8306
baba	-11.8309
witt	-11.8324
▁fram	-11.8331
stitution	-11.8343
▁expire	-11.8344
want	-11.8346
▁possess	-11.835
▁affirm	-11.8356
▁amateur	-11.8356
schmidt	-11.8356
▁ancestor	-11.8356
▁asteroid	-11.8356
▁autopilot	-11.8356
▁contempt	-11.8356
▁emanuel	-11.8356
▁evident	-11.8356
▁handcuff	-11.8356
▁lopez	-11.8356
▁persecut	-11.8356
▁prejudice	-11.8356
▁implant	-11.8356
▁insurgenc	-11.8356
▁leslie	-11.8356
▁hopkins	-11.8356
▁jolt	-11.8356
▁preschool	-11.8357
▁sulliv	-11.8357
▁cynic	-11.8357
went	-11.8357
▁incarceration	-11.8358
▁uneas	-11.8358
litary	-11.8358
▁jonah	-11.8358
▁slaying	-11.8359
▁observation	-11.8361
▁eugen	-11.8361
proxy	-11.8361
▁etc	-11.8361
▁psychologist	-11.8361
▁deadlock	-11.8362
▁navigate	-11.8365
▁logg	-11.837
▁nige	-11.8373
wald	-11.8378
ttering	-11.8382
▁cel	-11.839
position	-11.8392
▁homo	-11.8397
▁chole	-11.84
▁mason	-11.8402
▁lac	-11.841
▁eddie	-11.8412
kia	-11.842
▁gilmo	-11.8422
lept	-11.8423
▁thorn	-11.8423
▁hyp	-11.844
▁chew	-11.8441
▁riz	-11.8443
▁balanc	-11.8444
▁donna	-11.8457
▁350	-11.8459
pod	-11.8471
▁luci	-11.8474
▁ensu	-11.8483
iah	-11.8486
▁armor	-11.8489
▁robotic	-11.849
▁communicate	-11.8493
▁sneaker	-11.8494
▁apocalypse	-11.8495
▁embedd	-11.8495
▁envision	-11.8495
▁gadget	-11.8495
▁monarch	-11.8495
▁neighbour	-11.8495
▁patriarch	-11.8495
▁petrole	-11.8495
▁premature	-11.8495
▁rihanna	-11.8495
▁shanghai	-11.8495
▁skyscraper	-11.8495
▁tabloid	-11.8495
▁turnaround	-11.8495
▁pompe	-11.8495
▁empath	-11.8495
▁fitzg	-11.8495
▁barcelo	-11.8495
▁decreas	-11.8495
▁fetus	-11.8495
▁texan	-11.8495
▁faint	-11.8495
▁biograph	-11.8496
▁glorious	-11.8497
▁segregation	-11.8497
▁1940	-11.8497
▁aerial	-11.8498
▁cornell	-11.8498
▁unilateral	-11.85
▁pluto	-11.8503
▁ammon	-11.8507
▁fuck	-11.851
politi	-11.8513
▁supervisor	-11.8514
▁booth	-11.8525
▁boundar	-11.8535
acp	-11.8536
▁tiff	-11.8539
ariana	-11.8544
▁permitt	-11.8548
▁lp	-11.8552
▁licens	-11.8555
▁virtue	-11.856
▁grappl	-11.8584
immel	-11.8593
naka	-11.8598
▁renown	-11.8636
▁1973	-11.8636
▁1991	-11.8636
▁arbitration	-11.8636
▁certificate	-11.8636
▁fraudulent	-11.8636
▁mammal	-11.8636
▁paradise	-11.8636
▁renegotiat	-11.8636
▁trevor	-11.8636
▁elusive	-11.8636
▁adolf	-11.8636
▁falter	-11.8636
▁civic	-11.8636
▁girard	-11.8636
▁rodgers	-11.8636
▁paranoi	-11.8636
▁serbia	-11.8636
▁renovat	-11.8636
ilateral	-11.8636
▁ascend	-11.8636
terdam	-11.8637
▁extinction	-11.864
▁stripped	-11.8641
▁breakdown	-11.8641
▁avert	-11.8643
▁vander	-11.8645
▁arson	-11.8646
▁bounc	-11.8649
▁confession	-11.8649
▁powerhouse	-11.8649
▁outlaw	-11.8658
▁750	-11.8659
fact	-11.8659
▁daylight	-11.8663
pool	-11.8665
▁rik	-11.8673
▁hubb	-11.8676
▁thriv	-11.8681
▁demon	-11.8681
▁drunken	-11.8692
▁accountable	-11.8695
60	-11.8716
▁fx	-11.8717
▁liabilit	-11.8719
▁programme	-11.8725
▁macha	-11.8734
season	-11.874
hore	-11.8745
▁gamble	-11.8748
▁identit	-11.8765
▁rut	-11.8767
▁disma	-11.8771
▁concentrat	-11.8774
▁uninsur	-11.8779
▁archaeologist	-11.8779
▁elegant	-11.8779
▁emphasis	-11.8779
▁intensify	-11.8779
▁sacrament	-11.8779
▁threshold	-11.8779
▁bigotry	-11.8779
▁fernand	-11.8779
▁abraham	-11.8779
▁tornado	-11.8779
▁lottery	-11.8779
▁minimal	-11.8779
▁vincent	-11.8779
▁fret	-11.878
▁snub	-11.8781
▁theatre	-11.8784
▁medium	-11.8784
▁leaf	-11.8786
▁meaningful	-11.8786
link	-11.8786
▁renewal	-11.8788
▁playbook	-11.879
▁banana	-11.879
tances	-11.8802
▁adoption	-11.8806
▁dug	-11.8808
▁krista	-11.8809
▁kris	-11.8809
▁joel	-11.8819
santo	-11.8825
▁extract	-11.8836
▁skirt	-11.8857
alais	-11.8858
iya	-11.8862
▁eventual	-11.8874
▁underscor	-11.8876
bird	-11.8877
▁rak	-11.8888
pont	-11.8889
cott	-11.8912
▁psychiatr	-11.892
▁fift	-11.8921
▁1972	-11.8924
▁1998	-11.8924
▁ambulance	-11.8924
▁consequential	-11.8924
▁lobster	-11.8924
▁resurrect	-11.8924
▁servant	-11.8924
▁distort	-11.8924
▁stabiliz	-11.8924
▁bieber	-11.8924
▁shrine	-11.8924
▁mormon	-11.8924
▁nonpartisan	-11.8924
▁quinn	-11.8924
▁gilbert	-11.8924
▁sculpture	-11.8924
▁flesh	-11.8924
▁poem	-11.8927
▁loath	-11.8929
▁molest	-11.8931
▁innovati	-11.8931
▁thankful	-11.8934
▁nevertrump	-11.8935
▁tilt	-11.8943
▁harvest	-11.8947
▁reshape	-11.8949
ujah	-11.8968
nbc	-11.8973
▁exile	-11.8982
▁castle	-11.8988
shirt	-11.9025
void	-11.9032
ounded	-11.9044
▁leverage	-11.906
▁deposit	-11.9066
▁prolif	-11.9066
▁schneider	-11.9071
▁1976	-11.9071
▁flourish	-11.9071
▁norwegian	-11.9071
▁unearth	-11.9071
▁vagina	-11.9071
▁transmitt	-11.9071
▁bronze	-11.9071
▁cluster	-11.9071
▁birm	-11.9071
▁alternate	-11.9071
▁strangl	-11.9071
▁charities	-11.9071
▁polite	-11.9071
▁twel	-11.9072
▁philippe	-11.9072
:50	-11.9073
▁harrow	-11.9073
▁ankle	-11.9073
▁heather	-11.9073
▁preference	-11.9074
▁lewd	-11.9074
▁graft	-11.9074
▁poop	-11.9074
▁garage	-11.9078
▁terra	-11.9081
▁neat	-11.9082
▁downplay	-11.9083
▁gaza	-11.9087
▁motivation	-11.909
reads	-11.9091
▁psycholog	-11.9092
▁shipment	-11.9095
▁hallway	-11.9095
▁gaze	-11.9095
▁disruption	-11.9106
▁eeri	-11.9107
abad	-11.9109
▁accessor	-11.9114
▁capitalism	-11.9117
▁grimm	-11.9135
▁veil	-11.9137
ulus	-11.9147
colm	-11.9148
ador	-11.9151
duction	-11.918
strong	-11.9181
▁gripp	-11.9202
▁subscribe	-11.9209
▁alexandr	-11.9213
▁fabric	-11.9213
▁1985	-11.922
▁boehner	-11.922
▁discourag	-11.922
▁eyebrow	-11.922
▁granddaughter	-11.922
▁jurisdiction	-11.922
▁mechanic	-11.922
▁monopol	-11.922
▁substantive	-11.922
▁unconventional	-11.922
▁vindicat	-11.922
▁handmaid	-11.922
▁intrigue	-11.922
▁outpost	-11.922
▁sabotag	-11.922
▁aggression	-11.922
▁tunisia	-11.922
▁unreal	-11.922
▁inflammat	-11.922
▁pussy	-11.922
▁sunset	-11.9221
▁pandor	-11.9221
▁kraft	-11.9221
▁curtain	-11.9221
▁enlist	-11.9223
▁aunt	-11.9224
ivision	-11.9226
▁organis	-11.9227
▁dogged	-11.923
▁harrie	-11.9231
▁carmaker	-11.9231
▁vacan	-11.9232
coll	-11.9241
▁modifi	-11.9243
▁dolan	-11.9245
▁misogyn	-11.9248
angelina	-11.9258
▁justified	-11.9271
▁ouster	-11.9273
▁furor	-11.9273
▁vary	-11.9273
▁rejection	-11.9276
▁crawl	-11.9291
▁chess	-11.9304
▁deserved	-11.9309
abee	-11.9314
▁bret	-11.9327
—	-11.9336
▁limbo	-11.9337
▁significan	-11.9361
▁legitima	-11.9368
settling	-11.9371
▁concussion	-11.9371
▁unlawful	-11.9371
▁unnecessar	-11.9371
▁rafael	-11.9371
▁unmask	-11.9371
▁whistle	-11.9371
▁khalid	-11.9371
▁reunion	-11.9372
▁chorus	-11.9372
▁whisk	-11.9372
pablo	-11.9372
▁gallon	-11.9372
▁rightwing	-11.9374
▁examination	-11.9376
▁paramou	-11.9377
▁tyson	-11.9377
▁objective	-11.938
▁tommy	-11.9381
▁darling	-11.9382
▁petra	-11.9386
bridge	-11.9386
▁experimental	-11.9395
▁occupier	-11.9396
▁sensor	-11.9408
annett	-11.9412
▁spate	-11.9422
▁ruthless	-11.9423
▁papa	-11.9425
flux	-11.9429
allah	-11.9439
▁decrie	-11.9463
romo	-11.9463
▁orchestrat	-11.9465
▁haye	-11.9472
▁explorer	-11.9476
lgbt	-11.9494
group	-11.9495
▁terribl	-11.9499
▁contracepti	-11.9519
▁obstruct	-11.952
▁pushe	-11.9521
▁carne	-11.9525
▁constitute	-11.9525
▁hussein	-11.9525
▁improbabl	-11.9525
▁laundr	-11.9525
▁nichola	-11.9525
▁physicist	-11.9525
▁tsunami	-11.9525
▁whisper	-11.9525
▁spiritual	-11.9525
▁kingpin	-11.9525
▁erratic	-11.9525
▁bentley	-11.9525
▁tyrann	-11.9525
▁generic	-11.9526
▁wrist	-11.9526
▁torrent	-11.9526
▁peddl	-11.9526
▁piano	-11.9527
▁collar	-11.9527
▁beverl	-11.9529
▁pillar	-11.953
▁fraction	-11.9531
▁kendal	-11.9532
▁stride	-11.9534
▁roam	-11.9535
▁acid	-11.9538
▁brake	-11.9539
▁tomb	-11.9546
▁erdo	-11.9549
ulation	-11.9553
▁blockade	-11.9567
▁torre	-11.9585
▁handel	-11.959
▁payout	-11.9594
ampton	-11.9613
▁villa	-11.9626
▁thrive	-11.9632
▁snag	-11.9641
▁populat	-11.9651
▁olive	-11.9657
▁forcibl	-11.9659
▁technological	-11.9677
enchant	-11.9677
▁capitalist	-11.9678
master	-11.9681
disproportionate	-11.9682
responsive	-11.9682
▁1964	-11.9682
▁graffiti	-11.9682
▁intelligent	-11.9682
▁mcgregor	-11.9682
▁pfizer	-11.9682
▁prostitute	-11.9682
▁rainbow	-11.9682
▁skyrocket	-11.9682
▁gallup	-11.9682
▁embroil	-11.9682
▁specter	-11.9682
▁lockheed	-11.9682
▁redefin	-11.9682
▁reddit	-11.9682
▁spider	-11.9682
▁gdp	-11.9682
▁exxonmobil	-11.9682
▁sniff	-11.9682
▁observator	-11.9682
▁smack	-11.9682
▁kurtz	-11.9683
▁sauce	-11.9684
▁organisation	-11.9684
▁rooftop	-11.9684
▁blink	-11.9684
▁mentor	-11.9688
▁unchang	-11.969
▁faithful	-11.9691
▁rescuer	-11.9695
▁maxim	-11.9695
▁mouse	-11.9698
essa	-11.9698
▁admiral	-11.9703
▁representation	-11.971
▁schu	-11.9712
▁claw	-11.9713
▁rollout	-11.9713
dega	-11.9718
▁lurk	-11.9724
▁pub	-11.974
▁perch	-11.9741
but	-11.975
▁levin	-11.9757
▁chery	-11.9765
▁psych	-11.9791
▁supervis	-11.9819
▁horrifi	-11.9836
▁neurosurge	-11.984
▁consortium	-11.984
▁discredit	-11.984
▁recycl	-11.984
▁resurgen	-11.984
▁telescope	-11.984
▁unthinkabl	-11.984
▁vigorous	-11.984
▁xenophobi	-11.984
prehensi	-11.984
▁assurance	-11.984
▁bluster	-11.984
▁bracket	-11.984
▁corridor	-11.984
▁fortunate	-11.984
▁glitter	-11.984
▁leather	-11.984
▁pediatric	-11.984
▁triangle	-11.984
▁intensive	-11.984
▁ratchet	-11.984
▁feast	-11.984
▁flexib	-11.984
▁slope	-11.984
▁domain	-11.984
▁scoop	-11.984
▁automobile	-11.9841
▁biological	-11.9841
▁feather	-11.9841
▁cattle	-11.9841
▁proposition	-11.9842
▁daddy	-11.9842
▁wimb	-11.9843
naiss	-11.9843
▁baltic	-11.9844
▁silk	-11.9844
▁candid	-11.9845
▁transformation	-11.985
▁deposition	-11.985
▁salon	-11.9853
matic	-11.9855
▁newsroom	-11.9857
torium	-11.9871
▁panick	-11.9873
▁stella	-11.9876
▁tast	-11.9878
▁backward	-11.9879
▁fascinat	-11.9881
▁gem	-11.9883
▁juli	-11.9899
blanc	-11.9922
▁glam	-11.9931
▁compensati	-11.9956
▁rope	-11.9966
▁suitor	-11.9984
▁marshal	-11.9991
▁exempt	-11.9992
match	-11.9994
boat	-11.9996
▁milan	-11.9998
▁1967	-12.0002
▁1988	-12.0002
▁jackpot	-12.0002
▁negligen	-12.0002
▁paradox	-12.0002
▁patience	-12.0002
▁satisfy	-12.0002
▁synthe	-12.0002
▁unbelievabl	-12.0002
▁unhapp	-12.0002
▁peanut	-12.0002
▁cultivat	-12.0002
▁ghana	-12.0002
▁sunshin	-12.0002
▁mattress	-12.0002
▁ikea	-12.0002
▁nepal	-12.0002
▁schiff	-12.0002
▁retriev	-12.0003
▁biologist	-12.0003
▁scholarship	-12.0003
▁recreat	-12.0003
▁bernard	-12.0004
▁glamor	-12.0005
activate	-12.0007
▁nabb	-12.0009
▁amass	-12.0011
rung	-12.0015
▁puzzl	-12.0016
▁fray	-12.0018
▁arabic	-12.0019
▁booze	-12.003
▁adm	-12.0037
▁jihadi	-12.0039
▁discours	-12.0057
▁collector	-12.0063
▁judi	-12.0076
rang	-12.0084
sandra	-12.0088
mta	-12.0093
▁judg	-12.0116
▁coke	-12.0121
▁ironic	-12.0138
▁pond	-12.0144
▁sigh	-12.0146
▁reassur	-12.0148
▁sylv	-12.0148
▁logic	-12.0155
marita	-12.0155
▁170	-12.0156
▁absorb	-12.0165
▁demagogue	-12.0165
▁disrespect	-12.0165
▁gravitational	-12.0165
▁obsolete	-12.0165
▁physics	-12.0165
▁reinvent	-12.0165
▁analytic	-12.0166
▁envelop	-12.0166
▁gloom	-12.0166
▁lumber	-12.0166
▁thief	-12.0166
▁destructive	-12.0166
▁unsubstantia	-12.0166
▁vivid	-12.0166
▁czech	-12.0166
▁guinea	-12.0166
▁rebellion	-12.0166
▁martial	-12.0166
▁morph	-12.0166
▁clive	-12.0166
▁converg	-12.0166
▁stefan	-12.0166
▁bisexual	-12.0166
▁expectanc	-12.0167
▁snowstorm	-12.0167
▁pedro	-12.0168
▁tongue	-12.0168
▁cheek	-12.0168
▁dictatorship	-12.0168
▁joking	-12.0168
▁1930	-12.0169
▁nuke	-12.0176
▁menace	-12.0179
▁logan	-12.0179
▁blacklist	-12.0181
▁hatha	-12.0184
▁phel	-12.0186
▁watt	-12.0187
▁criticis	-12.0195
▁paltr	-12.0199
zzi	-12.0212
▁mcke	-12.0216
skies	-12.0239
▁advertis	-12.024
▁corone	-12.0247
▁maur	-12.0294
upert	-12.0321
culture	-12.0329
▁differ	-12.033
▁slum	-12.0332
▁1962	-12.0332
▁accumulat	-12.0332
▁arraign	-12.0332
▁avalanche	-12.0332
▁confidant	-12.0332
▁disavow	-12.0332
▁dissident	-12.0332
▁ghostbuster	-12.0332
▁gruesome	-12.0332
▁intriguing	-12.0332
▁loophole	-12.0332
▁politiciz	-12.0332
▁undecided	-12.0332
▁vaccinat	-12.0332
▁wheelchair	-12.0332
▁laureate	-12.0332
▁powder	-12.0332
▁gauge	-12.0332
▁vendor	-12.0332
▁inhabit	-12.0332
▁preced	-12.0332
▁cambridge	-12.0332
▁hastert	-12.0333
▁dubious	-12.0333
▁framework	-12.0333
▁biology	-12.0333
▁brash	-12.0334
▁famine	-12.0336
▁habitat	-12.0337
▁embarrassment	-12.0337
▁colour	-12.0338
▁marble	-12.034
▁foil	-12.0341
believing	-12.0341
▁demot	-12.0343
▁scarce	-12.0347
▁educator	-12.0347
▁santos	-12.035
▁imitat	-12.0351
▁norwa	-12.0351
▁relay	-12.0352
eresa	-12.0352
diane	-12.0353
▁185	-12.0354
▁originat	-12.0356
▁scorch	-12.0364
▁protective	-12.0364
▁rewrite	-12.0381
▁gentr	-12.04
▁purse	-12.0416
egger	-12.0457
ergei	-12.0462
▁scrutiniz	-12.0464
gree	-12.0478
ndez	-12.049
▁enquirer	-12.0502
▁inadvertent	-12.0502
▁infiltrat	-12.0502
▁ominous	-12.0502
▁staunch	-12.0502
▁submarine	-12.0502
▁unsuccessful	-12.0502
▁straightforward	-12.0502
▁bennett	-12.0502
▁dynast	-12.0502
▁geographic	-12.0502
▁imperial	-12.0502
▁flirt	-12.0502
▁gridlock	-12.0502
rahami	-12.0502
▁pleasant	-12.0502
▁steak	-12.0502
▁cherry	-12.0502
▁blessing	-12.0503
▁financier	-12.0503
jah	-12.0503
▁grievance	-12.0505
▁aspiration	-12.0505
▁guitarist	-12.0505
▁yankee	-12.0506
▁sheikh	-12.0506
▁raft	-12.0507
▁lugg	-12.0508
▁drugmaker	-12.0509
▁theorist	-12.0509
safe	-12.0513
▁portrayal	-12.052
▁smithson	-12.0524
▁breakup	-12.0526
▁curti	-12.0528
▁vall	-12.0535
▁wrongful	-12.0535
▁lens	-12.0535
▁unifi	-12.0605
qualifi	-12.0605
insky	-12.0631
▁bloodie	-12.064
▁raj	-12.0648
▁downgrad	-12.0662
▁hypocrit	-12.0674
couver	-12.0674
▁affleck	-12.0674
▁altercation	-12.0674
▁barbecue	-12.0674
▁caracas	-12.0674
▁carnival	-12.0674
▁cuisine	-12.0674
▁frustrating	-12.0674
▁illuminat	-12.0674
▁kindergarten	-12.0674
▁leicester	-12.0674
▁procedural	-12.0674
▁superdelegate	-12.0674
▁abnormal	-12.0674
▁bikini	-12.0674
▁blistering	-12.0674
▁henderson	-12.0674
▁curtail	-12.0674
▁bureaucrac	-12.0674
▁clutch	-12.0674
▁conquer	-12.0674
▁outsourc	-12.0674
▁pathetic	-12.0674
▁tumor	-12.0675
dolph	-12.0675
▁waist	-12.0675
▁spook	-12.0676
▁touchdown	-12.0677
▁restart	-12.0679
▁bailey	-12.068
▁kidney	-12.0682
▁realistic	-12.0682
secure	-12.0682
motive	-12.0682
▁termination	-12.0683
▁refund	-12.0685
▁coordinator	-12.0687
▁translation	-12.0687
▁dull	-12.0688
▁katr	-12.0689
elena	-12.0691
▁drap	-12.0693
▁surgical	-12.0693
▁cried	-12.0693
▁plight	-12.0695
▁libel	-12.0701
▁jamme	-12.0703
▁makeover	-12.0703
▁informal	-12.0705
▁smok	-12.0708
arold	-12.0737
▁spoil	-12.0741
▁tortur	-12.075
▁clemenc	-12.0765
▁measur	-12.0774
▁brutalit	-12.0786
▁societ	-12.0798
▁obscur	-12.0815
nstable	-12.082
▁whin	-12.082
▁precis	-12.0822
▁certifi	-12.0836
▁communicat	-12.0837
▁registr	-12.0847
▁1975	-12.0849
▁2019	-12.0849
▁cumming	-12.0849
▁intruder	-12.0849
▁reaffirm	-12.0849
▁unwilling	-12.0849
▁refrain	-12.085
▁tebow	-12.085
▁abbott	-12.085
▁bahama	-12.085
▁pragmati	-12.085
▁mobiliz	-12.085
▁adorable	-12.085
▁biotech	-12.085
▁refresh	-12.085
▁abundan	-12.0851
▁interven	-12.0851
▁descent	-12.0851
▁cruelty	-12.0852
▁claire	-12.0852
▁stori	-12.0852
▁hamas	-12.0852
▁groom	-12.0856
▁sociolog	-12.0857
▁danish	-12.0858
▁electors	-12.086
▁yuan	-12.0861
▁moderat	-12.0862
▁potus	-12.0863
▁gabb	-12.0865
▁ellen	-12.0872
▁veep	-12.0877
▁liberat	-12.0885
▁glue	-12.0886
▁cue	-12.0893
▁lyf	-12.0903
▁shack	-12.091
▁gavi	-12.0937
▁ripple	-12.094
▁rude	-12.0969
▁jihad	-12.0974
▁guilt	-12.0977
▁germ	-12.0986
▁complicate	-12.0996
▁crap	-12.0998
▁fascist	-12.1004
▁recap	-12.1006
▁curat	-12.1021
▁brzezin	-12.1028
▁ubiquit	-12.1028
elecommunication	-12.1028
▁existential	-12.1028
▁fatigue	-12.1028
▁finicum	-12.1028
▁guerrilla	-12.1028
▁magistrate	-12.1028
▁morocco	-12.1028
▁protagonist	-12.1028
▁spectator	-12.1028
▁substitute	-12.1028
▁dentist	-12.1028
▁churn	-12.1028
▁orphan	-12.1028
▁bleach	-12.1028
▁guild	-12.1029
▁charisma	-12.1029
▁idiot	-12.1029
▁secular	-12.1029
▁quirk	-12.1029
▁ballroom	-12.103
▁metric	-12.103
▁zink	-12.1031
▁quell	-12.1032
▁prolong	-12.1033
▁straw	-12.1036
▁haitian	-12.1037
dorf	-12.1042
▁enrag	-12.1044
▁contradiction	-12.1049
▁condom	-12.1049
▁spun	-12.1053
▁lend	-12.1061
bull	-12.1097
pierre	-12.1122
▁medic	-12.1143
inster	-12.1144
▁comput	-12.1148
oenis	-12.1182
▁atmospher	-12.1183
▁practic	-12.1202
ndra	-12.1203
▁clint	-12.1203
▁satisfact	-12.121
▁1966	-12.121
▁avocado	-12.121
▁bicycle	-12.121
▁dictionar	-12.121
▁discontent	-12.121
▁identical	-12.121
▁immense	-12.121
▁impulse	-12.121
▁inaccurate	-12.121
▁infuriat	-12.121
▁kendrick	-12.121
▁maternity	-12.121
▁privatiz	-12.121
▁pyramid	-12.121
▁throng	-12.121
▁dwarf	-12.121
▁eradicat	-12.121
▁ibrahim	-12.121
▁pokemon	-12.121
▁kuwait	-12.121
▁gloss	-12.121
▁discharg	-12.121
▁penetrat	-12.121
▁jenkin	-12.121
▁miserable	-12.121
▁shuffl	-12.121
▁thieve	-12.121
▁disguis	-12.121
fayette	-12.121
▁boutique	-12.121
▁disparit	-12.121
▁magnate	-12.121
▁ultra	-12.121
▁flush	-12.121
▁qualification	-12.121
▁transcend	-12.121
▁architecture	-12.1211
▁silva	-12.1211
▁olympian	-12.1212
▁magnet	-12.1212
▁characteristic	-12.1213
▁potent	-12.1216
force	-12.1218
▁fabricat	-12.1218
▁pork	-12.1219
▁exemption	-12.1221
▁lucy	-12.1221
▁arling	-12.1223
sexual	-12.1238
control	-12.1238
represent	-12.1238
▁cycl	-12.1242
▁pharmac	-12.1249
▁abdel	-12.1253
▁cache	-12.1264
lulu	-12.1271
▁reignit	-12.1279
▁packag	-12.1294
emper	-12.1298
setting	-12.13
▁rile	-12.134
ngent	-12.137
▁helen	-12.1393
:00	-12.1395
▁behemoth	-12.1395
▁disregard	-12.1395
▁fiasco	-12.1395
▁fingerprint	-12.1395
▁monologue	-12.1395
▁nephew	-12.1395
▁obituar	-12.1395
▁pesticide	-12.1395
▁plausibl	-12.1395
▁treason	-12.1395
▁unofficial	-12.1395
▁advertisement	-12.1395
▁biopic	-12.1395
▁voucher	-12.1395
▁cannabi	-12.1395
▁irving	-12.1395
▁linebacker	-12.1395
▁dazzl	-12.1395
▁abbas	-12.1395
▁shepard	-12.1395
▁jerk	-12.1395
▁creek	-12.1396
▁loyalists	-12.1396
▁adrian	-12.1397
▁sperm	-12.1399
▁williamsburg	-12.1399
▁cyclist	-12.14
▁brokerage	-12.1401
▁mika	-12.1401
▁postseason	-12.1402
▁iceberg	-12.1403
▁candle	-12.1405
▁00	-12.1406
▁reyes	-12.1406
▁stash	-12.1406
▁deaf	-12.1416
evaluat	-12.1422
complete	-12.143
chief	-12.1433
▁hinge	-12.1438
▁lent	-12.1446
▁ventur	-12.1467
▁archiv	-12.1473
▁volcano	-12.1498
▁spik	-12.1539
▁doubl	-12.1548
▁rubin	-12.1566
▁secre	-12.1581
▁sympathi	-12.1584
▁hiroshi	-12.1584
▁islamophobi	-12.1584
▁mushroom	-12.1584
▁narcissis	-12.1584
▁pummel	-12.1584
▁unlimited	-12.1584
▁gibson	-12.1584
▁orientation	-12.1584
▁cancellation	-12.1584
▁crunch	-12.1584
▁tirade	-12.1584
▁deferr	-12.1584
▁uganda	-12.1584
▁depriv	-12.1584
▁indulg	-12.1584
▁inherent	-12.1584
▁animation	-12.1584
▁dispens	-12.1584
▁impersonat	-12.1584
▁malicious	-12.1584
▁nause	-12.1585
▁saturn	-12.1585
▁stint	-12.1585
hannah	-12.1585
▁mutilat	-12.1585
▁persian	-12.1585
▁duncan	-12.1585
▁mimic	-12.1586
▁hipster	-12.1586
▁dividend	-12.1587
▁rehab	-12.1587
▁fresn	-12.1587
▁resonat	-12.1588
▁acute	-12.1588
▁riff	-12.1589
▁hulu	-12.1589
▁kurt	-12.1589
▁fluid	-12.159
▁contraceptive	-12.1592
▁systematic	-12.1592
spite	-12.1593
▁equipp	-12.1602
▁impli	-12.1615
grown	-12.1626
▁corona	-12.1653
▁mauric	-12.1654
▁orchestra	-12.1658
kovic	-12.1671
▁subsidiar	-12.1742
▁thor	-12.1742
▁recurr	-12.1745
▁normaliz	-12.175
ontari	-12.1759
▁patern	-12.1769
▁understandabl	-12.1769
▁1969	-12.1776
▁1987	-12.1776
▁adequate	-12.1776
▁doctrine	-12.1776
▁festivit	-12.1776
▁handshake	-12.1776
▁narcotic	-12.1776
▁rhythm	-12.1776
▁rockefeller	-12.1776
▁schwarze	-12.1776
▁supermodel	-12.1776
▁umbrella	-12.1776
▁embodi	-12.1776
▁madonna	-12.1776
▁medieval	-12.1776
▁dissolv	-12.1776
▁dwindl	-12.1776
▁parody	-12.1776
▁spawn	-12.1776
▁monroe	-12.1776
floyd	-12.1776
▁statute	-12.1776
▁malaria	-12.1776
▁vince	-12.1776
▁therapist	-12.1776
▁lucas	-12.1777
▁ucla	-12.1777
▁friedman	-12.1777
ometer	-12.1777
▁fanatic	-12.1777
▁colonial	-12.1778
▁repay	-12.1778
▁textbook	-12.1779
▁cogniti	-12.1779
▁arpa	-12.178
▁westworld	-12.1781
▁proliferat	-12.1782
▁gush	-12.1782
▁brewing	-12.1783
▁spice	-12.1784
▁panda	-12.1784
ocracy	-12.1784
▁distinction	-12.1786
▁hoop	-12.1787
▁separatist	-12.1787
▁jude	-12.1788
▁punt	-12.179
▁pierce	-12.179
▁contradictor	-12.1796
racial	-12.1826
▁neu	-12.1835
▁waiv	-12.184
▁venu	-12.1843
▁qb	-12.1867
▁brav	-12.1881
▁productiv	-12.1884
▁unsee	-12.193
▁ensur	-12.1932
▁paus	-12.1943
▁understat	-12.1957
▁duran	-12.1959
▁gymnast	-12.1969
▁vacat	-12.197
▁fec	-12.197
▁narrat	-12.1972
▁1983	-12.1972
▁hallmark	-12.1972
▁inspection	-12.1972
▁outburst	-12.1972
▁provocation	-12.1972
▁stonewall	-12.1972
▁embolden	-12.1972
▁midterm	-12.1972
▁resettlement	-12.1972
▁suitcase	-12.1972
▁bratton	-12.1972
▁groundbreak	-12.1972
▁homage	-12.1972
▁impoverish	-12.1972
▁messenger	-12.1972
▁rebuff	-12.1972
▁sxsw	-12.1972
▁unload	-12.1972
▁upstart	-12.1972
▁simmer	-12.1972
▁burrito	-12.1972
▁override	-12.1973
▁crutch	-12.1973
▁coincidence	-12.1974
▁choking	-12.1975
▁midwestern	-12.1975
▁integration	-12.1977
▁heckl	-12.1982
▁blackmail	-12.1982
▁raul	-12.1984
▁expir	-12.1989
clara	-12.1992
abortion	-12.2031
proof	-12.2031
parent	-12.2034
roche	-12.2046
▁enthusiast	-12.2054
▁hydroge	-12.208
▁residenc	-12.2116
▁bloodsh	-12.213
▁extinct	-12.2166
▁integrat	-12.2167
▁synonym	-12.2172
▁autumn	-12.2172
▁culinar	-12.2172
▁efficienc	-12.2172
▁geopolitical	-12.2172
▁homophobi	-12.2172
▁jacque	-12.2172
▁mcmullin	-12.2172
▁peculiar	-12.2172
▁thirst	-12.2172
▁unicorn	-12.2172
▁elbow	-12.2172
▁daunting	-12.2172
▁shallow	-12.2172
▁profiling	-12.2172
▁cristian	-12.2172
▁articulat	-12.2172
▁celtics	-12.2172
▁oracle	-12.2172
▁butterfl	-12.2172
ergio	-12.2172
▁snoop	-12.2172
▁collud	-12.2172
▁seminar	-12.2173
▁bundle	-12.2173
▁agitat	-12.2173
▁masterpiece	-12.2173
▁copyright	-12.2174
▁skinny	-12.2174
▁approving	-12.2174
▁imam	-12.2174
▁auster	-12.2174
▁perilous	-12.2175
▁blake	-12.2175
▁dorse	-12.2175
▁gerald	-12.2175
▁misinformation	-12.2176
▁bacon	-12.2178
▁lamont	-12.2178
▁shakeup	-12.2179
▁clamp	-12.218
▁terrific	-12.2181
▁zack	-12.2183
▁autist	-12.2185
▁abram	-12.2189
▁subdu	-12.2189
▁burge	-12.2192
▁luxe	-12.2192
▁distributor	-12.2197
▁jeopardiz	-12.2204
shift	-12.2241
iggy	-12.2255
rush	-12.2258
▁osam	-12.2293
▁binge	-12.2313
▁resilienc	-12.2331
▁misogynist	-12.2338
▁zimmer	-12.2376
▁punctuat	-12.2376
▁1971	-12.2376
▁1977	-12.2376
▁1981	-12.2376
▁comptroller	-12.2376
▁cosmetic	-12.2376
▁dessert	-12.2376
▁destabiliz	-12.2376
▁foreclosure	-12.2376
▁frederick	-12.2376
▁inadequate	-12.2376
▁incendiar	-12.2376
▁moroccan	-12.2376
▁narendra	-12.2376
▁obscen	-12.2376
▁seinfeld	-12.2376
▁soundtrack	-12.2376
▁stylish	-12.2376
▁syndicat	-12.2376
▁unspecifi	-12.2376
▁upheaval	-12.2376
▁cereal	-12.2376
▁disdain	-12.2376
▁protein	-12.2376
▁resurfac	-12.2376
▁starvation	-12.2376
▁saddam	-12.2376
▁elaine	-12.2376
▁marquee	-12.2376
▁mound	-12.2376
▁revolv	-12.2376
▁vomit	-12.2376
▁somber	-12.2376
▁breathtaking	-12.2377
▁clarifie	-12.2377
▁bolivia	-12.2378
▁angri	-12.2378
▁softbank	-12.2378
▁motel	-12.2379
▁tusk	-12.2379
▁interrogation	-12.2379
▁distinctive	-12.2379
▁eviction	-12.2379
▁singular	-12.238
▁scold	-12.238
▁iteration	-12.238
▁fixture	-12.2381
▁slack	-12.2382
▁radiati	-12.2383
▁concentration	-12.2383
▁perpetrator	-12.2384
ologne	-12.2384
ttawa	-12.2434
▁disarm	-12.244
school	-12.2451
horn	-12.2493
hawn	-12.2513
glasse	-12.2525
quino	-12.2527
▁influenc	-12.2553
dental	-12.2578
▁swip	-12.2583
▁favour	-12.2584
percussion	-12.2585
▁1945	-12.2585
▁appalachia	-12.2585
▁brendan	-12.2585
▁crossroads	-12.2585
▁disgruntle	-12.2585
▁mechanism	-12.2585
▁sluggish	-12.2585
▁dominican	-12.2585
▁gerrymander	-12.2585
▁taboo	-12.2585
▁cunning	-12.2585
▁reprint	-12.2585
▁eisenh	-12.2585
▁mvp	-12.2585
ipsos	-12.2585
▁cozy	-12.2585
▁donnell	-12.2585
▁outfielder	-12.2585
▁lush	-12.2586
▁analog	-12.2586
▁calvin	-12.2586
▁geek	-12.2587
▁misstep	-12.2587
▁divert	-12.2588
▁handbag	-12.2588
▁terrace	-12.2588
▁savv	-12.2589
▁erod	-12.2593
▁timber	-12.2594
niels	-12.2608
▁mugg	-12.2624
▁vienn	-12.2638
▁purport	-12.2639
▁blair	-12.2655
claim	-12.266
▁competenc	-12.2685
▁abid	-12.2693
▁considerabl	-12.2729
▁appreciati	-12.273
▁awake	-12.2774
▁abort	-12.2794
▁determin	-12.2796
▁energiz	-12.2797
▁condolences	-12.2797
▁external	-12.2797
▁fabulous	-12.2797
▁firebrand	-12.2797
▁fracking	-12.2797
▁glitch	-12.2797
▁illicit	-12.2797
▁magnificent	-12.2797
▁mcdonnell	-12.2797
▁merchandise	-12.2797
▁perpetual	-12.2797
▁rehabilitat	-12.2797
▁sophomore	-12.2797
▁technician	-12.2797
▁vibrant	-12.2797
▁alfred	-12.2797
▁disgraceful	-12.2797
▁rhino	-12.2797
▁intoxicat	-12.2797
▁underdog	-12.2797
▁cuddl	-12.2797
▁solemn	-12.2797
▁unaware	-12.2798
▁abbey	-12.2798
▁mcaul	-12.2798
▁behave	-12.2798
▁hungarian	-12.2799
▁safeguard	-12.2799
▁cyclone	-12.2801
▁foolish	-12.2802
grom	-12.2803
▁psychiatrist	-12.2803
▁shameful	-12.2804
angelo	-12.2806
rgency	-12.2806
aternal	-12.2817
▁essen	-12.2819
brett	-12.282
assi	-12.2845
▁rigg	-12.2857
▁cypr	-12.2864
▁facilitate	-12.2879
asper	-12.2883
▁handwrit	-12.2886
▁cowboy	-12.2891
quarter	-12.2891
▁tangl	-12.2909
▁dangl	-12.2921
shackle	-12.2949
acceptable	-12.2966
▁disciplinar	-12.2977
▁philanthrop	-12.3012
▁prosper	-12.3012
▁1963	-12.3015
▁accomplice	-12.3015
▁administer	-12.3015
▁constituenc	-12.3015
▁footprint	-12.3015
▁hemisphere	-12.3015
▁involuntar	-12.3015
▁supremacy	-12.3015
▁blatant	-12.3015
▁eternal	-12.3015
▁redesign	-12.3015
▁salvage	-12.3015
▁barricade	-12.3015
▁curiosit	-12.3015
▁jogger	-12.3015
▁ounce	-12.3015
▁turtle	-12.3015
▁logistic	-12.3015
▁scrub	-12.3015
▁cosmic	-12.3015
▁convey	-12.3015
▁mediocr	-12.3015
▁stylist	-12.3015
▁cramp	-12.3015
▁unseal	-12.3015
▁hollow	-12.3015
▁autocrat	-12.3015
▁cecil	-12.3015
▁gwen	-12.3015
▁gravity	-12.3016
▁annex	-12.3016
▁uneven	-12.3016
▁balcon	-12.3017
▁philanthropist	-12.3018
▁catherine	-12.3018
▁angst	-12.302
▁skat	-12.3021
▁totten	-12.3024
▁salmon	-12.3029
▁kerr	-12.3046
▁sipp	-12.305
nomic	-12.3106
environmentalist	-12.3111
answer	-12.3119
felt	-12.3119
clinton	-12.312
smith	-12.3129
▁hungar	-12.3157
▁evaluate	-12.3205
▁profession	-12.3212
enefits	-12.3235
▁excel	-12.3236
▁apocalyptic	-12.3237
▁blossom	-12.3237
▁buddhist	-12.3237
▁dicaprio	-12.3237
▁egregious	-12.3237
▁fountain	-12.3237
▁giraffe	-12.3237
▁guatemala	-12.3237
▁identification	-12.3237
▁kazakh	-12.3237
▁nugget	-12.3237
▁plagiaris	-12.3237
▁proponent	-12.3237
▁roadblock	-12.3237
▁seafood	-12.3237
▁underestimat	-12.3237
▁vacuum	-12.3237
▁voyage	-12.3237
▁wizard	-12.3237
▁zimbabwe	-12.3237
▁bombardment	-12.3237
▁glacier	-12.3237
▁mafia	-12.3237
▁genome	-12.3237
▁mecca	-12.3237
▁shelby	-12.3237
▁bunker	-12.3238
▁ferry	-12.3238
▁jolie	-12.3239
▁astound	-12.3239
▁atheist	-12.3239
▁hammond	-12.3239
▁macbook	-12.3239
▁sermon	-12.324
▁fantasi	-12.324
▁falsehood	-12.3241
▁confound	-12.3241
▁nairo	-12.3243
▁hunk	-12.3243
▁curator	-12.3252
spoon	-12.3271
ascent	-12.3276
▁foresee	-12.3311
▁disturb	-12.3342
laughter	-12.335
roots	-12.3351
▁rahm	-12.3352
chilling	-12.3354
govern	-12.3359
efne	-12.3461
▁advent	-12.3463
▁expedi	-12.3464
▁gwyne	-12.3464
▁1974	-12.3464
▁arrogan	-12.3464
▁eponymous	-12.3464
▁godfather	-12.3464
▁ostensibl	-12.3464
▁provocateur	-12.3464
▁skeleton	-12.3464
▁spontaneous	-12.3464
▁subcommittee	-12.3464
▁wwii	-12.3464
▁granite	-12.3464
▁primate	-12.3464
▁lambast	-12.3464
▁ordeal	-12.3464
▁pixel	-12.3464
▁symphon	-12.3464
▁entitlement	-12.3464
▁wreak	-12.3464
▁devolv	-12.3464
▁pianist	-12.3464
▁fahren	-12.3464
▁yacht	-12.3464
▁depot	-12.3464
▁vertical	-12.3464
▁kohl	-12.3464
▁jeh	-12.3465
▁federer	-12.3465
▁elvis	-12.3465
▁videotap	-12.3465
▁hangover	-12.3466
▁slick	-12.3467
▁satirical	-12.347
▁gurle	-12.3471
▁infinit	-12.3474
▁cooperat	-12.3474
▁jorge	-12.3475
wheeler	-12.352
calise	-12.3537
▁subsidiz	-12.3591
▁emergenc	-12.3651
▁provinc	-12.3652
▁hilt	-12.3656
▁reshap	-12.3656
▁holli	-12.3679
▁sculpt	-12.3696
▁artillery	-12.3697
▁hypothetical	-12.3697
▁maverick	-12.3697
▁shepherd	-12.3697
▁superintende	-12.3697
▁decapitat	-12.3697
▁houthi	-12.3697
▁plagiariz	-12.3697
▁swoop	-12.3697
▁grenade	-12.3697
▁luxuri	-12.3697
▁swimsuit	-12.3697
▁endowment	-12.3697
▁tepid	-12.3697
▁microscop	-12.3697
▁imperil	-12.3697
▁irritat	-12.3697
▁chevro	-12.3697
▁deflate	-12.3697
▁despise	-12.3697
▁muddy	-12.3697
▁darrell	-12.3697
▁favourite	-12.3697
▁sleek	-12.3697
▁compris	-12.3697
▁expedition	-12.3697
▁lenno	-12.3698
▁pilgrimage	-12.3698
▁newcomer	-12.3698
▁fuku	-12.3698
▁claudi	-12.3699
▁disturbance	-12.3699
▁sickening	-12.37
▁versa	-12.3702
▁crave	-12.3704
▁sift	-12.3715
atherine	-12.372
scribe	-12.3722
▁cremat	-12.3723
tracted	-12.3731
bourg	-12.3762
dellin	-12.3782
▁shann	-12.3791
▁unsur	-12.3809
consistent	-12.3833
mobile	-12.3833
publica	-12.387
hound	-12.39
▁devote	-12.3903
tucker	-12.3908
▁predictabl	-12.3922
▁innocen	-12.3928
▁abolition	-12.3935
▁artifact	-12.3935
▁ayatollah	-12.3935
▁endeavor	-12.3935
▁gospel	-12.3935
▁honeymoon	-12.3935
▁insufficient	-12.3935
▁montreal	-12.3935
▁pancake	-12.3935
▁paralympic	-12.3935
▁remembrance	-12.3935
▁resounding	-12.3935
▁undergraduate	-12.3935
▁wardrobe	-12.3935
▁yazidi	-12.3935
▁blockchain	-12.3935
▁deplet	-12.3935
▁senegal	-12.3935
▁womb	-12.3935
▁mortar	-12.3935
▁hormone	-12.3935
▁overthrow	-12.3935
▁foxconn	-12.3935
▁stimulat	-12.3935
▁blumen	-12.3935
▁hinder	-12.3935
▁oyster	-12.3935
▁rejoic	-12.3935
▁evaluation	-12.3935
▁culprit	-12.3935
▁lacklust	-12.3935
▁alumin	-12.3935
▁kesha	-12.3935
▁fyre	-12.3936
▁repudiat	-12.3936
▁chalk	-12.3936
▁perennial	-12.3936
▁harambe	-12.3936
▁wholesale	-12.3937
▁shady	-12.3937
▁stalin	-12.3937
▁bombast	-12.3937
▁adelson	-12.3937
▁brisk	-12.3938
▁nudg	-12.394
▁coerc	-12.3944
▁salarie	-12.3961
▁diverge	-12.3977
turf	-12.4001
▁cosmo	-12.4022
▁reinstat	-12.4029
uala	-12.4052
wealth	-12.4083
market	-12.4084
interest	-12.4087
▁anatom	-12.4093
▁democrac	-12.4128
▁sensibl	-12.4129
nitive	-12.4174
descript	-12.4179
▁1982	-12.4179
▁belichick	-12.4179
▁cafeteria	-12.4179
▁deceptive	-12.4179
▁emolument	-12.4179
▁hondura	-12.4179
▁juggernaut	-12.4179
▁mammoth	-12.4179
▁miscarriage	-12.4179
▁nichols	-12.4179
▁oxygen	-12.4179
▁prototype	-12.4179
▁skirmish	-12.4179
▁abstain	-12.4179
▁delusion	-12.4179
▁onlooker	-12.4179
▁satisfie	-12.4179
▁awoke	-12.4179
▁martyr	-12.4179
▁hobby	-12.4179
▁sleeve	-12.4179
▁ernest	-12.4179
▁console	-12.4179
▁telegraph	-12.4179
▁ancestr	-12.4179
▁geological	-12.4179
▁convenient	-12.4179
slaught	-12.418
▁factual	-12.418
▁blunder	-12.418
▁scoff	-12.418
▁adorn	-12.4182
▁prominen	-12.4184
▁stink	-12.4184
▁relish	-12.4188
ollah	-12.4188
▁ferri	-12.4205
grade	-12.4206
▁militari	-12.4281
rimming	-12.4289
▁holland	-12.4306
▁conclud	-12.4308
peace	-12.434
▁herbali	-12.4349
▁verifi	-12.4354
▁maggi	-12.4384
neath	-12.4386
▁disappoint	-12.44
▁disbelie	-12.4415
ennial	-12.4428
▁auschwitz	-12.4429
▁deflect	-12.4429
▁defraud	-12.4429
▁demoraliz	-12.4429
▁exacerbat	-12.4429
▁futuristic	-12.4429
▁hybrid	-12.4429
▁implicit	-12.4429
▁intimidate	-12.4429
▁mascot	-12.4429
▁merchant	-12.4429
▁mohammad	-12.4429
▁python	-12.4429
▁steinbrenner	-12.4429
▁synagogue	-12.4429
▁thirteen	-12.4429
▁ultimatum	-12.4429
▁wannacry	-12.4429
▁embargo	-12.4429
▁immortal	-12.4429
▁playwright	-12.4429
▁savior	-12.4429
▁dissatisf	-12.4429
▁entrench	-12.4429
▁oblivio	-12.4429
▁airbase	-12.4429
▁overreach	-12.4429
▁stagnat	-12.4429
▁waffle	-12.4429
▁fifteen	-12.4429
▁freelance	-12.4429
▁unwitting	-12.4429
▁quash	-12.4429
▁adjacen	-12.4429
▁testament	-12.4429
▁kalama	-12.4429
▁cherish	-12.4429
▁wrangl	-12.4429
▁forensic	-12.4429
▁lounge	-12.443
▁tidal	-12.443
▁faux	-12.443
▁metallic	-12.4431
▁culp	-12.4431
▁ailment	-12.4431
cisco	-12.4431
▁workshop	-12.4432
▁santor	-12.4441
▁oscarsso	-12.4443
▁unprov	-12.4457
lench	-12.4489
▁resettl	-12.4503
blaze	-12.4602
dollar	-12.4603
understood	-12.4603
▁visibl	-12.4659
▁abde	-12.4665
▁abilit	-12.4672
gony	-12.4675
▁millenni	-12.4678
▁oblig	-12.4683
ecb	-12.4685
▁cigar	-12.4685
▁afflict	-12.4685
▁demolish	-12.4685
▁recognis	-12.4685
▁shipwreck	-12.4685
▁1959	-12.4685
▁amusement	-12.4685
▁brigade	-12.4685
▁discord	-12.4685
▁eccentric	-12.4685
▁jockey	-12.4685
▁robocall	-12.4685
▁tantrum	-12.4685
▁bueno	-12.4685
▁galvaniz	-12.4685
▁irregular	-12.4685
▁mistreat	-12.4685
▁rambling	-12.4685
▁uncommon	-12.4685
▁feminin	-12.4685
▁pluck	-12.4685
▁shunn	-12.4685
▁swelter	-12.4685
▁anguish	-12.4685
▁stephanopoulo	-12.4685
▁cosmopolitan	-12.4685
▁prophet	-12.4685
▁meditation	-12.4685
▁fetch	-12.4685
▁lundq	-12.4685
▁waitress	-12.4685
▁gleam	-12.4685
▁stifl	-12.4688
▁trent	-12.4691
▁derange	-12.4702
weaver	-12.4706
▁complicit	-12.473
▁retract	-12.4778
▁persuad	-12.4796
forgett	-12.4834
nope	-12.487
familiar	-12.4873
muslim	-12.4873
wife	-12.4879
▁dealmak	-12.4897
▁implicat	-12.4933
▁expansi	-12.4942
ienne	-12.4943
misunderstanding	-12.4948
▁aesthetic	-12.4948
▁affidavit	-12.4948
▁bewilder	-12.4948
▁captivat	-12.4948
▁equation	-12.4948
▁heartbroken	-12.4948
▁irrelevant	-12.4948
▁neanderthal	-12.4948
▁patricia	-12.4948
▁shrunk	-12.4948
▁stalemate	-12.4948
▁straphanger	-12.4948
▁suspense	-12.4948
▁sweetheart	-12.4948
▁fizzl	-12.4948
▁mainstay	-12.4948
▁outperform	-12.4948
?	-14.1033
)	-14.1034
(	-14.1035
”	-14.1036
